{"version":"1.0","truncation":{"max_length":20,"strategy":"LongestFirst","stride":0},"padding":{"strategy":{"Fixed":20},"direction":"Right","pad_to_multiple_of":null,"pad_id":0,"pad_type_id":0,"pad_token":"[PAD]"},"added_tokens":[{"id":0,"special":true,"content":"[UNK]","single_word":false,"lstrip":false,"rstrip":false,"normalized":false},{"id":1,"special":true,"content":"[CLS]","single_word":false,"lstrip":false,"rstrip":false,"normalized":false},{"id":2,"special":true,"content":"[SEP]","single_word":false,"lstrip":false,"rstrip":false,"normalized":false},{"id":3,"special":true,"content":"[PAD]","single_word":false,"lstrip":false,"rstrip":false,"normalized":false},{"id":4,"special":true,"content":"[MASK]","single_word":false,"lstrip":false,"rstrip":false,"normalized":false}],"normalizer":{"type":"Sequence","normalizers":[{"type":"NFD"},{"type":"Lowercase"},{"type":"StripAccents"}]},"pre_tokenizer":{"type":"Whitespace"},"post_processor":{"type":"TemplateProcessing","single":[{"SpecialToken":{"id":"[CLS]","type_id":0}},{"Sequence":{"id":"A","type_id":0}},{"SpecialToken":{"id":"[SEP]","type_id":0}}],"pair":[{"SpecialToken":{"id":"[CLS]","type_id":0}},{"Sequence":{"id":"A","type_id":0}},{"SpecialToken":{"id":"[SEP]","type_id":0}},{"Sequence":{"id":"B","type_id":1}},{"SpecialToken":{"id":"[SEP]","type_id":1}}],"special_tokens":{"[CLS]":{"id":"[CLS]","ids":[1],"tokens":["[CLS]"]},"[SEP]":{"id":"[SEP]","ids":[2],"tokens":["[SEP]"]}}},"decoder":{"type":"WordPiece","prefix":"##","cleanup":true},"model":{"type":"WordPiece","unk_token":"[UNK]","continuing_subword_prefix":"##","max_input_chars_per_word":100,"vocab":{"[UNK]":0,"[CLS]":1,"[SEP]":2,"[PAD]":3,"[MASK]":4,"!":5,"\"":6,"#":7,"$":8,"%":9,"&":10,"'":11,"(":12,")":13,"*":14,"+":15,",":16,"-":17,".":18,"/":19,"0":20,"1":21,"2":22,"3":23,"4":24,"5":25,"6":26,"7":27,"8":28,"9":29,":":30,";":31,"<":32,"=":33,">":34,"?":35,"@":36,"[":37,"\\":38,"]":39,"_":40,"a":41,"b":42,"c":43,"d":44,"e":45,"f":46,"g":47,"h":48,"i":49,"j":50,"k":51,"l":52,"m":53,"n":54,"o":55,"p":56,"q":57,"r":58,"s":59,"t":60,"u":61,"v":62,"w":63,"x":64,"y":65,"z":66,"{":67,"|":68,"}":69,"~":70,"##9":71,"##7":72,"##6":73,"##0":74,"##4":75,"##3":76,"##2":77,"##5":78,"##8":79,"##f":80,"##b":81,"##e":82,"##d":83,"##1":84,"##c":85,"##a":86,"##r":87,"##i":88,"##o":89,"##t":90,"##l":91,"##g":92,"##u":93,"##p":94,"##s":95,"##k":96,"##_":97,"##x":98,"##n":99,"##z":100,"##q":101,"##m":102,"##v":103,"##h":104,"##w":105,"##y":106,"##j":107,"##}":108,"##,":109,"##{":110,"##\"":111,"##]":112,"##*":113,"##/":114,"##.":115,"##)":116,"##+":117,"##=":118,"##:":119,"##-":120,"##<":121,"##>":122,"##&":123,"##!":124,"##(":125,"##?":126,"##[":127,"##ta":128,"##er":129,"##on":130,"\":":131,"\":\"":132,"##in":133,"##ur":134,"##or":135,"##es":136,"##tat":137,"##{\"":138,"##us":139,"con":140,"stat":141,"status":142,"##,\"":143,"conta":144,"##iner":145,"container":146,"\",\"":147,"##our":148,"##},":149,"##},{\"":150,"##ck":151,"hour":152,"\"},{\"":153,"##te":154,"##ea":155,"up":156,"hours":157,"##is":158,"##th":159,"10":160,"##me":161,"##ic":162,"##ion":163,"##en":164,"##ed":165,"ap":166,"##ess":167,"##ch":168,"##21":169,"##erv":170,"20":171,"##che":172,"##ro":173,"##ms":174,"2021":175,"##tem":176,"##ol":177,"or":178,"##ep":179,"ha":180,"##cc":181,"##at":182,"##ds":183,"##_t":184,"##ag":185,"##eal":186,"##ut":187,"##ealth":188,"##tack":189,"##tack_":190,"##ing":191,"##ec":192,"health":193,"ar":194,"##temis":195,"##mq":196,"artemis":197,"##ha":198,"##essag":199,"15":200,"##et":201,"02":202,"05":203,"org":204,"in":205,"##ore":206,"##00":207,"dur":208,"##xt":209,"##ache":210,"app":211,"##om":212,"core":213,"##ame":214,"\\-":215,"##sion":216,"##fo":217,"##out":218,"##ti":219,"pro":220,"serv":221,"ja":222,"##ke":223,"apache":224,"info":225,"##oa":226,"##pe":227,"##esb":228,"##_txt":229,"##il":230,"mms":231,"##ock":232,"##de":233,"##24":234,"##serv":235,"##tor":236,"##ice":237,":\"":238,"##oc":239,"##stack_":240,"##ror":241,"##88":242,"##og":243,"##oaesb":244,"ti":245,"##ve":246,"mock":247,"##rea":248,"server":249,"##ission":250,"##tal":251,"##ation":252,"han":253,"ac":254,"time":255,"soaesb":256,"ex":257,"01":258,"acc":259,"er":260,"error":261,"##service":262,"accep":263,"sec":264,"on":265,"##tive":266,"##ype":267,"active":268,"##va":269,"##urr":270,"timeout":271,"##rd":272,"wi":273,"##li":274,"with":275,"##toc":276,"\":{\"":277,"##240":278,"amq":279,"activemq":280,"amq2":281,"##essage":282,"healthy":283,"secon":284,"seconds":285,"has":286,"##dsha":287,"handsha":288,"handshake":289,"protoc":290,"##24088":291,"protocol":292,"occ":293,"during":294,"acceptor":295,"##urred":296,"amq224088":297,"occurred":298,"##da":299,"##olr":300,"##check":301,"##le":302,"message":303,"##ent":304,"java":305,"healthcheck":306,"##ted":307,"##atal":308,"##atalog":309,"solr":310,"##iz":311,"##pl":312,"type":313,"re":314,"##_to":315,"at":316,"##go":317,"106":318,"healthcheckservice":319,"mission":320,"##--":321,"fa":322,"exi":323,"##ken":324,"##_txt_to":325,"##ized":326,"##kenized":327,"##_txt_tokenized":328,"\"+":329,"##etr":330,"##one":331,"ago":332,"exited":333,"22":334,"id":335,"##ide":336,"##e_":337,"##estack_":338,"##essagestack_":339,"duration":340,"name":341,"##ter":342,"catalog":343,"##ics":344,"##se":345,"##cess":346,"none":347,"##end":348,"##tp":349,"rom":350,"##lis":351,"31":352,"fail":353,"##son":354,"un":355,"##an":356,"failur":357,"failure_":358,"##_ms":359,"##reason":360,"duration_ms":361,"failure_reason":362,"came":363,"camel":364,",\"":365,"##eb":366,"metr":367,"metrics":368,"rom1":369,"##_n":370,"14":371,"##hard":372,"##hard1":373,"##od":374,"me":375,"12":376,"##fle":377,"##messagestack_":378,"##flex":379,"##ate":380,"jar":381,"cli":382,"##ler":383,"##ver":384,"pl":385,"ro":386,"##blis":387,"##blish":388,"##ps":389,"##orm":390,"##mpl":391,"client":392,"rome":393,"##ue":394,"##cessor":395,"##id":396,"##al":397,"##re":398,"##oo":399,"##it":400,"##form":401,"zoo":402,"id_txt":403,"##lic":404,"##atform":405,"16":406,"##_s":407,"30":408,"00":409,"platform":410,"##81":411,"##ublish":412,"11":413,"##read":414,"##ker":415,"##lica":416,"##fa":417,"##nd":418,"##eplica":419,"##eplica_n":420,"##ca":421,"13":422,"##eed":423,"##xf":424,"##ender":425,"##12":426,"##ect":427,"web":428,"##04":429,"##29":430,"ab":431,"##pr":432,"##as":433,"##sw":434,"##pro":435,"##50":436,"##est":437,"##roker":438,")\"":439,"vide":440,"videom":441,"##lv":442,"##vide":443,"reflex":444,"##eedq":445,"##video":446,"render":447,"##20":448,"##orn":449,"##icorn":450,"unicorn":451,"##eper":452,"##keeper":453,"zookeeper":454,"##xn":455,"##cn":456,"</":457,"##ttp":458,"##77":459,"meta":460,"##83":461,"http":462,"log":463,"##mission":464,"about":465,"an":466,"to":467,"##ra":468,"03":469,"##replica_n":470,"##_replica_n":471,"##hard1_replica_n":472,"##_shard1_replica_n":473,"##94":474,"##card":475,"ru":476,"com":477,"##ode":478,"000":479,"##vc":480,"##por":481,"##ty":482,"##----":483,"##lea":484,"##ork":485,"op":486,"}}":487,"##date":488,"##pon":489,"##he":490,"##templ":491,"##48":492,"17":493,"18":494,"metacard":495,"~[":496,"23":497,"##52":498,"08":499,"##ce":500,"cxf":501,"##up":502,"##per":503,"##76":504,"04":505,"ad":506,")\"},{\"":507,"##b0":508,"##40":509,"21":510,"##ession":511,"},\"":512,"39":513,"25":514,"session":515,"##56":516,"##fi":517,"##43":518,"##99":519,"relea":520,"##02":521,"##pring":522,"##09":523,"pa":524,"spring":525,"##03":526,"##nn":527,"shard1":528,"is":529,"##fd":530,"##ss":531,"##mms":532,"mmsstack_":533,"mmsstack_mms":534,"ids":535,"##44":536,"##hand":537,"publish":538,"##fr":539,"##16":540,"##handler":541,"##32":542,"##dap":543,"48":544,"##cli":545,"##processor":546,"release":547,"##ection":548,"##error":549,"##cnxn":550,"##ting":551,"##ab":552,"##les":553,"##rch":554,"##earch":555,"##server":556,"##work":557,"service":558,"##pel":559,"isr":560,"sc":561,"##11":562,"##version":563,"process":564,"##ts":565,"dd":566,"de":567,"##thread":568,"##utes":569,"58":570,"##inutes":571,"minutes":572,"##st":573,"##ys":574,"=/":575,"}},\"":576,"##dat":577,"open":578,"##75":579,"##ib":580,"##template":581,"##rn":582,"##80":583,"##49":584,"di":585,"06":586,"##41":587,"29":588,"te":589,"##tory":590,"catalog_shard1_replica_n":591,"##_c":592,"##ener":593,"=\"":594,"##53":595,"##86":596,"processor":597,"={":598,"update":599,"07":600,"##23":601,"do":602,"05t":603,"##46":604,"na":605,"##sta":606,"th":607,"##26":608,"##eat":609,"##06":610,"##b5":611,"38":612,"metacard_c":613,"metacard_cache":614,"##catalog":615,"##iod":616,"##wg":617,"##100":618,"##publish":619,"19":620,"##leset":621,"##ie":622,"csw":623,"##ci":624,"retr":625,"retrie":626,"broker":627,"clientcnxn":628,"##dater":629,"##reener":630,"screener":631,"##iodic":632,"feedq":633,"klv":634,"mps":635,"##feedq":636,"##broker":637,"##klv":638,"conversion":639,"##ecsw":640,"##essagecsw":641,"##stack_re":642,"##stack_video":643,"##stack_publish":644,"##stack_broker":645,"expor":646,"missionmessagestack_":647,"##essagestack_video":648,"##ana":649,"##messagestack_feedq":650,"##messagestack_klv":651,"videomessagecsw":652,"videomessagestack_video":653,"reflexstack_re":654,"publishstack_publish":655,"brokerstack_broker":656,"feedqmessagestack_feedq":657,"klvmessagestack_klv":658,"exporter":659,"missionmessagestack_mission":660,"videomessagecswstack_video":661,"reflexstack_reflex":662,"svc":663,"##_service":664,"##mps":665,"##mps_service":666,"sf":667,"ddoc":668,"sftp":669,"gw":670,"##mplate":671,"template":672,"##1u":673,"##8v":674,"##hg":675,"##lg":676,"##lo":677,"##2d":678,"##15":679,"##qu":680,"##70":681,"##f3":682,"##ine":683,"pi":684,"##peline":685,"pipeline":686,"ext":687,"##errorhandler":688,"##96":689,"##tr":690,"thread":691,"##5a":692,"##espon":693,"28":694,"121":695,"):":696,"no":697,"##pb":698,"50":699,"##amework":700,"##ct":701,"##ctory":702,"##impl":703,"##no":704,"##ls":705,"53":706,"##ba":707,"##91":708,"46":709,"##vent":710,"mil":711,"##ueue":712,"12181":713,"##xy":714,"##vo":715,"event":716,"##inver":717,"uninver":718,"uninverting":719,"core_n":720,"core_node":721,"##nt":722,"jet":723,"jetty":724,"hand":725,"##esponse":726,"ver":727,"##3f":728,"##ru":729,"45":730,"##fic":731,"##fication":732,"##las":733,"##mit":734,"ms":735,"##b9":736,"##i5":737,"##i8":738,"##l3":739,"##07":740,"##87":741,"##4f":742,"##8d":743,"##ad":744,"##io":745,"##ean":746,"version":747,"##8o":748,"##gx":749,"##wv":750,"for":751,"aler":752,"51":753,"##--------":754,"##mp":755,"##meth":756,"##046":757,"55":758,"##stat":759,"##8a":760,"##quest":761,"##47":762,"##ff":763,"00000":764,"56":765,"##4d":766,"397":767,"##4a":768,"##fig":769,"config":770,"us":771,"##fl":772,"ke":773,"09":774,"conn":775,"##nal":776,"##pu":777,"rout":778,"router":779,"tr":780,"##b6":781,"##dapter":782,"net":783,"dep":784,"##enci":785,"##endenci":786,"dependenci":787,"dependencies":788,"##b0e":789,"##framework":790,"##ource":791,"##int":792,"35":793,"43":794,"0x":795,"40":796,"##82":797,"##10000":798,"0x10000":799,"dis":800,"##ternal":801,"##046b0e":802,"0x10000046b0e":803,"fil":804,"##pp":805,"##89":806,"##000":807,"springframework":808,"##f6":809,"##queue":810,"##po":811,"##783":812,"##rom":813,"from":814,"xm":815,"##earcher":816,"##fau":817,"##list":818,"##ponent":819,"rest":820,"26":821,"##199":822,"49":823,"##73":824,"##7b":825,"##e3":826,"che":827,"check":828,"##22":829,":/":830,"://":831,"##t0":832,"33":833,"ecli":834,"##pse":835,"eclipse":836,"##w3":837,"##z3":838,"##w8":839,"##and":840,"36":841,"##utor":842,"qtp":843,"##d6":844,"##12783":845,"##19912783":846,"qtp19912783":847,"qtp1991278377":848,"##con":849,"59":850,"##ebeat":851,"filebeat":852,"##1m":853,"##ih":854,"##zc":855,"##qw":856,"##8e":857,"41":858,"total":859,"##thod":860,"method":861,"bean":862,"##ity":863,"##km":864,"##oz":865,"##wa":866,"##45":867,"ns":868,"xml":869,"##ex":870,"169":871,"connection":872,"##yb":873,"nio":874,"##time":875,"contact":876,"##fz":877,"##ef":878,"52":879,"add":880,"resttemplate":881,"##all":882,"##13":883,"##8c":884,"##dt":885,"##72":886,"##tion":887,"component":888,"qu":889,"##e5":890,"##exec":891,"##10":892,"get":893,"key":894,"##hel":895,":]":896,"my":897,"myid":898,"catalog_shard1_replica_n1":899,"nioserver":900,"34":901,"request":902,"st":903,"##data":904,"##69":905,"##)+":906,"adfd":907,"##ede":908,"clo":909,"##helper":910,"##dc":911,"##b8":912,"send":913,"##rt":914,"42":915,"##oll":916,"##ush":917,"ba":918,"##app":919,"webapp":920,"##ned":921,"##42":922,"##+(":923,"##93":924,"wt":925,"##bin":926,"javabin":927,"path":928,"##rams":929,"params":930,"##oap":931,"ai":932,"quer":933,"##internal":934,"run":935,"##lse":936,"##ew":937,"##rs":938,"##ns":939,"##wn":940,"47":941,"##vis":942,"##fe":943,"##0b":944,"metacard_cache_shard1_replica_n":945,"##raf":946,"per":947,"##executor":948,"##dex":949,"##1e":950,"32":951,"##ocket":952,"node":953,"##lp":954,"xmlns":955,"000c":956,"##ir":957,"##proxy":958,"##factory":959,"##5e":960,"af":961,"res":962,"##ollection":963,"done":964,"##c0":965,"##b3":966,"##ia":967,"##qs":968,"##ho":969,"##p1":970,"57":971,"##let":972,"##485":973,"##un":974,"ge":975,"##ory":976,"collection":977,"retriev":978,"noti":979,"##lru":980,"##eallru":981,"ruleset":982,"##lesets":983,"retrieveallru":984,"retrieveallrulesets":985,"##type":986,"##ws":987,"##sh":988,"##}]":989,"notification":990,"cda":991,"cad":992,"##updater":993,"##_mps_service":994,"screener_mps_service":995,"updater":996,"periodic":997,"##ckup":998,"##catalogupdater":999,"backup":1000,"periodiccatalogupdater":1001,"##agno":1002,"##stic":1003,"diagno":1004,"diagnostic":1005,"[{\"":1006,"adapter":1007,"elas":1008,"gate":1009,"gss":1010,"graf":1011,"kib":1012,"mas":1013,"push":1014,"s3":1015,"sqs":1016,"##eus":1017,"##tics":1018,"##ldap":1019,"##gss":1020,"##soaesb":1021,"##xm":1022,"##j7":1023,"haproxy":1024,"prometh":1025,"##stack_per":1026,"##stack_gss":1027,"##stack_soaesb":1028,")\"}]":1029,"logsta":1030,"openldap":1031,"dood":1032,"gwe":1033,"##way":1034,"##visor":1035,"cadvisor":1036,"periodiccatalogupdaterstack_per":1037,"elastics":1038,"gateway":1039,"gssstack_gss":1040,"grafana":1041,"kibana":1042,"master":1043,"haproxystack_soaesb":1044,"prometheus":1045,"logstash":1046,"periodiccatalogupdaterstack_periodic":1047,"elasticsearch":1048,"##station":1049,"},":1050,"##vetemplate":1051,"retrievetemplate":1052,"##fil":1053,"getal":1054,"##ltempl":1055,"##ates":1056,"getalltempl":1057,"getalltemplates":1058,"##e_mps_service":1059,"gwe_mps_service":1060,"##9b":1061,"##ans":1062,"##liver":1063,"##livery":1064,"socket":1065,"esta":1066,"establish":1067,"events":1068,"##urity":1069,"##}}":1070,"{\"":1071,"##cks":1072,"ticks":1073,"catalog_shard1_replica_n2":1074,"##min":1075,"##5p":1076,"##tes":1077,"trans":1078,"##info":1079,"##ytes":1080,"2181":1081,"soap":1082,"##xb":1083,"##7g":1084,"##ations":1085,"##6g":1086,"##yg":1087,"##v3":1088,"##h6":1089,"##cw":1090,"##pw":1091,"##m8":1092,"##e4":1093,"delg":1094,"delgen":1095,"##aa":1096,"sys":1097,"replica_n":1098,"##ri":1099,"##74":1100,"##of":1101,"##esponseerrorhandler":1102,"rede":1103,"camelinternal":1104,"methodinfo":1105,"##liveryerrorhandler":1106,"redeliveryerrorhandler":1107,"camelinternalprocessor":1108,"##c6":1109,"##05":1110,"##14":1111,"##ating":1112,"plan":1113,"37":1114,"##update":1115,"clos":1116,"transpor":1117,"##mb":1118,"rep":1119,"##trib":1120,"uti":1121,"##95":1122,"2009":1123,"gd":1124,"27":1125,"system":1126,"closed":1127,"##du":1128,"44":1129,"work":1130,"core_node3":1131,"##85":1132,"##tc":1133,"##ccess":1134,"##c3":1135,"gdes":1136,"##enti":1137,"mmscatalog":1138,"mmscataloghelper":1139,"core_node4":1140,"searcher":1141,"invo":1142,"##s_txt_tokenized":1143,"##212":1144,"##v2":1145,"##ali":1146,"54":1147,"impl":1148,"##)++":1149,"##sl":1150,"##ort":1151,"workqueue":1152,"##entimpl":1153,"##lu":1154,"invoke":1155,"24":1156,"02t":1157,"##stationdt":1158,"planned":1159,"##b2":1160,"0_":1161,"0_212":1162,"en":1163,"##vm":1164,"##c9":1165,"false":1166,"sm":1167,"dia":1168,"smil":1169,"security":1170,"blu":1171,"##xth":1172,"##epr":1173,"bluepr":1174,"##el":1175,"##58":1176,":--":1177,"<!":1178,":-->":1179,"<!--":1180,"##ope":1181,"##agg":1182,"comm":1183,"##b1":1184,"wa":1185,"##90":1186,"commit":1187,"##9s":1188,"##----------------":1189,"##ated":1190,"oa":1191,"soaesb_s":1192,"sendthread":1193,"oaesb":1194,"soaesb_soaesb":1195,"mod":1196,"##kno":1197,"handler":1198,"##faul":1199,"factory":1200,"##d3":1201,"10000":1202,"eventthread":1203,"##44a":1204,"sessionid":1205,"##429":1206,"##uq":1207,"##x0":1208,"##oper":1209,"##operations":1210,"resource":1211,"##ued":1212,"##920":1213,"defaul":1214,"##ead":1215,"##762":1216,"##cxn":1217,"nioservercxn":1218,"##health":1219,"unhealth":1220,"unhealthy":1221,"##244":1222,"##292":1223,"##tu":1224,"actu":1225,"><":1226,"##830":1227,"##35":1228,"##*+":1229,"requests":1230,"vali":1231,"##mory":1232,"memory":1233,"##180":1234,"##cep":1235,"romemission":1236,"##c41":1237,"##68":1238,"##5g":1239,"##17":1240,"##1f":1241,"##434":1242,"##20b":1243,"##8db":1244,"##2l":1245,"##pool":1246,"crea":1247,"##fa9":1248,"da":1249,"##0y":1250,"##gz":1251,"##i0":1252,"##oh":1253,"##lq":1254,"##u1":1255,"##xd":1256,"##xj":1257,"##v5":1258,"##v1":1259,"##aps":1260,"##sk":1261,"zer":1262,"zero":1263,"ta":1264,"##8b":1265,"##25":1266,"##point":1267,"ff":1268,"##84":1269,"##si":1270,"9b":1271,"source":1272,"httpcon":1273,"clas":1274,"##sification":1275,"classification":1276,"##07z":1277,"##tg":1278,"---":1279,"sn":1280,"##hot":1281,"##apshot":1282,"snapshot":1283,"##7j":1284,"urn":1285,"##oj":1286,"##5i":1287,"##gg":1288,"##2375":1289,"##cr":1290,"##3x":1291,"##12b6":1292,"b69":1293,"##50e3":1294,"##sa":1295,"##ww":1296,"##29c0":1297,"##eak":1298,"##8n":1299,"##57":1300,"##hol":1301,"##86c41":1302,"##mw":1303,"##1h":1304,"##pv":1305,"##h5":1306,"##jy":1307,"##jx":1308,"##qz":1309,"1g":1310,"2cw":1311,"6t0":1312,"bv3":1313,"k52":1314,"nxj":1315,"p09":1316,"qx":1317,"r7":1318,"t94":1319,"tnn":1320,"u50":1321,"w7":1322,"wg":1323,"wnn":1324,"wxd":1325,"xom":1326,"z44a":1327,"##7ol":1328,"##7lp":1329,"##4ol":1330,"##4gz":1331,"##3pb":1332,"##3zc":1333,"##2in":1334,"##2gg":1335,"##5th":1336,"##5z3":1337,"##5agg":1338,"##bnn":1339,"##dha":1340,"##dmw":1341,"##1wg":1342,"##1rt":1343,"##1pw":1344,"##av":1345,"##ahol":1346,"##ajx":1347,"##rde":1348,"##rgx":1349,"##ob8":1350,"##oe4":1351,"##o429":1352,"##o292":1353,"##o8db":1354,"##tue":1355,"##t5i":1356,"##tdha":1357,"##lhg":1358,"##lpb":1359,"##lw3":1360,"##lm8":1361,"##lcr":1362,"##l5z3":1363,"##g8o":1364,"##g0b":1365,"##ux":1366,"##uy":1367,"##uys":1368,"##u7b":1369,"##u4gz":1370,"##uo292":1371,"##p8v":1372,"##pi5":1373,"##s1u":1374,"##kb5":1375,"##kwv":1376,"##k6g":1377,"##x4":1378,"##xx0":1379,"##nj":1380,"##nhg":1381,"##nqw":1382,"##n2375":1383,"##n8n":1384,"##n4ol":1385,"##zw8":1386,"##zfa9":1387,"##z86c41":1388,"##zpv":1389,"##zuo292":1390,"##qic":1391,"##qan":1392,"##v1u":1393,"##vfz":1394,"##vpi5":1395,"##h26":1396,"##h2d":1397,"##h1wg":1398,"##wx":1399,"##w7lp":1400,"##wbnn":1401,"##wrde":1402,"##wkb5":1403,"##yvc":1404,"##y32":1405,"##y2in":1406,"##yz86c41":1407,"##jb5":1408,"##jew":1409,"##ju7b":1410,"##is82":1411,"##rozpv":1412,"##oln2375":1413,"##xttue":1414,"##omih":1415,"##pex":1416,"##rdp8v":1417,"##ps5e":1418,"##id8a":1419,"##xf2l":1420,"##prih":1421,"##prnhg":1422,"##50kwv":1423,"##estlcr":1424,"##xnps5e":1425,"##cnlm8":1426,"##cng8o":1427,"##ty3pb":1428,"##52rs":1429,"##40t5i":1430,"##02w3":1431,"##frvo":1432,"##16xnps5e":1433,"##11id8a":1434,"##53x4":1435,"##wg07z":1436,"##wgh26":1437,"##1uahol":1438,"##8vyz86c41":1439,"##hgju7b":1440,"##lgzw8":1441,"##2dj7":1442,"##70sl":1443,"##f3uq":1444,"##5aww":1445,"##xy02w3":1446,"##nt5aww":1447,"##3fw8":1448,"##b9lpb":1449,"##i5wx":1450,"##i8tdha":1451,"##i8pex":1452,"##l3l3":1453,"##4f5p":1454,"##gxxb":1455,"##wvd":1456,"##mpt0":1457,"##4dw7lp":1458,"##fl8vyz86c41":1459,"09oln2375":1460,"##pujb5":1461,"##f6n4ol":1462,"##fauqz":1463,"##z3o429":1464,"##d61m":1465,"##1m2dj7":1466,"##qw50e3":1467,"##km8o":1468,"##ozav":1469,"##ybe5":1470,"##efs1u":1471,"##feuy":1472,"##p1zc":1473,"##xmb9lpb":1474,"##7gajx":1475,"##ygi8tdha":1476,"##h6km8o":1477,"##xthv1u":1478,"##ope70sl":1479,"##uedlhg":1480,"##92012b6":1481,"##762vfz":1482,"##244nj":1483,"##434u4gz":1484,"##20bzfa9":1485,"##0yomih":1486,"##i0h6km8o":1487,"##ohwvd":1488,"##lqdc":1489,"##u1lw3":1490,"##v5fauqz":1491,"##v1ygi8tdha":1492,"##skuys":1493,"ff1m2dj7":1494,"9bqic":1495,"##7j8v":1496,"##oj52rs":1497,"##3xg0b":1498,"b69f3uq":1499,"##sau1lw3":1500,"##29c0rgx":1501,"##eaknt5aww":1502,"##1h244nj":1503,"##h5fl8vyz86c41":1504,"##jyi8pex":1505,"1gdmw":1506,"2cw434u4gz":1507,"6t0prih":1508,"bv3cng8o":1509,"k52jew":1510,"nxjh5fl8vyz86c41":1511,"p09hgju7b":1512,"qxk6g":1513,"r7ybe5":1514,"t94rozpv":1515,"tnnfeuy":1516,"u50xthv1u":1517,"w7xf2l":1518,"wgd61m":1519,"wnn1pw":1520,"wxdope70sl":1521,"xomyvc":1522,"z44aozav":1523,"##7ol3fw8":1524,"##3zcgxxb":1525,"##2ggrdp8v":1526,"##5th40t5i":1527,"##5aggv5fauqz":1528,"##1rtl5z3":1529,"##ob8xx0":1530,"##oe4wgh26":1531,"##o8dbwg07z":1532,"##nqwi0h6km8o":1533,"##n8n20bzfa9":1534,"##zuo292xmb9lpb":1535,"##qanh2d":1536,"##vpi5x":1537,"##h1wgeaknt5aww":1538,"##wbnnh1wgeaknt5aww":1539,"##wrde92012b6":1540,"##y32qanh2d":1541,"##y2in4f5p":1542,"##is82l3l3":1543,"##xttue7gajx":1544,"##prnhgwrde92012b6":1545,"##50kwv5th40t5i":1546,"##estlcr6":1547,"##ty3pbp1zc":1548,"##frvo2ggrdp8v":1549,"##16xnps5eoe4wgh26":1550,"##1uahol3xg0b":1551,"##lgzw8nqwi0h6km8o":1552,"##mpt0ty3pbp1zc":1553,"##4dw7lpf":1554,"09oln2375lgzw8nqwi0h6km8o":1555,"##pujb5oj52rs":1556,"##f6n4olohwvd":1557,"##z3o429mpt0ty3pbp1zc":1558,"##qw50e3lqdc":1559,"##efs1uwkb5":1560,"##uedlhgy32qanh2d":1561,"##762vfz7ol3fw8":1562,"##0yomihf6n4olohwvd":1563,"##v1ygi8tdha11id8a":1564,"##skuys4dw7lpf":1565,"ff1m2dj7uedlhgy32qanh2d":1566,"9bqic1rtl5z3":1567,"b69f3uq3zcgxxb":1568,"##sau1lw3y2in4f5p":1569,"##29c0rgx7j8v":1570,"##1h244njskuys4dw7lpf":1571,"1gdmwxttue7gajx":1572,"2cw434u4gzn8n20bzfa9":1573,"6t0prihpujb5oj52rs":1574,"bv3cng8o5aggv5fauqz":1575,"k52jew1h244njskuys4dw7lpf":1576,"nxjh5fl8vyz86c41efs1uwkb5":1577,"p09hgju7bv1ygi8tdha11id8a":1578,"qxk6g50kwv5th40t5i":1579,"r7ybe5sau1lw3y2in4f5p":1580,"t94rozpvfrvo2ggrdp8v":1581,"tnnfeuyprnhgwrde92012b6":1582,"u50xthv1u16xnps5eoe4wgh26":1583,"w7xf2lz3o429mpt0ty3pbp1zc":1584,"wgd61mis82l3l3":1585,"wnn1pwob8xx0":1586,"wxdope70sl762vfz7ol3fw8":1587,"xomyvcwbnnh1wgeaknt5aww":1588,"z44aozav0yomihf6n4olohwvd":1589,"##o8dbwg07zi5wx":1590,"ff1m2dj7uedlhgy32qanh2drn":1591,"9bqic1rtl5z3zuo292xmb9lpb":1592,"b69f3uq3zcgxxb1uahol3xg0b":1593,"1gdmwxttue7gajxqw50e3lqdc":1594,"2cw434u4gzn8n20bzfa9cnlm8":1595,"6t0prihpujb5oj52rsjyi8pex":1596,"bv3cng8o5aggv5fauqzxy02w3":1597,"qxk6g50kwv5th40t5iestlcr6":1598,"r7ybe5sau1lw3y2in4f5p53x4":1599,"t94rozpvfrvo2ggrdp8vvpi5x":1600,"tnnfeuyprnhgwrde92012b65g":1601,"wgd61mis82l3l329c0rgx7j8v":1602,"wnn1pwob8xx0o8dbwg07zi5wx":1603,"wxdope70sl762vfz7ol3fw8ux":1604,"xomyvcwbnnh1wgeaknt5awwtc":1605,"##cked":1606,"##itor":1607,"v20":1608,"##180830":1609,"v20180830":1610,"##onitor":1611,"distrib":1612,"runn":1613,"running":1614,"##48576":1615,"++(":1616,"acked":1617,"bytes":1618,"monitor":1619,"##},\"":1620,"1048576":1621,"}}},\"":1622,"monitoring":1623,"##urrent":1624,"alert":1625,"##ute":1626,"rule":1627,"##ment":1628,"##put":1629,"getmission":1630,"handle":1631,"alerts":1632,"##bf":1633,"##oad":1634,"##kv":1635,"}{":1636,"logupdate":1637,"##processorfactory":1638,"logupdateprocessorfactory":1639,"16903":1640,"##poolexecutor":1641,"threadpoolexecutor":1642,"./":1643,"catalogoperations":1644,"catalogoperationsimpl":1645,"##tresponseerrorhandler":1646,"defaultresponseerrorhandler":1647,"aut":1648,"##icwork":1649,"##aticwork":1650,"##omaticwork":1651,"##queueimpl":1652,"##duit":1653,"httpconduit":1654,"automaticwork":1655,"automaticworkqueueimpl":1656,"##18":1657,"##ang":1658,"##pa":1659,"60":1660,"##7a":1661,"##92":1662,"data":1663,"##36":1664,"##client":1665,"metacard_cache_shard1_replica_n1":1666,"##3y":1667,"##cs":1668,"##1d":1669,"id_txt_tokenized":1670,"##z0":1671,"##vt":1672,"##vs":1673,"##anding":1674,"##54":1675,"##ched":1676,"##off":1677,"##state":1678,"util":1679,"##ommit":1680,"##e6":1681,"##ng":1682,"##atch":1683,"##filter":1684,"##d2":1685,"ass":1686,"19000":1687,"index":1688,"##call":1689,"##dation":1690,"##searcher":1691,"validation":1692,"abst":1693,"abstra":1694,"=[":1695,"##name":1696,"##rocessor":1697,"##79":1698,"accept":1699,"sta":1700,"##19":1701,"metadata":1702,"##iti":1703,"warn":1704,"##bc":1705,"type_txt_tokenized":1706,"name_txt_tokenized":1707,"##ception":1708,"##ccessor":1709,"sof":1710,"##dataws":1711,"romemissiondataws":1712,"refl":1713,"true":1714,"query":1715,"##30":1716,"##1a":1717,"##oda":1718,"##methoda":1719,"##methodaccessor":1720,"reflect":1721,")]":1722,")]}":1723,"user":1724,"servlet":1725,"cha":1726,"ne":1727,"##enta":1728,"##ize":1729,"su":1730,"spel":1731,"spell":1732,"##7c":1733,"##mer":1734,"##xception":1735,"##rore":1736,"##errore":1737,"httpserver":1738,"actual":1739,"##errorexception":1740,"httpservererrorexception":1741,"##entadapter":1742,"conte":1743,"##8f":1744,"##66":1745,"initi":1746,"##temp":1747,"attemp":1748,"initiating":1749,"##gis":1750,"nu":1751,"ul":1752,"ult":1753,"##mber":1754,"80":1755,"##inet":1756,"##plinet":1757,"##ciplinet":1758,"##ciplinetype":1759,"##55":1760,"##clientimpl":1761,"##bd":1762,"established":1763,"##7d":1764,"romeclientimpl":1765,"and":1766,"##tiated":1767,"##gotiated":1768,"negotiated":1769,"end":1770,"0x10000046b0e0":1771,"##mination":1772,"rt":1773,"##back":1774,"go":1775,"nioservercnxn":1776,"report":1777,"admin":1778,"zookeeperserver":1779,"v1":1780,"qtime":1781,"replica_n2":1782,"replica_n1":1783,"63":1784,"##4j":1785,"##dir":1786,"##a0":1787,"handleerror":1788,"##bl":1789,"handleresponse":1790,"##op":1791,"##callback":1792,"##9c":1793,"##sched":1794,"metacard_cache_shard1_replica_n2":1795,"transport":1796,"##4c":1797,"##able":1798,"##tend":1799,"##wq":1800,"dele":1801,"ret":1802,"retur":1803,"0s":1804,"##1009s":1805,"0s1009s":1806,"0s1009s0":1807,"##9a":1808,"unkno":1809,"unknown":1810,"transports":1811,"bu":1812,"not":1813,"##ou":1814,"li":1815,"v2":1816,"529":1817,"##ten":1818,"##7f":1819,"searcherexecutor":1820,"new":1821,"##3a":1822,"##51":1823,"start":1824,"144":1825,"##ain":1826,"##text":1827,"po":1828,"##dl":1829,"##:?":1830,"##?:?":1831,"##?:?]":1832,"code":1833,"##port":1834,"opening":1835,"##78":1836,"abstract":1837,"regis":1838,"of":1839,"tag":1840,"##db":1841,"##andler":1842,"common":1843,"lang":1844,"##566":1845,"##_0":1846,"blueprint":1847,"##mo":1848,"##_v2":1849,"##velo":1850,"envelo":1851,"##_v2_0":1852,"envelope":1853,"create":1854,"##ifi":1855,"##ified":1856,"sel":1857,"select":1858,"##eco":1859,"##2a":1860,"modified":1861,"asset":1862,"##take":1863,"platformtype":1864,"##fdt":1865,"##base":1866,"disciplinetype":1867,"##offdt":1868,"##andingdt":1869,"##takeoffdt":1870,"option":1871,"optional":1872,"content":1873,"clic":1874,"clicls":1875,"##env":1876,"soapenv":1877,"##888":1878,"sr":1879,"##vcls":1880,"srvcls":1881,"_state":1882,"##ver_":1883,"_statever_":1884,"##4e":1885,"ca":1886,")=":1887,"=<":1888,"alp":1889,"alpn":1890,"##024":1891,"),":1892,"size":1893,"pr":1894,"prep":1895,"##ill":1896,"##cf":1897,"##rect":1898,"##98":1899,"##406":1900,"~[?:?]":1901,"##icep":1902,"548":1903,"##vid":1904,"internal":1905,"##s_txt":1906,"##meta":1907,"cb":1908,"##be":1909,"##9f":1910,"##lr":1911,"down":1912,"##zq":1913,"##v9":1914,"more":1915,"sun":1916,"##ateg":1917,"pax":1918,"##endpoint":1919,"##index":1920,"##mt":1921,"##ectory":1922,":[":1923,"##7e":1924,"solrindex":1925,"##ition":1926,"##methodaccessorimpl":1927,"##33":1928,"##etition":1929,"repetition":1930,"repetitions":1931,"blueprin":1932,"##der":1933,"ep":1934,"cho":1935,"med":1936,"classification_txt_tokenized":1937,"code_txt_tokenized":1938,"cbrn":1939,"media":1940,"##tro":1941,"##966":1942,"##files":1943,"wr":1944,"writ":1945,"##cd":1946,"##tex":1947,"##tender":1948,"blueprintex":1949,"blueprintextender":1950,"+*":1951,":[*+":1952,"+*]":1953,"##*:":1954,"##*+-":1955,"++(*:":1956,"+*])++":1957,"++(*:*+-":1958,"state":1959,"clientadapter":1960,"##tra":1961,"##eader":1962,"201":1963,"##06a":1964,"##--------------------------------":1965,"##ester":1966,"##rv":1967,"harv":1968,"harvester":1969,"##tener":1970,"##421":1971,"modu":1972,"##gating":1973,"delegating":1974,"##7ms":1975,"##listener":1976,"##71":1977,"##..":1978,"##vail":1979,"##328":1980,"delegatingmethodaccessorimpl":1981,"169024":1982,"138":1983,"##enderlistener":1984,"##ysenderlistener":1985,"querysenderlistener":1986,"lib":1987,"##60":1988,"##context":1989,"wh":1990,"82":1991,"487":1992,"></":1993,"##2m":1994,"ns2":1995,"##3s":1996,"##f36":1997,"module":1998,"##tm":1999,"##uler":2000,"##br":2001,"##4b":2002,"##zy":2003,"##jg":2004,"##n6":2005,"##dv9":2006,"##iy":2007,"##ko":2008,"##nl":2009,"##w6":2010,"##j3":2011,"##reader":2012,"##ectoryreader":2013,"##pped":2014,"##leth":2015,"##ome":2016,"missionid":2017,"##8cf":2018,"##ger":2019,"tags_txt_tokenized":2020,"##ab6":2021,"##f2":2022,"##cb":2023,"##5ab":2024,"load":2025,"##scheduler":2026,"fr":2027,"/&":2028,"##leader":2029,"fromleader":2030,"read":2031,"gc":2032,"wri":2033,"write":2034,"las":2035,"##tate":2036,"last":2037,"queue":2038,"##5b":2039,"route":2040,"success":2041,"beat":2042,"batch":2043,"cpu":2044,"current":2045,"non":2046,"norm":2047,"out":2048,"the":2049,"val":2050,"##beat":2051,"##ext":2052,"##_id":2053,"##_all":2054,"##_files":2055,"##tats":2056,"states":2057,"uptime":2058,"##mstats":2059,"hard":2060,"##_total":2061,"##_next":2062,"memstats":2063,"clients":2064,"##al_id":2065,"30s":2066,"}}}}":2067,"##hemer":2068,"published":2069,"open_files":2070,"handles":2071,"added":2072,"memory_all":2073,"memory_total":2074,"soft":2075,"limit":2076,"registra":2077,"ephemer":2078,"writes":2079,"libbeat":2080,"gc_next":2081,"batches":2082,"output":2083,"value":2084,"}}}}}}":2085,"memory_alloc":2086,"registrar":2087,"ephemeral_id":2088,"##2h":2089,"##91f":2090,"##val":2091,"##cce":2092,"msg":2093,"##current":2094,"##91c":2095,"##9d":2096,"chang":2097,"logger":2098,"getmissions":2099,"concurrent":2100,"##yp":2101,"##fd5":2102,"eval":2103,"lv":2104,"##ep_s":2105,"0000":2106,"alerting":2107,"keep_s":2108,"ruleid":2109,"returned":2110,"changing":2111,"evalcontext":2112,"lvl":2113,"keep_state":2114,"##8e1":2115,"##5v":2116,"##bean":2117,"##0ce":2118,"##nts":2119,"##ments":2120,"comments":2121,"##38":2122,"##vider":2123,"##c1e":2124,"##jo":2125,"commitscheduler":2126,"ddf":2127,"##orker":2128,"##inb":2129,"sizeinb":2130,"sizeinbytes":2131,"utils":2132,"##ceed":2133,"##ream":2134,"##sab":2135,"releasab":2136,"##stream":2137,"responseerrorhandler":2138,"wra":2139,"##output":2140,"cataloghelper":2141,"clientimpl":2142,"cxfclient":2143,"beanprocessor":2144,"sendprocessor":2145,"abstractbean":2146,"##iceprocessor":2147,"choiceprocessor":2148,"##ppedoutput":2149,"wrappedoutput":2150,"cxfclientcallback":2151,"abstractbeanprocessor":2152,"wrappedoutputstream":2153,"##28":2154,"tail":2155,"##ress":2156,"address":2157,"##5w":2158,"##1c":2159,"##load":2160,"##fs":2161,"##5d":2162,"##4q":2163,"##md":2164,"##2902":2165,"##87ec":2166,"##er4":2167,"direct":2168,"441":2169,"loc":2170,"##3966":2171,"##4l":2172,"##1r":2173,"##1x":2174,"point":2175,"##2u":2176,"##pol":2177,"##6r":2178,"##1s":2179,"##5m":2180,"##7r":2181,"##torome":2182,"##wsdl":2183,"routetorome":2184,"routetoromewsdl":2185,"##3ab6":2186,"##fq":2187,"servleth":2188,"##58406":2189,"##3285a":2190,"##7l":2191,"categ":2192,"rfi":2193,"##x9":2194,"##eri":2195,"number":2196,"category":2197,"number_txt_tokenized":2198,"##5km":2199,"##47z":2200,"1r":2201,"9s":2202,"boz":2203,"eq":2204,"iz":2205,"k1e":2206,"kc9":2207,"miy":2208,"p4j":2209,"r9":2210,"sl":2211,"sse":2212,"t421":2213,"uv":2214,"x1s":2215,"yp":2216,"z88":2217,"zh6":2218,"z2m":2219,"##9o":2220,"##9m":2221,"##9i8":2222,"##7mp":2223,"##7mo":2224,"##6oz":2225,"##6cs":2226,"##6mt":2227,"##0t":2228,"##0j":2229,"##4lse":2230,"##3ts":2231,"##2w6":2232,"##5ls":2233,"##5j7":2234,"##5xb":2235,"##8lg":2236,"##8mp":2237,"##8pol":2238,"##bfz":2239,"##1pb":2240,"##1kv":2241,"##cve":2242,"##r32":2243,"##i93":2244,"##iyg":2245,"##oyb":2246,"##o9b":2247,"##o91c":2248,"##tn":2249,"##tm8":2250,"##t3y":2251,"##t6mt":2252,"##l56":2253,"##lkm":2254,"##l6oz":2255,"##gj":2256,"##gb0":2257,"##g7g":2258,"##g68":2259,"##pur":2260,"##peco":2261,"##pjo":2262,"##p2902":2263,"##p7mo":2264,"##s9":2265,"##spur":2266,"##kfr":2267,"##n7":2268,"##nc6":2269,"##n9s":2270,"##zdir":2271,"##z566":2272,"##z9m":2273,"##q15":2274,"##q6r":2275,"##q3285a":2276,"##mke":2277,"##mv3":2278,"##mf36":2279,"##m5j7":2280,"##v6g":2281,"##hty":2282,"##hj3":2283,"##wzy":2284,"##yod":2285,"##ywzy":2286,"##jvm":2287,"##j8e1":2288,"##j9i8":2289,"##ji93":2290,"##taq3285a":2291,"##erir":2292,"##meys":2293,"##at8mp":2294,"##agkno":2295,"##xt1pb":2296,"##vejg":2297,"##tocfq":2298,"##alb2":2299,"##xf6cs":2300,"##xfnc6":2301,"##04m5j7":2302,"##as8cf":2303,"##50ywzy":2304,"##vclkm":2305,"opoyb":2306,"##ce888":2307,"##b0lr":2308,"##fi3y":2309,"##fixfnc6":2310,"##43tg":2311,"##ts74":2312,"07l6oz":2313,"##lo58406":2314,"##3ftaq3285a":2315,"##ru3":2316,"##ruvs":2317,"##i5tm8":2318,"##l3as8cf":2319,"##iotm":2320,"##8o2w6":2321,"##gx5xb":2322,"##wv2h":2323,"##mp4q":2324,"##4acce":2325,"##puz0":2326,"##89q6r":2327,"##8eg7g":2328,"##wao":2329,"##fz91f":2330,"##b3er4":2331,"##iazq":2332,"##ia5km":2333,"##p1wao":2334,"##4855v":2335,"##un0ce":2336,"##xm4acce":2337,"##5piyg":2338,"##cwce888":2339,"##pwcwce888":2340,"##aao91c":2341,"##mbed":2342,"##v2n6":2343,"##vmruvs":2344,"##1fg68":2345,"##tgn9s":2346,"##kv6":2347,"##papuz0":2348,"##cs5ls":2349,"##z0s9":2350,"##vtj":2351,"##vto9b":2352,"##vsyod":2353,"##d2p2902":2354,"##blfs":2355,"##wqt3y":2356,"##ouia5km":2357,"##06a8eg7g":2358,"##7ms8o2w6":2359,"##brc1e":2360,"##dv9peco":2361,"##koq15":2362,"##nljvm":2363,"##5abat8mp":2364,"##ypaao91c":2365,"##fd5u":2366,"##mdru3":2367,"##87ecmdru3":2368,"##3966d2p2902":2369,"##4lmp4q":2370,"##1ralb2":2371,"##1xpapuz0":2372,"##2umeys":2373,"##5m3s":2374,"##7r7ms8o2w6":2375,"##3ab6wqt3y":2376,"##7l5piyg":2377,"##x9gb0":2378,"##47zx9gb0":2379,"1r9o":2380,"9sz9m":2381,"bozouia5km":2382,"eqvsyod":2383,"izvejg":2384,"k1eerir":2385,"kc9ts74":2386,"miy1fg68":2387,"p4jfi3y":2388,"r9vmruvs":2389,"slfz91f":2390,"ssekfr":2391,"t421vto9b":2392,"uv7r7ms8o2w6":2393,"x1s4lmp4q":2394,"ypiotm":2395,"z88mv3":2396,"zh647zx9gb0":2397,"z2mgj":2398,"##7mpfd5u":2399,"##0ttn":2400,"##0jn7":2401,"##4lse1kv":2402,"##3tsdv9peco":2403,"##8lgypaao91c":2404,"##8pol89q6r":2405,"##bfzkv6":2406,"##cveb0lr":2407,"##t6mtbfzkv6":2408,"##l56spur":2409,"##pjo3ab6wqt3y":2410,"##p7mov6g":2411,"##zdir3tsdv9peco":2412,"##mke87ecmdru3":2413,"##mf36nljvm":2414,"##htytgn9s":2415,"##hj3koq15":2416,"##j8e1v2n6":2417,"##j9i8r32":2418,"##ji93tocfq":2419,"##agkno0jn7":2420,"##xt1pbvclkm":2421,"##xf6csxt1pbvclkm":2422,"##04m5j7zdir3tsdv9peco":2423,"##50ywzy7l5piyg":2424,"opoyb4lse1kv":2425,"##fixfnc6mke87ecmdru3":2426,"##43tgl3as8cf":2427,"07l6ozfixfnc6mke87ecmdru3":2428,"##lo58406wv2h":2429,"##3ftaq3285a5abat8mp":2430,"##i5tm850ywzy7l5piyg":2431,"##gx5xbi":2432,"##b3er4lo58406wv2h":2433,"##iazqcveb0lr":2434,"##4855vp1wao":2435,"##xm4accem":2436,"##pwcwce888z0s9":2437,"##cs5ls7mpfd5u":2438,"##blfsbrc1e":2439,"##06a8eg7g1xpapuz0":2440,"##3966d2p2902j9i8r32":2441,"##1ralb2cs5ls7mpfd5u":2442,"##2umeysji93tocfq":2443,"1r9o8lgypaao91c":2444,"9sz9m04m5j7zdir3tsdv9peco":2445,"bozouia5km2umeysji93tocfq":2446,"eqvsyodpjo3ab6wqt3y":2447,"izvejgiazqcveb0lr":2448,"k1eerir1ralb2cs5ls7mpfd5u":2449,"kc9ts74i5tm850ywzy7l5piyg":2450,"miy1fg68xf6csxt1pbvclkm":2451,"p4jfi3y3966d2p2902j9i8r32":2452,"r9vmruvs06a8eg7g1xpapuz0":2453,"slfz91fhj3koq15":2454,"ssekfrj8e1v2n6":2455,"t421vto9bl56spur":2456,"uv7r7ms8o2w6pwcwce888z0s9":2457,"x1s4lmp4qhtytgn9s":2458,"ypiotm3ftaq3285a5abat8mp":2459,"z88mv3b3er4lo58406wv2h":2460,"zh647zx9gb0mf36nljvm":2461,"z2mgjp7mov6g":2462,"##0ttn5m3s":2463,"##8pol89q6rmbed":2464,"opoyb4lse1kv8pol89q6rmbed":2465,"##blfsbrc1ez566":2466,"1r9o8lgypaao91c4855vp1wao":2467,"eqvsyodpjo3ab6wqt3ygx5xbi":2468,"izvejgiazqcveb0lr0ttn5m3s":2469,"miy1fg68xf6csxt1pbvclkm5w":2470,"r9vmruvs06a8eg7g1xpapuz0t":2471,"slfz91fhj3koq15t6mtbfzkv6":2472,"ssekfrj8e1v2n643tgl3as8cf":2473,"t421vto9bl56spuragkno0jn7":2474,"x1s4lmp4qhtytgn9sxm4accem":2475,"ypiotm3ftaq3285a5abat8mp9":2476,"z88mv3b3er4lo58406wv2hvtj":2477,"zh647zx9gb0mf36nljvmun0ce":2478,"z2mgjp7mov6gblfsbrc1ez566":2479,"520":2480,"##63":2481,"##64":2482,"02t15":2483,"access":2484,"framework":2485,"##request":2486,"##5f":2487,"177":2488,"##zk":2489,"##0a":2490,"##ee":2491,"##59":2492,"##ring":2493,"1302":2494,"05t12":2495,"##ig":2496,"##ndle":2497,"##ar":2498,"105":2499,"##08":2500,"##handler2":2501,"##updatehandler2":2502,"directupdatehandler2":2503,"102":2504,"##bj":2505,"##com":2506,"warning":2507,"processing":2508,"##5c":2509,"##bb":2510,"ns5":2511,"##uth":2512,"romes":2513,"##pace":2514,"attempt":2515,"687":2516,"##62":2517,"auth":2518,"05t05":2519,"##77f":2520,"##metacard":2521,"bod":2522,"port":2523,"##ename":2524,"##lement":2525,"romemissiondatawsendpoint":2526,"body":2527,"romemissiondatawsendpoint_v2_0":2528,"##ac":2529,"74":2530,"bundle":2531,"877":2532,"servlethandler":2533,"##a9":2534,"stop":2535,"05t15":2536,"\">":2537,"##riter":2538,"##get":2539,"/>":2540,"usa":2541,"comp":2542,"##+(+":2543,"222":2544,"components":2545,"##49f":2546,"##vailable":2547,"sh":2548,"694":2549,"##a6":2550,"##97":2551,"off":2552,"connect":2553,"##ud":2554,"##ility":2555,"shut":2556,"##faa":2557,"failed":2558,"comple":2559,"##2f":2560,"solrzk":2561,"solrzkclient":2562,"cloud":2563,"##atcher":2564,"949":2565,"watcher":2566,"sessiontime":2567,"##string":2568,"connectstring":2569,"sessiontimeout":2570,"main":2571,"own":2572,"##d4a":2573,"owner":2574,"complete":2575,"##ved":2576,"location":2577,"establishment":2578,"##entic":2579,"authentic":2580,"##_solr":2581,"19000_solr":2582,"##01":2583,"will":2584,"##ail":2585,"0008":2586,"##ques":2587,"101":2588,"cport":2589,"sid":2590,"ter":2591,"##tprocessor":2592,"##reques":2593,"processed":2594,"processthread":2595,")::":2596,"prepreques":2597,"termination":2598,"preprequestprocessor":2599,"1035":2600,"sas":2601,"using":2602,"authenticate":2603,"sasl":2604,"##2b":2605,"##nc":2606,"io":2607,"##ync":2608,"accepted":2609,"nioservercnxnfactory":2610,"05t03":2611,"1056":2612,"sync":2613,"##ll":2614,"em":2615,"email":2616,"##9e":2617,"117":2618,"ph":2619,"contrib":2620,"contro":2621,"orig":2622,"##one_txt_tokenized":2623,"##semination":2624,"publisher":2625,"##ls_txt_tokenized":2626,"dissemination":2627,"creator":2628,"address_txt_tokenized":2629,"category_txt_tokenized":2630,"email_txt_tokenized":2631,"phone_txt_tokenized":2632,"contributor":2633,"controls_txt_tokenized":2634,"origin":2635,"syncthread":2636,"05t06":2637,"180":2638,"##ich":2639,"had":2640,"0x10000046b0e03":2641,"which":2642,"##df":2643,"100":2644,"attempting":2645,"##b9b":2646,"im":2647,"##34":2648,"exec":2649,"6d":2650,"rom2":2651,"action":2652,"_3":2653,"##ies":2654,"rea":2655,"aries":2656,"##by":2657,"##f7":2658,"421":2659,"alerts_shard1_replica_n":2660,"##ae":2661,"##ids":2662,"##65":2663,"##dd":2664,"##gh":2665,"##tle":2666,"title":2667,"##servic":2668,"##ght":2669,"0x10000046b0e02":2670,"++(+":2671,"errors_txt":2672,"72":2673,"0x10000046b0e06":2674,"##provider":2675,"##for":2676,"##c7":2677,"##1b":2678,"##bject":2679,"##su":2680,"346":2681,"000003":2682,"##0f":2683,"##af":2684,"##c5":2685,"used":2686,"##853":2687,"b9b":2688,"79":2689,"481":2690,"bfaa":2691,"##9549f":2692,"wait":2693,"##a3":2694,"##tcommit":2695,"softcommit":2696,"waitsearcher":2697,"##81d4a":2698,"##32b9b":2699,"42a0":2700,"82da":2701,"6d81d4a":2702,"b9b32b9b":2703,"6d81d4a9549f":2704,"##yfilter":2705,"##ybyfilter":2706,"querybyfilter":2707,"##chang":2708,"exchang":2709,"exchange":2710,"##qlist":2711,"idre":2712,"idreqlist":2713,"text":2714,"null":2715,"##39":2716,"##246":2717,"command":2718,"188":2719,"498":2720,"##ecurity":2721,"romesecurity":2722,"romesecuritytype":2723,"81":2724,"##0d":2725,"300":2726,"reason":2727,"getmissionids":2728,"##invo":2729,"##edhandler":2730,"scop":2731,"dofilter":2732,"##invoker":2733,"scopedhandler":2734,"header":2735,"landing":2736,"##element":2737,"##flag":2738,"##ord":2739,"fli":2740,"hda":2741,"##dts":2742,"##ick":2743,"##landingdt":2744,"##umber":2745,"##nflag":2746,"##nick":2747,"##number":2748,"##tanflag":2749,"##onstationdt":2750,"##onoff":2751,"##eater":2752,"##keoff":2753,"titanflag":2754,"onstationdt":2755,"missionlist":2756,"missiontype":2757,"missionstate":2758,"missionrequest":2759,"missionnick":2760,"theater":2761,"##allandingdt":2762,"##unit":2763,"##stationdts":2764,"02t23":2765,"02t22":2766,"plannedoff":2767,"plannedtakeoffdt":2768,"plannedlandingdt":2769,"plannedonstationdt":2770,"actuallandingdt":2771,"takeoff":2772,"actualtakeoffdt":2773,"actualonoff":2774,"modifieddate":2775,"modifiedby":2776,"assetversion":2777,"disciplinetypelist":2778,"tailnumber":2779,"offstationdt":2780,"##ghtunit":2781,"landingbase":2782,"flightunit":2783,"hdam":2784,"missionrequesttype":2785,"missionnickname":2786,"theaterid":2787,"##stationdtslist":2788,"plannedoffstationdt":2789,"takeoffbase":2790,"actualonoffstationdtslist":2791,"322":2792,"idlist":2793,"108":2794,"500":2795,"##cer":2796,"os":2797,"##writer":2798,"solrindexwriter":2799,"##c2":2800,"748":2801,"errors_txt_tokenized":2802,"+*])++)++":2803,"warnings_txt_tokenized":2804,"169036":2805,"160":2806,"1690245":2807,"cod":2808,"codice":2809,"000002":2810,"endpoint":2811,"##ator":2812,"##ure":2813,"560":2814,"##ducer":2815,"624":2816,"125":2817,"##message":2818,"expu":2819,"opensearcher":2820,"##edelet":2821,"##ngedelet":2822,"expungedelet":2823,"expungedeletes":2824,"##age":2825,"##172":2826,"##0c":2827,"##inter":2828,"tas":2829,"task":2830,"qt":2831,"157":2832,"##rget":2833,"top":2834,"target":2835,"oper":2836,"topic":2837,"uri":2838,"##61":2839,"sen":2840,"deri":2841,"##iations":2842,"status_txt_tokenized":2843,"##tity":2844,"##ociations":2845,"system_txt_tokenized":2846,"entity":2847,"associations":2848,"releasability":2849,"uri_txt_tokenized":2850,"derived":2851,"releasability_txt_tokenized":2852,"##sor":2853,"sensor":2854,"73":2855,"c5":2856,"\"+)++":2857,"##504":2858,"ping":2859,"##component":2860,"273":2861,"dest":2862,"##ying":2863,"##roying":2864,"destroying":2865,"##266":2866,"checker":2867,"##ild":2868,"build":2869,"dopro":2870,"##checkcomponent":2871,"spellcheckcomponent":2872,"building":2873,"##124":2874,"nt":2875,"677":2876,"##b4":2877,"onmessage":2878,"262":2879,"##b7":2880,"743":2881,"##f96":2882,"785":2883,"857":2884,"solrindexsearcher":2885,"##6bf":2886,"##services":2887,"##edir":2888,"\":-":2889,"romeid":2890,"romeidlist":2891,"0s1009s011":2892,"gener":2893,"ops":2894,"ops4j":2895,"30t":2896,"##nection":2897,"))":2898,"##)}":2899,"##tabl":2900,"exitabl":2901,"uninvertingdir":2902,"##edirectoryreader":2903,")))}":2904,"exitabledirectoryreader":2905,"uninvertingdirectoryreader":2906,"##fc":2907,"##servlet":2908,"##catalogprovider":2909,"##available":2910,"96":2911,"##response":2912,"##atedmethodaccessor":2913,"generatedmethodaccessor":2914,"##0e":2915,"c2":2916,"solrcatalogprovider":2917,"##d5":2918,"=+(+":2919,"rows":2920,"##)+&":2921,"pan":2922,"panel":2923,"fre":2924,"free":2925,"##103":2926,"0014":2927,"##2e":2928,"space":2929,"disk":2930,"ns11":2931,"##oding":2932,"fl":2933,"exchangeid":2934,"##6f":2935,"##2c":2936,"1149":2937,"runw":2938,"worker":2939,"runworker":2940,"1194":2941,"execute":2942,"##6a":2943,"doexec":2944,"1695":2945,"doexecute":2946,"servic":2947,"awq":2948,"proceed":2949,"##threadfactory":2950,"handleresponseinternal":2951,"internalcallback":2952,"doproceed":2953,"awqthreadfactory":2954,"##84f":2955,"##89a":2956,"ssl":2957,"65":2958,"##5z":2959,"jvm":2960,"##27":2961,"##coding":2962,"encoding":2963,"149":2964,"##910":2965,":(":2966,"##*)":2967,":(*)":2968,":(*))+":2969,"se":2970,"##theader":2971,"##----------------------------------------------------------------":2972,"setheader":2973,"p3a":2974,"##ipb":2975,"p3aipb":2976,"p3aipbn":2977,"c8":2978,"05t14":2979,"##a4":2980,"abstrac":2981,"##67":2982,"##fb":2983,"##c4":2984,"211":2985,"##d94":2986,"503":2987,"##typ":2988,"##6d":2989,"##37":2990,"0010":2991,"comman":2992,"##c1":2993,"116":2994,"0s1009s012":2995,"0006":2996,"0s1009s013":2997,"##31":2998,"##d3b":2999,"0x10000046b0e07":3000,"##6e":3001,"178":3002,"##thttp":3003,"...":3004,"##servererror":3005,"internalservererror":3006,"##3d":3007,"##dating":3008,"##_fl":3009,"##_commit":3010,"end_commit":3011,"##_flush":3012,"end_commit_flush":3013,"##b7b":3014,"sche":3015,"schem":3016,"##249":3017,"608":3018,"64":3019,"##f4":3020,"response":3021,"##f5":3022,"##tim":3023,"##ecommit":3024,"optim":3025,"prepar":3026,"optimize":3027,"preparecommit":3028,"generatedmethodaccessor172":3029,"req":3030,"pas":3031,"##sword":3032,"username":3033,"password":3034,"##vali":3035,"05t16":3036,"hit":3037,"##_out":3038,"##nv2":3039,"##msnv2":3040,"romemsnv2":3041,"req_out":3042,"hits":3043,"romemsnv2services":3044,"##ceptor":3045,"##e9":3046,"missionidlist":3047,"8080":3048,"71":3049,"/\"":3050,"ic":3051,"##yload":3052,"##chain":3053,"payload":3054,"ism":3055,"##lsoap":3056,"xmlsoap":3057,"romemissiondataws_v2_0":3058,"gov":3059,"portname":3060,"porttyp":3061,"headers":3062,"servicename":3063,"schemas":3064,"porttypename":3065,"##connection":3066,"##sec":3067,"31t":3068,"eat":3069,"##kill":3070,"##xrs":3071,"##hat":3072,"##what":3073,"##you":3074,"jaxrs":3075,"abstracthttp":3076,"eatwhat":3077,"##youkill":3078,"eatwhatyoukill":3079,"05t07":3080,"##platform":3081,"169035":3082,"##tf":3083,"invali":3084,"her":3085,"##cu":3086,"hercu":3087,"##bf3":3088,"##producer":3089,"##leto":3090,"releasableto":3091,"ownerproducer":3092,"utf":3093,"##p_":3094,"##rset":3095,"resp_":3096,"charset":3097,"return":3098,"##responseelement":3099,"resp_in":3100,"##e1":3101,"##ul":3102,"##rl":3103,"29t":3104,"c10":3105,"upda":3106,"##temission":3107,"updatemission":3108,"updatemissionmetacard":3109,"aa":3110,"operation":3111,"cor":3112,"103":3113,"##6de":3114,"##*,":3115,"##dator":3116,"##011":3117,"153":3118,"str":3119,"##f1":3120,"##bcc":3121,"280":3122,"##29c3":3123,"603":3124,"##f9":3125,"075":3126,"##b13f":3127,"##0583":3128,"200":3129,"055":3130,"##try":3131,"##408b":3132,"validator":3133,"##73fa":3134,"##13a9":3135,"##9c246":3136,"##d9":3137,"##8c29c3":3138,"##77f0583":3139,"##6bf9c246":3140,"##d3b77f0583":3141,"##73fa6bf9c246":3142,"##8c29c321":3143,"##d3b77f05838c29c321":3144,"##73fa6bf9c246d3b77f05838c29c321":3145,"##da77f":3146,"##9089a":3147,"##eb13a9":3148,"##b8408b":3149,"##266b8408b":3150,"##b13f9089a":3151,"##da77f49":3152,"##eb13a9266b8408b":3153,"##b13f9089ada77f49":3154,"##eb13a9266b8408bb13f9089ada77f49":3155,"checksu":3156,"checksum":3157,"##di":3158,"30t22":3159,"318":3160,"66":3161,"##943":3162,"crs":3163,"des":3164,"form":3165,"seri":3166,"tdl":3167,"url":3168,"##y_txt_tokenized":3169,"station":3170,"##ms_txt_tokenized":3171,"score":3172,"version_txt_tokenized":3173,"quali":3174,"end_txt_tokenized":3175,"start_txt_tokenized":3176,"download":3177,"comments_txt_tokenized":3178,"originator":3179,"action_txt_tokenized":3180,"validators":3181,"desc":3182,"format":3183,"serial":3184,"url_txt_tokenized":3185,"station_txt_tokenized":3186,"quality":3187,"alerts_shard1_replica_n1":3188,"_4":3189,"time_txt_tokenized":3190,"##ller":3191,"##contro":3192,"##controller":3193,"##0287":3194,"post":3195,"##e7":3196,"62":3197,"##fcc":3198,"##b0103":3199,"##d6d94":3200,"##853d6d94":3201,"##f9684f":3202,"##b7bb0103":3203,"##6de0287":3204,"##853d6d9446":3205,"##f9684fb7bb0103":3206,"##6de0287f9684fb7bb0103":3207,"##6de0287f9684fb7bb0103853d6d9446":3208,"##a5":3209,"##7cfa":3210,"##tered":3211,"##fy":3212,"##8dd3":3213,"88":3214,"##ked":3215,"##d7":3216,"021":3217,"75":3218,"##e2":3219,"##12504":3220,"16124":3221,"##518dd3":3222,"##91012504":3223,"aa7cfa":3224,"1612491012504":3225,"aa7cfa518dd3":3226,"##a7":3227,"##522":3228,"67":3229,"172":3230,"nat":3231,"##3c":3232,"##3b":3233,"##d4":3234,"unable":3235,"##ip":3236,"ns10":3237,"85":3238,"573":3239,"##f0":3240,"set":3241,"##430":3242,"52972":3243,"##e0":3244,"52920":3245,"cached":3246,"602":3247,"000006":3248,"52956":3249,"##a8":3250,"lientadapter":3251,"##xthandler":3252,"contexthandler":3253,"##d1":3254,"##eci":3255,"118":3256,"p3aipbn011":3257,"##c8":3258,"277":3259,"##3e":3260,"alerts_shard1_replica_n2":3261,"##rds":3262,"##cards":3263,"##metacards":3264,"65a":3265,".<":3266,"call":3267,"##object":3268,"##solr":3269,"getfor":3270,"getforobject":3271,"452":3272,"##py":3273,"##zz":3274,"##jz":3275,"##52aa":3276,"##ils":3277,"httpsolr":3278,"##1d5b":3279,"##ble":3280,"165":3281,"httpsolrcall":3282,")..":3283,")...":3284,"4bcc":3285,"a249":3286,"##ile":3287,"2921":3288,"461d5b":3289,"##95bf3":3290,"65a95bf3":3291,"##52aa17":3292,"461d5b52aa17":3293,"05t13":3294,"463":3295,"=+(++(+":3296,"##dis":3297,"romedis":3298,"##lean":3299,"romedisciplinetype":3300,"##e8":3301,"respon":3302,"##secode":3303,"responsecode":3304,"sup":3305,"##serviceimpl":3306,"catalogserviceimpl":3307,"fill":3308,"servletcontroller":3309,"createoperations":3310,"##interceptor":3311,"sslconnection":3312,"abstracthttpservlet":3313,"cachedchain":3314,"support":3315,"iw":3316,"##commit":3317,"##lin":3318,"##pt":3319,"##comm":3320,"afr":3321,"hyb":3322,"jfcc":3323,"reco":3324,"sro":3325,"vess":3326,"vip":3327,"##rid":3328,"##t12":3329,"##t09":3330,"##tails":3331,"##icom":3332,"applica":3333,"##demo":3334,"##oct09":3335,"##vered":3336,"##verted":3337,"##nding":3338,"13t12":3339,"##missionlist":3340,"##525z":3341,"details":3342,"diverted":3343,"bard":3344,"02t16":3345,"##agged":3346,"standing":3347,"capt":3348,"imint":3349,"flagged":3350,"herculean":3351,"##kedmissionlist":3352,"021525z":3353,".</":3354,"##linkedmissionlist":3355,"africom":3356,"hybrid":3357,"jfccdemo":3358,"recovered":3359,"vessel":3360,"applicable":3361,"capture":3362,"021525zoct09":3363,"hybridlinkedmissionlist":3364,"##a2":3365,"##d0":3366,"##andversion":3367,"commitcomm":3368,"setcommit":3369,"calling":3370,"commitcommandversion":3371,"setcommitdata":3372,"423":3373,"##6b":3374,"418":3375,"##f8":3376,"provider":3377,"##a1":3378,"90":3379,"##773":3380,"604":3381,"available":3382,"61":3383,"76":3384,"111":3385,"##gi":3386,"osgi":3387,"402":3388,"##ann":3389,"missions":3390,"596":3391,"83":3392,"##am":3393,"##meti":3394,"##rometi":3395,"##rometimer":3396,"93":3397,"c3":3398,"600":3399,"c6":3400,"c16":3401,"c12":3402,"546":3403,"_version":3404,"_version_":3405,"533":3406,"68":3407,"##ece":3408,"91":3409,"543":3410,"2173fa6bf9c246d3b77f05838c29c321":3411,"229":3412,"220":3413,"wor":3414,"##reak":3415,"##dbreak":3416,"wordbreak":3417,"##6c":3418,"##sc":3419,"real":3420,"##72a":3421,"##source":3422,"4eb13a9266b8408bb13f9089ada77f49":3423,"537":3424,"539":3425,"realtime":3426,"##bas":3427,"indexbas":3428,"indexbased":3429,"solrc":3430,"544":3431,"89":3432,"+*])++)+&":3433,"\"+)++)++":3434,"sending":3435,"b6de0287f9684fb7bb0103853d6d9446":3436,"##loc":3437,"92":3438,"configur":3439,"1642":3440,"##vailab":3441,"##doc":3442,"##ument":3443,"##handle":3444,"dohandle":3445,"adddoc":3446,"##scope":3447,"adddocument":3448,"581":3449,"126":3450,"unavailable":3451,"##unavailable":3452,"registered":3453,"solrcore":3454,"403":3455,"wire":3456,"##getmission":3457,"wireta":3458,"##f88":3459,"000001":3460,"394":3461,"##8e4":3462,"##regis":3463,"##157":3464,"70":3465,"151":3466,"69":3467,"550":3468,"99":3469,"##dexten":3470,"commandexten":3471,"commandextension":3472,"556":3473,"540":3474,"146":3475,"##b7d":3476,"tags_txt":3477,"##ly":3478,"##poll":3479,"##pollthread":3480,"_30":3481,"420":3482,"536":3483,"553":3484,"c5522":3485,"configured":3486,"updateplatform":3487,"updateplatformmetacard":3488,"##d8":3489,"availab":3490,"##ify":3491,"verify":3492,"checking":3493,"##rectly":3494,"while":3495,"correctly":3496,"availability":3497,"486":3498,"594":3499,"412":3500,"##vision":3501,"##027":3502,"##148":3503,"591":3504,"##704":3505,"87":3506,"+(":3507,"fq":3508,"revision":3509,"++(+(":3510,"deleted":3511,"warnings_txt":3512,"=+(++(++":3513,"599":3514,"549":3515,"##1bc":3516,"552":3517,"timer":3518,"422":3519,"=}":3520,"##73f":3521,"0x10000046b0e015":3522,"545":3523,"609":3524,"tra":3525,"##stan":3526,"##pper":3527,"588":3528,"473":3529,"##wra":3530,"##wrapper":3531,"350":3532,"541":3533,"606":3534,"_6":3535,"##425":3536,"29t18":3537,"250":3538,"##stance":3539,"##perty":3540,"c18":3541,"388":3542,"411":3543,"##808":3544,"400":3545,"419":3546,"invalidating":3547,"##242":3548,"rece":3549,"##ived":3550,"received":3551,"##ction":3552,"##120":3553,"##560":3554,"583":3555,"524":3556,"4f2":3557,"415":3558,"feat":3559,"##gc":3560,"##400":3561,"##ik":3562,"##uuq":3563,"##xs":3564,"##nm":3565,"ka":3566,"karaf":3567,"576":3568,"##action":3569,"526":3570,"import":3571,"track":3572,"##ategy":3573,"601":3574,"607":3575,"538":3576,"fir":3577,"##8d773":3578,"_5":3579,"605":3580,"argc":3581,"##selement":3582,"getmissionselement":3583,"##riteria":3584,"argcriteria":3585,"##method":3586,"95":3587,"##econ":3588,"542":3589,"##948":3590,"##ults":3591,"4f28d773":3592,"\",":3593,"=*":3594,"bread":3595,"gmt":3596,"##cru":3597,"##peci":3598,"##/*,":3599,"##><":3600,"##edtime":3601,"faults":3602,"##almission":3603,"##816":3604,"httpmethod":3605,"ns9":3606,"ns7":3607,"ns6":3608,"ns4":3609,"ns3":3610,"ns8":3611,"soapaction":3612,"##mbid":3613,"romemissionsched":3614,"romespeci":3615,"\"><":3616,"romeidlistrequest":3617,"/\"><":3618,"firedtime":3619,"=*/*,":3620,"breadcru":3621,"##almissionsched":3622,"romespecialmissionsched":3623,"breadcrumbid":3624,"##ueued":3625,"##tendpoint":3626,"329":3627,"updating":3628,"##160":3629,"120":3630,"equest":3631,"getmissionidselement":3632,"equestrometimer":3633,"##subject":3634,"strategy":3635,"523":3636,"##eng":3637,"##ava":3638,"##java":3639,"##480":3640,"securityjava":3641,"##subjectfilter":3642,"securityjavasubjectfilter":3643,"queued":3644,"##socket":3645,"websocket":3646,"sessionhandler":3647,"serviceinvoker":3648,"##threadpool":3649,"restendpoint":3650,"handlerwrapper":3651,"abstractinvoker":3652,"##interest":3653,"jaxrsinvoker":3654,"fillinterest":3655,"queuedthreadpool":3656,"serviceinvokerinterceptor":3657,"110":3658,"86":3659,"##roperty":3660,"##servicep":3661,"serviceunavailable":3662,"configservicep":3663,"##sourceloc":3664,"##ropertysourceloc":3665,"configservicepropertysourceloc":3666,"configservicepropertysourcelocator":3667,"109":3668,"##5456":3669,"114":3670,"535":3671,"p3aipbn0111":3672,"586":3673,"05t04":3674,"##p2":3675,"##833":3676,"557":3677,"aip2":3678,"getmissionsresponseelement":3679,"leng":3680,"##144":3681,"length":3682,"424":3683,"getmissionidsresponseelement":3684,"##045":3685,"##sr":3686,"##568":3687,"494":3688,"##546":3689,"##437":3690,"521":3691,"77":3692,"547":3693,"150":3694,"inform":3695,"information":3696,"##824":3697,"##216":3698,"443":3699,"##043":3700,"##946":3701,"98":3702,"393":3703,"513":3704,"##495":3705,"##flo":3706,"##753":3707,"workflo":3708,"workflow":3709,"ler":3710,"##7580":3711,"366":3712,"lerpollthread":3713,"##6821":3714,"532":3715,"577":3716,"##880":3717,"##7089":3718,"506":3719,"##ces":3720,"##ources":3721,"416":3722,"391":3723,"488":3724,"commands":3725,"446":3726,"##744":3727,"593":3728,"##648":3729,"##0491":3730,"132":3731,"##f672a":3732,"##db157":3733,"##ae6821":3734,"##430db157":3735,"##027430db157":3736,"##54568e4":3737,"##f672a54568e4":3738,"##ae6821027430db157":3739,"##ae6821027430db157f672a54568e4":3740,"##536":3741,"##b140":3742,"##840":3743,"inc":3744,"##448":3745,"404":3746,"{,":3747,"##ied":3748,"##ac13":3749,"image":3750,"444":3751,"##ith":3752,"##c31e":3753,"##104":3754,"resources":3755,"##itat":3756,"##oitat":3757,"expl":3758,"##ization":3759,"##oitation":3760,"exploitation":3761,"456":3762,"pri":3763,"##ority":3764,"priority":3765,"co":3766,"##orting":3767,"##untry":3768,"reporting":3769,"country":3770,"feature":3771,"16903641":3772,"sub":3773,"##404":3774,"11eb":3775,"##760":3776,"##1d20":3777,"\")+":3778,"=*,":3779,"al":3780,"ali":3781,"alg":3782,"by_txt_tokenized":3783,"date":3784,"edi":3785,"gro":3786,"jc3":3787,"mode":3788,"oth":3789,"rid":3790,"rating":3791,"sit":3792,"sort":3793,"voc":3794,"##lated":3795,"##uation":3796,"##ups":3797,"##ual":3798,"##uage":3799,"##ption":3800,"##mes":3801,"##m_txt_tokenized":3802,"##wor":3803,"##word":3804,"##ernal":3805,"##orith":3806,"##tatype":3807,"##tems_txt_tokenized":3808,"##atfor":3809,"##ds_txt_tokenized":3810,"##_type":3811,"##ing_txt_tokenized":3812,"##ective":3813,"organ":3814,"indi":3815,"##ame_txt_tokenized":3816,"producer":3817,"related":3818,"unit":3819,"##_name_txt_tokenized":3820,"platfor":3821,"##ident":3822,"##pression":3823,"##as_txt_tokenized":3824,"compression":3825,"metacard_type":3826,"##abul":3827,"scann":3828,"names":3829,"external":3830,"contact_txt_tokenized":3831,"keyword":3832,"##+(+(":3833,"systems_txt_tokenized":3834,"##ription":3835,"datatype":3836,"source_txt_tokenized":3837,"metadata_txt_tokenized":3838,"subj":3839,"codewor":3840,"language":3841,"size_txt_tokenized":3842,"##vidual":3843,"tail_txt_tokenized":3844,"##arm":3845,"##ary_txt_tokenized":3846,"##pace_txt_tokenized":3847,"owner_txt_tokenized":3848,"location_txt_tokenized":3849,"origin_txt_tokenized":3850,"original":3851,"title_txt_tokenized":3852,"+*])++)++)+&":3853,"derived_txt_tokenized":3854,"=+(++(+(":3855,"encoding_txt_tokenized":3856,"string_txt_tokenized":3857,"checksum_txt_tokenized":3858,"description":3859,"format_txt_tokenized":3860,"quality_txt_tokenized":3861,"nato":3862,"##stance_txt_tokenized":3863,"information_txt_tokenized":3864,"incident":3865,"##iedm":3866,"##izational":3867,"priority_txt_tokenized":3868,"substance_txt_tokenized":3869,"alarm":3870,"alias_txt_tokenized":3871,"algorith":3872,"datetime":3873,"edited":3874,"groups":3875,"jc3iedm":3876,"mode_txt_tokenized":3877,"other":3878,"rid_txt_tokenized":3879,"rating_txt_tokenized":3880,"situation":3881,"vocabul":3882,"organizational":3883,"individual":3884,"producer_txt_tokenized":3885,"related_txt_tokenized":3886,"unit_txt_tokenized":3887,"platforms_txt_tokenized":3888,"compression_txt_tokenized":3889,"metacard_type_name_txt_tokenized":3890,"scanning":3891,"namespace_txt_tokenized":3892,"external_txt_tokenized":3893,"keyword_txt_tokenized":3894,"datatype_txt_tokenized":3895,"subjective":3896,"codewords_txt_tokenized":3897,"language_txt_tokenized":3898,"description_txt_tokenized":3899,"algorithm_txt_tokenized":3900,"groups_txt_tokenized":3901,"vocabulary_txt_tokenized":3902,"individuals_txt_tokenized":3903,"477":3904,"jo":3905,"exit":3906,"##493":3907,"sensors_txt_tokenized":3908,"join":3909,"84":3910,"333":3911,"516":3912,"343":3913,"clea":3914,"##146":3915,"0242":3916,"amq22":3917,"0x10000046b0e08":3918,"0242ac13":3919,"##b0b2":3920,"0x10000046b0e00":3921,"##346":3922,"##296":3923,"406":3924,"555":3925,"377":3926,"##446":3927,"29t19":3928,"##ec73f":3929,"381":3930,"31t03":3931,"##06b9":3932,"##f881d20":3933,"##7580f881d20":3934,"##049106b9":3935,"##b1407580f881d20":3936,"##ec73feb":3937,"##049106b9b1407580f881d20":3938,"##049106b9b1407580f881d20ec73feb":3939,"386":3940,"##81853":3941,"##b1c31e":3942,"##9437089":3943,"##b7d9437089":3944,"##1bc81853":3945,"##b0b2b7d9437089":3946,"##b1c31e1bc81853":3947,"##b0b2b7d9437089b1c31e1bc81853":3948,"383":3949,"##416":3950,"396":3951,"530":3952,"##008":3953,"000000":3954,"wiretap":3955,"05t11":3956,"##210":3957,"##528":3958,"225":3959,"429":3960,"94":3961,"305":3962,"585":3963,"453":3964,"##c8c":3965,"rss":3966,"0000015":3967,"496":3968,"726":3969,"##844":3970,"##040":3971,"##872":3972,"##8ae":3973,"476":3974,"499":3975,"##168":3976,"353":3977,"531":3978,"##eca":3979,"##0346":3980,"##896":3981,"417":3982,"getplatform":3983,"getplatformmetacards":3984,"##494":3985,"##894":3986,"447":3987,"466":3988,"559":3989,"default":3990,"httpservic":3991,"425":3992,"##econtext":3993,"httpservicecontext":3994,"##794":3995,"566":3996,"107":3997,"589":3998,"483":3999,"104":4000,"##206":4001,"385":4002,"215":4003,"595":4004,"440":4005,"##8eb":4006,"356":4007,"255":4008,"##804":4009,"78":4010,"1690369":4011,"130":4012,"375":4013,"##c12":4014,"##992":4015,"nati":4016,"##496":4017,"##846":4018,"creating":4019,"actionprovider":4020,"##526":4021,"376":4022,"##ables":4023,"512":4024,"##860":4025,"409":4026,"invalidate":4027,"##oot":4028,"449":4029,"##746":4030,"##verage":4031,"509":4032,"405":4033,"181":4034,"##450":4035,"##loa":4036,"##loada":4037,"##208":4038,"##347":4039,"426":4040,"operations":4041,"##clientadapter":4042,"173":4043,"575":4044,"##988":4045,"525":4046,"fs":4047,"hea":4048,"##cpu":4049,"##eroot":4050,"143":4051,"processcpu":4052,"usables":4053,"systemloada":4054,"coreroot":4055,"heap":4056,"processcpuload":4057,"usablespace":4058,"systemloadaverage":4059,"##768":4060,"##436":4061,"598":4062,"javax":4063,"175":4064,"##78e":4065,"##488":4066,"##gest":4067,"ingest":4068,"##486":4069,"551":4070,"413":4071,"16902454":4072,"##440":4073,"##096":4074,"##_end":4075,"##_point":4076,"commit_end":4077,"commit_end_point":4078,"141":4079,"251":4080,"504":4081,"##904":4082,"##724":4083,"##776":4084,"getmissionmetacards":4085,"-----------------------------------------------------------------":4086,"romegetmission":4087,"##------":4088,"delivery":4089,"choice":4090,"##----------------------------------------------------------------------":4091,"operationname":4092,"---------------------------------------------------------------------------------------------------------------------------------------":4093,"pha":4094,"##lable":4095,"##ination":4096,"##erved":4097,"onfil":4098,"##estination":4099,"doscope":4100,"reserved":4101,"##entity":4102,"##forentity":4103,"postforentity":4104,"ingestmetacard":4105,"phase":4106,"onfillable":4107,"515":4108,"810":4109,"##456":4110,"0x10000046b0e09":4111,"502":4112,"##man":4113,"373":4114,"##126":4115,"##424":4116,"620":4117,"418z":4118,"##644":4119,"##c06":4120,"563":4121,"363":4122,"##800":4123,"##788":4124,"##502":4125,"511":4126,"##936":4127,"##796":4128,"445":4129,"native":4130,"395":4131,"05t17":4132,"590":4133,"579":4134,"feb":4135,"399":4136,"228":4137,"612":4138,"fri":4139,"##702":4140,"##940":4141,"230":4142,"493":4143,"##de1":4144,"##136":4145,"##770":4146,"##836":4147,"##e66":4148,"unregis":4149,"##832":4150,"332":4151,"##856":4152,"450":4153,"##112":4154,"216":4155,"168":4156,"##290":4157,"##432":4158,"433":4159,"##740":4160,"30t23":4161,"349":4162,"##e36":4163,"##248":4164,"580":4165,"97":4166,"436":4167,"159":4168,"##194":4169,"##506":4170,"##864":4171,"##886":4172,"##766":4173,"347":4174,"475":4175,"##m0":4176,"330":4177,"##128":4178,"##996":4179,"465":4180,"345":4181,"534":4182,"380":4183,"##890":4184,"341":4185,"##c8d":4186,"140":4187,"##3f9":4188,"##122":4189,"573ae6821027430db157f672a54568e4":4190,"203":4191,"288":4192,"459":4193,"439":4194,"237":4195,"435":4196,"491":4197,"455":4198,"364":4199,"527":4200,"##76e":4201,"##472":4202,"05t02":4203,"##444":4204,"##466":4205,"05t08":4206,"387":4207,"##106":4208,"569":4209,"572":4210,"336":4211,"##042":4212,"##990":4213,"##594":4214,"##810":4215,"##202":4216,"407":4217,"##403":4218,"##294":4219,"##188":4220,"##048":4221,"##166":4222,"582":4223,"shel":4224,"592":4225,"shell":4226,"432":4227,"565":4228,"145":4229,"223":4230,"##5287":4231,"355":4232,"276":4233,"340":4234,"##786":4235,"##203":4236,"##408":4237,"##235":4238,"[{":4239,"##24a":4240,"##806":4241,"000007":4242,"##0112":4243,"p3aipbn0113":4244,"570":4245,"156":4246,"proxy":4247,"##812":4248,"p3aipbn0112":4249,"##2b0b2b7d9437089b1c31e1bc81853":4250,"4022b0b2b7d9437089b1c31e1bc81853":4251,"218":4252,"348":4253,"505":4254,"##736":4255,"522":4256,"##243":4257,"_3h":4258,"112":4259,"##214":4260,"##402":4261,"##260":4262,"[?:?]":4263,"725":4264,"##764":4265,"##410":4266,"_56":4267,"##482":4268,"##ecipe":4269,"613":4270,"528":4271,"79049106b9b1407580f881d20ec73feb":4272,"}]":4273,"##884":4274,"365":4275,"123":4276,"185":4277,"389":4278,"212":4279,"_54":4280,"##176":4281,"##562":4282,"],":4283,"mpl":4284,"707":4285,"115":4286,"##706":4287,"_52":4288,"_53":4289,"193":4290,"##7x":4291,"##006":4292,"16902455":4293,"_55":4294,"390":4295,"335":4296,"_3f":4297,"195":4298,"623":4299,"_2m":4300,"55a":4301,"136":4302,"##508":4303,"##944":4304,"##030":4305,"442":4306,"##866":4307,"c5425":4308,"423z":4309,"_2l":4310,"c35":4311,"##442":4312,"472":4313,"382":4314,"0x10000046b0e01":4315,"##748":4316,"##21a":4317,"219":4318,"##236":4319,"c5437":4320,"9a":4321,"234":4322,"124":4323,"562":4324,"##876":4325,"c35287":4326,"##700":4327,"##443":4328,"287":4329,"696":4330,"910":4331,"186":4332,"183":4333,"561":4334,"176":4335,"##cb7":4336,"c35495":4337,"can":4338,"##fdc9":4339,"##not":4340,"cannot":4341,"##728":4342,"##026":4343,"##503":4344,"31t0":4345,"001a":4346,"31t01":4347,"352":4348,"208":4349,"285":4350,"469":4351,"31t04":4352,"##2x":4353,"##8i":4354,"265":4355,"119":4356,"##960":4357,"##b46":4358,"##1511":4359,"##c4a":4360,"##non":4361,"##998":4362,"372":4363,"909":4364,"##um":4365,"122":4366,"##7i":4367,"##7k":4368,"##e521":4369,"448":4370,"c48":4371,"##544":4372,"571":4373,"##818":4374,"267":4375,"##ef11":4376,"611":4377,"##143":4378,"519":4379,"344":4380,"##49a":4381,"##772":4382,"##110":4383,"##712":4384,"##942":4385,"##530":4386,"470":4387,"##8k":4388,"##ok":4389,"001c":4390,"##490":4391,"0018":4392,"##778":4393,"##c8c2":4394,"4f":4395,"001e":4396,"##1n":4397,"000008":4398,"635":4399,"##14a":4400,"##882":4401,"##162":4402,"##238":4403,"##d575":4404,"all":4405,"205":4406,"167":4407,"618":4408,"cff":4409,"##060":4410,"##0648":4411,"##564":4412,"##498":4413,"479":4414,"##ching":4415,"##538":4416,"lu":4417,"##ow":4418,"610":4419,"##former":4420,"##94d":4421,"370":4422,"inter":4423,"392":4424,"##80c5":4425,"##6bf0":4426,"##c12b":4427,"interceptor":4428,"##4eb13a9266b8408bb13f9089ada77f49":4429,"##wf2":4430,"##j1":4431,"##460":4432,"##464":4433,"gdes4eb13a9266b8408bb13f9089ada77f49":4434,"rclientadapter":4435,"stal":4436,"##462":4437,"stale":4438,"622":4439,"##qx":4440,"##j5":4441,"##14z":4442,"subject":4443,"310":4444,"161":4445,"379":4446,"091":4447,"906":4448,"113":4449,"44b2":4450,"0i8":4451,"616":4452,"617":4453,"7lu":4454,"hen":4455,"j9":4456,"kn6":4457,"lg":4458,"nvm":4459,"niy":4460,"nnm":4461,"o6":4462,"oh":4463,"ux":4464,"uty":4465,"vq":4466,"xk":4467,"xn":4468,"yu":4469,"##9t":4470,"##9lq":4471,"##6m":4472,"##6ng":4473,"##0qs":4474,"##4o":4475,"##4p":4476,"##4m":4477,"##4zz":4478,"##3r":4479,"##3n":4480,"##3q":4481,"##5h":4482,"##5dt":4483,"##8qx":4484,"##fg":4485,"##bx":4486,"##bmp":4487,"##bgz":4488,"##bnl":4489,"##drs":4490,"##dxs":4491,"##dnm":4492,"##1zy":4493,"##aq":4494,"##rw":4495,"##ry":4496,"##r2b":4497,"##r78e":4498,"##r2x":4499,"##iqu":4500,"##iio":4501,"##ixj":4502,"##i7x":4503,"##i3r":4504,"##o22":4505,"##ow6":4506,"##tq":4507,"##tpe":4508,"##t833":4509,"##l04":4510,"##llr":4511,"##gl3":4512,"##gbr":4513,"##g2b":4514,"##gc7":4515,"##gtq":4516,"##ua0":4517,"##u6bf0":4518,"##u9t":4519,"##u6ng":4520,"##pf7":4521,"##p648":4522,"##p4zz":4523,"##pgl3":4524,"##kj7":4525,"##k0y":4526,"##kpgl3":4527,"##xoh":4528,"##xu1":4529,"##x5c":4530,"##xixj":4531,"##nef":4532,"##nv1":4533,"##zjz":4534,"##zdnm":4535,"##qv":4536,"##q45":4537,"##qm0":4538,"##qc8c2":4539,"##q5h":4540,"##ql04":4541,"##mtr":4542,"##m28":4543,"##vu":4544,"##vw":4545,"##vin":4546,"##v0b":4547,"##vfy":4548,"##hw8":4549,"##hrt":4550,"##h0c":4551,"##h9lq":4552,"##hx5c":4553,"##wtg":4554,"##w1n":4555,"##wow6":4556,"##yva":4557,"##ynd":4558,"##yef11":4559,"##y14z":4560,"##jit":4561,"##joz":4562,"##jhrt":4563,"##usog":4564,"##mqbgz":4565,"##fof7":4566,"##iz8":4567,"##izaq":4568,"##izvu":4569,"##plqc8c2":4570,"##ebzz":4571,"##ebk0y":4572,"##ueq45":4573,"##04a":4574,"##prc12b":4575,"##cnh9lq":4576,"##ty5g":4577,"##02u9t":4578,"##ys3q":4579,"##wgig":4580,"##lo02u9t":4581,"##pbio":4582,"##ctq5h":4583,"##vo8ae":4584,"##i5tg":4585,"##adprc12b":4586,"##w30qs":4587,"##z345":4588,"##km6m":4589,"##72gc7":4590,"##nsj3":4591,"##xmmtr":4592,"##dudrs":4593,"##x0mqbgz":4594,"##x0fof7":4595,"##35v5":4596,"##35y14z":4597,"##17kv":4598,"##i0py":4599,"##xdok":4600,"##pazjz":4601,"##ngp4zz":4602,"##9fxu1":4603,"##lrz345":4604,"##zq3s":4605,"##zqxoh":4606,"##v9e521":4607,"ep8i":4608,"##jge66":4609,"##dv9gtq":4610,"##ko4p":4611,"##cbm28":4612,"##zkwf2":4613,"##f96wgig":4614,"##5zebzz":4615,"##a4r78e":4616,"##pyam":4617,"##pyw30qs":4618,"##zztpe":4619,"##jzam":4620,"##ikdxs":4621,"##ikzztpe":4622,"##uuqiqu":4623,"##uuqxmmtr":4624,"##045j5":4625,"##644vw":4626,"##de1wtg":4627,"##3f9lrz345":4628,"55apyw30qs":4629,"##fdc90648":4630,"##umu6bf0":4631,"##7iuuqxmmtr":4632,"##7k1511":4633,"##8kgbr":4634,"##d575jhrt":4635,"cffplqc8c2":4636,"luhx5c":4637,"##j1iz8":4638,"0i8wow6":4639,"7lu7iuuqxmmtr":4640,"hen5dt":4641,"j9jzam":4642,"kn635v5":4643,"lg3f9lrz345":4644,"nvmjit":4645,"niyjoz":4646,"nnmrw":4647,"o6nef":4648,"oh3n":4649,"ux644vw":4650,"utyngp4zz":4651,"vqi0py":4652,"xkadprc12b":4653,"xnbnl":4654,"yufdc90648":4655,"##4o25":4656,"##4mdudrs":4657,"##fgpbio":4658,"##bx1zy":4659,"##bmp17kv":4660,"##ryikzztpe":4661,"##r2bw":4662,"##r2xvo8ae":4663,"##iiofgpbio":4664,"##i7xuuqiqu":4665,"##i3rko4p":4666,"##t833lo02u9t":4667,"##g2bxixj":4668,"##u6ngr2bw":4669,"##pf7de1wtg":4670,"##p648d575jhrt":4671,"##kj7pyam":4672,"##kpgl38qx":4673,"##nv1r2xvo8ae":4674,"##zdnmh0c":4675,"##qvzqxoh":4676,"##qm0i5tg":4677,"##ql04qvzqxoh":4678,"##vinizaq":4679,"##v0bpazjz":4680,"##vfycbm28":4681,"##w1n35y14z":4682,"##yva6":4683,"##yndq":4684,"##yef11usog":4685,"##ebk0yzq3s":4686,"##ueq45g2bxixj":4687,"##cnh9lq7k1511":4688,"##ty5gjz":4689,"##ys3qj1iz8":4690,"##ctq5hpf7de1wtg":4691,"##km6mzkwf2":4692,"##72gc7p648d575jhrt":4693,"##nsj3llr":4694,"##x0mqbgzu6ngr2bw":4695,"##x0fof7yva6":4696,"##xdokt833lo02u9t":4697,"##9fxu1kj7pyam":4698,"##v9e521a4r78e":4699,"ep8iqm0i5tg":4700,"##jge66w1n35y14z":4701,"##f96wgig045j5":4702,"##5zebzzueq45g2bxixj":4703,"##ikdxsjge66w1n35y14z":4704,"55apyw30qs8kgbr":4705,"##umu6bf0nsj3llr":4706,"cffplqc8c2ql04qvzqxoh":4707,"luhx5cvinizaq":4708,"0i8wow6iiofgpbio":4709,"7lu7iuuqxmmtrf96wgig045j5":4710,"hen5dtnv1r2xvo8ae":4711,"j9jzami3rko4p":4712,"kn635v5ebk0yzq3s":4713,"lg3f9lrz345v0bpazjz":4714,"nvmjitbx1zy":4715,"niyjozikdxsjge66w1n35y14z":4716,"nnmrw72gc7p648d575jhrt":4717,"o6nefyef11usog":4718,"oh3nkm6mzkwf2":4719,"ux644vwctq5hpf7de1wtg":4720,"utyngp4zz9fxu1kj7pyam":4721,"vqi0py5zebzzueq45g2bxixj":4722,"xkadprc12bxdokt833lo02u9t":4723,"xnbnlbmp17kv":4724,"yufdc90648x0mqbgzu6ngr2bw":4725,"##4mdudrsdv9gtq":4726,"##ryikzztpeua0":4727,"##i7xuuqiquhw8":4728,"##zdnmh0cizvu":4729,"##vfycbm28w":4730,"##v9e521a4r78exs":4731,"ep8iqm0i5tgumu6bf0nsj3llr":4732,"55apyw30qs8kgbrx0fof7yva6":4733,"cffplqc8c2ql04qvzqxohyndq":4734,"luhx5cvinizaqryikzztpeua0":4735,"0i8wow6iiofgpbioys3qj1iz8":4736,"hen5dtnv1r2xvo8aekpgl38qx":4737,"j9jzami3rko4pcnh9lq7k1511":4738,"kn635v5ebk0yzq3svfycbm28w":4739,"lg3f9lrz345v0bpazjzty5gjz":4740,"nvmjitbx1zyv9e521a4r78exs":4741,"nnmrw72gc7p648d575jhrto22":4742,"o6nefyef11usogzdnmh0cizvu":4743,"oh3nkm6mzkwf2i7xuuqiquhw8":4744,"ux644vwctq5hpf7de1wtg4o25":4745,"utyngp4zz9fxu1kj7pyam80c5":4746,"vqi0py5zebzzueq45g2bxixjt":4747,"xnbnlbmp17kv4mdudrsdv9gtq":4748,"##c44":4749,"##74a":4750,"485":4751,"247":4752,"##84a":4753,"##2173fa6bf9c246d3b77f05838c29c321":4754,"gdes2173fa6bf9c246d3b77f05838c29c321":4755,"252":4756,"##814":4757,"471":4758,"##initi":4759,"##0003":4760,"179":4761,"##874":4762,"780":4763,"##b04":4764,"683":4765,"##743":4766,"##726":4767,"1301":4768,"584":4769,"##413":4770,"369":4771,"##tryproxy":4772,"##registryproxy":4773,"actionproviderregistryproxy":4774,"621":4775,"745":4776,"clientinfo":4777,"615":4778,"##b47":4779,"##149":4780,"495":4781,"##42a":4782,"##c43":4783,"##c4d":4784,"##774":4785,"342":4786,"##05c":4787,"799":4788,"194":4789,"##484":4790,"260":4791,"requesting":4792,"##esb6de0287f9684fb7bb0103853d6d9446":4793,"257":4794,"462":4795,"gdesb6de0287f9684fb7bb0103853d6d9446":4796,"##032":4797,"insec":4798,"##754":4799,"8888":4800,"csr":4801,"fet":4802,"nex":4803,"##8ea":4804,"##bserver":4805,"##bba":4806,"##destination":4807,"##collection":4808,"##observer":4809,"##gra":4810,"##spring":4811,"##ontend":4812,"##ints":4813,"##ininiti":4814,"##threa":4815,"##thand":4816,"##chann":4817,"##218":4818,"##ervleth":4819,"##older":4820,"##cceed":4821,"##ecutor":4822,"##xtscope":4823,"##ilter":4824,"##defilter":4825,"##ationobserver":4826,"catalogframework":4827,"httpservices":4828,"httpservlet":4829,"httpchann":4830,"cxfnon":4831,"##upgra":4832,"##nnel":4833,"##handlercollection":4834,"##serverhandlercollection":4835,"jettyserverhandlercollection":4836,"##ffilter":4837,"##points":4838,"perform":4839,"##dexecutor":4840,"##duce":4841,"invoker":4842,"securityhandler":4843,"httpconnection":4844,"chaininiti":4845,"channel":4846,"nextscope":4847,"succeed":4848,"endpoints":4849,"abstractconnection":4850,"frontend":4851,"servletholder":4852,"responsefilter":4853,"abstracthttpdestination":4854,"fillable":4855,"##interceptorchain":4856,"websocketupgra":4857,"reservedthrea":4858,"phaseinterceptorchain":4859,"clientinfofilter":4860,"csrffilter":4861,"fetching":4862,"nexthand":4863,"##springservlet":4864,"##ervlethandler":4865,"catalogframeworkimpl":4866,"httpserviceservlethandler":4867,"httpchannel":4868,"cxfnonspringservlet":4869,"chaininitiationobserver":4870,"channelendpoint":4871,"succeeded":4872,"websocketupgradefilter":4873,"reservedthreadexecutor":4874,"nexthandle":4875,"791":4876,"8753":4877,"tman":4878,"419z":4879,"c50":4880,"lab":4881,"low":4882,"##vir":4883,"##onment":4884,"profiles":4885,"431":4886,"envir":4887,"located":4888,"label":4889,"environment":4890,"##2107":4891,"482":4892,"rus":4893,"##rectory":4894,"directory":4895,"aip1":4896,"hercules":4897,"301":4898,"##813":4899,"331":4900,"##533":4901,"##968":4902,"457":4903,"492":4904,"133":4905,"##2d3":4906,"554":4907,"##573":4908,"162":4909,"##044":4910,"362":4911,"##b48":4912,"##b4f":4913,"294":4914,"##f44":4915,"##87a":4916,"359":4917,"##848":4918,"cro":4919,"dom":4920,"side":4921,"##fer":4922,"##otm":4923,"##set":4924,"##esponset":4925,"routerome":4926,"transfer":4927,"writing":4928,"getmissionsresponse":4929,"##getmissionsr":4930,"cross":4931,"domain":4932,"##otman":4933,"##esponsetotman":4934,"routeromegetmissionsr":4935,"routeromegetmissionsresponsetotman":4936,"501":4937,"245":4938,"293":4939,"##930":4940,"308":4941,"##81a":4942,"361":4943,"##549":4944,"##task":4945,"##4aa":4946,"e91":4947,"##b4d":4948,"371":4949,"##fa6":4950,"489":4951,"224":4952,"##716":4953,"##b96":4954,"##838":4955,"490":4956,"135":4957,"765":4958,"196":4959,"##b44":4960,"##c40":4961,"468":4962,"727":4963,"337":4964,"279":4965,"c57":4966,"##ca6":4967,"##b9a":4968,"##892":4969,"##7353":4970,"##7aa":4971,"##84d":4972,"##993":4973,"##534":4974,"##tering":4975,"##843":4976,"##7a9c":4977,"##907":4978,"##326":4979,"1690370":4980,"865":4981,"##747":4982,"127":4983,"##322":4984,"c38":4985,"##24e":4986,"##130":4987,"612ms":4988,"##742":4989,"##99a":4990,"##730":4991,"##178":4992,"614":4993,"##f4f":4994,"##used":4995,"792":4996,"##2061":4997,"##113":4998,"##918":4999,"##729":5000,"##114":5001,"##118":5002,"##418":5003,"##780":5004,"##la":5005,"##80a":5006,"908":5007,"221":5008,"_k":5009,"##986":5010,"##e44":5011,"##d44":5012,"##264":5013,"unregistering":5014,"##752":5015,"##bea":5016,"##eeb":5017,"626":5018,"636":5019,"713":5020,"##e46":5021,"458":5022,"625":5023,"##900":5024,"##ery":5025,"##query":5026,"558":5027,"##002":5028,"delete":5029,"703":5030,"##ims":5031,"##433":5032,"##89f":5033,"0242ac130003":5034,"##laims":5035,"4a":5036,"619":5037,"1690356":5038,"clearing":5039,"amq222061":5040,"1690363":5041,"##414":5042,"##963":5043,"##b6a":5044,"##red":5045,"510":5046,"0x10000046b0e028b":5047,"cleared":5048,"amq222107":5049,"##b88":5050,"##bd6":5051,"##04e":5052,"##117":5053,"0x10000046b0e028c":5054,"c9":5055,"##49c":5056,"##854":5057,"##584":5058,"deleteby":5059,"##f4a":5060,"##94a":5061,"(-":5062,")}":5063,"deletebyquery":5064,"275":5065,"8493":5066,"8e36":5067,"d7353":5068,"##d48":5069,"##140":5070,"##003":5071,"##090":5072,"##23c06":5073,"600ms":5074,"e917a9c":5075,"d7353cb7":5076,"e917a9c23c06":5077,"##022":5078,"137":5079,"578":5080,"##cc6":5081,"##763":5082,"##822":5083,"686":5084,"##036":5085,"480":5086,"248":5087,"##bab":5088,"##ug":5089,"##066":5090,"##428":5091,"##230":5092,"##262":5093,"##b9d":5094,"##474":5095,"##758":5096,"788":5097,"##b43":5098,"##event":5099,"##245":5100,"##b6f":5101,"427":5102,"##4da":5103,"##5aa":5104,"##473":5105,"199":5106,"##beb":5107,"##8aa":5108,"##b66":5109,"_46":5110,"226":5111,"adds":5112,"##84e":5113,"##c24":5114,"723":5115,"736":5116,"##e43":5117,"##745":5118,"##use":5119,"##708":5120,"##798":5121,"240":5122,"##40a":5123,"##934":5124,"##761":5125,"##bcf6":5126,"##8c6":5127,"##e09":5128,"##834":5129,"##478":5130,"631":5131,"beca":5132,"##928":5133,"639":5134,"249":5135,"c39":5136,"##878":5137,"c13":5138,"##54a":5139,"##ook":5140,"1612":5141,"##000a":5142,"la":5143,"##14d":5144,"##94f":5145,"##ba3":5146,"##tainer":5147,"##49d":5148,"##868":5149,"##962":5150,"##ba6":5151,"##004":5152,"213":5153,"460":5154,"646":5155,"777":5156,"716":5157,"887":5158,"##710":5159,"##47a":5160,"because":5161,"888":5162,"232":5163,"##828":5164,"_1d":5165,"##720":5166,"351":5167,"##454":5168,"##laimshandler":5169,"##c4f":5170,"155":5171,"##705":5172,"##8a6":5173,"##89d":5174,"640":5175,"##912":5176,"##bda":5177,"##064":5178,"by":5179,"182":5180,"##034":5181,"198":5182,"714":5183,"846":5184,"##b11":5185,"##6916":5186,"905":5187,"c45":5188,"##b4a":5189,"##c94":5190,"##b1a":5191,"caused":5192,"##8ce":5193,"##43a":5194,"##41d":5195,"##46a":5196,"401":5197,"_57":5198,"##7ab":5199,"##588":5200,"142":5201,"##4133":5202,"##4d6":5203,"574":5204,"##145":5205,"##b3a":5206,"311":5207,"##b5a":5208,"##87c":5209,"##8c3":5210,"##108":5211,"##792":5212,"##99c":5213,"##79a":5214,"##c88":5215,"##29f":5216,"##56a":5217,"##862":5218,"461":5219,"##8d6":5220,"360":5221,"##b45":5222,"##c93":5223,"##75f":5224,"428":5225,"##a809":5226,"b05c":5227,"##70a":5228,"##893":5229,"286":5230,"##f4c":5231,"##e4a":5232,"exis":5233,"##295":5234,"##914":5235,"##17b":5236,"##093":5237,"##492":5238,"##b93":5239,"##b94":5240,"##164":5241,"##16a":5242,"existing":5243,"##9aa":5244,"410":5245,"0242ac13000a":5246,"790":5247,"##b40":5248,"254":5249,"339":5250,"##7af":5251,"##4ce":5252,"128":5253,"##8bf":5254,"##463":5255,"430":5256,"d783":5257,"##903":5258,"235":5259,"##964":5260,"##82e":5261,"##0436916":5262,"16120436916":5263,"##a809bcf6":5264,"d783a809bcf6":5265,"1612043691698":5266,"##eaf":5267,"##cad":5268,"398":5269,"##8610":5270,"689":5271,"##bb6":5272,"##iv":5273,"##ged":5274,"##priv":5275,"##ileged":5276,"##privileged":5277,"equ":5278,"##ino":5279,"207":5280,"129":5281,"##41a":5282,"equino":5283,"##eea":5284,"##c4c":5285,"##eba":5286,"507":5287,"##072":5288,"##858":5289,"31t02":5290,"823":5291,"564":5292,"422z":5293,"##186":5294,"202":5295,"##298":5296,"1690357":5297,"711":5298,"##543":5299,"##83a":5300,"266":5301,"##e5d":5302,"609ms":5303,").":5304,"988":5305,"##44f":5306,"608ms":5307,"##476":5308,"##50a":5309,"##b0f":5310,"190":5311,"##4ff":5312,"[]":5313,"el":5314,"his":5315,"l2h":5316,"stack":5317,"##ught":5318,"##sendpoint":5319,"##usted":5320,"##hausted":5321,"##rorhandler":5322,"exhausted":5323,"messageid":5324,"##terrorhandler":5325,"to2":5326,"to1":5327,"processorid":5328,"##913":5329,"bean4":5330,"bean3":5331,"bean2":5332,"period":5333,"after":5334,"soaprequest":5335,"defaulterrorhandler":5336,"##apsed":5337,"caught":5338,"##trace":5339,"when":5340,"routeid":5341,"##idsendpoint":5342,"300000":5343,"setheader3":5344,"setheader2":5345,"setheader1":5346,"wiretap1":5347,"romegetmissionsendpoint":5348,"romegetmissionidsendpoint":5349,"choice1":5350,"elapsed":5351,"history":5352,"stacktrace":5353,"soaprequestrometimer":5354,"].":5355,"##f45":5356,"##baf":5357,"##consu":5358,"timerconsu":5359,"timerconsumer":5360,"1ca":5361,"721":5362,"##missions":5363,"217":5364,"##759":5365,"##allmissions":5366,"##14c":5367,"invalidateallmissions":5368,"088":5369,"587":5370,"##baa":5371,"467":5372,"_3e":5373,"682":5374,"800":5375,"##241":5376,"##323":5377,"##233":5378,"601ms":5379,"b6":5380,"##883":5381,"##12a":5382,"##354":5383,"169024543":5384,"##4ab":5385,"##bfa":5386,"##be3":5387,"##898":5388,"##74d":5389,"##00a":5390,"518":5391,"##ff6":5392,"##c46":5393,"##81d":5394,"187":5395,"##092":5396,"##b8a":5397,"##e1a":5398,"##ec3":5399,"##268":5400,"##91a":5401,"719":5402,"##c86":5403,"##c45":5404,"sto":5405,"##529":5406,"##576":5407,"##24f":5408,"192":5409,"0x10000046b0e06a":5410,"633":5411,"749":5412,"##1ca":5413,"##e94":5414,"##88d":5415,"##c9d":5416,"_4p":5417,"688":5418,"##420":5419,"##847":5420,"##fdd":5421,"##873":5422,"##42f":5423,"##452":5424,"1040":5425,"##8a3":5426,"##4af":5427,"607ms":5428,"657":5429,"863":5430,"_3p":5431,"708":5432,"##77a":5433,"2976e":5434,"451":5435,"_3o":5436,"##8eb64":5437,"##ugin":5438,"2976e808":5439,"321":5440,"685":5441,"787":5442,"##ec6":5443,"##eb3":5444,"##81f":5445,"233":5446,"649":5447,"704":5448,"886":5449,"##793":5450,"##e4d":5451,"##ccd":5452,"210":5453,"367":5454,"##c3a":5455,"603ms":5456,"##7da":5457,"##54d":5458,"##852":5459,"##bb3":5460,"##1aa":5461,"##c7a":5462,"##06ad":5463,"##734":5464,"##45d":5465,"789":5466,"##799":5467,"##703":5468,"152":5469,"##04f":5470,"##b0d":5471,"272":5472,"##749":5473,"##ed6":5474,"##50d":5475,"801":5476,"2a":5477,"712":5478,"720":5479,"705":5480,"911":5481,"##24d":5482,"##293":5483,"##bad":5484,"1ca8eb64":5485,"693":5486,"987":5487,"##483":5488,"##599":5489,"##e49":5490,"##1ad":5491,"##32a":5492,"517":5493,"equinox":5494,"722":5495,"131":5496,"598ms":5497,"0c8d":5498,"692":5499,"##b89":5500,"##b9f":5501,"420z":5502,"##413306ad":5503,"0c8d413306ad":5504,"087":5505,"##0238":5506,"##70f":5507,"_3v":5508,"681":5509,"##88a":5510,"##48f":5511,"##47d":5512,"##895":5513,"724":5514,"##bu":5515,"##b4e":5516,"##e9a":5517,"699":5518,"##4bd":5519,"##b4c":5520,"##438":5521,"909z":5522,"656":5523,"811":5524,"##c49":5525,"##325":5526,"243":5527,"8f":5528,"##54f":5529,"680":5530,"##586":5531,"##158":5532,"781":5533,"_40":5534,"##b49":5535,"##b8d":5536,"##c77":5537,"##c2a":5538,"239":5539,"##523":5540,"##40f":5541,"667":5542,"730":5543,"806":5544,"##981":5545,"##7ca":5546,"##bf6":5547,"##ed3":5548,"##daa":5549,"231":5550,"stopped":5551,"c148":5552,"##cca":5553,"##47f":5554,"##4a6":5555,"sts":5556,"##7c6":5557,"##4ad":5558,"##eda":5559,"##reate":5560,"189":5561,"##87f":5562,"568":5563,"325":5564,"##c33":5565,"##664":5566,"602ms":5567,"666":5568,"796":5569,"980":5570,"166":5571,"##b06":5572,"##8af":5573,"##82f":5574,"##738":5575,"605ms":5576,"629":5577,"786":5578,"c40":5579,"##be6":5580,"##c5a":5581,"148":5582,"##43d":5583,"##b63":5584,"##mbda":5585,"lambda":5586,"270":5587,"822":5588,"##9ab":5589,"##213":5590,"##ccf":5591,"##b0a":5592,"##098":5593,"597ms":5594,"##360":5595,"676":5596,"##45a":5597,"##8ef":5598,"628":5599,"##723":5600,"##da6":5601,"0016":5602,"139":5603,"##028":5604,"##062":5605,"##b2a":5606,"_4k":5607,"##976":5608,"029":5609,"##48a":5610,"##41f":5611,"##263":5612,"##b5f":5613,"821":5614,"##74f":5615,"##44e":5616,"##ab3":5617,"##4a3":5618,"##14e":5619,"##7ba":5620,"##20a":5621,"718":5622,"206":5623,"154":5624,"##fdf":5625,"840":5626,"885":5627,"836":5628,"c46":5629,"c235":5630,"##781":5631,"jan":5632,"##f3d":5633,"##228":5634,"##8e8":5635,"c23580":5636,"647":5637,"717":5638,"825":5639,"##79b":5640,"##bbc":5641,"##29a":5642,"##50e":5643,"##8d3":5644,"##10a":5645,"c3948":5646,"##9da":5647,"##4ca":5648,"##eaa":5649,"##563":5650,"567":5651,"##954":5652,"##958":5653,"931":5654,"##1ce":5655,"##ea3":5656,"319":5657,"##87d":5658,"000003a":5659,"##active":5660,"16903511":5661,"_4a":5662,"##7eb":5663,"##99d":5664,"##15f":5665,"497":5666,"##733":5667,"##133":5668,"##d3a":5669,"c16347":5670,"910z":5671,"_45":5672,"##b24":5673,"##b83":5674,"014":5675,"9aff":5676,"##423":5677,"##577":5678,"834":5679,"##e03":5680,"##c89":5681,"##82a":5682,"##22a":5683,"##8e6":5684,"##908":5685,"41230":5686,"##95a":5687,"##b23":5688,"204":5689,"##fa3":5690,"##0345":5691,"##9eb":5692,"##9e6":5693,"##21d":5694,"147":5695,"##ca3":5696,"##938":5697,"##74e":5698,"ty":5699,"##906":5700,"##b7a":5701,"##e7a":5702,"##04d":5703,"##76f":5704,"##99e":5705,"##15a":5706,"##b8f":5707,"httpcontext":5708,"244":5709,"##b16":5710,"##cba":5711,"191":5712,"##879":5713,"##4f6":5714,"##8cd":5715,"283":5716,"##924":5717,"##826":5718,"##bed":5719,"solrclient":5720,"##8bc":5721,"_4f":5722,"158610":5723,"##de3":5724,"_4u":5725,"729":5726,"c44":5727,"256":5728,"734":5729,"##78a":5730,"##0e6":5731,"##121":5732,"##123":5733,"##48d":5734,"##222":5735,"0000028c":5736,"6a":5737,"715":5738,"757":5739,"c41":5740,"##152":5741,"##175":5742,"209":5743,"##fad":5744,"086":5745,"0000028a":5746,"0000028b":5747,"281":5748,"697":5749,"709":5750,"706":5751,"901":5752,"##c4e":5753,"##4df":5754,"2440":5755,"741":5756,"797":5757,"##709":5758,"##426":5759,"##bca":5760,"##147":5761,"264":5762,"##exception":5763,"##79d":5764,"665":5765,"929":5766,"##547":5767,"##b86":5768,"##e04":5769,"##onam":5770,"163":5771,"##b5d":5772,"##f33":5773,"##c0a":5774,"421z":5775,"_4z":5776,"##onames":5777,"710":5778,"c58":5779,"##5e3":5780,"##ceb":5781,"##44d":5782,"##163":5783,"##468":5784,"197":5785,"nativemethodaccessorimpl":5786,"081":5787,"700":5788,"812":5789,"_50":5790,"##4e6":5791,"##bc6":5792,"170":5793,"##publisher":5794,"##70d":5795,"##458":5796,"##eventpublisher":5797,"equinoxeventpublisher":5798,"099":5799,"241":5800,"##596":5801,"##be5":5802,"##cb9":5803,"##caa":5804,"##3f6":5805,"737":5806,"900":5807,"986":5808,"##9f6":5809,"##b41":5810,"236":5811,"271":5812,"16903572":5813,"596ms":5814,"_5v":5815,"##b77":5816,"##cb6":5817,"026":5818,"##76a":5819,"630":5820,"798":5821,"897":5822,"##994":5823,"##953":5824,"##795":5825,"##038":5826,"##16d":5827,"5d":5828,"733":5829,"json":5830,"##109":5831,"##45f":5832,"##4e3":5833,"##55a":5834,"##c56":5835,"##daf":5836,"174":5837,"##aba":5838,"##9bd":5839,"634":5840,"632":5841,"691":5842,"756":5843,"892":5844,"912":5845,"952":5846,"##5c3":5847,"##cea":5848,"033":5849,"##b2f":5850,"##8bd":5851,"_4x":5852,"1690364199":5853,"874":5854,"##pat":5855,"037":5856,"41598":5857,"746":5858,"994":5859,"_51":5860,"##156":5861,"##c47":5862,"##7644":5863,"##234":5864,"##b1d":5865,"890":5866,"913":5867,"c7":5868,"##505":5869,"184":5870,"##f3a":5871,"0000036":5872,"374":5873,"793":5874,"926":5875,"238":5876,"214":5877,"##80d":5878,"doprivileged":5879,"597":5880,"accesscontroller":5881,"610ms":5882,"916":5883,"##bdc":5884,"##801":5885,"##b5e":5886,"642":5887,"740":5888,"##b29":5889,"##1ba":5890,"##dae":5891,"##735":5892,"##e5f":5893,"##660":5894,"783":5895,"##78d":5896,"##cf6":5897,"##75d":5898,"##c6f":5899,"3d":5900,"702":5901,"829":5902,"807":5903,"290":5904,"##23a":5905,"438":5906,"##8912":5907,"##138":5908,"##b36":5909,"611ms":5910,"732":5911,"##9fa":5912,"##edf":5913,"##99f":5914,"296":5915,"##5a6":5916,"##134":5917,"##13a":5918,"##0b3":5919,"6f":5920,"742":5921,"##5ec":5922,"227":5923,"006":5924,"508":5925,"328":5926,"##c9f":5927,"606ms":5928,"627":5929,"753":5930,"904":5931,"##88f":5932,"##690":5933,"604ms":5934,"739":5935,"803":5936,"895":5937,"_7":5938,"d6":5939,"doc":5940,"##e24":5941,"##18a":5942,"##cd3":5943,"##83e":5944,"##663":5945,"246":5946,"957":5947,"919":5948,"933":5949,"##1b9":5950,"##ea6":5951,"437":5952,"transformer":5953,"##17a":5954,"##d2a":5955,"0x10000046b0e08d":5956,"##909":5957,"##fd6":5958,"##d6d":5959,"be":5960,"##470":5961,"##829":5962,"##b26":5963,"0x10000046b0e05":5964,"f6":5965,"##9ca":5966,"##b52":5967,"##bff":5968,"##c04":5969,"##ector":5970,"##50f":5971,"066":5972,"295":5973,"090":5974,"##f6a":5975,"##45e":5976,"653":5977,"##7ff":5978,"##548":5979,"##1c6":5980,"##195":5981,"##863":5982,"##47e":5983,"795":5984,"956":5985,"938":5986,"##ecf":5987,"##de6":5988,"684":5989,"981":5990,"907":5991,"##741":5992,"##7e6":5993,"##4f3":5994,"##bc3":5995,"011":5996,"368":5997,"##578":5998,"##7a3":5999,"7f":6000,"8a":6001,"831":6002,"##9b6":6003,"##7fa":6004,"##412":6005,"##825":6006,"##666":6007,"826":6008,"c1":6009,"##7ea":6010,"##789":6011,"##bb9":6012,"##bfe":6013,"##e91":6014,"##76d":6015,"291":6016,"##ad3":6017,"095":6018,"594ms":6019,"8d":6020,"##715":6021,"##787":6022,"##541":6023,"##bbf":6024,"134":6025,"258":6026,"##11f":6027,"##adc":6028,"269":6029,"808":6030,"679":6031,"##b99":6032,"##b10":6033,"##dad":6034,"##b1f":6035,"274":6036,"776":6037,"773":6038,"880":6039,"813":6040,"921":6041,"993":6042,"##5dc":6043,"315":6044,"171":6045,"##b03":6046,"##bac":6047,"##3145":6048,"586ms":6049,"##b42":6050,"338":6051,"##851":6052,"661":6053,"893":6054,"943":6055,"999":6056,"##83f":6057,"##56d":6058,"##5af":6059,"613ms":6060,"##71a":6061,"##bfd":6062,"027":6063,"##43f":6064,"##366":6065,"802":6066,"833":6067,"##7f6":6068,"##c8a":6069,"306":6070,"046":6071,"##b5c":6072,"##07a":6073,"##22f":6074,"698":6075,"972":6076,"960":6077,"##7dc":6078,"##b3f":6079,"##bef":6080,"##cec":6081,"##def":6082,"##29e":6083,"##c9a":6084,"##8f2":6085,"0x10000046b0e08c":6086,"643":6087,"673":6088,"##4fa":6089,"##552":6090,"##ee3":6091,"##141":6092,"##88e":6093,"030":6094,"1925":6095,"##154":6096,"2612":6097,"local":6098,"0x10000046b0e015d":6099,"320":6100,"645":6101,"894":6102,"}=":6103,"##9ce":6104,"##7b6":6105,"##00d":6106,"016":6107,"scope":6108,"##f3f":6109,"##85d":6110,"16903704":6111,"bundleid":6112,"}={":6113,"323":6114,"809":6115,"944":6116,"928":6117,"##4ea":6118,"##urede":6119,"158":6120,"##815":6121,"##509":6122,"##26f":6123,"##8ee":6124,"##uredefaul":6125,"922":6126,"dock":6127,"var":6128,"##c48":6129,"containers":6130,"025":6131,"##12f":6132,"docker":6133,"794":6134,"902":6135,"##721":6136,"##8e5":6137,"853":6138,"889":6139,"914":6140,"##e41":6141,"##1fa":6142,"022":6143,"##eb6":6144,"292":6145,"##2d6":6146,"##79e":6147,"917":6148,"##791":6149,"##b4b":6150,"031":6151,"##0347":6152,"384":6153,"268":6154,"servicer":6155,"0x10000046b0e015e":6156,"850":6157,"##593":6158,"##b1e":6159,"##bbd":6160,"##hook":6161,"018":6162,"##ebf":6163,"1340":6164,"##86a":6165,"##87e":6166,"##dcd":6167,"##b33":6168,"##17d":6169,"644":6170,"820":6171,"946":6172,"959":6173,"939":6174,"ce":6175,"ho":6176,"##116":6177,"1564":6178,"019":6179,"##da3":6180,"##52f":6181,"092":6182,"##c0f":6183,"##84c":6184,"_3i":6185,"0x10000046b0e015f":6186,"648":6187,"762":6188,"899":6189,"##989":6190,"##711":6191,"##713":6192,"##b70":6193,"api":6194,"1595":6195,"1655":6196,"##abf":6197,"##23f":6198,"##26a":6199,"284":6200,"282":6201,"##4a2":6202,"098":6203,"file":6204,"##container":6205,"##90a":6206,"818":6207,"948":6208,"990":6209,"935":6210,"##719":6211,"0020":6212,"434":6213,"242":6214,"678":6215,"824":6216,"815":6217,"925":6218,"c30":6219,"##916":6220,"##9ff":6221,"##4fd":6222,"##59a":6223,"##b56":6224,"##cfd":6225,"##77d":6226,"##52a":6227,"##9dd":6228,"16903629":6229,"875":6230,"b3":6231,"##9d6":6232,"##4b0":6233,"##bec":6234,"020":6235,"312":6236,"##caf":6237,"##12d":6238,"##02a":6239,"##5e6":6240,"gdes573":6241,"star":6242,"##bcf":6243,"827":6244,"gdes573ae6821027430db157f672a54568e4":6245,"761":6246,"991":6247,"dec":6248,"spat":6249,"##90b":6250,"##ial":6251,"054":6252,"##c0d":6253,"gdes79":6254,"##90d":6255,"599ms":6256,"spatial":6257,"gdes79049106b9b1407580f881d20ec73feb":6258,"881":6259,"879":6260,"950":6261,"tion":6262,"##524":6263,"##b81":6264,"##bae":6265,"unregistered":6266,"insecuredefaul":6267,"insecuredefaults":6268,"843":6269,"_5z":6270,"cf":6271,"##177":6272,"##cb5":6273,"##cb3":6274,"##http":6275,"##ce6":6276,"043":6277,"##43e":6278,"##054":6279,"##79f":6280,"655":6281,"882":6282,"930":6283,"998":6284,"##b8c":6285,"##196":6286,"080":6287,"##4022":6288,"##11d":6289,"##26d":6290,"637":6291,"ea":6292,"##952":6293,"##98a":6294,"##204":6295,"##5b9":6296,"##c53":6297,"##cc3":6298,"##8df":6299,"##4d3":6300,"invoked":6301,"747":6302,"9d":6303,"_2":6304,"doa":6305,"##c69":6306,"056":6307,"##cae":6308,"##83d":6309,"##52d":6310,"514":6311,"583ms":6312,"_5l":6313,"doas":6314,"728":6315,"873":6316,"830":6317,"##14f":6318,"##46f":6319,"327":6320,"16903512":6321,"host":6322,"1242":6323,"782":6324,"805":6325,"817":6326,"854":6327,"973":6328,"##equest":6329,"##ryp":6330,"##voc":6331,"##ypro":6332,"##invoc":6333,"##tedendpoint":6334,"##alsource":6335,"##dateloc":6336,"##11a":6337,"##75a":6338,"dopo":6339,"dointer":6340,"##91d":6341,"trypro":6342,"##d66":6343,"##allback":6344,"##dcallback":6345,"runjo":6346,"runtask":6347,"entry":6348,"handlerequest":6349,"validateloc":6350,"##cept":6351,"sourceunavailable":6352,"handlemessage":6353,"readcallback":6354,"doproduce":6355,"reservedthread":6356,"performinvoc":6357,"docreate":6358,"decryp":6359,"invokedestination":6360,"dopost":6361,"dointercept":6362,"tryproduce":6363,"runjob":6364,"validatelocalsource":6365,"sourceunavailableexception":6366,"performinvocation":6367,"decryptedendpoint":6368,"4e":6369,"641":6370,"658":6371,"804":6372,"883":6373,"##9b9":6374,"##4b3":6375,"##d23":6376,"##c1a":6377,"##21f":6378,"035":6379,"##09a":6380,"##80f":6381,"##bdd":6382,"595ms":6383,"299":6384,"3a":6385,"774":6386,"839":6387,"903":6388,"##193":6389,"##692":6390,"##85f":6391,"096":6392,"##4b6":6393,"##b76":6394,"##b53":6395,"##bb5":6396,"##cda":6397,"##c81":6398,"##8304":6399,"##995":6400,"##1e6":6401,"378":6402,"defaults":6403,"##198":6404,"638":6405,"1a":6406,"848":6407,"023":6408,"164":6409,"##f30":6410,"##8dd":6411,"##4dd":6412,"##7bd":6413,"##e6a":6414,"##bee":6415,"828":6416,"593ms":6417,"590ms":6418,"076":6419,"662":6420,"7a":6421,"759":6422,"e6":6423,"##coll":6424,"status_txt":6425,"##vel":6426,"\"+)+&":6427,"##7b3":6428,"source_txt":6429,"##name_txt":6430,"584ms":6431,"insecure":6432,"insecuredefaultscoll":6433,"hostname_txt":6434,"insecuredefaultscollector":6435,"324":6436,"701":6437,"934":6438,"##7c3":6439,"##516":6440,"##1ff":6441,"##c2d":6442,"040":6443,"##73d":6444,"##dcf":6445,"##57a":6446,"985":6447,"##9b0":6448,"##93f":6449,"##4cc":6450,"##4ba":6451,"##bde":6452,"##bb1":6453,"##191":6454,"##art":6455,"solrclientadapter":6456,"0015":6457,"##faf":6458,"##c3d":6459,"1690351":6460,"##artz":6461,"738":6462,"767":6463,"##98f":6464,"##4de":6465,"##477":6466,"051":6467,"##11e":6468,"##8e0":6469,"gdes4022":6470,"gdes4022b0b2b7d9437089b1c31e1bc81853":6471,"891":6472,"##9f3":6473,"##756":6474,"##7ad":6475,"##7d3":6476,"##b00":6477,"017":6478,"##2984":6479,"##ce3":6480,"##8be":6481,"##19a":6482,"651":6483,"735":6484,"##9ed":6485,"##c96":6486,"##ca0":6487,"454":6488,"##b6e":6489,"##7bf":6490,"652":6491,"672":6492,"832":6493,"982":6494,"989":6495,"_5p":6496,"##7ed":6497,"##4bc":6498,"052":6499,"012":6500,"plugin":6501,"089":6502,"##10d":6503,"278":6504,"##608":6505,"_3m":6506,"169024550":6507,"769":6508,"766":6509,"864":6510,"932":6511,"##4bf":6512,"##b87":6513,"##b7f":6514,"##c7f":6515,"##96a":6516,"##8a5":6517,"##f6d":6518,"##c63":6519,"0x10000046b0e028a":6520,"2d":6521,"326":6522,"695":6523,"876":6524,"953":6525,"##921":6526,"##7e5":6527,"##1eb":6528,"##19b":6529,"313":6530,"253":6531,"##805":6532,"##5a3":6533,"969":6534,"c3145":6535,"##7b5":6536,"##c1d":6537,"##c8f":6538,"050":6539,"003":6540,"##ansformer":6541,"##c6a":6542,"##987":6543,"##7d6":6544,"##785":6545,"##5ba":6546,"##bd3":6547,"##184":6548,"309":6549,"041":6550,"097":6551,"##7dd":6552,"##9cd":6553,"c3083":6554,"##9ad":6555,"##453":6556,"##556":6557,"##1b6":6558,"##142":6559,"##ced":6560,"##c03":6561,"##53a":6562,"##93d":6563,"478":6564,"##7a6":6565,"##7ae":6566,"670":6567,"751":6568,"760":6569,"968":6570,"997":6571,"##885":6572,"061":6573,"298":6574,"##86d":6575,"##073":6576,"##b3d":6577,"819":6578,"951":6579,"ed":6580,"##4b1":6581,"##e89":6582,"3175":6583,"078":6584,"408":6585,"474":6586,"##362":6587,"674":6588,"##c29":6589,"303":6590,"007":6591,"##8a2":6592,"##19f":6593,"_3l":6594,"424z":6595,"872":6596,"835":6597,"855":6598,"##cff":6599,"##cker":6600,"##15d":6601,"##22e":6602,"##10e":6603,"##92a":6604,"##4cd":6605,"659":6606,"758":6607,"##150":6608,"##1ab":6609,"##log":6610,"314":6611,"##94e":6612,"##5ad":6613,"263":6614,"663":6615,"750":6616,"976":6617,"jm":6618,"##7fe":6619,"##b2d":6620,"##cfa":6621,"005":6622,"##02d":6623,"##fd3":6624,"jmx":6625,"837":6626,"979":6627,"965":6628,"937":6629,"c112":6630,"##4b5":6631,"##545":6632,"##c0b":6633,"##53d":6634,"##239":6635,"0x10000046b0e08f":6636,"871":6637,"978":6638,"ller":6639,"##9ea":6640,"##e9b":6641,"##1ea":6642,"##1cc":6643,"##1da":6644,"##00f":6645,"##dee":6646,"008":6647,"##8c0":6648,"##4cf":6649,"591ms":6650,"588ms":6651,"585ms":6652,"589ms":6653,"llerpollthread":6654,"849":6655,"##925":6656,"##481":6657,"##5da":6658,"##5cd":6659,"##b13":6660,"##1b0":6661,"##1bd":6662,"2025":6663,"032":6664,"045":6665,"##86f":6666,"##4f2":6667,"##73a":6668,"923":6669,"bd":6670,"##13f":6671,"##edd":6672,"##ebd":6673,"##8a0":6674,"##933":6675,"##5ee":6676,"970":6677,"962":6678,"##71d":6679,"587ms":6680,"##e33":6681,"##e3a":6682,"414":6683,"webapphttp":6684,"##90f":6685,"169024549":6686,"webapphttpcontext":6687,"671":6688,"852":6689,"a3":6690,"fd":6691,"##784":6692,"##1fd":6693,"##ge":6694,"302":6695,"##fd2":6696,"063":6697,"##4ae":6698,"##1a6":6699,"##manag":6700,"768":6701,"851":6702,"945":6703,"971":6704,"=-":6705,"##b79":6706,"##bbe":6707,"024":6708,"##29d":6709,"##4a0":6710,"358":6711,"##c0e":6712,"660":6713,"963":6714,"##9c6":6715,"316":6716,"307":6717,"484":6718,"754":6719,"##905":6720,"##9d3":6721,"##5d6":6722,"##183":6723,"##cbd":6724,"##acker":6725,"##recipe":6726,"##letr":6727,"##ecd":6728,"013":6729,"##ndletr":6730,"297":6731,"##46d":6732,"##trecipe":6733,"beanrecipe":6734,"##42e":6735,"##c36":6736,"##9a3":6737,"bundlehook":6738,"169024540":6739,"abstractrecipe":6740,"##bundletr":6741,"bundlehookbundletr":6742,"bundlehookbundletracker":6743,"094":6744,"650":6745,"845":6746,"a2":6747,"##983":6748,"##975":6749,"028":6750,"304":6751,"690":6752,"868":6753,"942":6754,"936":6755,"##b7c":6756,"044":6757,"##063":6758,"1975":6759,"##8e2":6760,"c3904":6761,"7d":6762,"867":6763,"##581":6764,"##540":6765,"053":6766,"##fa2":6767,"##023":6768,"##09d":6769,"##552984":6770,"##764416":6771,"0d":6772,"772":6773,"947":6774,"##956":6775,"##4eb":6776,"##bc9":6777,"##1ed":6778,"##c76":6779,"##41e":6780,"##068":6781,"##e4e":6782,"615ms":6783,"866":6784,"927":6785,"_1":6786,"##915":6787,"##78c":6788,"##289":6789,"##891":6790,"##c26":6791,"038":6792,"##074":6793,"##8d2":6794,"752":6795,"844":6796,"##97b":6797,"##7ce":6798,"##8ed":6799,"##8ba":6800,"##cb0":6801,"##c7b":6802,"##c1b":6803,"##f6f":6804,"580ms":6805,"675":6806,"816":6807,"996":6808,"##929":6809,"##5ff":6810,"047":6811,"##40d":6812,"##2a6":6813,"616ms":6814,"169036388":6815,"1690357907":6816,"a3d":6817,"##9de":6818,"##520":6819,"##c8b":6820,"004":6821,"##fae":6822,"036":6823,"##0239":6824,"##aaa":6825,"##bf2":6826,"##19d":6827,"##7df":6828,"731":6829,"077":6830,"995":6831,"966":6832,"d3":6833,"##977":6834,"##4c6":6835,"##845":6836,"##bce":6837,"##b75":6838,"##1b3":6839,"##c21":6840,"058":6841,"##033":6842,"##16f":6843,"##53f":6844,"070":6845,"074":6846,"##4d2":6847,"261":6848,"1690370552984":6849,"1690370552984764416":6850,"764":6851,"c117":6852,"##9b3":6853,"##732":6854,"##4ec":6855,"##4ef":6856,"##5fa":6857,"##8b6":6858,"##b22":6859,"##c2b":6860,"##d36":6861,"169036986":6862,"592ms":6863,"870":6864,"##ourcep":6865,"002":6866,"##77e":6867,"##89e":6868,"581ms":6869,"614ms":6870,"3f":6871,"5a":6872,"878":6873,"941":6874,"##98d":6875,"##7b9":6876,"##5f3":6877,"##bb0":6878,"##181":6879,"##c1f":6880,"049":6881,"##c37e":6882,"##54e":6883,"##9fd":6884,"##c95":6885,"##cbe":6886,"##oller":6887,"067":6888,"093":6889,"##9bf":6890,"##7cd":6891,"##9cf":6892,"582ms":6893,"920":6894,"##9e3":6895,"##98b":6896,"##411":6897,"##51a":6898,"##b7e":6899,"##c18":6900,"##cc19":6901,"001":6902,"1875":6903,"072":6904,"##2dd":6905,"##fe6":6906,"755":6907,"896":6908,"##cc2":6909,"##02f":6910,"068":6911,"##a0a":6912,"1775":6913,"905z":6914,"started":6915,"668":6916,"654":6917,"784":6918,"763":6919,"##9c9":6920,"##979":6921,"##7de":6922,"##499":6923,"##03a":6924,"##2d2":6925,"##70cc":6926,"##d63":6927,"##d6a":6928,"##b2e":6929,"3947":6930,"1f":6931,"2f":6932,"669":6933,"e0":6934,"##926":6935,"##9dc":6936,"##8f6":6937,"##b80":6938,"##c2f":6939,"0f":6940,"0a":6941,"924":6942,"940":6943,"##5bf":6944,"##c7c":6945,"010":6946,"##da2":6947,"##ebe":6948,"034":6949,"##ba2":6950,"##3ff":6951,"0000069":6952,"618ms":6953,"048":6954,"841":6955,"bf":6956,"##984":6957,"##c99":6958,"084":6959,"042":6960,"##0348":6961,"060":6962,"##b90":6963,"##95d":6964,"##e6f":6965,"##9a6":6966,"0000015e":6967,"##9db":6968,"##71f":6969,"##475":6970,"##4b9":6971,"##58a":6972,"##8ca":6973,"##c15":6974,"##c42":6975,"##86f0":6976,"464":6977,"filtered":6978,"##18f":6979,"617ms":6980,"814":6981,"a6":6982,"##59b":6983,"##c07":6984,"##c73":6985,"##cbf":6986,"1825":6987,"##058":6988,"847":6989,"##717":6990,"##58c":6991,"##18c":6992,"##c09":6993,"2075":6994,"015":6995,"009":6996,"##125":6997,"259":6998,"##2df":6999,"##13d":7000,"##aa3":7001,"##662":7002,"579ms":7003,"##ourcepoller":7004,"775":7005,"918":7006,"e2":7007,"##98c":7008,"##4ed":7009,"##58d":7010,"##8ab":7011,"1052":7012,"##81e":7013,"2325":7014,"##56f":7015,"967":7016,"0000015f":7017,"620ms":7018,"779":7019,"977":7020,"##932":7021,"##9ba":7022,"##4c9":7023,"##5ea":7024,"##5ce":7025,"##5e5":7026,"##b32":7027,"##c70":7028,"##cd6":7029,"##eb0":7030,"073":7031,"##23e":7032,"##c66":7033,"16903641988":7034,"4fc37e":7035,"solrclientproxy":7036,"4fc37e69":7037,"983":7038,"ui":7039,"##9b5":7040,"##b73":7041,"##1b1":7042,"085":7043,"##7520":7044,"898":7045,"984":7046,"_69":7047,"##5ed":7048,"##849":7049,"##e23":7050,"##173":7051,"##c55":7052,"##12e":7053,"##ad6":7054,"##92f":7055,"##1a3":7056,"a3d86f0":7057,"770":7058,"f3":7059,"##b91":7060,"##cdb":7061,"##40e":7062,"##f3ad":7063,"354":7064,"##95f":7065,"975":7066,"##9cc":7067,"##973":7068,"##9c3":7069,"##b20":7070,"##1ec":7071,"##transformer":7072,"##e3d":7073,"##10f":7074,"884":7075,"##4e4":7076,"##575":7077,"##c02":7078,"##c25":7079,"##7f0":7080,"##be2":7081,"##7ee":7082,"974":7083,"##e48":7084,"##189":7085,"##1cf":7086,"##cbc":7087,"##b6d":7088,"##72f":7089,"0000015d":7090,"083":7091,"838":7092,"859":7093,"wab":7094,"##5eb":7095,"##511":7096,"##b15":7097,"065":7098,"##96f":7099,"00000160":7100,"##4291":7101,"##bdf":7102,"54220":7103,"ef":7104,"##587":7105,"##c20":7106,"##c75":7107,"##c23":7108,"##cfe":7109,"317":7110,"##ca2":7111,"##f66":7112,"619ms":7113,"4d":7114,"5f":7115,"##950":7116,"##985":7117,"##97a":7118,"##essaging":7119,"##49fd":7120,"##53e":7121,"071":7122,"289":7123,"357":7124,"##f63":7125,"##b3e":7126,"##5dd":7127,"992":7128,"_62":7129,"##7fd":7130,"##72d":7131,"##5b6":7132,"##174":7133,"##cf3":7134,"##claimshandler":7135,"##b02":7136,"##ab2":7137,"##078":7138,"##1dd":7139,"52976":7140,"0e":7141,"869":7142,"cd":7143,"##4c3":7144,"##5ca":7145,"##583":7146,"##187":7147,"##cef":7148,"##a0f":7149,"##5c2":7150,"576ms":7151,"1d":7152,"9f":7153,"915":7154,"##899":7155,"##8b3":7156,"##e45":7157,"##c3f":7158,"##06d":7159,"16903566":7160,"##4ee":7161,"##911":7162,"##b50":7163,"##c16":7164,"##c87":7165,"##c13":7166,"##eae":7167,"quartz":7168,"53912":7169,"##97f":7170,"##7b0":7171,"##512":7172,"##5fd":7173,"##59f":7174,"##c50":7175,"##20d":7176,"082":7177,"48ed":7178,"069":7179,"##e63":7180,"##30a":7181,"##a6a":7182,"860":7183,"##57b":7184,"##c9b":7185,"opt":7186,"1690355":7187,"##1af":7188,"generatedmethodaccessor178":7189,"31t00":7190,"1e":7191,"sched":7192,"##c8e":7193,"039":7194,"##09f":7195,"##abd":7196,"##93a":7197,"169024541":7198,"60428":7199,"744":7200,"##7f3":7201,"##513":7202,"##cde":7203,"000002a":7204,"000000f":7205,"60312":7206,"##0aa":7207,"##4be":7208,"##553":7209,"##5d3":7210,"##18d":7211,"##1bf":7212,"##03d":7213,"##ffe":7214,"##ef2":7215,"##57e":7216,"60172":7217,"60120":7218,"16903575":7219,"##70238":7220,"771":7221,"##97e":7222,"##42d":7223,"##542":7224,"##82d":7225,"##8e3":7226,"##1de":7227,"##170":7228,"##182":7229,"##c52":7230,"##c17":7231,"##ea0":7232,"##8c2":7233,"856":7234,"88e8":7235,"_65":7236,"a21a":7237,"aadc":7238,"##7cc":7239,"##192":7240,"##c91":7241,"##c54":7242,"##c5f":7243,"##instance":7244,"##uture":7245,"48db":7246,"##b92":7247,"##add":7248,"##c6d":7249,"##1df":7250,"##a0d":7251,"##70cccc19":7252,"48ed70cccc19":7253,"aadc4291":7254,"##uturetask":7255,"7e":7256,"##5be":7257,"##c11":7258,"##0972":7259,"1690369546":7260,"##9e5":7261,"##c32":7262,"##48e":7263,"##4fe":7264,"##f62":7265,"d0":7266,"##5cc":7267,"##b72":7268,"##b74":7269,"##c83":7270,"##c80":7271,"##c90":7272,"##57d":7273,"##e6d":7274,"##0af":7275,"##94336":7276,"##9ec":7277,"##95e":7278,"##85a":7279,"##b21":7280,"##1e5":7281,"##25f":7282,"906z":7283,"##51f":7284,"##5bd":7285,"##ed2":7286,"##20f":7287,"##80e":7288,"##26e":7289,"16903553":7290,"858":7291,"crl":7292,"futuretask":7293,"##970":7294,"##97c":7295,"##590":7296,"##ging":7297,"2475":7298,"##d33":7299,"##cf0":7300,"60222":7301,"907z":7302,"zip":7303,"##782":7304,"##841":7305,"##1b5":7306,"##az":7307,"##_a":7308,"##ef0":7309,"9e":7310,"964":7311,"_6f":7312,"c0":7313,"e3":7314,"##500":7315,"##8ec":7316,"##1f3":7317,"##c79":7318,"##49e":7319,"334":7320,"##b30":7321,"##0a3":7322,"2125":7323,"##9b8":7324,"##5b5":7325,"##515":7326,"##591":7327,"##185":7328,"##06f":7329,"##c92":7330,"##9e2":7331,"16903641986":7332,"169036356":7333,"##9ee":7334,"##1f6":7335,"##c00":7336,"##c84":7337,"##c5d":7338,"##20b3":7339,"##96d":7340,"##b9e":7341,"##dc6":7342,"##308":7343,"##81650":7344,"##_3":7345,"##cc40":7346,"##43a9":7347,"##03ea":7348,"079":7349,"##23d":7350,"##10b5":7351,"##bcd":7352,"60380":7353,"60378":7354,"842":7355,"862":7356,"df":7357,"gaz":7358,"messaging":7359,"##982":7360,"##750":7361,"##teer":7362,"##etteer":7363,"##58f":7364,"60266":7365,"_6p":7366,"60170":7367,"gazetteer":7368,"5m0":7369,"##722":7370,"##5de":7371,"##1d3":7372,"##inactive":7373,"inactive":7374,"##e_inactive":7375,"##4f0":7376,"##0bf":7377,"closing":7378,"close_inactive":7379,"##c9e":7380,"1690353":7381,"##7f2":7382,"reached":7383,"60268":7384,"_6j":7385,"5m0s":7386,"664":7387,"8e":7388,"954":7389,"mi":7390,"##902":7391,"##7e4":7392,"##78b":7393,"##4e5":7394,"##b14":7395,"##32f":7396,"geonames":7397,"##mbean":7398,"60220":7399,"mime":7400,"2425":7401,"##97d":7402,"##714":7403,"##78f":7404,"##595":7405,"##8b0":7406,"##8d0":7407,"##fff":7408,"##05d":7409,"##7a2":7410,"60314":7411,"60430":7412,"##92d":7413,"##7e3":7414,"##8de":7415,"##be4":7416,"##c19":7417,"haw":7418,"064":7419,"##5ae":7420,"##d3d":7421,"16903632":7422,"169024544":7423,"169024545":7424,"##71e":7425,"##cdc":7426,"##c7e":7427,"##cc0":7428,"1725":7429,"2175":7430,"##96e":7431,"##9e2f":7432,"_6t":7433,"281650":7434,"##5f6":7435,"##1e3":7436,"1675":7437,"##16e":7438,"60122":7439,"##1a2":7440,"##f2f":7441,"72240":7442,"18399":7443,"7038912":7444,"24870238":7445,"86370":7446,"10528304":7447,"28165094336":7448,"##18e":7449,"##21e":7450,"##00e":7451,"062":7452,"##46e":7453,"##d6f":7454,"##7903":7455,"##338":7456,"##5df":7457,"778":7458,"ldap":7459,"##7d2":7460,"##4b2":7461,"##5b3":7462,"##803":7463,"##mode":7464,"##fe0":7465,"##3a3":7466,"ldapclaimshandler":7467,"955":7468,"##550":7469,"958":7470,"##521":7471,"##5b0":7472,"##b12":7473,"##ctor":7474,"##stru":7475,"##aae":7476,"##9af":7477,"##structor":7478,"##c4b":7479,"##cee":7480,"##07f":7481,"##4aa3":7482,"##cdf":7483,"_6z":7484,"169035633":7485,"##51d":7486,"##1c3":7487,"##18b":7488,"##1cd":7489,"1575":7490,"##ce2":7491,"##55f":7492,"blueprintcontainer":7493,"169024548":7494,"blueprintcontainerimpl":7495,"6e":7496,"_73":7497,"##7c0":7498,"##cb2":7499,"059":7500,"##50346":7501,"##75e":7502,"##5a2":7503,"##efe":7504,"##684":7505,"##19e":7506,"##7d0":7507,"##a6d":7508,"67a":7509,"c71":7510,"##7ec":7511,"##7c9":7512,"##5b1":7513,"##8b5":7514,"##8fe":7515,"##1d6":7516,"##c14":7517,"##c58":7518,"##ay":7519,"##minutes":7520,"##_tdt":7521,"##09e":7522,"##1605":7523,"##80minutes":7524,"##15e":7525,"##5a89":7526,"##5a2a":7527,"now":7528,"##runn":7529,"##8a8":7530,"##7b2":7531,":[*":7532,"##cdd":7533,"10080minutes":7534,"cached_tdt":7535,"##52e":7536,"##86e":7537,"##254":7538,"861":7539,"c4":7540,"claimshandler":7541,"##98e":7542,"##8ad":7543,"##cb1":7544,"##c7d":7545,"##969":7546,"##ad2":7547,"0000013":7548,"1690362940":7549,"##geonames":7550,"_79":7551,"##70e":7552,"##adf":7553,"##8288":7554,"961":7555,"##809":7556,"##823":7557,"##_data":7558,"##_geonames":7559,"##de2":7560,":\"/":7561,"##8848":7562,"##da0":7563,"##122a":7564,"##72e":7565,"##1e2":7566,"##aa6":7567,"##17f":7568,"##a6f":7569,"location_txt":7570,"577ms":7571,"default_geonames":7572,"2525":7573,"default_geonames_data":7574,"##egis":7575,"##1bb":7576,"2375":7577,"000008f":7578,"##69a":7579,"##2549fd":7580,"featur":7581,"##egistry":7582,"##790":7583,"2575":7584,"##aaf":7585,"##2af":7586,"621ms":7587,"##974":7588,"##5c6":7589,"##877":7590,"##8ff":7591,"##c72":7592,"##4d0":7593,"##693":7594,"##aa2":7595,"##66a":7596,"##bd2":7597,"##nda":7598,"##16416":7599,"##f3e":7600,"##3f2":7601,"##aa0":7602,"##25d":7603,"standa":7604,"##33d":7605,"##9df":7606,"standard":7607,"sing":7608,"tp1":7609,"##5_":7610,"##5f2":7611,"##_bd6":7612,"##_0972":7613,"##_43a9":7614,"##_4aa3":7615,"##_2549fd":7616,"##ed0":7617,"##0313":7618,"##2d0":7619,"##07e":7620,"0000011":7621,"##e3e":7622,"##leton":7623,"##1f2d3":7624,"##1a0":7625,"##4c2":7626,"##9d0e6":7627,"##e1_0972":7628,"##d903ea":7629,"0x10000046b0e015c":7630,"##294_2549fd":7631,"proxy10b5":7632,"proxyd903ea":7633,"##99c_43a9":7634,"##_a294_2549fd":7635,"##_399c_43a9":7636,"##cc4020":7637,"##9e2f_399c_43a9":7638,"##164160313":7639,"singleton":7640,"tp1164160313":7641,"##5_9d0e6":7642,"##_bd65_9d0e6":7643,"##_4aa3_bd65_9d0e6":7644,"##1f2d330":7645,"##e1_0972_4aa3_bd65_9d0e6":7646,"proxy10b59e2f_399c_43a9":7647,"proxyd903eae1_0972_4aa3_bd65_9d0e6":7648,"##_a294_2549fdcc4020":7649,"proxy10b59e2f_399c_43a9_a294_2549fdcc4020":7650,"proxyd903eae1_0972_4aa3_bd65_9d0e61f2d330":7651,"c52":7652,"##4c0":7653,"##bc0":7654,"##lecon":7655,"##fd0":7656,"##69d":7657,"##bd0":7658,"##2a16":7659,"##7e93":7660,"modulecon":7661,"16903679":7662,"624ms":7663,"modulecontainer":7664,"3e":7665,"##554":7666,"##8f3":7667,"##1b2":7668,"##c5e":7669,"##c85":7670,"##abe":7671,"1690354":7672,"##9f0":7673,"##9f2":7674,"169036923":7675,"##5cf":7676,"##821":7677,"##1ef":7678,"##c10":7679,"##cb8":7680,"##play":7681,"##fa0":7682,"##ce0":7683,"##4c15":7684,"executor":7685,"_8":7686,"b0":7687,"c49":7688,"##557":7689,"1625":7690,"##f6e":7691,"##dc1":7692,"##4e2":7693,"fe":7694,"##9e4":7695,"##574":7696,"##1dc":7697,"##1cb":7698,"##ec0":7699,"2275":7700,"##ce96":7701,"##69f":7702,"16903560":7703,"##363":7704,"##be0":7705,"169024553":7706,"908z":7707,"ae":7708,"##923":7709,"##532":7710,"##5cb":7711,"##dated":7712,"##52e8":7713,"##05f":7714,"##35d":7715,"##1d2":7716,"invalidated":7717,"le":7718,"##8fa":7719,"##f25":7720,"##00346":7721,"##29c":7722,"##02e":7723,"##ff0":7724,"##d6e":7725,"##1ae":7726,"##334":7727,"16902475":7728,"level":7729,"4046":7730,"##c57":7731,"##de0":7732,"##b58":7733,"000000a":7734,"000006a":7735,"##5e2":7736,"##bc2":7737,"578ms":7738,"##9ef":7739,"##5ef":7740,"##5db":7741,"##bb8":7742,"057":7743,"##3fe":7744,"##364":7745,"##7cf":7746,"newinstance":7747,"16902469":7748,"##084d":7749,"169024552":7750,"servicerecipe":7751,"serviceregistry":7752,"##ourcepollerrunn":7753,"scheduler":7754,"##ourcepollerrunner":7755,"##922":7756,"##8b9":7757,"##153":7758,"##1c9":7759,"##ec2":7760,"2225":7761,"##9ae":7762,"622ms":7763,"91f":7764,"b2":7765,"##875":7766,"2975":7767,"##2a3":7768,"##63d":7769,"169036199":7770,"_5e":7771,"##802":7772,"##03f":7773,"##32d":7774,"##4e0":7775,"_5j":7776,"a0":7777,"##31e":7778,"##c22":7779,"##c71":7780,"##24b":7781,"##81bf":7782,"metacardtransformer":7783,"##751605":7784,"display":7785,"##7b8ce":7786,"##72ac":7787,"transform":7788,"##c30":7789,"##30f":7790,"##8f86":7791,"##3af":7792,"##2ae":7793,"169024547":7794,"##210e5d":7795,"##80a751605":7796,"##e0980a751605":7797,"0c8d413306add23":7798,"##1cef25":7799,"##7903e0980a751605":7800,"##5a2a2a16":7801,"##122a7903e0980a751605":7802,"displayname":7803,"##7b8ce122a7903e0980a751605":7804,"##72ac210e5d":7805,"0c8d413306add2372ac210e5d":7806,"##1cef255a2a2a16":7807,"##7b8ce122a7903e0980a7516051cef255a2a2a16":7808,"0c8d413306add2372ac210e5d7b8ce122a7903e0980a7516051cef255a2a2a16":7809,"b87c":7810,"##ea2":7811,"##20e":7812,"##4176":7813,"000000d":7814,"1690370175":7815,"##bundle":7816,"c43":7817,"ee":7818,"##9d2":7819,"##850":7820,"##85e":7821,"##7536":7822,"##e30":7823,"##c6e":7824,"##57f":7825,"##9e0":7826,"_5x":7827,"##570":7828,"##598":7829,"##842":7830,"0022":7831,"##32e":7832,"##333":7833,"##a3d":7834,"16903623":7835,"##agement":7836,"1manag":7837,"##422":7838,"##232":7839,"##589":7840,"##519":7841,"##59d":7842,"##xlog":7843,"##edpa":7844,"##7be":7845,"##e6e":7846,"16902488":7847,"33052":7848,"ceimpl":7849,"##gingservice":7850,"1managedpa":7851,"##xloggingservice":7852,"1managedpaxloggingservice":7853,"mbean":7854,"233c":7855,"##b62":7856,"##8544":7857,"##66d":7858,"##c2e":7859,"233c52e8":7860,"_7d":7861,"##cd2":7862,"##eb2":7863,"##eed7":7864,"##919":7865,"000008d":7866,"16903626":7867,"4af3ad":7868,"quartzscheduler":7869,"4af3adc0":7870,"##676":7871,"##c82":7872,"##_d":7873,"##5a0":7874,"##8c8":7875,"##fee":7876,"##d3e":7877,"##17e":7878,"##8bb":7879,"1690368":7880,"##55d":7881,"##60a":7882,"generatedmethodaccessor289":7883,"tracker":7884,"623ms":7885,"ts":7886,"##971":7887,"##5c9":7888,"##8cc":7889,"##eed9a":7890,"##56e":7891,"##cf2":7892,"##59e":7893,"911z":7894,"##510":7895,"##b82":7896,"##001":7897,"##plugin":7898,"##60d":7899,"75d":7900,"##972":7901,"##580":7902,"##5bc":7903,"##b60":7904,"##7a0":7905,"rol":7906,"##51e":7907,"2875":7908,"##179":7909,"context":7910,"627ms":7911,"573ms":7912,"man":7913,"##7ef":7914,"3075":7915,"##0642":7916,"##07d":7917,"##8752":7918,"##ad0":7919,"##8e32":7920,"##5e0":7921,"##62eb":7922,"169024542":7923,"##6e9e":7924,"626ms":7925,"_5w":7926,"##5d2":7927,"##1fe":7928,"##c74":7929,"33104":7930,"##7d5":7931,"##ee0":7932,"##eee":7933,"ev":7934,"##1c0":7935,"1083":7936,"##917":7937,"##ff2":7938,"##5662":7939,"33150":7940,"0000026":7941,"##0008":7942,"##e60":7943,"##592":7944,"##8da":7945,"##8b2":7946,"##c1c":7947,"##2144":7948,"##level":7949,"##0349":7950,"##4447":7951,"##start":7952,"2625":7953,"##93e":7954,"##9b2":7955,"##c60":7956,"33056":7957,"6355":7958,"##startlevel":7959,"uu":7960,"##4b8":7961,"##b78":7962,"##88c":7963,"##582d":7964,"##bf0":7965,"##30d":7966,"##4060":7967,"##5f0":7968,"##143f":7969,"uuid":7970,"hook":7971,"##9fe":7972,"##0_":7973,"##4_":7974,"##102":7975,"##accessor":7976,"##_8ea":7977,"##_b1e":7978,"##_4c15":7979,"##_0642":7980,"##e_49f":7981,"##7712":7982,"##91e":7983,"0000016":7984,"##73e":7985,"qtp969":7986,"##0be":7987,"##0bd":7988,"##b3_8ea":7989,"1690365":7990,"##ddd":7991,"generatedmethodaccessor676":7992,"##568eed9a":7993,"##043354":7994,"42590":7995,"proxy5a89":7996,"proxy31e":7997,"##9ffb3_8ea":7998,"##20b36e9e":7999,"##structoraccessor":8000,"##81bf_0642":8001,"##_d568eed9a":8002,"##8e32_d568eed9a":8003,"##62eb20b36e9e":8004,"##0_62eb20b36e9e":8005,"##4_8e32_d568eed9a":8006,"##_b1e0_62eb20b36e9e":8007,"##_4c15_b1e0_62eb20b36e9e":8008,"##e_49f4_8e32_d568eed9a":8009,"qtp969043354":8010,"proxy5a8981bf_0642":8011,"proxy31e9ffb3_8ea":8012,"##structoraccessorimpl":8013,"##e_49f4_8e32_d568eed9a04e":8014,"proxy5a8981bf_0642_4c15_b1e0_62eb20b36e9e":8015,"proxy31e9ffb3_8eae_49f4_8e32_d568eed9a04e":8016,"##514":8017,"##b71":8018,"##0080":8019,"##0336":8020,"##4688":8021,"##ba0":8022,"33100":8023,"33202":8024,"##36d":8025,"##66e":8026,"##af0":8027,"]}":8028,"f0":8029,"ma":8030,"##b402":8031,"##c5c":8032,"3025":8033,"33146":8034,"##d2f":8035,"##9a2":8036,"##5664":8037,"##572":8038,"##777":8039,"##5304":8040,"0000035":8041,"##f60":8042,"##d60":8043,"##13e":8044,"##0b2":8045,"##0a6":8046,"compname":8047,"##a3e":8048,"##8fd":8049,"##e8c":8050,"##107":8051,"##ec5":8052,"##da9":8053,"1425":8054,"##4340":8055,"##d62":8056,"geoc":8057,"##9d0":8058,"##4ce6b":8059,"665ms":8060,"##logger":8061,"91feed7":8062,"75d4ce6b":8063,"##5fe":8064,"##459":8065,"##698":8066,"##1d0":8067,"##a0e":8068,"##1c2":8069,"##ae0":8070,"##2444":8071,"solrj":8072,"solrmetacard":8073,"##20346":8074,"000003f":8075,"##7e2":8076,"##f2e":8077,"solrmetacardclientimpl":8078,"##718":8079,"##ki":8080,"##minmbean":8081,"invoke0":8082,"##90e":8083,"shutd":8084,"16903686":8085,"management":8086,"c54":8087,"deb":8088,"##820":8089,"##8b1":8090,"##190":8091,"##c5b":8092,"##c59":8093,"##c3f6":8094,"##ed988":8095,"##096d":8096,"##iew":8097,"##2d7":8098,"##1ee":8099,"##9bb":8100,"##e62":8101,"##a6e":8102,"d2":8103,"##980":8104,"##558":8105,"##9473":8106,"##4899":8107,"##43ab":8108,"2925":8109,"2825":8110,"0000010":8111,"##dc3":8112,"_5h":8113,"##582":8114,"##58e":8115,"##1b8":8116,"1525":8117,"##127":8118,"##4800":8119,"##abc":8120,"##7544":8121,"##8ac":8122,"169024852":8123,"2725":8124,"630ms":8125,"##1be":8126,"##837":8127,"##9480":8128,"##2f0":8129,"##e703":8130,"##manager":8131,">(":8132,"##978":8133,"##2186":8134,"init":8135,"##0400":8136,"##0464":8137,"##89c":8138,"1690359":8139,"##66f":8140,"object":8141,"##8140":8142,"##9472":8143,"##447":8144,"##06e":8145,"##e5e":8146,"##8b4":8147,"##entad":8148,"##7c2":8149,"##60e":8150,"##5d0":8151,"1690368288":8152,"169036891":8153,"eventad":8154,"_7j":8155,"a084d":8156,"##24c":8157,"##checker":8158,"##4441":8159,"##16e1a":8160,"19f2":8161,"##ba4d":8162,"##046106":8163,"##8e7":8164,"##1e4bd":8165,"##c62":8166,"##9c761":8167,"##cd7e93":8168,"##ee046106":8169,"625ms":8170,"##d48b402":8171,"##57716e1a":8172,"##5e3d48b402":8173,"##7520cd7e93":8174,"##c3f6ee046106":8175,"##ed988c3f6ee046106":8176,"##096d1e4bd":8177,"a084d57716e1a":8178,"19f2ce96":8179,"##9c761ed988c3f6ee046106":8180,"##7520cd7e939c761ed988c3f6ee046106":8181,"##096d1e4bd7520cd7e939c761ed988c3f6ee046106":8182,"a084d57716e1a096d1e4bd7520cd7e939c761ed988c3f6ee046106":8183,"a084d57716e1a096d1e4bd7520cd7e939c761ed988c3f6ee0461065e3d48b402":8184,"##ccb":8185,"##2406":8186,"3125":8187,"##87b":8188,"55808":8189,"2675":8190,"##1e0":8191,"defaulthttp":8192,"##68f":8193,"##0ae":8194,"16903635":8195,"contextid":8196,"geocoding":8197,"defaulthttpcontext":8198,"3dc":8199,"##b8e":8200,"##215":8201,"##0000":8202,"1475":8203,"##fac7":8204,"##949":8205,"##5616":8206,"##03e":8207,"##1529":8208,"0000025":8209,"##8e9":8210,"270336":8211,"##8f0":8212,"##ee2":8213,"169036325":8214,"169035759":8215,"b672":8216,"sat":8217,"##585":8218,"##211":8219,"##8352":8220,"##1194":8221,"42290":8222,"##9be":8223,"575ms":8224,"mbeanserver":8225,"_5g":8226,"##umb":8227,"##nail":8228,"##2146":8229,"##olrclient":8230,"##819":8231,"##81b":8232,"##835":8233,"##8656":8234,"##8720":8235,"55400":8236,"55546":8237,"##1f0":8238,"##8b7":8239,"60062":8240,"hawti":8241,"##umbnail":8242,"##0424":8243,"##5072":8244,"##8688":8245,"55764":8246,"##4746":8247,"##7344":8248,"1690366":8249,"##d2e":8250,"1690356963":8251,"169035570":8252,"5e":8253,"wfs":8254,"##9a0":8255,"1085":8256,"remo":8257,"##1008":8258,"##8903":8259,"##92e":8260,"574ms":8261,"1690370490":8262,"##sis":8263,"##ed94":8264,"##ervice":8265,"##991":8266,"##4976":8267,"##537":8268,"##8646":8269,"persis":8270,"##1f9":8271,"##ount":8272,"59694":8273,"_5u":8274,"59390":8275,"629ms":8276,"standardframework":8277,"##create":8278,"##availab":8279,"##own":8280,"##osi":8281,"##tent":8282,"##essourcepollerrunner":8283,"##eposi":8284,"##utils":8285,"##247":8286,"unavailab":8287,"##12c":8288,"##1200":8289,"##0445":8290,"##407":8291,"##ectionutils":8292,"##treposi":8293,"46dd":8294,"##8744":8295,"513b":8296,"56022":8297,"##e3a7":8298,"##content":8299,"getcontent":8300,"##factoryimpl":8301,"##14b":8302,"reflectionutils":8303,"##3ae":8304,"contenttyp":8305,"internalcreate":8306,"##7e0":8307,"blueprintreposi":8308,"##types":8309,"##c409ce":8310,"169035790":8311,"628ms":8312,"solrclientfactoryimpl":8313,"1690357278":8314,"8d93":8315,"fd8a":8316,"b672c409ce":8317,"persisten":8318,"unavailables":8319,"513be3a7":8320,"getcontenttypes":8321,"contenttypessourcepollerrunner":8322,"blueprintrepository":8323,"b672c409ce2e":8324,"9dc1":8325,"b851":8326,"d149":8327,"##2448":8328,"##2411":8329,"##2446":8330,"##2088":8331,"##405":8332,"55450":8333,"55876":8334,"33e703":8335,"##dc5":8336,"##4272":8337,"55610":8338,"55756":8339,"##582dfc":8340,"d149143f":8341,"33e703582dfc":8342,"c24":8343,"d9":8344,"##8800":8345,"##fail":8346,"##7600":8347,"##0350":8348,"##445":8349,"55918":8350,"##fe2":8351,"##36a":8352,"##dbe":8353,"##0f0":8354,"##0e2":8355,"_5d":8356,"##04bf":8357,"##2944":8358,"##2947":8359,"##2080":8360,"##16c":8361,"##497":8362,"##465":8363,"55444":8364,"##7440":8365,"##7456":8366,"##8416":8367,"55394":8368,"55706":8369,"631ms":8370,"1690357593":8371,"2dc":8372,"f2":8373,"##c51":8374,"##0026":8375,"##2483":8376,"##775":8377,"##9446":8378,"##3f0":8379,"##871":8380,"55498":8381,"0000006":8382,"##84da":8383,"##36f":8384,"169024663":8385,"##634":8386,"##ac2":8387,"##df0":8388,"16903550":8389,"2775":8390,"1690363255":8391,"##870":8392,"##0048":8393,"idp":8394,"##839":8395,"##4412":8396,"##5344":8397,"##7494":8398,"##2128":8399,"##e6b":8400,"55712":8401,"55550":8402,"572ms":8403,"1690367973":8404,"htm":8405,"##21b":8406,"property":8407,"##da5":8408,"##505c":8409,"##771":8410,"##441":8411,"##9640":8412,"##ba5":8413,"##4545":8414,"##dc2":8415,"##95ff":8416,"##aliz":8417,"##36e":8418,"0x10000046b0e013":8419,"55924":8420,"639ms":8421,"html":8422,"cs":8423,"cer":8424,"##2160":8425,"##88aa":8426,"##291":8427,"##4847":8428,"##7648":8429,"##435":8430,"##serverwrapper":8431,"##5368":8432,"55812":8433,"##8a9":8434,"000008c":8435,"##f6c":8436,"##7224":8437,"##42c":8438,"##1f2":8439,"##ee9":8440,"##0e0":8441,"_5y":8442,"55970":8443,"##minmbeanserverwrapper":8444,"eventadminmbeanserverwrapper":8445,"csv":8446,"_7a":8447,"_63":8448,"_64":8449,"nit":8450,"##view":8451,"##2490":8452,"##887":8453,"##047":8454,"##76b":8455,"##565":8456,"##56c":8457,"##4494":8458,"##41b":8459,"thumbnail":8460,"##0466":8461,"55872":8462,"000007d":8463,"##1f5":8464,"##cd0":8465,"##60f":8466,"56018":8467,"55614":8468,"nitf":8469,"##518":8470,"##0044":8471,"##9426":8472,"##40346":8473,"##22b":8474,"##62f":8475,"55656":8476,"633ms":8477,"4c3":8478,"ste":8479,"##9c0":8480,"##214f":8481,"##eclaimshandler":8482,"failure_mode":8483,"##fafa":8484,"##4394":8485,"##03008":8486,"##4936":8487,"##159":8488,"##f35":8489,"##5a5":8490,"##5a46":8491,"000007c":8492,"##7830":8493,"3625":8494,"##e5c":8495,"##9cb":8496,"##uremode":8497,"169035476":8498,"roleclaimshandler":8499,"##failuremode":8500,"step":8501,"2e":8502,"55662":8503,"count":8504,"pki":8505,"##132":8506,"##lus":8507,"##eab":8508,"exp":8509,"##fac6":8510,"##9456":8511,"##9493":8512,"##4994":8513,"##5329":8514,"##861":8515,"55502":8516,"000002f":8517,"##b647":8518,"##4544":8519,"##d30":8520,"##7899":8521,"##4e04":8522,"##dd0":8523,"55974":8524,"shutdown":8525,"##8dae":8526,"##217":8527,"##50c":8528,"##5088":8529,"##9463":8530,"3975":8531,"##1600":8532,"##b54f":8533,"##9136":8534,"##8a1":8535,"##ff46":8536,"##4a41":8537,"##b6eb":8538,"filter":8539,"##c3e":8540,"_6s":8541,"##203008":8542,"persistence":8543,"pur":8544,"##mod":8545,"##8844":8546,"##8144":8547,"##205":8548,"##5288":8549,"##4304":8550,"##997":8551,"##415":8552,"##15c18":8553,"##4704":8554,"##4720":8555,"##c64be":8556,"76c64be":8557,"##8962":8558,"42515c18":8559,"_7n":8560,"purge":8561,"76c64be7":8562,"##eref":8563,"##811":8564,"##201":8565,"##7704":8566,"##7792":8567,"##9496":8568,"##9489":8569,"##769":8570,"##4323":8571,"##fd4d":8572,"theref":8573,"##1504":8574,"##0460":8575,"##4dbd":8576,"##8223":8577,"##7b46":8578,"##e34":8579,"##4592":8580,"geoj":8581,"##14b3":8582,"##ortname":8583,"##9024":8584,"##3056":8585,"##7f801":8586,"##9f5":8587,"##2840":8588,"shortname":8589,"39080":8590,"ststhread":8591,"1690356649":8592,"debug":8593,"3dc7f801":8594,"therefore":8595,"geojson":8596,"##aging":8597,"##ca5":8598,"##12b":8599,"##831":8600,"##0352":8601,"##2656":8602,"0000023":8603,"##4db":8604,"##8976":8605,"##4288":8606,"##74b":8607,"##2928":8608,"##8b80":8609,"##8404":8610,"imaging":8611,"##b443":8612,"]:":8613,"_7x":8614,"##c28":8615,"##881":8616,"##8832":8617,"##da4a":8618,"##299":8619,"##77b":8620,"##94b":8621,"##94c3":8622,"##abb":8623,"##115":8624,"##755":8625,"##75aa":8626,"##498a":8627,"##4170":8628,"##8640":8629,"##f38c":8630,"##ba4a":8631,"##b924":8632,"##471":8633,"##ff44":8634,"##b6c":8635,"##731":8636,"##227":8637,"##8c94":8638,"##e4ea":8639,"##0593":8640,"##84b":8641,"##8f4a":8642,"##5f4f":8643,"40352":8644,"5701":8645,"156z":8646,"_5i":8647,"_7c":8648,"##_2":8649,"##eab5":8650,"##2112":8651,"##2400":8652,"##2440":8653,"##8880":8654,"##885a":8655,"##88b9":8656,"##ebc":8657,"##814e":8658,"##7744":8659,"##9488":8660,"##9486":8661,"##5648":8662,"##757":8663,"##7024":8664,"##071":8665,"##8747":8666,"##8599":8667,"##8400":8668,"##6d0":8669,"c11":8670,"##2fa":8671,"containerstartlevel":8672,"##ea49":8673,"##2436":8674,"##8881":8675,"##880f":8676,"##da43":8677,"##eb4a":8678,"##0404":8679,"##5024":8680,"##8345":8681,"##40da":8682,"##4050":8683,"##43f45":8684,"##99c6":8685,"##03c1b":8686,"##444f":8687,"##534a":8688,"##2d8":8689,"##f3b":8690,"##4756":8691,"##7be8":8692,"##b2c":8693,"##901":8694,"##25dcd":8695,"##9200":8696,"##be1":8697,"##f365c3":8698,"##4bb":8699,"##ee1ad":8700,"_3r":8701,"##ae2":8702,"49152":8703,"##b4f8dae":8704,"lay":8705,"9387536":8706,"##8f8625dcd":8707,"##94737be8":8708,"##505c03c1b":8709,"##95fff365c3":8710,"##43f458f8625dcd":8711,"##ee1ad94737be8":8712,"##b4f8dae95fff365c3":8713,"9387536b4f8dae95fff365c3":8714,"##505c03c1b43f458f8625dcd":8715,"##ee1ad94737be8505c03c1b43f458f8625dcd":8716,"9387536b4f8dae95fff365c3ee1ad94737be8505c03c1b43f458f8625dcd":8717,"9387536b4f8dae95fff365c3ee1ad94737be8505c03c1b43f458f8625dcdfac7":8718,"67ae":8719,"##fab":8720,"1375":8721,"39860":8722,"##09b":8723,"##1648":8724,"##4624":8725,"##0544":8726,"##1456":8727,"##1d9":8728,"##7840":8729,"##0d0":8730,"169036168":8731,"39902":8732,"634ms":8733,"##224":8734,"##e5a":8735,"##ecb":8736,"##24b5":8737,"##fa46":8738,"##838b":8739,"##7620":8740,"##4096":8741,"39172":8742,"##fdfa":8743,"##7552":8744,"##49c6":8745,"##5360":8746,"##4577":8747,"##5e9":8748,"##857":8749,"##44af":8750,"##7afd":8751,"##5400":8752,"##7976":8753,"##6624":8754,"##2843":8755,"3225":8756,"##10346":8757,"38856":8758,"hawt":8759,"hawtio":8760,"_7b":8761,"##ef3":8762,"##ed8":8763,"##ed46":8764,"##ec4":8765,"input":8766,"##0499":8767,"##297":8768,"##9424":8769,"##940b":8770,"##037":8771,"##031":8772,"##44b":8773,"##3280":8774,"##26c":8775,"##2d4":8776,"##70b":8777,"##8784":8778,"##f61":8779,"##4512":8780,"##1343":8781,"3475":8782,"##7424":8783,"##b28":8784,"##7ac":8785,"##3a6":8786,"##a9e":8787,"1690357592":8788,"1690362311":8789,"2c6":8790,"pre":8791,"sourcepoller":8792,"##vecon":8793,"##ec8":8794,"##2424":8795,"##889":8796,"##cac":8797,"##ca46":8798,"1325":8799,"##129":8800,"##29e6":8801,"##509a":8802,"##942d":8803,"##94f6":8804,"##48ca":8805,"##434a":8806,"##99ab":8807,"##9991":8808,"##03b":8809,"publishbundle":8810,"##ab4a":8811,"##119":8812,"##751":8813,"##4149":8814,"##414f":8815,"##4645":8816,"##5a94":8817,"##baeb":8818,"##ba96":8819,"##8d4":8820,"##8a4":8821,"##8aea":8822,"##8af3":8823,"##47ab":8824,"##4d53":8825,"##7b43":8826,"##7b4a":8827,"##8c4d":8828,"notify":8829,"##1f4f":8830,"##ggest":8831,"##1d8":8832,"##1a9":8833,"suggest":8834,"initializ":8835,"##5500":8836,"##4c4f":8837,"newclient":8838,"##78b0":8839,"createcontainer":8840,"##982d":8841,"##cd1":8842,"##value":8843,"##ee99":8844,"##b453":8845,"40250":8846,"tracked":8847,"40050":8848,"nativecon":8849,"_7t":8850,"preview":8851,"publishbundleevent":8852,"nativeconstructoraccessorimpl":8853,"7ce":8854,"1089":8855,"##8840":8856,"##8896":8857,"##0440":8858,"##7749":8859,"##7659":8860,"39060":8861,"##4488":8862,"##49cc":8863,"##2624":8864,"0000066":8865,"##82c":8866,"##c05":8867,"##1d4":8868,"##2a2":8869,"16903616":8870,"##2e0":8871,"38792":8872,"##50345":8873,"1690370176":8874,"_60":8875,"_61":8876,"c29":8877,"c60":8878,"##5c0":8879,"##e25":8880,"##da16":8881,"##da49":8882,"##ebb":8883,"##fa0d":8884,"##2976":8885,"##94ed":8886,"##48c":8887,"##b05":8888,"##4016":8889,"##025":8890,"##0224":8891,"##fd4":8892,"##44ea":8893,"##4448":8894,"##7504":8895,"##49b6":8896,"##7012":8897,"##70b6":8898,"##b994":8899,"##ff4d":8900,"0x100000a":8901,"##e3c":8902,"##457":8903,"##45e5":8904,"##efb3":8905,"##13b":8906,"##e59":8907,"##8540":8908,"##351":8909,"##84b3":8910,"1690352":8911,"##7c2d":8912,"##7d45":8913,"rtf":8914,"6352":8915,"##cd4":8916,"##7194":8917,"##4b43":8918,"##9d4d":8919,"##b4fd":8920,"##c896":8921,"_6y":8922,"_5k":8923,"1690369232":8924,"##b96b":8925,"_2y":8926,"crlchecker":8927,"0x100000a1529":8928,"4ac":8929,"5f3":8930,"6a9":8931,"9c":8932,"_8d":8933,"_78":8934,"search":8935,"1093":8936,"##ed8f":8937,"##219":8938,"##2143":8939,"applic":8940,"##947":8941,"##9440":8942,"39692":8943,"##5632":8944,"##9950":8945,"##09c":8946,"##491":8947,"##8696":8948,"##b594":8949,"##8d9":8950,"##42cf":8951,"3275":8952,"##e4c":8953,"##8448":8954,"##7104":8955,"services":8956,"features":8957,"application":8958,"1eb":8959,"c51":8960,"e04":8961,"##fed":8962,"##e8a":8963,"##005":8964,"1275":8965,"0012":8966,"##8194":8967,"##0432":8968,"##0459":8969,"##20f6":8970,"##8340":8971,"##834a":8972,"##7604":8973,"##7680":8974,"##4094":8975,"##4099":8976,"##5695":8977,"##439":8978,"##ab94":8979,"##4104":8980,"##4180":8981,"##865":8982,"##261":8983,"##2688":8984,"##065":8985,"##0638":8986,"##701":8987,"##f31f":8988,"##91b":8989,"##8904":8990,"##ef5":8991,"##e54a":8992,"##4256":8993,"##9524":8994,"##855":8995,"##b186":8996,"##79c":8997,"##7f24":8998,"##9845":8999,"##cb4a":9000,"000002c0":9001,"40268":9002,"40314":9003,"643ms":9004,"1690355705":9005,"77b":9006,"_non":9007,"##dca":9008,"##ed2d":9009,"##2181":9010,"##2496":9011,"attrib":9012,"##8109":9013,"##508f":9014,"##2032":9015,"##569":9016,"##99fd":9017,"##3200":9018,"##abb3":9019,"##1152":9020,"##_clus":9021,"##quartz":9022,"##9104":9023,"##9140":9024,"##4d5":9025,"##7340":9026,"##7b1":9027,"##e58":9028,"##69e":9029,"##dc0":9030,"##b856":9031,"##b3ba":9032,"##7404":9033,"##1906":9034,"##1a4f":9035,"##7844":9036,"##scheduler_":9037,"##c516":9038,"000002c1":9039,"40304":9040,"defaultquartz":9041,"635ms":9042,"_non_clus":9043,"defaultquartzscheduler_":9044,"_non_clustered":9045,"%,":9046,"0de":9047,"67af":9048,"cal":9049,"db3":9050,"f0f":9051,"##e2a":9052,"##a2a":9053,"##ea3f":9054,"##ea4d":9055,"##ed4f":9056,"##ed4a":9057,"##de88":9058,"##de4d":9059,"##24da":9060,"##8894":9061,"##885c":9062,"##daa6":9063,"##olrcatalogprovider":9064,"##8176":9065,"1125":9066,"##fa94":9067,"##fa44":9068,"##fa4f":9069,"##4840":9070,"##765":9071,"##b094":9072,"##4023":9073,"39838":9074,"##561":9075,"##5646":9076,"##432c":9077,"##095":9078,"##091":9079,"##098d":9080,"##449":9081,"##444e":9082,"##ab13":9083,"##75b":9084,"##7543":9085,"##805f":9086,"##49ca":9087,"##53b":9088,"38744":9089,"##5a48":9090,"##ba4":9091,"##baaa":9092,"##9199":9093,"##3f4":9094,"##b916":9095,"##8745":9096,"##8afa":9097,"##4783":9098,"##4703":9099,"##4711":9100,"##4791":9101,"##ffb":9102,"##b65":9103,"##b69a":9104,"0x1000002":9105,"##pping":9106,"##89b":9107,"##f6b":9108,"##d6b":9109,"##8e99":9110,"##b31":9111,"##9b4f":9112,"##tesolrcatalogprovider":9113,"##7429":9114,"##c64f":9115,"##8582":9116,"##5824":9117,"##1712":9118,"##8b44":9119,"##8b47":9120,"##8494":9121,"##797":9122,"##8f1":9123,"##4c77":9124,"##4cba":9125,"##4b86":9126,"##9d5":9127,"##1c7":9128,"##5d9":9129,"44144":9130,"##0a2":9131,"configuration":9132,"1690247583":9133,"tsdb":9134,"remotesolrcatalogprovider":9135,"caller":9136,"1d3":9137,"66d":9138,"_66":9139,"1088":9140,"##21c":9141,"##2177":9142,"##ec9":9143,"##fa5":9144,"##4091":9145,"##431":9146,"##53c":9147,"##269":9148,"##70ca":9149,"##4794":9150,"##8983":9151,"##7b4":9152,"##e394":9153,"##45c":9154,"##10b":9155,"##85b":9156,"##d38":9157,"##68b":9158,"##8f7":9159,"##5515":9160,"##cfb":9161,"##7e8":9162,"_6u":9163,"38812":9164,"_5q":9165,"40512":9166,"636ms":9167,"169035696":9168,"638ms":9169,"3cc":9170,"40008":9171,"9e3":9172,"_83":9173,"efa":9174,"min":9175,"##517":9176,"##ea7":9177,"##ec1":9178,"##2416":9179,"##2493":9180,"##2403":9181,"##81eb":9182,"##2904":9183,"##50ab":9184,"##209":9185,"##2096":9186,"##77e6":9187,"##838f":9188,"##944e":9189,"##4802":9190,"##48f3":9191,"##4896":9192,"##4873":9193,"##48bd":9194,"##ce06":9195,"##b0ab":9196,"##40b3":9197,"##fd48":9198,"##4483":9199,"##4446":9200,"##441f":9201,"##5300":9202,"##4646":9203,"##2649":9204,"##b59":9205,"38904":9206,"##2d9":9207,"##2d5":9208,"##155":9209,"##707":9210,"##7016":9211,"##9649":9212,"##3feb":9213,"##4fb":9214,"##8d8":9215,"##8d2d":9216,"3675":9217,"##454f":9218,"##efb":9219,"##ef4f":9220,"##e57":9221,"##69c":9222,"##b84a":9223,"##42c6":9224,"##5e7":9225,"##9bed":9226,"##e4b3":9227,"##95dc":9228,"##17c":9229,"##7a94":9230,"##7988":9231,"##7cb":9232,"##8f5":9233,"##5594":9234,"##9c2":9235,"##7e4a":9236,"##4b46":9237,"##6346":9238,"##c4c6":9239,"1690354447":9240,"16903641987":9241,"40462":9242,"minute":9243,"_5a":9244,"d50":9245,"##080":9246,"##f47":9247,"##db1":9248,"##ourcer":9249,"1086":9250,"##ene":9251,"##ed7":9252,"##2472":9253,"##81c":9254,"##fa7":9255,"##1232":9256,"##77c":9257,"##8368":9258,"##3288":9259,"48966":9260,"##4903":9261,"##0688":9262,"##8d24":9263,"##4748":9264,"##4d4d":9265,"##b69":9266,"##8224":9267,"##897":9268,"33944":9269,"##8e4a":9270,"##458a":9271,"##135":9272,"##85c":9273,"##197":9274,"##7c7":9275,"##7d7":9276,"##7e1":9277,"_6w":9278,"38906":9279,"39224":9280,"39272":9281,"84f":9282,"a55":9283,"c76":9284,"edf":9285,"fe6":9286,"##70346":9287,"##f94":9288,"##e81":9289,"##e0a":9290,"1081":9291,"##icy":9292,"##0024":9293,"##8856":9294,"##da04":9295,"##fac":9296,"##faad":9297,"##cad6":9298,"##2993":9299,"##778d":9300,"##487":9301,"##b083":9302,"##40b6":9303,"##40e3":9304,"39008":9305,"39126":9306,"##5696":9307,"##999":9308,"##034a":9309,"##fd69":9310,"##44c":9311,"##11b":9312,"##7585":9313,"##8016":9314,"##41eb":9315,"##4177":9316,"##4103":9317,"##b595":9318,"##1581":9319,"eventmanager":9320,"##87d3":9321,"##ffeb":9322,"##b66a":9323,"##7832":9324,"##7324":9325,"##7b7":9326,"##ef44":9327,"##e5eb":9328,"##dc24":9329,"##b85f":9330,"##1e4":9331,"32768":9332,"##9544":9333,"##8426":9334,"##7980":9335,"##bc94":9336,"##5146":9337,"##7152":9338,"169024789":9339,"##1b4":9340,"16903610":9341,"##c4b1":9342,"39174":9343,"40416":9344,"39016":9345,"169035116":9346,"2d6":9347,"7bf":9348,"70d":9349,"_87":9350,"_3s":9351,"f09":9352,"mig":9353,"##e2d":9354,"##d04":9355,"##a13":9356,"##ec7":9357,"##0029":9358,"##88b":9359,"##daad":9360,"##8104":9361,"##7793":9362,"##b02f":9363,"##5640":9364,"##442a":9365,"##4193":9366,"##4699":9367,"##061":9368,"##2d1":9369,"##2dc":9370,"##1515":9371,"##967":9372,"##8d7":9373,"0000033":9374,"##b6b":9375,"##8c43":9376,"##e55":9377,"##58b":9378,"##b19a":9379,"##84cf":9380,"1690364":9381,"##7a1":9382,"##7c8":9383,"##2b4":9384,"_3c":9385,"_3q":9386,"000002c3":9387,"000002c2":9388,"##5040":9389,"##validator":9390,"38858":9391,"40098":9392,"_4q":9393,"c89":9394,"dce":9395,"f99":9396,"gu":9397,"##28d":9398,"##f56":9399,"##f7a":9400,"##eef":9401,"##e19":9402,"##d12":9403,"##undle":9404,"##2120":9405,"##cc4f":9406,"##ec3d":9407,"##007":9408,"##24ad":9409,"##2451":9410,"##da54":9411,"##ansion":9412,"##8141":9413,"##814d":9414,"##12cf":9415,"##041":9416,"##0450":9417,"##0483":9418,"##0446":9419,"##044a":9420,"##2994":9421,"##29b0":9422,"##20238":9423,"##774a":9424,"logout":9425,"##944a":9426,"##945e":9427,"##94b3":9428,"##48aa":9429,"##4866":9430,"##761a":9431,"##b056":9432,"##56b6":9433,"##438c":9434,"##430c":9435,"##99b3":9436,"##fd7":9437,"##4416":9438,"##1696":9439,"##11b3":9440,"##80af":9441,"##49ab":9442,"##496a":9443,"##414a":9444,"##53a6":9445,"##2646":9446,"##0640":9447,"##b5ca":9448,"##b549":9449,"38962":9450,"##1557":9451,"##f343":9452,"##5afa":9453,"##ba94":9454,"##ba99":9455,"##ba07":9456,"##9146":9457,"##b95a":9458,"##b9bc":9459,"##4f16":9460,"##4f7b":9461,"##8d49":9462,"##8a94":9463,"##47c":9464,"##4752":9465,"##472f":9466,"##473b":9467,"##4d49":9468,"##4d4f":9469,"##8204":9470,"##f688":9471,"##f6b5":9472,"##f607":9473,"##7b41":9474,"##e3bee":9475,"##451":9476,"##ef96":9477,"##ef5a":9478,"##1320":9479,"##134a":9480,"##b844":9481,"##b82d":9482,"##fe9d":9483,"##0b4a":9484,"##b320":9485,"##b3a6":9486,"##4858":9487,"##e4b":9488,"##7416":9489,"##74b3":9490,"##c6c":9491,"##c623":9492,"##0570":9493,"##14fa":9494,"##1440":9495,"##1411":9496,"##14ad":9497,"##c9ab":9498,"##35f":9499,"##1722":9500,"##1fb":9501,"##8b94":9502,"##8b56":9503,"##8b8a":9504,"##8481":9505,"##5744":9506,"##1849":9507,"##7a4":9508,"##7a44":9509,"##bc85":9510,"##1a94":9511,"##7c5":9512,"##7cda":9513,"##7c4a":9514,"##7d94":9515,"##4c4":9516,"##7f9":9517,"##51c":9518,"##2a5":9519,"##9f4f":9520,"##7e7":9521,"##cb88":9522,"##cbab":9523,"##bbc6":9524,"##9e49":9525,"##1b43":9526,"##c2c":9527,"##d594":9528,"##a4fa":9529,"##a4c3":9530,"##c4bf":9531,"##e704":9532,"39602":9533,"##8048":9534,"38748":9535,"632ms":9536,"169036419900":9537,"starting":9538,"expansion":9539,"guest":9540,"_8e":9541,"cf3":9542,"##ed9":9543,"##0032":9544,"##de9":9545,"##2480":9546,"##2441":9547,"##8829":9548,"##8845":9549,"##rdlogger":9550,"##77ca":9551,"##76c":9552,"##7616":9553,"##0280":9554,"##abb6":9555,"dev":9556,"##75c":9557,"##7524":9558,"##4907":9559,"##867":9560,"##2352":9561,"##0650":9562,"##b5b0":9563,"##7029":9564,"40566":9565,"##827":9566,"##8c9":9567,"##7275":9568,"##e51":9569,"##101":9570,"##b8b":9571,"##0bb":9572,"##7443":9573,"##1488":9574,"##357":9575,"dardlogger":9576,"##8452":9577,"##5710":9578,"##5544":9579,"##7849":9580,"##5c7":9581,"##0d1":9582,"39390":9583,"40474":9584,"16903641992":9585,"40960":9586,"39956":9587,"6354":9588,"266240":9589,"standardlogger":9590,"dardloggerfactory":9591,"3eb":9592,"42d":9593,"94a":9594,"_67":9595,"fc":9596,"##fea":9597,"##e11":9598,"##auth":9599,"##monitor":9600,"##erauth":9601,"##userauth":9602,"##ea23":9603,"##2140":9604,"##21b6":9605,"##21408":9606,"##ccea":9607,"##eced":9608,"##de35":9609,"##24ea":9610,"##8873":9611,"serveruserauth":9612,"01ex":9613,"##da7":9614,"##817":9615,"##8145":9616,"1175":9617,"##fa4":9618,"##fa1":9619,"##fa80":9620,"##0448":9621,"##041f":9622,"##0436":9623,"##5021":9624,"##207":9625,"##7745":9626,"##94ba":9627,"##ce24":9628,"##764a":9629,"39322":9630,"##43c":9631,"##fd47":9632,"##44ca":9633,"##4415":9634,"##1694":9635,"##1664":9636,"##327":9637,"##ab5a":9638,"##abe3":9639,"##114f":9640,"##7586":9641,"##496d":9642,"##4143":9643,"##4132":9644,"##41b1":9645,"##46b6":9646,"##265":9647,"##0693":9648,"38958":9649,"##2db":9650,"##2d4d":9651,"##f39":9652,"##f349":9653,"##baca":9654,"##ba8a":9655,"##9152":9656,"##b933":9657,"##8781":9658,"##4f4a":9659,"##8a2f":9660,"##474e":9661,"39792":9662,"##4a24":9663,"40166":9664,"##7834":9665,"##7352":9666,"##7bbf":9667,"##e34a":9668,"##e3b1":9669,"##22ba":9670,"##13c":9671,"##dc599":9672,"##b8da":9673,"##9320":9674,"##74ab":9675,"##1424":9676,"##8592":9677,"encr":9678,"##c9eb":9679,"##c98f":9680,"##b1b":9681,"##8453":9682,"##84ba":9683,"##84be":9684,"##bf4":9685,"##1d7":9686,"##5440":9687,"##e65":9688,"##7ced":9689,"##559":9690,"##7f43":9691,"##7894":9692,"##9804":9693,"1690247899":9694,"##cb4d":9695,"##9d44":9696,"##yption":9697,"##5fc":9698,"##dfb":9699,"##df46":9700,"_3b":9701,"##0f9":9702,"##b494":9703,"169035113":9704,"_4n":9705,"69dc599":9706,"10903":9707,"0242ac130026":9708,"39906":9709,"##20345":9710,"16903641998903":9711,"1690248841":9712,"1690363570":9713,"0x1000002b96b":9714,"serveruserauthservice":9715,"encryption":9716,"69dc599c63":9717,"1690364199890321408":9718,"_72":9719,"_59":9720,"head":9721,"1050":9722,"##2166":9723,"##ccc":9724,"##cc8f":9725,"##0403":9726,"##0480":9727,"##8349":9728,"##94eb":9729,"##9420":9730,"##7653":9731,"39538":9732,"##9916":9733,"##9960":9734,"##44dc":9735,"##80c6":9736,"##534f":9737,"##46a3":9738,"##8900":9739,"##8920":9740,"##7321":9741,"##e5ab":9742,"##5e4":9743,"##9b49":9744,"##7483":9745,"##74ba":9746,"##c65":9747,"44770":9748,"##8576":9749,"##5803":9750,"##b1ac":9751,"##1f8":9752,"##8bfd":9753,"##927":9754,"##1d70":9755,"##5476":9756,"##7984":9757,"##78fa":9758,"##2a1":9759,"##984f":9760,"##4b94":9761,"##5c4":9762,"##c4bd":9763,"_4o":9764,"40056":9765,"44452":9766,"39644":9767,"40576":9768,"39580":9769,"39280":9770,"3f6":9771,"4199":9772,"70b":9773,"_7e":9774,"_5f":9775,"b25":9776,"d89":9777,"d36":9778,"f93":9779,"gmd":9780,"ssh":9781,"##600":9782,"##f02":9783,"##e83":9784,"##a43":9785,"##stal":9786,"##ea94":9787,"##cc5":9788,"##ec24":9789,"##ec4a":9790,"##2421":9791,"##2437":9792,"##dab":9793,"##ebcf":9794,"##8146":9795,"##0441":9796,"##2999":9797,"##4806":9798,"##4870":9799,"##5220":9800,"##52ba":9801,"##b0c":9802,"##40b":9803,"39648":9804,"39534":9805,"##5683":9806,"##4341":9807,"##43f3":9808,"##4393":9809,"##4366":9810,"##03af":9811,"##4420":9812,"##16b":9813,"##32b6":9814,"##4910":9815,"##538b":9816,"##869":9817,"##4640":9818,"##06ff":9819,"##b546":9820,"##9648":9821,"##ba9a":9822,"##91de":9823,"##b95":9824,"##0736":9825,"##4747":9826,"##4d7":9827,"##4dea":9828,"##4d41":9829,"39744":9830,"##b6c3":9831,"40528":9832,"##8921":9833,"##89eb":9834,"##89b9":9835,"##7836":9836,"##7b4b":9837,"##d65":9838,"##4581":9839,"##8c1":9840,"3425":9841,"##b802":9842,"##4273":9843,"##937":9844,"##935":9845,"##5efd":9846,"##05ab":9847,"##9517":9848,"##b2b":9849,"##d3c":9850,"##8b2d":9851,"##579":9852,"##7a07":9853,"##3656":9854,"##7c4d":9855,"##8f4":9856,"##bdb":9857,"##bd1":9858,"newsc":9859,"##7824":9860,"##7829":9861,"##5660":9862,"##4b88":9863,"##3840":9864,"##595a":9865,"_3g":9866,"39438":9867,"40004":9868,"_5n":9869,"##4403":9870,"38074":9871,"##52992":9872,"1690355076":9873,"purgetask":9874,"1ba":9875,"9dd":9876,"_68":9877,"##fca":9878,"1096":9879,"1025":9880,"##enth":9881,"##2106":9882,"##0096":9883,"##tific":9884,"##8899":9885,"##eb47":9886,"161194":9887,"##8163":9888,"##fa5a":9889,"##ca8":9890,"##0496":9891,"##0447":9892,"##507":9893,"##506f":9894,"##779":9895,"##52db":9896,"39124":9897,"##5680":9898,"##43b6":9899,"##4336":9900,"##4496":9901,"##4124":9902,"##86c":9903,"##b55":9904,"##ba6e":9905,"##0720":9906,"##8750":9907,"##8dc":9908,"##47d3":9909,"000000c":9910,"##4a7":9911,"40162":9912,"##f65":9913,"##e39":9914,"##2250":9915,"##4516":9916,"##9386":9917,"##059":9918,"##1481":9919,"##1450":9920,"##8556":9921,"##b17":9922,"##6896":9923,"##8440":9924,"##18ed":9925,"##d204":9926,"##5145":9927,"##cb4":9928,"##5fb":9929,"##bbb":9930,"000002bf":9931,"40362":9932,"39486":9933,"39434":9934,"39344":9935,"39952":9936,"16903575926":9937,"certific":9938,"certificate":9939,"0b3":9940,"1bf":9941,"2ad":9942,"4bf3":9943,"5100":9944,"6e5":9945,"69f":9946,"87f":9947,"889f":9948,"a7b":9949,"a69":9950,"a33":9951,"dad":9952,"eb6":9953,"fed":9954,"##2eb":9955,"##f40":9956,"##f46":9957,"##fb1":9958,"##e79":9959,"##e7e":9960,"##d41":9961,"##d4d":9962,"##d73":9963,"##d4e":9964,"##aec":9965,"##a45":9966,"##uds":9967,"##ea5":9968,"##ea36":9969,"##edba":9970,"##eda8":9971,"##esservice":9972,"##ecf6":9973,"##ec36":9974,"##00c":9975,"##de83":9976,"##da86":9977,"##da07":9978,"##da1e":9979,"##daaa":9980,"22260":9981,"##ebba":9982,"##eb5c":9983,"##fab3":9984,"##fa9b":9985,"##fa7f":9986,"##ca9":9987,"##ca86":9988,"##1296":9989,"##04b":9990,"##04ea":9991,"##04eb":9992,"##04f6":9993,"##20ce":9994,"##83fa":9995,"##94cf":9996,"##48ed":9997,"##486a":9998,"##ce46":9999,"##7664":10000,"##b099":10001,"##b0dc":10002,"39e91":10003,"##564f":10004,"##4310":10005,"##43c3":10006,"##99ca":10007,"##9992":10008,"##0986":10009,"##098a":10010,"##035d":10011,"##fd04":10012,"##abaf":10013,"##7553":10014,"##75c3":10015,"##80b3":10016,"##41ff":10017,"##414d":10018,"##41d6":10019,"##41bf":10020,"##419f":10021,"##413b":10022,"##531":10023,"##86bf":10024,"##86bc":10025,"##86db":10026,"##2394":10027,"##b544":10028,"##154c":10029,"##f34d":10030,"##96dd":10031,"##5a55":10032,"##ba85":10033,"##b900":10034,"##b9d6":10035,"##b9b3":10036,"##8794":10037,"##87d6":10038,"##87fe":10039,"##8736":10040,"##874c":10041,"##87ac":10042,"##4f93":10043,"##8d44":10044,"##8d8d":10045,"##8d0a":10046,"##8a40":10047,"##8a8a":10048,"##47ad":10049,"##47bf":10050,"##ff6d":10051,"##4d1":10052,"##4d4a":10053,"##4ddc":10054,"39748":10055,"##4a4d":10056,"##4a85":10057,"##4ac3":10058,"##4a66":10059,"##4a6a":10060,"##b688":10061,"40120":10062,"##82f3":10063,"##89ea":10064,"##89dc":10065,"##897a":10066,"##8933":10067,"##737":10068,"##7bab":10069,"##e340":10070,"##8e49":10071,"##4593":10072,"##45d3":10073,"##4557":10074,"##ef43":10075,"##8c4":10076,"##8cdf":10077,"clouds":10078,"##b8ba":10079,"##931":10080,"##fe1":10081,"##fe94":10082,"##0b3a":10083,"##1e9d":10084,"##5e91":10085,"##5e4d":10086,"af06":10087,"##c024":10088,"##c0ac":10089,"##b38":10090,"##b346":10091,"##b3d6":10092,"##9bce":10093,"##e4ab":10094,"##e4cd":10095,"##c643":10096,"##c610":10097,"##954b":10098,"##8585":10099,"##c9d6":10100,"##b1ea":10101,"##b14d":10102,"##b19b":10103,"##90ab":10104,"##8bec":10105,"##8476":10106,"##8470":10107,"##57c70":10108,"##18ca":10109,"##1840":10110,"##7a46":10111,"##7aff":10112,"##92a6":10113,"##3688":10114,"##1d1":10115,"##1d46":10116,"##5423":10117,"##54b6":10118,"##e60b":10119,"##1a5":10120,"##7c4":10121,"##66b":10122,"##55b3":10123,"##bdb5":10124,"##7d9":10125,"##4c4d":10126,"##9a56":10127,"##2aab":10128,"##4e47":10129,"##4e4a":10130,"##be47":10131,"##9f88":10132,"##7156":10133,"16902466":10134,"##4b99":10135,"##4bb1":10136,"##9db6":10137,"##1c96":10138,"##6477":10139,"##5f04":10140,"##97ca":10141,"completed":10142,"##1b7":10143,"##c594":10144,"##c547":10145,"000002bd":10146,"000002be":10147,"##b4b0":10148,"##2e43":10149,"##2ef6":10150,"##f404":10151,"##f84a":10152,"##8960":10153,"16903572786":10154,"schedul":10155,"featuresservice":10156,"attributes":10157,"2d657c70":10158,"##e3bee83":10159,"39e91e3bee83":10160,"cloudsolrclient":10161,"featuresserviceimpl":10162,"2ca":10163,"3ee":10164,"4d6":10165,"6b0":10166,"69a":10167,"a85":10168,"##da8":10169,"##da00":10170,"##eb1":10171,"1225":10172,"##8110":10173,"##ca95":10174,"##201c":10175,"##7785":10176,"##8384":10177,"##9404":10178,"##4893":10179,"##76ac":10180,"3925":10181,"39228":10182,"##4320":10183,"##9994":10184,"##3270":10185,"##11c":10186,"##7548":10187,"##7599":10188,"##7584":10189,"##41ab":10190,"##5349":10191,"##9632":10192,"##ba44":10193,"##8a32":10194,"39796":10195,"##b68":10196,"##8220":10197,"##ef83":10198,"##1094":10199,"##b84":10200,"##5e4f":10201,"##c0c":10202,"##14bc":10203,"##8546":10204,"##c38c":10205,"##8488":10206,"##8411":10207,"##be9":10208,"##be4f":10209,"##be1a":10210,"_3j":10211,"##2e2":10212,"43982":10213,"570ms":10214,"169035727":10215,"4aa":10216,"6cc":10217,"6de":10218,"74a":10219,"9dc":10220,"9aa":10221,"bfa":10222,"b77":10223,"b94":10224,"d33":10225,"##9296":10226,"##6aa":10227,"##229":10228,"##f79":10229,"##e99":10230,"##d0a":10231,"##eration":10232,"##ea04":10233,"##edc":10234,"##21ca":10235,"##00b":10236,"##0045":10237,"##de7":10238,"##24be":10239,"##88d6":10240,"##88a6":10241,"##880d":10242,"##da23":10243,"##da2d":10244,"##ca8f":10245,"##1209":10246,"##1293":10247,"##04a6":10248,"##2992":10249,"##5075":10250,"##774f":10251,"##7747":10252,"##8386":10253,"##8371":10254,"##83a9":10255,"##9413":10256,"##94bc":10257,"##48b3":10258,"##489c":10259,"23753":10260,"##ce8":10261,"##766e":10262,"##b0eb":10263,"##b05f":10264,"##4352":10265,"##4347":10266,"##99b":10267,"##9980":10268,"##028d":10269,"##0237":10270,"##09a3":10271,"##032d":10272,"##03e3":10273,"##4421":10274,"##4400":10275,"##44ff":10276,"##1644":10277,"##32b":10278,"##111":10279,"##114d":10280,"##80ae":10281,"##4192":10282,"##539":10283,"##26b0":10284,"##264a":10285,"##06f6":10286,"##06b3":10287,"##b583":10288,"##b514":10289,"##1553":10290,"##15f1":10291,"##70b1":10292,"##7079":10293,"##f38":10294,"##f340":10295,"##f34a":10296,"##5a47":10297,"##bac0":10298,"##3fb":10299,"##b9fa":10300,"##874a":10301,"##4fb0":10302,"##4f8c":10303,"##8a7":10304,"##8af6":10305,"##8aa3":10306,"##ff7":10307,"##ff56":10308,"##4dbf":10309,"##4a5":10310,"##b6e3":10311,"43208":10312,"40214":10313,"##82b":10314,"##82aa":10315,"##82ac":10316,"##8973":10317,"##73c":10318,"##7b8f":10319,"##e321":10320,"##e34f":10321,"##e333":10322,"##225":10323,"##8e8a":10324,"##45dc":10325,"##ef8":10326,"##ef40":10327,"##ef06":10328,"##8cea":10329,"##8c46":10330,"##8c64":10331,"##7232":10332,"##e54d":10333,"##dc83":10334,"##dc46":10335,"##b848":10336,"##42b":10337,"##4270":10338,"##42b6":10339,"##427b":10340,"##42e6":10341,"##9344":10342,"##1e7":10343,"##1e1":10344,"##c0e3":10345,"##e452":10346,"##aae5":10347,"##7481":10348,"##74bf":10349,"##85b6":10350,"##c35a":10351,"##c9c":10352,"##44ae":10353,"##8b40":10354,"##8b4c":10355,"##8456":10356,"##bfc":10357,"##bf49":10358,"##7a4a":10359,"##1d5":10360,"##5448":10361,"##798d":10362,"##79aa":10363,"##bc88":10364,"##bc2a":10365,"##1ac":10366,"##7d04":10367,"##4c93":10368,"##9a1":10369,"##7f1":10370,"##3ac":10371,"##78f3":10372,"##db44":10373,"##4eea":10374,"##cf76":10375,"##7e12":10376,"##7e22":10377,"##4b29":10378,"##4bc6":10379,"##f277":10380,"##9d4":10381,"##63e":10382,"##6416":10383,"##bbed":10384,"000002bc":10385,"##3d0":10386,"39490":10387,"58304":10388,"40426":10389,"3525":10390,"4de":10391,"6eb":10392,"67e":10393,"_74":10394,"cm":10395,"ur":10396,"##fec":10397,"##e96":10398,"##ea06":10399,"##eac9":10400,"##cc6f":10401,"##ecord":10402,"##009":10403,"jaas":10404,"##2481":10405,"##ebd9":10406,"##8112":10407,"##2912":10408,"##293f":10409,"##7724":10410,"##7776":10411,"##9448":10412,"2387":10413,"##52ad":10414,"##ce128":10415,"##b0b":10416,"##5600":10417,"##9904":10418,"##16bd":10419,"48072":10420,"##ab5":10421,"##ab45":10422,"##8083":10423,"##4933":10424,"##4635":10425,"##15c":10426,"##961":10427,"##5a4":10428,"##8704":10429,"##8a594":10430,"##4790":10431,"3575":10432,"##8221":10433,"##8285":10434,"##8956":10435,"##8936":10436,"##7312":10437,"##22c":10438,"##2256":10439,"3375":10440,"##ef9":10441,"##1324":10442,"##10c":10443,"##c08":10444,"##7426":10445,"##8594":10446,"##d3bd":10447,"##359":10448,"##3020":10449,"##7c1":10450,"634e":10451,"##7f5":10452,"##3af6":10453,"registry":10454,"##406d":10455,"##71c":10456,"##1c8":10457,"##f78a":10458,"##3146":10459,"45952":10460,"16903704903":10461,"1690356020":10462,"6a9ce128":10463,"23878b80":10464,"0dd":10465,"1e6":10466,"1bc":10467,"2d66":10468,"9cc":10469,"ag":10470,"aac":10471,"b5f":10472,"cus":10473,"ffe":10474,"sourcepollerrunner":10475,"##ev":10476,"##adap":10477,"##tom":10478,"##sprivileged":10479,"##ermod":10480,"constructor":10481,"20180":10482,"20030":10483,"204800":10484,"##cc4a":10485,"##ec44":10486,"##00c3":10487,"##ties":10488,"##de40":10489,"##2456":10490,"##24832":10491,"##olrexception":10492,"##izermod":10493,"refr":10494,"##eb5ab":10495,"##fa81":10496,"##faf3":10497,"##fa4d":10498,"##2900":10499,"##50238":10500,"##2094":10501,"##77ec":10502,"##7717":10503,"##9432":10504,"##945f":10505,"##4894":10506,"##4869":10507,"##487d":10508,"##5236":10509,"##52bc":10510,"##perties":10511,"##76ca":10512,"##7632":10513,"##567":10514,"##5686":10515,"##9900":10516,"##0200":10517,"##fd8":10518,"##44ec":10519,"##ab4":10520,"##1193":10521,"##4953":10522,"##4919":10523,"##535":10524,"##5388":10525,"##46fd":10526,"##b541":10527,"##loud":10528,"##96c":10529,"##9680":10530,"##baed":10531,"##bacc":10532,"##b953":10533,"##0780":10534,"##07568":10535,"##ff8":10536,"##ff4f":10537,"##4d03":10538,"43242":10539,"##8928":10540,"##f642":10541,"##e348":10542,"##constructoraccessorimpl":10543,"getcurrent":10544,"getinstance":10545,"##b842":10546,"4275":10547,"##9353":10548,"##fe9a":10549,"##1e45":10550,"##74e6":10551,"##c6d0":10552,"##859":10553,"##85c6":10554,"##85d3":10555,"##b25":10556,"##b2f3":10557,"##b1abc":10558,"##90c":10559,"##1fc":10560,"1690360":10561,"##1848":10562,"##7a9":10563,"##clientfactory":10564,"##5488":10565,"##5420":10566,"##5443":10567,"##d229":10568,"##1a9a":10569,"##8f8a":10570,"6300346":10571,"##7fda":10572,"##3aeb5ab":10573,"##5665368":10574,"##cf7":10575,"##cf5":10576,"##cf46":10577,"delegatingconstructoraccessorimpl":10578,"##5bea":10579,"##2848":10580,"##5c5":10581,"_3u":10582,"##forsource":10583,"##c794":10584,"##c740":10585,"##c74f":10586,"##0f4":10587,"##f412":10588,"##a2ed":10589,"6107568":10590,"c163aeb5ab":10591,"solrcloud":10592,"54156":10593,"41174":10594,"39386":10595,"39696":10596,"##2060638":10597,"51256":10598,"50922":10599,"47500":10600,"7998962":10601,"22410":10602,"6330345":10603,"7493656":10604,"equinoxcontainer":10605,"8114592":10606,"8045665368":10607,"1690362626":10608,"unavailablesolrclient":10609,"unavailablesolrexception":10610,"2dcb1abc":10611,"notifyhook":10612,"initializing":10613,"##valueforsource":10614,"10903952":10615,"##enthook":10616,"1611942060638":10617,"2d661d70":10618,"custom":10619,"##eventhook":10620,"##adaptor":10621,"##izermodified":10622,"refrecipe":10623,"getcurrentvalueforsource":10624,"c163aeb5abdb":10625,"solrcloudclientfactory":10626,"7998962536":10627,"equinoxcontaineradaptor":10628,"customizermodified":10629,"1c6":10630,"7ed":10631,"7d3":10632,"99d":10633,"bee":10634,"##e56":10635,"##ers":10636,"##ea5d":10637,"1075":10638,"1087":10639,"##2136":10640,"##ec5a":10641,"##de4":10642,"##de5":10643,"##243c":10644,"##2402":10645,"##8153":10646,"1104bf":10647,"##ca41":10648,"##2064":10649,"##8348":10650,"##8344":10651,"##9403":10652,"##94144":10653,"##4848":10654,"##5604":10655,"##5652":10656,"##5603":10657,"##4300":10658,"##4346":10659,"##431a":10660,"##0351":10661,"##4920":10662,"##4144":10663,"##86b":10664,"##8611":10665,"##4609":10666,"##2640":10667,"##0656":10668,"##7056":10669,"50562":10670,"46462":10671,"##8d03":10672,"##ff93":10673,"000000e":10674,"##b6ee":10675,"35248":10676,"35108":10677,"##7304":10678,"##73c7":10679,"##4504":10680,"##4599":10681,"##ef8d":10682,"##105":10683,"##1088":10684,"##697":10685,"##4224":10686,"##42fb":10687,"##b383":10688,"##9b1":10689,"##9b00":10690,"##74c":10691,"##7411":10692,"##9599":10693,"44168":10694,"##5820":10695,"##1756":10696,"##1786":10697,"##5785":10698,"##7a5":10699,"##5494":10700,"##bd8":10701,"637ms":10702,"##4e7":10703,"##cf8":10704,"##9856":10705,"##3392":10706,"##cd9":10707,"##cd7":10708,"##3856":10709,"_3t":10710,"##dd9":10711,"35038":10712,"47196":10713,"644ms":10714,"1104bf4b":10715,"0fe":10716,"1fa":10717,"3ea":10718,"3e6":10719,"45a":10720,"5da":10721,"6d6":10722,"7a3":10723,"8c":10724,"83a":10725,"95d":10726,"_7f":10727,"a8c":10728,"b3a":10729,"c69":10730,"e99":10731,"eba":10732,"e73":10733,"f77":10734,"##381":10735,"##5b8":10736,"##589f":10737,"##ffa":10738,"##f83":10739,"##ffd":10740,"##f42":10741,"##ef6":10742,"##e42":10743,"##e05":10744,"##d24":10745,"##d49":10746,"##d8a":10747,"##ea8c":10748,"##ea9a":10749,"##ea0a":10750,"##2141":10751,"##213f":10752,"##21bc":10753,"##21a6":10754,"##21ae":10755,"##chevent":10756,"##cc4":10757,"##cc20":10758,"##ccab":10759,"##cc4d":10760,"##ec41":10761,"##ecf3":10762,"##0076":10763,"##0034":10764,"##00347":10765,"##deb4":10766,"##24ab":10767,"##248a":10768,"##24fc":10769,"##88ec":10770,"##88b6":10771,"##8833":10772,"##da1":10773,"##daeb":10774,"##dace":10775,"##da46":10776,"##da87":10777,"##eb94":10778,"##eb86":10779,"##eb7b":10780,"##eb9a":10781,"##8124":10782,"##813a":10783,"##813d":10784,"##fa02":10785,"##fa85":10786,"##fa66":10787,"##fa0a":10788,"##fa6f":10789,"##ca29":10790,"##ca4d":10791,"##cab6":10792,"##0419":10793,"##044c":10794,"##049f":10795,"##2989":10796,"##29e5":10797,"##291d":10798,"##50d6":10799,"##50bd":10800,"##7726":10801,"##77c3":10802,"##8300":10803,"##8324":10804,"##8356":10805,"##834d":10806,"##83aa":10807,"##8335":10808,"##8330":10809,"##833a":10810,"##9455":10811,"##4846":10812,"##5273":10813,"##ce5":10814,"##767":10815,"##b0f6":10816,"##b08c":10817,"##401":10818,"##401f":10819,"##40ac":10820,"##438a":10821,"##436d":10822,"##99dc":10823,"##0310":10824,"##fd81":10825,"##fdfd":10826,"##fdb5":10827,"##fd8a":10828,"##fd45":10829,"##fdcf":10830,"##44ed":10831,"##4411":10832,"##44c6":10833,"##169":10834,"##1680":10835,"##1690":10836,"##32ed":10837,"##32e6":10838,"##ab7":10839,"##abab":10840,"##7588":10841,"##7547":10842,"##75b3":10843,"##75bb":10844,"##801a":10845,"##4926":10846,"##49b5":10847,"##49fe":10848,"##49e6":10849,"##41ed":10850,"##4152":10851,"##4106":10852,"##414e":10853,"##5312":10854,"##86ea":10855,"##8695":10856,"##867a":10857,"##264d":10858,"##265d":10859,"##0646":10860,"##b58d":10861,"##b5f6":10862,"##b58c":10863,"##2dbd":10864,"##154f":10865,"##70b9":10866,"##70d3":10867,"##f3da":10868,"##f3eb":10869,"##f346":10870,"##f395":10871,"##f34c":10872,"##9683":10873,"##5a9":10874,"##5a21":10875,"##5aaa":10876,"##5ad3":10877,"##5a33":10878,"##ba49":10879,"##ba47":10880,"##badb":10881,"##ba6f":10882,"##914d":10883,"##b9de":10884,"##b988":10885,"##b977":10886,"##b9b0":10887,"##b9ba":10888,"##b98c":10889,"##b925":10890,"##b90a":10891,"##0744":10892,"##074c":10893,"##4f7":10894,"##4f5d":10895,"##ad9":10896,"##ad5":10897,"##ad2a":10898,"##8a47":10899,"##8a7b":10900,"##8aaa":10901,"##8a85":10902,"##8a01":10903,"##8aaf":10904,"##47ec":10905,"##4796":10906,"##4789":10907,"##ffbe":10908,"##ff5d":10909,"##4d8":10910,"##4d51":10911,"##4ac":10912,"##4a7d":10913,"##b64f":10914,"##8200":10915,"##8281":10916,"##828d":10917,"dispat":10918,"##89ca":10919,"##8953":10920,"##89f6":10921,"##f6e3":10922,"##f6bd":10923,"##7838":10924,"##7346":10925,"##7307":10926,"##7b44":10927,"##7b4d":10928,"##e343":10929,"36c8":10930,"59e81":10931,"##458c":10932,"##ef7":10933,"##1386":10934,"##8c58":10935,"##72b0":10936,"##e5ca":10937,"##e5b8":10938,"##e58b":10939,"##10ba":10940,"##dc7":10941,"##b85":10942,"##b894":10943,"42734":10944,"##4289":10945,"##42f6":10946,"##42bf":10947,"##9309":10948,"##fe44":10949,"##0b4d":10950,"##1e9e":10951,"##1e6f":10952,"##5e04":10953,"##c0ca":10954,"##b34":10955,"##b3f3":10956,"##485d":10957,"##9b4":10958,"##e424":10959,"##e494":10960,"##e4c9":10961,"##e4bc":10962,"##74ec":10963,"##74b0":10964,"##c6b":10965,"##054f":10966,"##85ec":10967,"##85ba":10968,"##858e":10969,"##c34e":10970,"##b277":10971,"##584a":10972,"##b194":10973,"##b103":10974,"##b144":10975,"##b1e3":10976,"##9099":10977,"##44a3":10978,"##292a":10979,"##3544":10980,"##179f":10981,"##1f05":10982,"##8dbf":10983,"##8b46":10984,"##8bdd":10985,"##8424":10986,"##84ca":10987,"##8443":10988,"##84c6":10989,"##84bf":10990,"##571":10991,"##bf8":10992,"##7a92":10993,"##7a3c":10994,"##9204":10995,"##54c":10996,"##e643":10997,"##e6bb":10998,"##79b0":10999,"##30e":11000,"##8f9a":11001,"##5520":11002,"##bd5":11003,"##bd40":11004,"##bd43":11005,"##bd4a":11006,"##7d88":11007,"##9c81":11008,"##9c4d":11009,"##4c7":11010,"##9ac":11011,"##9a4a":11012,"##7fc6":11013,"##4e95":11014,"##9847":11015,"##7e46":11016,"##7e8d":11017,"##33e":11018,"##9664":11019,"##cd7e":11020,"##71ef":11021,"##4b04":11022,"##4b20":11023,"##4bb3":11024,"##4b71":11025,"##cbda":11026,"##cbeb":11027,"##cb46":11028,"##cbd3":11029,"##5bef":11030,"##9d56":11031,"##1c46":11032,"##5f45":11033,"##0ade":11034,"##5904":11035,"##59ad":11036,"##metacardtransformer":11037,"##a987":11038,"##97ad":11039,"##9e29":11040,"##f794":11041,"##f7f6":11042,"##ae8":11043,"##c726":11044,"##af83":11045,"##c5bc":11046,"##0d7":11047,"##b448":11048,"##b794":11049,"##b740":11050,"##fc45":11051,"##2e46":11052,"##fb76":11053,"##c4ca":11054,"##c14f":11055,"schema":11056,"##f423":11057,"##e9ab":11058,"##d904":11059,"##a594":11060,"##d4cc":11061,"##c843":11062,"55374":11063,"59926":11064,"1690369547":11065,"41300":11066,"##7886":11067,"##14a0":11068,"##51d7":11069,"4c351d7":11070,"dispatchevent":11071,"36c8f31f":11072,"59e811f9":11073,"2f3":11074,"8ad":11075,"8b3":11076,"_75":11077,"_8f":11078,"a1a":11079,"bc6":11080,"cb5":11081,"c90":11082,"lis":11083,"##050":11084,"##2150":11085,"##2494":11086,"##8107":11087,"##fa8":11088,"##ca0a":11089,"##299f":11090,"##20c":11091,"##7728":11092,"##9400":11093,"##4803":11094,"##52af":11095,"##097":11096,"##0311":11097,"##0384":11098,"##0360":11099,"##165":11100,"##1645":11101,"##ab2f":11102,"##80ec":11103,"##5341":11104,"##8624":11105,"##2304":11106,"##7072":11107,"##5a7":11108,"##baf3":11109,"46938":11110,"##0740":11111,"##8792":11112,"55484":11113,"##7343":11114,"##4546":11115,"##4513":11116,"##efc":11117,"##e5bc":11118,"##dcb":11119,"##fe9":11120,"##5e96":11121,"##e45a":11122,"##7488":11123,"##c641":11124,"##1746":11125,"##5795":11126,"##1856":11127,"##7a8":11128,"##1d42a":11129,"##7952":11130,"##1904":11131,"##7c1a":11132,"##7847":11133,"##2a7":11134,"##4e8d":11135,"##5bb":11136,"##2896":11137,"##1c5":11138,"##62e":11139,"0x10000046b0e06b3":11140,"##2cb1":11141,"##c145":11142,"45238":11143,"4025":11144,"40354":11145,"00000153":11146,"57670":11147,"52306":11148,"0000015b":11149,"41740":11150,"45540":11151,"16903698613":11152,"c01d42a":11153,"_8g":11154,"32d":11155,"37b":11156,"4f6":11157,"52d":11158,"62f":11159,"_2x":11160,"_8i":11161,"af3":11162,"bce":11163,"c5d":11164,"d5":11165,"d1":11166,"e1":11167,"e06":11168,"f5":11169,"##085":11170,"##2ea":11171,"##f04":11172,"##f80":11173,"##e77":11174,"##e75":11175,"##a9a":11176,"##ea7f":11177,"##ed5":11178,"##21ec":11179,"##2196":11180,"##cc8":11181,"##cc96":11182,"##ccb6":11183,"##cc5d":11184,"##ec37":11185,"##2430":11186,"##da91":11187,"##dae6":11188,"##da7d":11189,"##da3a":11190,"##eb5":11191,"##ebbf":11192,"##eb4c":11193,"##81b0":11194,"##fa2b":11195,"##cacc":11196,"##047d":11197,"##042a":11198,"##50ed":11199,"##5016":11200,"##2025":11201,"##20347":11202,"##7748":11203,"##7740":11204,"##77b5":11205,"##7790":11206,"##8350":11207,"##835a":11208,"##9441":11209,"##9469":11210,"##9430":11211,"##94ac":11212,"##48b0":11213,"##48e3":11214,"##48b1":11215,"##48d3":11216,"##52ec":11217,"##5281":11218,"##ce48":11219,"##7677":11220,"##b036":11221,"##b0cf":11222,"##40f9":11223,"##5699":11224,"##43e5":11225,"##0928":11226,"##03e6":11227,"##fd03":11228,"##fd49":11229,"##fd70":11230,"##fd36":11231,"##4429":11232,"##4469":11233,"##44aa":11234,"##ab3f":11235,"##75ca":11236,"##758e":11237,"##751d":11238,"##4912":11239,"##4902":11240,"##4928":11241,"##419":11242,"##4147":11243,"##23be":11244,"##236a":11245,"##46b":11246,"##4604":11247,"##4615":11248,"##b599":11249,"##b5d6":11250,"38048":11251,"##2d24":11252,"##2dba":11253,"##7074":11254,"##f34":11255,"##f380":11256,"##9650":11257,"##5af3":11258,"##ba9d":11259,"##baaf":11260,"##b93a":11261,"##b92a":11262,"##87cc":11263,"##8715":11264,"##87e3":11265,"##4f03":11266,"##4fbf":11267,"##4f64":11268,"##8d1":11269,"##8d82":11270,"##8db3":11271,"##8d85":11272,"##8a12":11273,"##8a4d":11274,"##8aa6":11275,"##47fd":11276,"##4718":11277,"##4736":11278,"##ff5":11279,"##fffe":11280,"##ff6f":11281,"##4a77":11282,"##4a40":11283,"##4aae":11284,"##b602":11285,"##b6e5":11286,"##892a":11287,"##89cd":11288,"##895f":11289,"##89a3":11290,"##f64a":11291,"##7bfd":11292,"##7b3f":11293,"##e349":11294,"##e3ad":11295,"##d64d":11296,"##455":11297,"##4553":11298,"##ef02":11299,"##13df":11300,"##8c45":11301,"##8c9d":11302,"##10fd":11303,"##10ad":11304,"##b84d":11305,"##4250":11306,"##4276":11307,"##93ab":11308,"##0b35":11309,"##0bdd":11310,"##5e1":11311,"##b34d":11312,"##b31c":11313,"##aa49":11314,"##74eb":11315,"##c6c6":11316,"##1494":11317,"##9540":11318,"##8520":11319,"##859a":11320,"##c3b":11321,"##c316":11322,"##c9f2":11323,"##5840":11324,"##5896":11325,"##b19":11326,"##90ad":11327,"##d34a":11328,"##35b":11329,"##1700":11330,"##8b4a":11331,"##8bbf":11332,"##84ed":11333,"##84ec":11334,"##5740":11335,"169035287":11336,"##184d":11337,"##e623":11338,"##1952":11339,"##3082":11340,"##7c48":11341,"##8f45":11342,"##7d8":11343,"##7d09":11344,"##9c8":11345,"##9c5d":11346,"##9a7":11347,"##7fc":11348,"##7f04":11349,"##7f4d":11350,"##db96":11351,"##2a4f":11352,"##2af6":11353,"##4e2d":11354,"##7e4f":11355,"##7e47":11356,"##cdbf":11357,"##714a":11358,"##4b4d":11359,"##4b4c":11360,"##f204":11361,"##5d1":11362,"##5d4f":11363,"##9794":11364,"##df5":11365,"_3k":11366,"_3w":11367,"##f744":11368,"##dd5":11369,"0x10000046b0e068e":11370,"##c58e":11371,"##c27":11372,"##c288":11373,"1690245429":11374,"1690245406":11375,"##b4ea":11376,"##b423":11377,"##b45a":11378,"##b716":11379,"##b732":11380,"##b71a":11381,"##fc88":11382,"##f4ed":11383,"##f4ab":11384,"##f4f3":11385,"##f4e5":11386,"##a845":11387,"##d18d":11388,"##6b47":11389,"60444":11390,"54918":11391,"0000015c":11392,"41320":11393,"##40350":11394,"169024551":11395,"1690245512":11396,"_8h":11397,"2ae":11398,"74f":11399,"a56":11400,"bd5":11401,"claims":11402,"d60":11403,"##fb6":11404,"##0063":11405,"##2450":11406,"##daea":11407,"##8132":11408,"##8136":11409,"##fa96":11410,"##1220":11411,"##0444":11412,"##5056":11413,"##7775":11414,"##8338":11415,"compa":11416,"##b01":11417,"##409":11418,"##5643":11419,"##9984":11420,"##16203008":11421,"##abdc":11422,"##80c":11423,"##4951":11424,"##5392":11425,"##8616":11426,"##469":11427,"##b556":11428,"##2d00":11429,"##7094":11430,"##f317":11431,"##5a2d":11432,"##9175":11433,"##9106":11434,"##87ff":11435,"##87a3":11436,"51484":11437,"##47e3":11438,"##8272":11439,"36660":11440,"52836":11441,"##8c9c":11442,"##8c3a":11443,"##8c6f":11444,"##1021":11445,"##c994":11446,"16903660":11447,"##9232":11448,"##1db":11449,"##5481":11450,"##555":11451,"##421a":11452,"00000371":11453,"_6l":11454,"41656":11455,"16903641891":11456,"0000015a":11457,"40926":11458,"34850":11459,"3725":11460,"45720":11461,"16903563":11462,"##56320":11463,"_7h":11464,"role":11465,"16903632553":11466,"compact":11467,"1690364189116203008":11468,"0b":11469,"0cf":11470,"1f6":11471,"2c":11472,"3cf":11473,"4da":11474,"6046":11475,"72a":11476,"7c8d":11477,"89b":11478,"_88":11479,"_76":11480,"_3x":11481,"aed":11482,"b26":11483,"d1e":11484,"d5f":11485,"edc":11486,"##7046":11487,"##088":11488,"##0f2":11489,"##8526":11490,"##a96":11491,"##ed43":11492,"##21b7":11493,"##cc9":11494,"##de95":11495,"##242d":11496,"##244f":11497,"##2457":11498,"##88fa":11499,"##887f":11500,"##daab":11501,"##eb8":11502,"##8143":11503,"##810f":11504,"1105":11505,"##fa6a":11506,"13d":11507,"##1236":11508,"##0476":11509,"##5030":11510,"##5066":11511,"##50347":11512,"##2095":11513,"##7743":11514,"##8315":11515,"##834f":11516,"##missionad":11517,"##9423":11518,"##48b":11519,"##4841":11520,"##48ef":11521,"##ceee":11522,"##b0a9":11523,"39830":11524,"##4381":11525,"##4350":11526,"##4349":11527,"##02b":11528,"##0371":11529,"##447c":11530,"##1646":11531,"##168a":11532,"##807":11533,"##8050":11534,"##49c3":11535,"##49cb":11536,"##8630":11537,"##231":11538,"##46d6":11539,"##46d9":11540,"##2653":11541,"##06ef":11542,"##b51":11543,"##b5ec":11544,"##b5e3":11545,"3875":11546,"##1580":11547,"##7010":11548,"##969d":11549,"##5a49":11550,"##9133":11551,"##8799":11552,"##4f15":11553,"##4fff":11554,"##8d5":11555,"##adb":11556,"51918":11557,"##8a4a":11558,"##4730":11559,"##4d0e":11560,"0975":11561,"##8924":11562,"##733e":11563,"##e346":11564,"33492":11565,"##8ee5":11566,"##4576":11567,"##4596":11568,"##8c13":11569,"##1056":11570,"##10ab":11571,"##dc88":11572,"##b843":11573,"##b8ff":11574,"##4283":11575,"##0b40":11576,"permissionad":11577,"##5e21":11578,"57456":11579,"57862":11580,"##485f":11581,"##9b24":11582,"##9b40":11583,"##c67":11584,"##c64e":11585,"##1420":11586,"37824":11587,"##9546":11588,"##9590":11589,"##8577":11590,"##b25c":11591,"##b1ba":11592,"##b1cf":11593,"##d3ed":11594,"##29280":11595,"##3520":11596,"##1f7":11597,"##8bcc":11598,"##84eb":11599,"##842d":11600,"##54b":11601,"##bc5":11602,"##bcbf3":11603,"##8f04":11604,"##bd81":11605,"##2ac":11606,"##be99":11607,"##7e43":11608,"##7e9a":11609,"##33b":11610,"##7176":11611,"##7196":11612,"##f288":11613,"##cbb":11614,"##9d1":11615,"##5cfe":11616,"##9743":11617,"##2f1":11618,"##0144":11619,"0x10000046b0e0374":11620,"0x10000046b0e068c":11621,"0x10000046b0e069c":11622,"0x10000046b0e0698":11623,"##1b99":11624,"##b456":11625,"##2e7":11626,"##c4b6":11627,"##c4c3":11628,"169035123":11629,"00000112":11630,"55636":11631,"##4486":11632,"38342":11633,"39618":11634,"123060":11635,"##b46e":11636,"47086":11637,"##7433":11638,"640ms":11639,"16903635695":11640,"7c8d814e":11641,"3a6":11642,"4b":11643,"5a3":11644,"6ad":11645,"7b6":11646,"a0c":11647,"b16":11648,"bd2":11649,"b1a":11650,"ffa":11651,"##fbd":11652,"##d06":11653,"##1888":11654,"##ea40":11655,"1092":11656,"##cc76":11657,"##da4":11658,"##eb9":11659,"##8152":11660,"##fa43":11661,"##12ff":11662,"##5036":11663,"##83b2":11664,"##8317":11665,"##52b":11666,"##1699":11667,"##75f6":11668,"##4921":11669,"##4100":11670,"##4150":11671,"##23cc":11672,"##0672":11673,"##1510":11674,"##f37":11675,"##965":11676,"##bac3":11677,"46160":11678,"45874":11679,"##8d9f":11680,"##8a03":11681,"##4740":11682,"##4787":11683,"##47a5":11684,"43664":11685,"##8e06":11686,"##4520":11687,"##1344":11688,"##1346":11689,"##8c7":11690,"##8cbf":11691,"##4232":11692,"##b396":11693,"##c61":11694,"##1443":11695,"##85440":11696,"##d344":11697,"##57ec":11698,"##57ad":11699,"##3696":11700,"##1929":11701,"##7c96":11702,"##8f26":11703,"##bdf6":11704,"##cd20":11705,"##6080":11706,"##4bed":11707,"##2800":11708,"##6400":11709,"##0a1":11710,"##ee7a":11711,"0x10000046b0e03b3":11712,"_3n":11713,"0000039d":11714,"##3952":11715,"60252":11716,"59422":11717,"59102":11718,"40000":11719,"52194":11720,"45648":11721,"55554":11722,"47660":11723,"44794":11724,"56932":11725,"##40345":11726,"##003008":11727,"0x10000046b0e08d8":11728,"0ms":11729,"0b6":11730,"1a0":11731,"3df":11732,"54858":11733,"6c3":11734,"74d":11735,"77d":11736,"74e":11737,"8da":11738,"88c":11739,"8b1":11740,"9ce":11741,"9b3":11742,"94c":11743,"9f2":11744,"9ac":11745,"9f5":11746,"]-":11747,"_89":11748,"as":11749,"ade":11750,"a8d3":11751,"b7":11752,"b5":11753,"bef":11754,"b9f":11755,"c02":11756,"c7b":11757,"c93":11758,"db":11759,"d88":11760,"db5":11761,"d5e":11762,"db2":11763,"dbd":11764,"df7":11765,"e16":11766,"e4f":11767,"e7b":11768,"f73":11769,"fb3":11770,"f7f":11771,"##086":11772,"##0d6":11773,"##221":11774,"##2ab":11775,"##f4d":11776,"##f7c":11777,"##fused":11778,"##eec":11779,"##e00":11780,"##e88":11781,"##e0b":11782,"##dec":11783,"##d40":11784,"##d07":11785,"##d45":11786,"##dd3":11787,"##d1b":11788,"##d0f":11789,"##c78":11790,"##rategy":11791,"##eaed":11792,"##ea53":11793,"##eaba":11794,"##eaa3":11795,"##ea3e":11796,"##ed06":11797,"##ed4c":11798,"##ed65":11799,"##21de":11800,"##21ab":11801,"##212d":11802,"##215f":11803,"##ccec":11804,"##ccde":11805,"##cc88":11806,"##cc81":11807,"##cc09":11808,"##cccd":11809,"##ccac":11810,"##ccaf":11811,"##cca3":11812,"##ec93":11813,"proble":11814,"properties":11815,"##de8c":11816,"##de68":11817,"##24de":11818,"##2445":11819,"##24c6":11820,"##242f":11821,"##8846":11822,"##884d":11823,"##885e":11824,"##8865":11825,"##daed":11826,"##da96":11827,"##da4d":11828,"##da95":11829,"##da7a":11830,"refused":11831,"fac":11832,"failure":11833,"##ebbd":11834,"##ebb4":11835,"##81ab":11836,"##8157":11837,"##81a4":11838,"##fa8d":11839,"##fab6":11840,"##fa35":11841,"##fa01":11842,"##fa1b":11843,"##cada":11844,"##ca76":11845,"##ca4f":11846,"##caff":11847,"##ca8c":11848,"##cadc":11849,"##12ea":11850,"##1222":11851,"##12ef":11852,"##12bb":11853,"##04ec":11854,"##04da":11855,"##0412":11856,"##0453":11857,"##04ad":11858,"##04e3":11859,"##0474":11860,"##2940":11861,"##294d":11862,"##299a":11863,"abd":11864,"##50b":11865,"##5014":11866,"##50d3":11867,"##507c":11868,"##50239":11869,")\",":11870,"##20c3":11871,"##20a0":11872,"##7781":11873,"##77ab":11874,"##77b6":11875,"##7742":11876,"##7725":11877,"##772b":11878,"##8373":11879,"##8342":11880,"##833b":11881,"##94ab":11882,"##94ef":11883,"##9490":11884,"##48de":11885,"##48fd":11886,"##482d":11887,"##48ba":11888,"##48ad":11889,"##484a":11890,"##48e6":11891,"##489e":11892,"##4865":11893,"##527a":11894,"##527e":11895,"##52dd":11896,"##ce9":11897,"##ce95":11898,"##ce3a":11899,"##764f":11900,"##76d6":11901,"##b0b5":11902,"##b0c6":11903,"##b0d3":11904,"##b0a3":11905,"##40ed":11906,"##40ab":11907,"##408f":11908,"##4033":11909,"##5642":11910,"##564c":11911,"##56f1":11912,"##4383":11913,"##43e6":11914,"##43cf":11915,"##436a":11916,"##99fa":11917,"##991a":11918,"##992a":11919,"##02dd":11920,"##fd24":11921,"##fd43":11922,"##fd80":11923,"##fd3f":11924,"##fdbf":11925,"##1693":11926,"##ab26":11927,"##ab95":11928,"##1143":11929,"58260":11930,"58414":11931,"##strategy":11932,"##754a":11933,"##758c":11934,"##7557":11935,"##758f":11936,"##753a":11937,"##75d8":11938,"##80c0":11939,"##80b2":11940,"##80d3":11941,"##80cf":11942,"##493f":11943,"##498d":11944,"##49b8":11945,"##49d3":11946,"##497f":11947,"##49a6":11948,"##492c":11949,"##41aa":11950,"##53ad":11951,"##53af":11952,"##53596":11953,"##862d":11954,"##86ba":11955,"##867b":11956,"##86b3":11957,"##869c":11958,"##23fd":11959,"##23aa":11960,"##4691":11961,"##464e":11962,"##467e":11963,"##4601":11964,"##2620":11965,"##269f":11966,"##b5b":11967,"##b5ea":11968,"##b55a":11969,"##b547":11970,"##b5ef":11971,"##b513":11972,"3825":11973,"##1006":11974,"##loy":11975,"##2dbe":11976,"##f321":11977,"##f304":11978,"##f344":11979,"##f3f6":11980,"##f3e5":11981,"##96b":11982,"##96cc":11983,"##96f6":11984,"##5a1":11985,"##5a88":11986,"##5a09":11987,"##5add":11988,"##5a0c":11989,"##5a6f":11990,"##ba9":11991,"##bafa":11992,"##bafd":11993,"##ba86":11994,"##badc":11995,"##bacf":11996,"##ba33":11997,"##baf5":11998,"##9103":11999,"##913f":12000,"##91ff":12001,"##9173":12002,"##917d":12003,"##3f96":12004,"##b9c":12005,"##b9eb":12006,"##b9c3":12007,"##b98f":12008,"##87b5":12009,"##87f3":12010,"##87af":12011,"##4fc":12012,"##4f11":12013,"##4f45":12014,"##4f5e":12015,"##4f59":12016,"##8d09":12017,"##8d15":12018,"##8d9b":12019,"##8d6a":12020,"##ad16":12021,"##ad4d":12022,"##046a":12023,"55920":12024,"55704":12025,"##8a00":12026,"##8a88":12027,"##8a76":12028,"##8a49":12029,"##8a46":12030,"##8aad":12031,"##8afe":12032,"##8ac3":12033,"##47da":12034,"##4781":12035,"##47aa":12036,"##ff40":12037,"0000010f":12038,"##4d40":12039,"##4d47":12040,"##4d93":12041,"##4d2a":12042,"##4dcf":12043,"##4a2f":12044,"##b6fd":12045,"##b623":12046,"##b642":12047,"deploy":12048,"##82ae":12049,"##890b":12050,"##89bc":12051,"##8955":12052,"##89a0":12053,"##89af":12054,"##89c4":12055,"##f6c3":12056,"##7b04":12057,"##7b45":12058,"##7b473b":12059,"##e38":12060,"##e31":12061,"##e3ca":12062,"##e316":12063,"##e3ab":12064,"##2255":12065,"59824":12066,"##8e00":12067,"##8e24":12068,"##8e87":12069,"##8e8d":12070,"nio2":12071,"##effa":12072,"##ef94":12073,"##ef56":12074,"##efbb":12075,"##efbba":12076,"##1371":12077,"##8c8d":12078,"##8c1c":12079,"##8c9e":12080,"##8c3e":12081,"##e543":12082,"##e58e":12083,"##e517":12084,"##10eb":12085,"##dc9489":12086,"##b852":12087,"##b8ab":12088,"##4204":12089,"##4229":12090,"##42bd":12091,"##425d":12092,"##42e2":12093,"##93bd":12094,"##9360":12095,"47228":12096,"##fe4":12097,"##fe7b":12098,"##fe1c":12099,"##0b16":12100,"##0b3f":12101,"##0b45":12102,"##0b1a":12103,"##0b4c":12104,"##5e07":12105,"##5e9d":12106,"##5e6f":12107,"##c0ea":12108,"##c016":12109,"##c0ae":12110,"##c0a3":12111,"##b394":12112,"##b37d":12113,"##b3dd":12114,"##b3e7":12115,"57134":12116,"##9b7":12117,"##9b99":12118,"##9b23":12119,"##9b46":12120,"##e4fa":12121,"##e4ca":12122,"##e4ad":12123,"##7450":12124,"##74ad":12125,"##74ef":12126,"##c6ce":12127,"##1404":12128,"##14fd":12129,"##14e3":12130,"##14c6":12131,"##854f":12132,"##858a":12133,"##854a":12134,"##859f":12135,"##c352":12136,"##c33a":12137,"##c34711":12138,"##b232":12139,"##b28e":12140,"##b2aa":12141,"##b2c6":12142,"##c97":12143,"##c983":12144,"##c926":12145,"##c9c3":12146,"##5899":12147,"##b1aa":12148,"##90c6":12149,"##901f":12150,"##d34d":12151,"##d3d2":12152,"##684d":12153,"##17b0":12154,"##1f40":12155,"##20bb":12156,"##8b99":12157,"##8b70":12158,"##257":12159,"##2546":12160,"##254a":12161,"##25ef":12162,"##84fa":12163,"##8499":12164,"##84e4":12165,"##bfec":12166,"##bf83":12167,"##bfbc":12168,"##bf9a":12169,"##7a23":12170,"##7a9a":12171,"##7a2f":12172,"##1d24":12173,"##54e6":12174,"##e641":12175,"##e686":12176,"##e6b6":12177,"##d273":12178,"##7925":12179,"##79a6":12180,"##1976":12181,"##1953":12182,"##19d3":12183,"##197f":12184,"##bc8":12185,"##bc1":12186,"##bceb":12187,"##bc29":12188,"##bc46":12189,"##7c43":12190,"##7c46":12191,"##7c22":12192,"##7c45":12193,"##8f23":12194,"##8f93":12195,"##8f1d":12196,"##8f1a":12197,"##8f9e":12198,"##bdea":12199,"##bd94":12200,"##7d4":12201,"0x10000046b0e08bd":12202,"0x10000046b0e08b4":12203,"6353":12204,"##9c4":12205,"##9c04":12206,"##4c85":12207,"##4cd8":12208,"##9ac3":12209,"##9acf":12210,"##7f4e":12211,"##51ca":12212,"##db46":12213,"##db26":12214,"##dbb6":12215,"##4e12":12216,"##4e16":12217,"##4e9c":12218,"caching":12219,"##0241":12220,"##cf47":12221,"##9894":12222,"##be88":12223,"##be44":12224,"##be41":12225,"##be46":12226,"##be15":12227,"##be89":12228,"##be1e":12229,"##9f4":12230,"##9f4c":12231,"##7e91":12232,"##cd40":12233,"##cdb6":12234,"##42115f1":12235,"##7143":12236,"##71c3":12237,"##f36a":12238,"##4b53":12239,"##4b26":12240,"##4b7b":12241,"##f2b5":12242,"##cb44":12243,"##cbba":12244,"##cb8d":12245,"##tatembean":12246,"##5bce":12247,"##5b80":12248,"##9db8":12249,"##9d7f":12250,"52090":12251,"##637":12252,"##6368":12253,"##0ac":12254,"##ee25":12255,"##ee9f":12256,"##bb04":12257,"##bb91":12258,"##bbff":12259,"##bbdc":12260,"##6200":12261,"##ac4":12262,"##a61":12263,"##97b0":12264,"##9799":12265,"##2f8":12266,"##2b53":12267,"##2b8a":12268,"##9e48":12269,"0x10000046b0e037a":12270,"0x10000046b0e0378":12271,"0x10000046b0e06ab":12272,"0x10000046b0e06b7":12273,"##c788":12274,"##c74d":12275,"##1b4a":12276,"000003b5":12277,"000003b6":12278,"000003b1":12279,"##c275":12280,"##c2e5":12281,"169024546":12282,"1690245485":12283,"1690245472":12284,"00000284":12285,"0000027f":12286,"##1243":12287,"##b4de":12288,"##b4ce":12289,"##b4b3":12290,"##fcff6d":12291,"##d54a":12292,"##2e4d":12293,"##6f1":12294,"##fb94":12295,"##fbbe":12296,"##c424":12297,"##c488":12298,"##c19b":12299,"##6e0":12300,"##6e2":12301,"##f4ea":12302,"##f543":12303,"16903510":12304,"##f9aa":12305,"##d923":12306,"##d4ea":12307,"53950":12308,"87fe":12309,"40040":12310,"41674":12311,"##89451c":12312,"##794f":12313,"1690245416":12314,"##04288":12315,"34898":12316,"1690245543":12317,"58732":12318,"16902454303":12319,"16902454366":12320,"0x10000046b0e06af":12321,"##70f53596":12322,"##c89fcff6d":12323,"0x10000046b0e08c5":12324,"169035124":12325,"##a0fc34711":12326,"1690362625":12327,"layer4":12328,"##federation":12329,"0x1000002b96b000":12330,"##771789451c":12331,"a8d3771789451c":12332,"problem":12333,"##efbbadc9489":12334,"cachingfederation":12335,"##42115f17b473b":12336,"##70f53596efbbadc9489":12337,"##c89fcff6d42115f17b473b":12338,"##a0fc34711c89fcff6d42115f17b473b":12339,"a8d3771789451c70f53596efbbadc9489":12340,"cachingfederationstrategy":12341,"a8d3771789451c70f53596efbbadc9489a0fc34711c89fcff6d42115f17b473b":12342,"1e5":12343,"2ed":12344,"4cf":12345,"5406":12346,"6da":12347,"78a":12348,"9a9":12349,"_38":12350,"a88":12351,"a6f":12352,"b4e":12353,"cc3":12354,"dc6":12355,"etc":12356,"##345":12357,"##2163":12358,"##0070":12359,"##de81":12360,"##2476":12361,"##2435":12362,"##eb29":12363,"##eb10":12364,"##verter":12365,"##8149":12366,"##1230":12367,"##5032":12368,"##2099":12369,"##4823":12370,"##5233":12371,"##7640":12372,"39506":12373,"##9956":12374,"##9993":12375,"##0904":12376,"##0913":12377,"##1643":12378,"##16af":12379,"##11fb":12380,"##755f":12381,"##8064":12382,"##4935":12383,"##5394":12384,"##234a":12385,"##2614":12386,"38448":12387,"##7088":12388,"##f39f":12389,"##ba60":12390,"##3f7":12391,"##0730":12392,"##ffb1":12393,"##4a30":12394,"##b6aa":12395,"35462":12396,"43240":12397,"##e396":12398,"##e347":12399,"##2225":12400,"33160":12401,"33904":12402,"##727":12403,"##72b":12404,"##72c":12405,"42528":12406,"##93fd":12407,"##1e9":12408,"##c01":12409,"##4854":12410,"37800":12411,"37414":12412,"##959":12413,"##859b":12414,"##8514":12415,"##b283":12416,"##b2c3":12417,"##5841":12418,"##44a48":12419,"##179b":12420,"##1f1":12421,"##1823":12422,"60158":12423,"##7a57":12424,"##d28":12425,"##1a6a":12426,"##8ff3":12427,"##bd9":12428,"6356":12429,"##7853":12430,"##714f":12431,"48788":12432,"##5f4":12433,"##bb89d":12434,"##9712":12435,"0x10000046b0e0376":12436,"0x10000046b0e0375":12437,"0x10000046b0e0370":12438,"0x10000046b0e03b6":12439,"0x10000046b0e038f":12440,"_39":12441,"0x10000046b0e069f":12442,"000003b0":12443,"000003b8":12444,"0000027b":12445,"50374":12446,"##d78f":12447,"46340":12448,"58120":12449,"48638":12450,"42446":12451,"50682":12452,"0x10000046b0e08ca":12453,"44782":12454,"55932":12455,"44050":12456,"52596":12457,"46558":12458,"571ms":12459,"##743a":12460,"##fa626":12461,"49080":12462,"##72960":12463,"0x10000046b0e08d0":12464,"0x10000046b0e08cb":12465,"16903632549":12466,"16903563346":12467,"0aa":12468,"2b9":12469,"2a6":12470,"3f3":12471,"6ed":12472,"6761":12473,"7a2":12474,"86d":12475,"9e5":12476,"9a6":12477,"a4a":12478,"c6d":12479,"d9e":12480,"d6e":12481,"e8f":12482,"ebd":12483,"e59":12484,"f5e":12485,"f7a":12486,"pol":12487,"record":12488,"##f12":12489,"##f77":12490,"##f99":12491,"##f8b":12492,"##f0a":12493,"##e21":12494,"##e53":12495,"##e93":12496,"##e2b":12497,"##dcc":12498,"##afa":12499,"##af6":12500,"##eab9":12501,"##ea4c":12502,"##ea9d":12503,"1099":12504,"1045":12505,"##ed73":12506,"##214a":12507,"##cc44":12508,"##ccf6":12509,"##ccef":12510,"##ecde":12511,"##ecfe":12512,"##00cc":12513,"##00b1":12514,"##0064":12515,"##00238":12516,"##de05":12517,"##24ca":12518,"##24b1":12519,"##248b":12520,"##2460":12521,"##24ac":12522,"##24a8":12523,"##883a":12524,"##da94":12525,"##da4f":12526,"##dab6":12527,"##da7b":12528,"##da35":12529,"##etransformer":12530,"##eb8c":12531,"##8180":12532,"##81f3":12533,"##8160":12534,"##8127":12535,"##fae3":12536,"##fa13":12537,"##ca04":12538,"##ca7c":12539,"##1277":12540,"##125e":12541,"##128b":12542,"##129a":12543,"##0488":12544,"##0406":12545,"##0413":12546,"##047f":12547,"##040a":12548,"##04a3":12549,"##2941":12550,"##5035":12551,"##501a":12552,"##502a":12553,"##203f":12554,"##205f":12555,"##7703":12556,"##775e":12557,"##779a":12558,"##83ce":12559,"##8326":12560,"##944f":12561,"000e":12562,"##528b":12563,"##ce4f":12564,"##7609":12565,"##7647":12566,"##76f6":12567,"##b021":12568,"##b08a":12569,"##b08f":12570,"##4011":12571,"##403f":12572,"##402a":12573,"##405b":12574,"39992":12575,"##563f":12576,"##4313":12577,"##9988":12578,"##998d":12579,"##0226":12580,"##02562":12581,"##0960":12582,"pack":12583,"##fd9e":12584,"##fd6d":12585,"##4491":12586,"##44ad":12587,"##44bfa":12588,"##3223":12589,"##abbc":12590,"##117b":12591,"##11b1":12592,"##7546":12593,"##7579":12594,"##80f3":12595,"##80be":12596,"##49b":12597,"##4975":12598,"##49d2":12599,"##491a":12600,"##4966":12601,"##4955":12602,"##4183":12603,"##41c6":12604,"##4130":12605,"##53ea":12606,"##8655":12607,"##2320":12608,"##23d3":12609,"##4686":12610,"##46a9":12611,"##269b":12612,"##0600":12613,"##b5c0":12614,"##b5aa":12615,"##2d5b":12616,"##f341":12617,"##961f":12618,"##5ada":12619,"##5a4c":12620,"53026":12621,"##bace":12622,"##ba3a":12623,"##ba2a":12624,"##91b6":12625,"##3f4f":12626,"45728":12627,"##b9ea":12628,"##b903":12629,"##07bc":12630,"##87da":12631,"##4f55":12632,"##adb8":12633,"##8a50":12634,"##8ae6":12635,"##8a2a":12636,"##8a9f":12637,"##4729":12638,"##ff1":12639,"##ff41":12640,"56242":12641,"##4d15":12642,"##4d8a":12643,"##4d69":12644,"##4ddb":12645,"##4d2c":12646,"##4a35":12647,"##4a1d":12648,"##4ae6":12649,"##b62d":12650,"##b65a":12651,"##b61a":12652,"35d":12653,"43096":12654,"##82b5":12655,"##822a":12656,"##8907":12657,"##8972":12658,"##893a":12659,"##f6d3":12660,"##7360":12661,"##7b49":12662,"##7b8d":12663,"##7b2f":12664,"##e35":12665,"##e392":12666,"36962":12667,"##d6c0":12668,"##d6ac":12669,"##8e43":12670,"##8e41":12671,"##8e69":12672,"##8e1d":12673,"##8eee":12674,"##8e6c":12675,"41062":12676,"##4547":12677,"##45d6":12678,"##4585":12679,"##ef04":12680,"##138b":12681,"##8cb":12682,"##8c53":12683,"##8c2f":12684,"##72aa":12685,"##e5b3":12686,"##10f6":12687,"##dcb3":12688,"##b826":12689,"##4255":12690,"##42f7":12691,"##93c":12692,"##fe9b":12693,"##fe61":12694,"##0b1":12695,"##0bc":12696,"##0bb6":12697,"32848":12698,"##5e89":12699,"##c08f":12700,"##b38c":12701,"##9b4d":12702,"##9b1f":12703,"##e4c5":12704,"##aac":12705,"##aa9a":12706,"##74b5":12707,"##74e3":12708,"##74b1":12709,"##c612":12710,"##c63f":12711,"##05ba":12712,"##055e":12713,"##9520":12714,"##9552":12715,"##9532":12716,"##9582":12717,"2750":12718,"##c343":12719,"##b275":12720,"##b280":12721,"##c956":12722,"##d3e6":12723,"##35b3":12724,"##3517":12725,"##171a":12726,"##1f44":12727,"##8b49":12728,"##8b3f":12729,"##8bef":12730,"##84e6":12731,"##84bb":12732,"##bf9":12733,"##bf5":12734,"##bf04":12735,"##1824":12736,"##1d94":12737,"##e6b3":12738,"##d27":12739,"##7956":12740,"##793f":12741,"##79ff":12742,"##797a":12743,"##1909":12744,"##1923":12745,"##19dc":12746,"##bc9b":12747,"##1a13":12748,"##7c44":12749,"##8f8":12750,"##8fc3":12751,"##bd0a":12752,"0x10000046b0e08f2":12753,"##9c5a":12754,"##9a22":12755,"##7f99":12756,"##5186":12757,"##dbc3":12758,"##2ac3":12759,"##4e88":12760,"##98b3":12761,"##9fde":12762,"##9f0f":12763,"##7e83":12764,"##cd8":12765,"##cd47":12766,"##cd89":12767,"##4b8d":12768,"##4bfe":12769,"##9d8":12770,"##1c4a":12771,"##1c93":12772,"##6494":12773,"##64e5":12774,"##ee4a":12775,"##084a":12776,"##a6b":12777,"##2f4c":12778,"##2b24":12779,"0x10000046b0e0399":12780,"0x10000046b0e0380":12781,"0x10000046b0e0391":12782,"0x10000046b0e0379":12783,"0x10000046b0e03ac":12784,"0x10000046b0e03a1":12785,"##df4":12786,"##3494":12787,"##f788":12788,"0x10000046b0e068d":12789,"0x10000046b0e0693":12790,"0x10000046b0e069e":12791,"##c756":12792,"##1b94":12793,"##1bfd":12794,"##1b4d":12795,"##0f5":12796,"##c59c":12797,"##0d9a":12798,"00000288":12799,"##0c04":12800,"##0cb6":12801,"##b4b9":12802,"##b4bc":12803,"##b74f":12804,"##b71d":12805,"##0e0b":12806,"##2ced":12807,"##2cb3":12808,"##a4b5":12809,"##c456":12810,"##c1ea":12811,"...}]":12812,"##f5996":12813,"##d744":12814,"##d726":12815,"57354":12816,"60054":12817,"0000014f":12818,"##d8fa":12819,"51610":12820,"40670":12821,"42980":12822,"49696":12823,"58900":12824,"0x10000046b0e090e":12825,"43994":12826,"##14a6":12827,"##b4f6":12828,"##96313":12829,"##00345":12830,"0x10000046b0e06a6":12831,"0x10000046b0e06a8":12832,"##22a8f":12833,"642ms":12834,"0x10000046b0e08d7":12835,"0x10000046b0e08c9":12836,"16903704906":12837,"0x10000046b0e08fc":12838,"featuretransformer":12839,"169036577":12840,"map":12841,"policy":12842,"3ec":12843,"3dd":12844,"3af":12845,"42406":12846,"7c9":12847,"86f":12848,"c75":12849,"eec":12850,"fin":12851,"##056":12852,"##e7c":12853,"##df3":12854,"##ium":12855,"##hed":12856,"##esourcer":12857,"##eac":12858,"##ished":12859,"1048":12860,"##ed1":12861,"##21d6":12862,"##0016":12863,"##deb":12864,"##de97":12865,"0021":12866,"##fa64":12867,"##049":12868,"##2906":12869,"##2050":12870,"##2069":12871,"##7700":12872,"##8396":12873,"##4804":12874,"##525":12875,"##5224":12876,"##5276":12877,"##40a5":12878,"##56ed":12879,"##5688":12880,"##5694":12881,"##43b":12882,"##4338":12883,"##02dc":12884,"##0344":12885,"##fd9":12886,"##fd41":12887,"##4425":12888,"##32c":12889,"4825":12890,"48910":12891,"##1104":12892,"##1115":12893,"##1130":12894,"##11cd":12895,"58684":12896,"##7595":12897,"##4986":12898,"##49dc":12899,"##495c":12900,"##5383":12901,"##237":12902,"##2381":12903,"##2329":12904,"##0694":12905,"##15e9":12906,"50742":12907,"46046":12908,"46800":12909,"##8740":12910,"##87c0":12911,"51168":12912,"51042":12913,"##8a0b":12914,"##8a27":12915,"##ff9":12916,"56194":12917,"56742":12918,"##4dce":12919,"##b630":12920,"35880":12921,"##8256":12922,"##8935":12923,"##7b3a":12924,"33210":12925,"##8e2d":12926,"##8e7b":12927,"##13bc":12928,"##e599":12929,"42788":12930,"##937b":12931,"##b369":12932,"##74ce":12933,"##0594":12934,"##5856":12935,"##3504":12936,"##171":12937,"##84b6":12938,"##3616":12939,"##19a3":12940,"0x10000046b0e08b7":12941,"##4c83":12942,"##5190":12943,"##cf23":12944,"##9840":12945,"##7e9":12946,"##71b":12947,"##4bd6":12948,"##4bc3":12949,"##9d7":12950,"52060":12951,"authentication":12952,"##0192":12953,"0x10000046b0e03b8":12954,"0x10000046b0e0366":12955,"0x10000046b0e037f":12956,"0x10000046b0e03a4":12957,"0x10000046b0e03a5":12958,"##3440":12959,"##ae9":12960,"0x10000046b0e068a":12961,"0x10000046b0e06b8":12962,"0x10000046b0e06c1":12963,"##8533":12964,"00000286":12965,"00000282":12966,"##2748":12967,"##c494":12968,"57372":12969,"54094":12970,"53638":12971,"47394":12972,"47358":12973,"58360":12974,"##04576":12975,"48802":12976,"##4482":12977,"44786":12978,"48360":12979,"44092":12980,"44994":12981,"36398":12982,"3325":12983,"49172":12984,"47070":12985,"0x10000046b0e06a2":12986,"912z":12987,"_2o":12988,"67a8":12989,"listener":12990,"finished":12991,"##esourcereader":12992,"6f6":12993,"7f3":12994,"_7i":12995,"_7k":12996,"a7":12997,"a16":12998,"a8b":12999,"aaf":13000,"b50":13001,"b4c":13002,"ceb":13003,"c8a":13004,"d75":13005,"f29":13006,"lchecker":13007,"sources":13008,"ws":13009,"##310":13010,"##2da":13011,"##285":13012,"##f06":13013,"##f4b":13014,"##f0d":13015,"##e4f":13016,"##d4f":13017,"##db3":13018,"##d5d":13019,"##a07":13020,"##ration":13021,"##ml":13022,"##esh":13023,"1038":13024,"##2169":13025,"##cc9d":13026,"##008f":13027,"##2415":13028,"##2470":13029,"##2489":13030,"##24a4":13031,"##ebff":13032,"##refr":13033,"##8191":13034,"##8173":13035,"##2949":13036,"##2907":13037,"##50db":13038,"##5064":13039,"##2090":13040,"##20773":13041,"##7705":13042,"##7760":13043,"##9412":13044,"##948c":13045,"##4805":13046,"##5232":13047,"##5223":13048,"##ce8b":13049,"##7649":13050,"##7689":13051,"##765d":13052,"##568f":13053,"##43aa":13054,"##4395":13055,"##433a":13056,"##9910":13057,"##9925":13058,"##993a":13059,"##0229":13060,"##022f":13061,"##0916":13062,"##0330":13063,"##44b3":13064,"48998":13065,"48660":13066,"##ab24":13067,"58202":13068,"58692":13069,"##75df":13070,"##492d":13071,"##4917":13072,"##491b":13073,"##417a":13074,"##5393":13075,"##8648":13076,"##86ad":13077,"##8613":13078,"##23b":13079,"##2648":13080,"##2610":13081,"##2d4f":13082,"##70ce":13083,"##f3c":13084,"##f39a":13085,"##96ad":13086,"##96c3":13087,"53798":13088,"##9150":13089,"46724":13090,"46818":13091,"46918":13092,"##b98":13093,"##b926":13094,"##b9bf":13095,"##8709":13096,"##8791":13097,"51940":13098,"55506":13099,"##8a75":13100,"0000017d":13101,"56446":13102,"56844":13103,"##4aaf":13104,"##b617":13105,"##822d":13106,"##8259":13107,"##89da":13108,"##1990":13109,"##739":13110,"##7320":13111,"##7311":13112,"checked":13113,"36238":13114,"##d69":13115,"59100":13116,"59704":13117,"59308":13118,"##8e6f":13119,"##8e6a":13120,"##ef15":13121,"52810":13122,"##7272":13123,"##e540":13124,"##9350":13125,"47172":13126,"47430":13127,"##1e20":13128,"57106":13129,"##9b43":13130,"##xbundle":13131,"##e4ec":13132,"##e4b2":13133,"##7470":13134,"##057":13135,"##0520":13136,"##1499":13137,"##9594":13138,"##c313":13139,"##b2b6":13140,"##c98":13141,"##c97a":13142,"##5894":13143,"##5846":13144,"##5870":13145,"##b18f":13146,"##68ab":13147,"##8b04":13148,"##8b89":13149,"##8bbb":13150,"##5711":13151,"##1843":13152,"##1891":13153,"##9220":13154,"##5483":13155,"##54fd":13156,"##545a":13157,"##7c2a":13158,"##8f40":13159,"##7d4a":13160,"andler":13161,"0x10000046b0e08ee":13162,"##4c5":13163,"##4c2a":13164,"##ainst":13165,"##784d":13166,"##be8":13167,"##be76":13168,"1690248526":13169,"##4bf6":13170,"##cb20":13171,"##cb16":13172,"##5b8e":13173,"##1c4":13174,"##639":13175,"##5f9":13176,"##5f7":13177,"##5f4a":13178,"##5994":13179,"##bbef":13180,"##a9fd":13181,"0x10000046b0e0388":13182,"0x10000046b0e0383":13183,"0x10000046b0e0372":13184,"0x10000046b0e039b":13185,"0x10000046b0e06b0":13186,"0x10000046b0e0695":13187,"##c7e3":13188,"##1bb5":13189,"34688":13190,"00000388":13191,"00000396":13192,"000003b3":13193,"000003b7":13194,"##afb":13195,"##3904":13196,"1690245526":13197,"1690245460":13198,"00000283":13199,"00000287":13200,"00000285":13201,"##a424":13202,"##fb4a":13203,"##c1aa":13204,"##31fe":13205,"##f5ed":13206,"##f075":13207,"##d14f":13208,"53348":13209,"42096":13210,"4125":13211,"##48088":13212,"44312":13213,"47784":13214,"##1466":13215,"40656":13216,"3775":13217,"45346":13218,"56668":13219,"35670":13220,"42614":13221,"59870":13222,"1690245499":13223,"52252":13224,"36550":13225,"16902455104":13226,"16902455152":13227,"16902455116":13228,"57186":13229,"47078":13230,"##94d15a":13231,"50116":13232,"##7aa3":13233,"##c93a":13234,"equinoxbundle":13235,"16902454333":13236,"000003a1":13237,"0000036a":13238,"0x10000046b0e08dc":13239,"0x10000046b0e08c8":13240,"16902454923":13241,"crlrefr":13242,"16903692320":13243,"_8j":13244,"certs":13245,"migration":13246,"against":13247,"lcheckerthread":13248,"crlrefresh":13249,"2ec":13250,"4c":13251,"61f":13252,"62a":13253,"69d":13254,"65f":13255,"6ae":13256,"8ae":13257,"_77":13258,"_6a":13259,"dc9":13260,"e7e":13261,"##288":13262,"##28c":13263,"##f8a":13264,"##f82":13265,"##fbb":13266,"##e9c":13267,"##db9":13268,"##d1e":13269,"##a9c":13270,"##ule":13271,"1046":13272,"1097":13273,"##214c":13274,"##ec06":13275,"##247b":13276,"##8863":13277,"##da45":13278,"##8125":13279,"##cabd":13280,"##2960":13281,"##5012":13282,"##5033":13283,"##945":13284,"##94c5":13285,"##4891":13286,"##7624":13287,"##4069":13288,"##5650":13289,"##5647":13290,"##4311":13291,"##0288":13292,"##093d":13293,"##0376":13294,"##fddc":13295,"##4473":13296,"##449e":13297,"##1640":13298,"48480":13299,"##11b8":13300,"##4911":13301,"##497a":13302,"##4186":13303,"##86c2":13304,"##2340":13305,"##2632":13306,"##0680":13307,"38442":13308,"##1550":13309,"##1556":13310,"##708f":13311,"##5ab0":13312,"##5a3a":13313,"50844":13314,"##3fda":13315,"45998":13316,"##07da":13317,"##8788":13318,"##8783":13319,"##8743":13320,"##8711":13321,"##87f2":13322,"##8d7c":13323,"##8d0f":13324,"##ad7":13325,"0000026d":13326,"0000010e":13327,"56934":13328,"##4a9a":13329,"##b6b6":13330,"43362":13331,"4075":13332,"40538":13333,"##f64":13334,"##f68":13335,"##f62b":13336,"##73b":13337,"##7388":13338,"##7bc":13339,"##d6e6":13340,"59054":13341,"##4580":13342,"##1355":13343,"34120":13344,"##695":13345,"##69ac":13346,"47442":13347,"##e4b6":13348,"##054a":13349,"##1400":13350,"37502":13351,"##tribute":13352,"##8550":13353,"##8532":13354,"##b27c":13355,"##c984":13356,"##c9df":13357,"##1803":13358,"60992":13359,"##7974":13360,"##301":13361,"##1a4":13362,"##554a":13363,"0x10000046b0e08e0":13364,"##7fb":13365,"##7f4c":13366,"##5144":13367,"##9821":13368,"##9844":13369,"##7e29":13370,"##33216":13371,"##7183":13372,"##3870":13373,"##597":13374,"##597d":13375,"##0841":13376,"##0104":13377,"##0140":13378,"0x10000046b0e03b0":13379,"0x10000046b0e03b1":13380,"0x10000046b0e039a":13381,"0x10000046b0e03a7":13382,"##6520":13383,"0x10000046b0e0691":13384,"0x10000046b0e06aa":13385,"0x10000046b0e06c3":13386,"0x10000046b0e0690":13387,"0x10000046b0e069a":13388,"00000399":13389,"00000387":13390,"0000038e":13391,"0000038c":13392,"00000372":13393,"00000392":13394,"0000039a":13395,"0000039f":13396,"00000281":13397,"00000289":13398,"0000027c":13399,"##fbb3":13400,"60372":13401,"67ab":13402,"53352":13403,"53714":13404,"52482":13405,"32964":13406,"42426":13407,"50636":13408,"48870":13409,"44424":13410,"47714":13411,"0x10000046b0e08da":13412,"0x10000046b0e08b9":13413,"0x10000046b0e08ff":13414,"38326":13415,"53014":13416,"49644":13417,"35300":13418,"58982":13419,"38550":13420,"38598":13421,"0x10000046b0e0919":13422,"##502528":13423,"33288":13424,"33260":13425,"47530":13426,"34592":13427,"56956":13428,"35558":13429,"48284":13430,"36152":13431,"50782":13432,"0x10000046b0e06a7":13433,"0x10000046b0e06ae":13434,"0000036c":13435,"0x10000046b0e08d2":13436,"0x10000046b0e08c0":13437,"00000111":13438,"##module":13439,"0x100000a1529000":13440,"0da":13441,"0fd":13442,"0e6":13443,"1cf":13444,"1f0":13445,"2e3":13446,"2ee":13447,"4ca":13448,"5ed":13449,"5fd":13450,"5d2":13451,"5a0":13452,"6ea":13453,"6cb":13454,"6ac":13455,"7c3":13456,"7ae":13457,"7c7":13458,"70e":13459,"8ef":13460,"8dc":13461,"8bc":13462,"88f":13463,"9ec":13464,"98a":13465,"9cf":13466,"_8a":13467,"_6e":13468,"a8":13469,"a99":13470,"a8a":13471,"ae5":13472,"a9d":13473,"br":13474,"bcc":13475,"b00":13476,"b20":13477,"b48":13478,"b03":13479,"b06":13480,"b4a":13481,"bc3":13482,"b66":13483,"b7f":13484,"b2a":13485,"b0a":13486,"be7":13487,"ch":13488,"c09":13489,"c70":13490,"c7d":13491,"cee":13492,"d7":13493,"ded":13494,"d76":13495,"d11":13496,"df3":13497,"d3a":13498,"dc2":13499,"df9":13500,"e7":13501,"eed":13502,"e2d":13503,"ef6":13504,"ee3":13505,"e8e":13506,"e93":13507,"ed2":13508,"e9d":13509,"fea":13510,"f56":13511,"f03":13512,"f11":13513,"f4d":13514,"f1d":13515,"f5d":13516,"f65":13517,"f2c":13518,"##7946":13519,"##629":13520,"##669":13521,"##099":13522,"##01d":13523,"##341":13524,"##fe5":13525,"##f95":13526,"##f85":13527,"##fcf":13528,"##db5":13529,"##dba":13530,"##d9b":13531,"##d1f":13532,"##d1d":13533,"##d9a":13534,"##1472":13535,"##aeb":13536,"##a04":13537,"##a41":13538,"##a3f":13539,"##a4f":13540,"##a95":13541,"##json":13542,"##ea9":13543,"##ea44":13544,"##eaad":13545,"##ea13":13546,"##ea0b":13547,"##eac3":13548,"##ea7a":13549,"##eacf":13550,"##ea4b":13551,"##ea9e":13552,"##ea65":13553,"##ed29":13554,"##ed48":13555,"##ed16":13556,"##ed66":13557,"##edc7":13558,"##edc4":13559,"##218d":13560,"##2182":13561,"##219a":13562,"##21a3":13563,"##21159":13564,"##ccca":13565,"##cc56":13566,"##cc99":13567,"##cc3f":13568,"##ccb2":13569,"##cc9a":13570,"##cc7f":13571,"##cc64":13572,"##cc0f":13573,"##ec63":13574,"##eca3":13575,"##ecf4":13576,"##ecd8":13577,"##0012":13578,"##005a":13579,"##0037":13580,"##de23":13581,"##de46":13582,"##de2d":13583,"##de93":13584,"##debc":13585,"##de8f":13586,"##de7d":13587,"##de5f":13588,"##24ce":13589,"##244a":13590,"##24d6":13591,"##2410":13592,"##24cd":13593,"##24a9":13594,"##24e8":13595,"##24a1":13596,"##8821":13597,"##88ab":13598,"##8815":13599,"##88f6":13600,"##8857":13601,"##880a":13602,"##dac":13603,"##dada":13604,"##daba":13605,"##daff":13606,"##da0b":13607,"##da9b":13608,"##da1d":13609,"##da19":13610,"##da2a":13611,"type_txt":13612,"##ebfa":13613,"##ebab":13614,"##eb75":13615,"##eb4f":13616,"##eb8d":13617,"##eb42":13618,"##eb7c":13619,"##eb2a":13620,"##eb39":13621,"##eb3e":13622,"##81cc":13623,"##814f":13624,"##81b2":13625,"##81d3":13626,"##817a":13627,"##811d":13628,"##819f":13629,"##817e":13630,"##810a":13631,"##8197":13632,"##810d":13633,"1107":13634,"##faeb":13635,"##fa06":13636,"##fa15":13637,"##faba":13638,"##fa07":13639,"##fa87":13640,"##fa4a":13641,"##fa05":13642,"##fa4e":13643,"##fa37":13644,"##ca7":13645,"##ca1":13646,"##ca7b":13647,"##ca93":13648,"##cab3":13649,"##cac3":13650,"##ca1f":13651,"##ca6a":13652,"##caf0":13653,"##12a3":13654,"##126d":13655,"##0420":13656,"##042d":13657,"##04aa":13658,"##04d3":13659,"##041d":13660,"##049a":13661,"##04be":13662,"##041c":13663,"##29de":13664,"##2969":13665,"##29b1":13666,"##299d":13667,"##290a":13668,"##50fa":13669,"##5020":13670,"##5086":13671,"##50b6":13672,"##50f6":13673,"##50f4":13674,"##2056":13675,"##20b2":13676,"##202c":13677,"##77b9":13678,"##7713":13679,"##773a":13680,"##772c":13681,"##8321":13682,"##83fd":13683,"##83c3":13684,"##839c":13685,"##834e":13686,"##832e":13687,"##8327":13688,"##83d4":13689,"##94da":13690,"##94ce":13691,"##9482":13692,"##947d":13693,"##9428":13694,"##94a6":13695,"##942f":13696,"##94a2":13697,"##4820":13698,"##48f6":13699,"##48d6":13700,"0875":13701,"##ce7":13702,"##ce47":13703,"##ce2e":13704,"##76da":13705,"##762d":13706,"##7645":13707,"##76b3":13708,"##76c7":13709,"##b0ec":13710,"##b076":13711,"##b0b0":13712,"##b014":13713,"##b01a":13714,"##b0af":13715,"##b0a1":13716,"##4073":13717,"##40bc":13718,"##409e":13719,"##40a7":13720,"##43da":13721,"##43ca":13722,"##4316":13723,"##43b5":13724,"##43b9":13725,"##43d6":13726,"##437a":13727,"##43d2":13728,"##43a6":13729,"##9906":13730,"##998e":13731,"##02e2":13732,"##0975":13733,"##0915":13734,"##09b6":13735,"##09f6":13736,"##09cb":13737,"##035a":13738,"##038f":13739,"##03dd":13740,"##038e99":13741,"##fdb":13742,"##fd83":13743,"##fdf3":13744,"##fd8b":13745,"##fd8f":13746,"##fd51":13747,"##fd6f":13748,"##fdd4":13749,"##44b6":13750,"##44d2":13751,
[...]
