{"version":"1.0","truncation":{"max_length":20,"strategy":"LongestFirst","stride":0},"padding":{"strategy":{"Fixed":20},"direction":"Right","pad_to_multiple_of":null,"pad_id":0,"pad_type_id":0,"pad_token":"[PAD]"},"added_tokens":[{"id":0,"special":true,"content":"[UNK]","single_word":false,"lstrip":false,"rstrip":false,"normalized":false},{"id":1,"special":true,"content":"[CLS]","single_word":false,"lstrip":false,"rstrip":false,"normalized":false},{"id":2,"special":true,"content":"[SEP]","single_word":false,"lstrip":false,"rstrip":false,"normalized":false},{"id":3,"special":true,"content":"[PAD]","single_word":false,"lstrip":false,"rstrip":false,"normalized":false},{"id":4,"special":true,"content":"[MASK]","single_word":false,"lstrip":false,"rstrip":false,"normalized":false}],"normalizer":{"type":"Sequence","normalizers":[{"type":"NFD"},{"type":"Lowercase"},{"type":"StripAccents"}]},"pre_tokenizer":{"type":"Whitespace"},"post_processor":{"type":"TemplateProcessing","single":[{"SpecialToken":{"id":"[CLS]","type_id":0}},{"Sequence":{"id":"A","type_id":0}},{"SpecialToken":{"id":"[SEP]","type_id":0}}],"pair":[{"SpecialToken":{"id":"[CLS]","type_id":0}},{"Sequence":{"id":"A","type_id":0}},{"SpecialToken":{"id":"[SEP]","type_id":0}},{"Sequence":{"id":"B","type_id":1}},{"SpecialToken":{"id":"[SEP]","type_id":1}}],"special_tokens":{"[CLS]":{"id":"[CLS]","ids":[1],"tokens":["[CLS]"]},"[SEP]":{"id":"[SEP]","ids":[2],"tokens":["[SEP]"]}}},"decoder":{"type":"WordPiece","prefix":"##","cleanup":true},"model":{"type":"WordPiece","unk_token":"[UNK]","continuing_subword_prefix":"##","max_input_chars_per_word":100,"vocab":{"[UNK]":0,"[CLS]":1,"[SEP]":2,"[PAD]":3,"[MASK]":4,"!":5,"\"":6,"#":7,"$":8,"%":9,"&":10,"'":11,"(":12,")":13,"*":14,"+":15,",":16,"-":17,".":18,"/":19,"0":20,"1":21,"2":22,"3":23,"4":24,"5":25,"6":26,"7":27,"8":28,"9":29,":":30,";":31,"<":32,"=":33,">":34,"?":35,"@":36,"[":37,"\\":38,"]":39,"_":40,"a":41,"b":42,"c":43,"d":44,"e":45,"f":46,"g":47,"h":48,"i":49,"j":50,"k":51,"l":52,"m":53,"n":54,"o":55,"p":56,"q":57,"r":58,"s":59,"t":60,"u":61,"v":62,"w":63,"x":64,"y":65,"z":66,"{":67,"|":68,"}":69,"~":70,"##0":71,"##7":72,"##a":73,"##e":74,"##1":75,"##5":76,"##d":77,"##4":78,"##8":79,"##c":80,"##2":81,"##3":82,"##9":83,"##g":84,"##6":85,"##b":86,"##f":87,"##s":88,"##i":89,"##o":90,"##n":91,"##_":92,"##z":93,"##t":94,"##h":95,"##l":96,"##x":97,"##m":98,"##p":99,"##r":100,"##v":101,"##u":102,"##}":103,"##j":104,"##q":105,"##k":106,"##y":107,"##w":108,"##,":109,"##-":110,"##*":111,"##/":112,"##{":113,"##=":114,"##:":115,"##.":116,"##[":117,"##+":118,"##?":119,"##]":120,"##<":121,"##(":122,"##)":123,"##&":124,"##\"":125,"##>":126,"##!":127,"##ta":128,"##er":129,"##on":130,"\":":131,"\":\"":132,"##in":133,"##ur":134,"##or":135,"##es":136,"##tat":137,"##us":138,"##{\"":139,"con":140,"stat":141,"status":142,"##,\"":143,"conta":144,"##ed":145,"##iner":146,"container":147,"\",\"":148,"##our":149,"##},":150,"##},{\"":151,"##ck":152,"hour":153,"\"},{\"":154,"##is":155,"hours":156,"up":157,"##at":158,"##ion":159,"##en":160,"##_t":161,"##ea":162,"##ic":163,"##em":164,"##ms":165,"##th":166,"10":167,"\\-":168,"##ch":169,"##me":170,"ap":171,"##ro":172,"##ess":173,"##xt":174,"##che":175,"##erv":176,"##ep":177,"##ar":178,"##pe":179,"##ck_":180,"mms":181,"##tem":182,"##sion":183,"##tack_":184,"##ol":185,"##ag":186,"##eal":187,"##_txt":188,"##ok":189,"ac":190,"##ds":191,"ha":192,":\"":193,"##ype":194,"##ealth":195,"##it":196,"##ec":197,"health":198,"##ut":199,"##ing":200,"##iz":201,"ar":202,"##temis":203,"artemis":204,"##essag":205,"type":206,"or":207,"##oken":208,"##_token":209,"##_txt_token":210,"##ized":211,"##_txt_tokenized":212,"\"+":213,"##ission":214,"app":215,"##om":216,"##et":217,"in":218,"##ore":219,"##ache":220,"dur":221,"##00":222,"core":223,"##ard":224,"##fo":225,"##og":226,"##stack_":227,"info":228,"##de":229,"org":230,"##oa":231,"##il":232,"mission":233,"ex":234,"##24":235,"serv":236,"##lat":237,"ca":238,"##ti":239,"##_r":240,"##out":241,"##ation":242,"pro":243,"##esb":244,"##tal":245,"##oc":246,"mo":247,"##oaesb":248,"apache":249,"##ice":250,"##_s":251,"mock":252,"##ha":253,"##tor":254,"##ror":255,"##88":256,"ti":257,"15":258,"server":259,"##go":260,"##ited":261,"soaesb":262,"exited":263,"##cc":264,"ago":265,"##talog":266,"sec":267,"time":268,"er":269,"error":270,"han":271,"##cep":272,"##ervice":273,"##mq":274,"##tiv":275,"##_n":276,"##ke":277,"activ":278,"##olr":279,"accep":280,"on":281,"##check":282,"##urr":283,"##for":284,"healthy":285,"\":{\"":286,"##ith":287,"##ame":288,"with":289,"##224":290,"##toc":291,"##essage":292,"amq":293,"##emq":294,"activemq":295,"##088":296,"##hard":297,"##hard1":298,"message":299,"timeout":300,"secon":301,"seconds":302,"has":303,"##dsha":304,"handsha":305,"handshake":306,"protoc":307,"protocol":308,"occ":309,"during":310,"acceptor":311,"##urred":312,"##224088":313,"amq224088":314,"occurred":315,"solr":316,"##form":317,"healthcheck":318,"plat":319,"platform":320,"##le":321,"catalog":322,"14":323,"##eas":324,"fa":325,"##service":326,"106":327,"healthcheckservice":328,"##one":329,"re":330,"name":331,"##va":332,"##ent":333,"##etr":334,"##dat":335,"me":336,"##ide":337,"##estack_":338,"##essagestack_":339,"rom":340,"##ics":341,"##li":342,"##tp":343,"##lic":344,"##ava":345,"##lis":346,"none":347,"meta":348,"java":349,"##ure":350,"##_ms":351,"fail":352,"##eason":353,"##end":354,"##lica":355,"##da":356,"##eplica":357,"##eplica_n":358,"duration":359,"failure":360,"##_reason":361,"duration_ms":362,"failure_reason":363,",\"":364,"id":365,"##fle":366,"##flex":367,"##an":368,"##ter":369,"rom1":370,"##eb":371,"##_replica_n":372,"##_shard1":373,"##_shard1_replica_n":374,"##etrics":375,"metrics":376,"##card":377,"un":378,"##re":379,"##ver":380,"##as":381,"metacard":382,"##--":383,"##messagestack_":384,"##cess":385,"##ker":386,"##ps":387,"##roker":388,"##ub":389,"##od":390,"##sr":391,"##lish":392,"##ead":393,"isr":394,"at":395,"##ler":396,"##ode":397,"##_c":398,"##al":399,"12":400,"##up":401,"##ublish":402,"##nd":403,"##ender":404,"##plat":405,"log":406,"143":407,"##75":408,"=/":409,"11":410,"reflex":411,"##ue":412,"13":413,"updat":414,"##01":415,"##eed":416,"ro":417,"##sw":418,"22":419,"ext":420,"##read":421,"##mel":422,"camel":423,"##lv":424,"##id":425,")\"":426,"vide":427,"##vide":428,"videom":429,"##video":430,"##eedq":431,"render":432,"##orn":433,"##icorn":434,"unicorn":435,"##el":436,"##tr":437,"##cessor":438,"ad":439,"##90":440,"web":441,"metacard_c":442,"metacard_cache":443,"rome":444,"</":445,"##fa":446,"##eri":447,"##ss":448,"##ce":449,"##plate":450,"catalog_shard1_replica_n":451,"##omm":452,"shard1":453,"##61":454,"##ear":455,"##lient":456,"##ct":457,"##earch":458,"##ect":459,"##ul":460,"jar":461,"##stack_p":462,"to":463,"##updat":464,"##95":465,"##85":466,"zo":467,"}}":468,"ab":469,"##_x":470,"##94":471,"##oke":472,"##ib":473,"op":474,"ver":475,"version":476,"##ls":477,"##est":478,"##un":479,"##ttp":480,"##mp":481,"core_n":482,"core_node":483,"##34":484,"={":485,"##os":486,"##04":487,"client":488,")\"},{\"":489,"id_txt":490,"##68":491,"},\"":492,"##vc":493,"##si":494,"##pro":495,"##mission":496,"000":497,"##fi":498,"##92":499,"http":500,"about":501,"an":502,"##15":503,"##utes":504,"publish":505,"##inutes":506,"##76":507,"##eriod":508,"##32":509,"##broker":510,"##eriodic":511,"broker":512,"##stack_broker":513,"brokerstack_broker":514,"minutes":515,"##mms":516,"##18":517,"##por":518,"##ity":519,"mmsstack_":520,"mmsstack_mms":521,"contact":522,"##12":523,"update":524,"di":525,"##eper":526,"zooke":527,"zookeeper":528,"##qu":529,"##ener":530,"##ting":531,"##ca":532,"##77":533,"##he":534,"##)+":535,"##tory":536,"##97":537,"##xf":538,"00":539,"##pr":540,"sc":541,"##ap":542,"##version":543,"##ys":544,"##earcher":545,"##ommit":546,"##ie":547,"qtp":548,"qtp1":549,"##+(":550,"##stack_re":551,"reflexstack_re":552,"reflexstack_reflex":553,"##02":554,"##66":555,"##stat":556,"##03":557,"##fd":558,"##fic":559,"##fication":560,"##dap":561,"##las":562,"##app":563,"}},\"":564,"##ource":565,"##rom":566,"##data":567,"metacard_cache_shard1_replica_n":568,"##ex":569,"##xy":570,"##s_txt_tokenized":571,"##xn":572,"##42":573,"dis":574,"##bf":575,"##cn":576,"dd":577,"service":578,"##pon":579,"##78":580,"##ork":581,"##08":582,"##_m":583,"##ew":584,"=\"":585,"##ara":586,"##pel":587,"open":588,"##58":589,"##catalog":590,"##eat":591,"##ab":592,"th":593,"##16":594,"##3f":595,"add":596,"##52":597,"thread":598,"##ath":599,"wt":600,"##bin":601,"javabin":602,"##arams":603,"path":604,"tr":605,"##44":606,"##mpl":607,"res":608,"##w3":609,"catalog_shard1_replica_n1":610,"##ules":611,"##inver":612,"##inverting":613,"##_service":614,"webapp":615,"##list":616,"##uleset":617,"csw":618,"retr":619,"##iev":620,"retriev":621,"##reener":622,"screener":623,"videomessag":624,"feedq":625,"klv":626,"mps":627,"##feedq":628,"##klv":629,"conversion":630,"##ecsw":631,"##stack_video":632,"missionmessagestack_":633,"expor":634,"##essagestack_video":635,"##ana":636,"##messagestack_feedq":637,"##messagestack_klv":638,"videomessagestack_video":639,"##stack_publish":640,"publishstack_publish":641,"videomessagecsw":642,"feedqmessagestack_feedq":643,"klvmessagestack_klv":644,"missionmessagestack_mission":645,"exporter":646,"videomessagecswstack_video":647,"##7z":648,"svc":649,"##ps_service":650,"##_mps_service":651,"##ftp":652,"ddoc":653,"##we":654,"gwe":655,"tem":656,"template":657,"##leas":658,"releas":659,"##hand":660,"##of":661,"##ts":662,"##50":663,"##----":664,"##ctory":665,"~[":666,"##wn":667,"##ection":668,"##ession":669,"##handler":670,"from":671,"):":672,"##op":673,"##ack":674,"##38":675,"##trib":676,"16":677,"##o2":678,"##fl":679,"##f1":680,"##_p":681,"##30":682,"cxf":683,"ids":684,"##56":685,"##)++":686,"##int":687,"##ty":688,"##4d":689,"##af":690,"aler":691,"##0b":692,"##99":693,"##template":694,"##610":695,"##quest":696,"##utor":697,"do":698,"##_params":699,":/":700,"://":701,"##kn":702,"##7524":703,"catalog_shard1_replica_n2":704,"##61090":705,"qtp17524":706,"qtp1752461090":707,"##lr":708,"##96":709,"##rn":710,"##100":711,"##57":712,"##181":713,"##dv":714,"##48":715,"process":716,"##pring":717,"00000":718,"no":719,"resource":720,"##98":721,"##1e":722,"##rocessor":723,"spring":724,"##8v":725,"##hg":726,"##ost":727,"##di":728,"##*+":729,"core_node4":730,"##ort":731,"##pb":732,"##urity":733,"core_node3":734,"##fr":735,"##2a":736,"##lse":737,"##ali":738,"vali":739,"##time":740,"##erver":741,"##4a":742,"ai":743,"##fig":744,"##mb":745,"##b0":746,"##factory":747,"session":748,"##b8":749,"##36":750,"searcher":751,"##ws":752,"config":753,"##lan":754,"##error":755,"##ln":756,"##000":757,"release":758,"uninverting":759,"##proxy":760,"##vent":761,"##cnxn":762,"##eprocessor":763,"##sta":764,"##91":765,"##ci":766,"event":767,"++(":768,"##f4":769,"19":770,"##updater":771,"periodic":772,"updater":773,"back":774,"##catalogupdater":775,"periodiccatalogupdater":776,"backup":777,"gss":778,"mas":779,"##gss":780,"##soaesb":781,"##the":782,"haproxy":783,"##stack_gss":784,"##stack_soaesb":785,"##stack_periodic":786,"periodiccatalogupdaterstack_periodic":787,"gssstack_gss":788,"master":789,"haproxystack_soaesb":790,"fil":791,"##agn":792,"diagn":793,"##ostic":794,"diagnostic":795,"##work":796,"##7g":797,"##ning":798,"##11":799,"##b5":800,"core_node4_x":801,"##74":802,"core_node3_x":803,"##gx":804,"for":805,"##ory":806,"get":807,"false":808,"##thread":809,"ms":810,"mil":811,"##ueue":812,"25":813,"rep":814,"run":815,"##wh":816,"commit":817,"##ebeat":818,"filebeat":819,"security":820,"##b1":821,"us":822,"clas":823,"##sification":824,"classification":825,"id_txt_tokenized":826,"total":827,"##eg":828,"##6c":829,"del":830,"na":831,"##rt":832,"##dapter":833,"##40":834,"distrib":835,"ns":836,"##se":837,"pi":838,"##f2":839,"##ush":840,"che":841,"##yt":842,"##ual":843,"##ny":844,"}{":845,"logupdat":846,"##eprocessorfactory":847,"logupdateprocessorfactory":848,"##dex":849,"##cks":850,"##dation":851,"validation":852,"##72":853,"exited_":854,"##exec":855,"##wt":856,"##9d":857,"##zu":858,"##ine":859,"##peline":860,"pipeline":861,"##dt":862,"##05":863,"##g0":864,"##h5":865,"##z7":866,"sys":867,"system":868,"##2t":869,"##oint":870,"metacard_cache_shard1_replica_n2":871,"processor":872,"##1d":873,"##49":874,"##w8":875,"##m8":876,"act":877,"request":878,"##nn":879,"##yb":880,"##1b":881,"metadata":882,"adfd":883,"##4l":884,"type_txt_tokenized":885,"name_txt_tokenized":886,"##zk":887,"##bl":888,"clientcnxn":889,"##ao":890,"##cli":891,"##ext":892,"=[":893,"##executor":894,"##ia":895,"##ay":896,"hand":897,"##64":898,"##ba":899,"ke":900,"##ri":901,"##ned":902,"##f3":903,")]":904,")]}":905,"##22":906,"##lg":907,"##oll":908,"##gen":909,"delgen":910,"##con":911,"##processor":912,"##9c":913,"cont":914,"##errorhandler":915,"##oap":916,"##rit":917,"##70":918,"metacard_cache_shard1_replica_n1":919,"st":920,"##_ro":921,"##bb":922,"##ponse":923,"plan":924,"report":925,"##ean":926,"##zq":927,"en":928,"##amework":929,"##mln":930,"##mlns":931,"##2d":932,"##33":933,"jet":934,"##uter":935,"##zy":936,"##jg":937,"node":938,"##state":939,"##10":940,"##ollection":941,"##ompon":942,"##omponent":943,"19000":944,"mem":945,"12181":946,"##queue":947,"##qs":948,"jetty":949,"46":950,"##6o":951,"##9m":952,"##lj":953,"##mv":954,"##qh":955,"ge":956,"0_":957,"##sh":958,"##55":959,"168":960,"##du":961,"collection":962,"ruleset":963,"##eallr":964,"##ulesets":965,"retrieveallr":966,"retrieveallrulesets":967,"noti":968,"rome_ro":969,"rome_router":970,"##type":971,"##}]":972,"screener_mps_service":973,"notification":974,"cda":975,"[{\"":976,"adapter":977,"elas":978,"gr":979,"gat":980,"kib":981,"push":982,"s3":983,"sftp":984,"sqs":985,"##tics":986,"##ldap":987,"##isor":988,"##methe":989,"cadv":990,"promethe":991,"logsta":992,")\"}]":993,"##eway":994,"openldap":995,"##afana":996,"dood":997,"elastics":998,"grafana":999,"gateway":1000,"kibana":1001,"cadvisor":1002,"prometheus":1003,"logstash":1004,"elasticsearch":1005,"},":1006,"##etemplate":1007,"retrievetemplate":1008,"##searcher":1009,"##uration":1010,"of":1011,"##station":1012,"getal":1013,"##ltem":1014,"##plates":1015,"getalltem":1016,"getalltemplates":1017,"##_sftp":1018,"ddoc_sftp":1019,"##duration":1020,"##ck_duration":1021,"check_duration":1022,"gwe_mps_service":1023,"events":1024,"##nal":1025,"##}}":1026,"{\"":1027,"ticks":1028,"comm":1029,"16895":1030,"##ain":1031,"##ee":1032,"200":1033,"cl":1034,"##ig":1035,"##23":1036,"001":1037,"##i5":1038,"##i8":1039,"##13":1040,"##10000":1041,"##db":1042,"##e0":1043,"soap":1044,"##62":1045,"##e4":1046,"##wv":1047,"##--------":1048,"##eader":1049,"##ail":1050,"##umb":1051,"##and":1052,"alerts":1053,"code":1054,"##er_txt_tokenized":1055,"04":1056,"true":1057,"spel":1058,"spell":1059,"##8a":1060,"##046":1061,"397":1062,"##d5":1063,"##t0":1064,"##index":1065,"2009":1066,"##65":1067,"##tart":1068,"##14":1069,"52":1070,"##7c":1071,"##9b":1072,"##485":1073,"##nection":1074,"##ched":1075,"tag":1076,"update_params":1077,"##vm":1078,"##82":1079,"net":1080,"dep":1081,"##762":1082,"##framework":1083,"##enci":1084,"##endenci":1085,"dependenci":1086,"dependencies":1087,"and":1088,"##ator":1089,"##per":1090,"actual":1091,"##c3":1092,"##o4":1093,"##xv":1094,"##tion":1095,"war":1096,"rest":1097,"##ternal":1098,"##4k":1099,"##x10000":1100,"137":1101,"##046b0":1102,"##x10000046b0":1103,"springframework":1104,"##hel":1105,"done":1106,"##ope":1107,"##dd":1108,"##ytes":1109,"##np":1110,"##3h5":1111,"##ze":1112,"##z6":1113,"##y7z":1114,"##z7s":1115,"##all":1116,"##pl":1117,"##thod":1118,"_state":1119,"##oh":1120,"##xj":1121,"##u7":1122,"##783":1123,"v2":1124,"##_to":1125,"##ot":1126,"de":1127,"##54":1128,"cb":1129,"##uq":1130,"##5i":1131,"##aj":1132,"##3z":1133,"##esponse":1134,"##pv":1135,"##jy":1136,"##0h":1137,"##z8":1138,"##eu":1139,"##lz":1140,"##p5":1141,"##ux":1142,"##uw":1143,"##u16":1144,"##qd":1145,"##k6":1146,"##wb":1147,"key":1148,":[":1149,"##3l":1150,"02t":1151,"planned":1152,"##stationdt":1153,"ass":1154,"##ver_":1155,"_statever_":1156,"med":1157,"classification_txt_tokenized":1158,"code_txt_tokenized":1159,"cbrn":1160,"media":1161,"##6m":1162,"##helper":1163,"##s_txt":1164,"work":1165,"ecli":1166,"##pse":1167,"eclipse":1168,"##f6":1169,"##wg":1170,"##v1":1171,"ni":1172,"##sched":1173,"##9912":1174,"+*":1175,":[*+":1176,"+*]":1177,"##emission":1178,"##*:":1179,"##*+-":1180,"++(*:":1181,"+*])++":1182,"++(*:*+-":1183,"##78377":1184,"qtp19912":1185,"qtp1991278377":1186,"gd":1187,"sm":1188,"dia":1189,"smil":1190,"##1v":1191,"##3x":1192,"send":1193,"##v6":1194,"##vs":1195,"##gd":1196,"##_stat":1197,"##ih":1198,"##qw":1199,"0x10000046b0":1200,":--":1201,"<!":1202,":-->":1203,"<!--":1204,"bean":1205,"##oad":1206,"searcherexecutor":1207,"cre":1208,"##87":1209,"##5a":1210,"##rs":1211,"##93":1212,"method":1213,"##lp":1214,"##26":1215,"clos":1216,"tags_txt_tokenized":1217,"##4b":1218,"resttemplate":1219,"##4f":1220,"##ero":1221,"##e2":1222,"##server":1223,"##73":1224,"component":1225,"##pu":1226,"##rec":1227,"><":1228,"##06":1229,"sof":1230,"soft":1231,":]":1232,"my":1233,"myid":1234,"##ateg":1235,"##46":1236,"##ding":1237,"##ination":1238,"##oserver":1239,"nioserver":1240,"##ang":1241,"zero":1242,"memory":1243,"closed":1244,"qu":1245,"request_":1246,"##25":1247,"quer":1248,"##impl":1249,"##2_":1250,"ut":1251,"##2b":1252,"gdes":1253,"accept":1254,"##str":1255,"point":1256,"##_solr":1257,"categ":1258,"numb":1259,"rfi":1260,"##ity_txt_tokenized":1261,"##ail_txt_tokenized":1262,"category":1263,"number_txt_tokenized":1264,"##ating":1265,"##itor":1266,"##onitor":1267,"writ":1268,"10485":1269,"running":1270,"ack":1271,"bytes":1272,"monitor":1273,"##},\"":1274,"}}},\"":1275,"1048576":1276,"acked":1277,"monitoring":1278,"##uler":1279,"workqueue":1280,"##ule":1281,"##e5":1282,"##f9":1283,"##scheduler":1284,"_un":1285,"/&":1286,"##leader":1287,"fromleader":1288,"##9s":1289,"##866":1290,"##ccess":1291,"commitscheduler":1292,"##fil":1293,"##d7":1294,"---":1295,"1_":1296,"connection":1297,"18":1298,"##internal":1299,"##rectory":1300,"##eration":1301,"active":1302,"start":1303,"##ock":1304,"##ocket":1305,"##p1":1306,"##69":1307,"mmscatalog":1308,"mmscataloghelper":1309,"##listener":1310,"spell_":1311,"000c":1312,"##enderlistener":1313,"##ysenderlistener":1314,"##rect":1315,"warning":1316,"##09":1317,"##8f":1318,"user":1319,"##thread_":1320,"##reader":1321,"##rectoryreader":1322,"##ede":1323,"solrindex":1324,"##ress":1325,"##keof":1326,"address":1327,"##71":1328,"##1r":1329,"##7m":1330,"af":1331,"##9q":1332,"##y3":1333,"##x9":1334,"##v8":1335,"iz":1336,"##1pb":1337,"##dr":1338,"##pj":1339,"##j9":1340,"##jp":1341,"##ans":1342,"##29":1343,"_uninverting":1344,"##ize":1345,"##35":1346,"##name":1347,"trans":1348,"##0y":1349,"##d2":1350,"zoo":1351,"##liver":1352,"##livery":1353,"source":1354,"17":1355,"##blish":1356,"1690":1357,"##info":1358,"##port":1359,"2181":1360,"##fs":1361,"##246":1362,"##2f":1363,"direct":1364,"##yg":1365,"##cw":1366,"##o8":1367,"##l5":1368,"##pw":1369,"##+(+":1370,"##2s":1371,"##commit":1372,"##bas":1373,"##597":1374,"##3a":1375,"##9a":1376,"replica_n":1377,"##update":1378,"rede":1379,"##ocation":1380,"camelinternal":1381,"methodinfo":1382,"##liveryerrorhandler":1383,"redeliveryerrorhandler":1384,"camelinternalprocessor":1385,"directupdate":1386,"directupdatehandler":1387,"##853":1388,"os":1389,"##qtime":1390,"0_qtime":1391,"##min":1392,"zero_":1393,"##let":1394,"util":1395,"location":1396,"##dataws":1397,"##emissiondataws":1398,"##urrent":1399,"em":1400,"##5e":1401,"releasab":1402,"ph":1403,"##sem":1404,"contrib":1405,"##ion_txt_tokenized":1406,"##rols":1407,"orig":1408,"##one_txt_tokenized":1409,"publisher":1410,"dissem":1411,"controls":1412,"creator":1413,"category_txt_tokenized":1414,"address_txt_tokenized":1415,"email_txt_tokenized":1416,"phone_txt_tokenized":1417,"contributor":1418,"origin":1419,"dissemination":1420,"controls_txt_tokenized":1421,"##gis":1422,"55":1423,"43":1424,"##pa":1425,"admin":1426,"##05d":1427,"##put":1428,"getmission":1429,"alerts_shard1_replica_n":1430,"##3b":1431,"rout":1432,"##text":1433,"##timpl":1434,"##entimpl":1435,"48":1436,"##60":1437,"53":1438,"##fy":1439,"##faul":1440,"##45":1441,"xmlns":1442,"da":1443,"##20":1444,"##inet":1445,"##cipl":1446,"##inetype":1447,"##ciplinetype":1448,"content":1449,"inv":1450,"impl":1451,"##ad":1452,"##get":1453,"go":1454,"##_state":1455,"##28":1456,"alert":1457,"##212":1458,"##c6":1459,"##agg":1460,"##atch":1461,"58":1462,"regis":1463,"##jz":1464,"##point":1465,"0x10000046b0e":1466,"++(+":1467,"errors_txt":1468,"45":1469,"##sl":1470,"ul":1471,"ult":1472,"0s":1473,"##1009s":1474,"0s1009s":1475,"0s1009s01":1476,"v1":1477,"31":1478,"##ved":1479,"invoke":1480,"comment":1481,"defaul":1482,"0_212":1483,"##etur":1484,"##9f":1485,"logupdateprocessorfactory_":1486,"##cr":1487,"##vi":1488,"##e42":1489,"##cp":1490,"##cf":1491,"##cb":1492,"##uep":1493,"##uepr":1494,"##5g":1495,"##po":1496,"##6d":1497,"##244":1498,"urn":1499,"##ueprint":1500,"##7a":1501,"##9de":1502,"49":1503,"##018":1504,"##a75":1505,"##dl":1506,"##g4":1507,"##ya":1508,"##y5":1509,"##0p":1510,"##rk":1511,"ux":1512,"##gt":1513,"##g3f":1514,"##p6":1515,"##rw":1516,"##qr":1517,"##qv":1518,"##kp":1519,"##----------------":1520,"54":1521,"##8ba":1522,"##d57":1523,"##operation":1524,"oa":1525,"oaesb":1526,"##_soaesb":1527,"soaesb_soaesb":1528,"sendthread_":1529,"handler":1530,"##kno":1531,"##3v":1532,"##su":1533,"errors_txt_tokenized":1534,"+*])++)++":1535,"warnings_txt_tokenized":1536,"factory":1537,"##434":1538,"_x":1539,"##5500":1540,"##6j":1541,"_xmlns":1542,"##51d":1543,"##pool":1544,"##wr":1545,"sessionid":1546,"42":1547,"##x0":1548,"##gr":1549,"##omp":1550,"##966":1551,"##ed_s":1552,"##ued":1553,"4658":1554,"##ed34":1555,"##9d95":1556,"##vel":1557,"23":1558,"##021":1559,"_m":1560,"##bf0b":1561,"##8u":1562,"##5703":1563,"##health":1564,"##bb75":1565,"26":1566,"##fm":1567,"##56ec":1568,"##8x":1569,"##bh":1570,"unhealth":1571,"unhealthy":1572,"##ated":1573,"##15597":1574,"##qy":1575,"##xh":1576,"##qp":1577,"##qf1":1578,"##0hk":1579,"0wh":1580,"24l":1581,"8y":1582,"9p":1583,"ezu":1584,"g1b":1585,"h1":1586,"hqr":1587,"ki":1588,"ly":1589,"le42":1590,"mfy":1591,"py5":1592,"qjy":1593,"rc":1594,"rj":1595,"sct":1596,"tp":1597,"tzu":1598,"vx":1599,"xe0":1600,"y6":1601,"ze2":1602,"##0z":1603,"##0u":1604,"##dz":1605,"##4ny":1606,"##8w3":1607,"##8zy":1608,"##cln":1609,"##cu16":1610,"##2gt":1611,"##3w8":1612,"##9jp":1613,"##gch":1614,"##g15":1615,"##gwh":1616,"##g29":1617,"##g5g":1618,"##6as":1619,"##6g0":1620,"##6xj":1621,"##bt":1622,"##bsi":1623,"##beu":1624,"##fds":1625,"##fva":1626,"##feg":1627,"##sdr":1628,"##scp":1629,"##sqv":1630,"##ix":1631,"##i05d":1632,"##o94":1633,"##o34":1634,"##oo2":1635,"##ob1":1636,"##oy7z":1637,"##nqh":1638,"##nu7":1639,"##n0p":1640,"##z9":1641,"##zj":1642,"##zf4":1643,"##zmv":1644,"##znp":1645,"##zz6":1646,"##zbb75":1647,"##zxh":1648,"##to2":1649,"##tlr":1650,"##tb8":1651,"##t6g0":1652,"##hu":1653,"##h7z":1654,"##h2a":1655,"##hbl":1656,"##hd7":1657,"##h7m":1658,"##hbt":1659,"##ldi":1660,"##l1b":1661,"##l0u":1662,"##xg0":1663,"##xao":1664,"##x1r":1665,"##xcu16":1666,"##mok":1667,"##mzk":1668,"##mznp":1669,"##pcln":1670,"##rr":1671,"##ren":1672,"##rbf":1673,"##r1e":1674,"##r4k":1675,"##r51d":1676,"##r5703":1677,"##rqy":1678,"##vnd":1679,"##vwn":1680,"##vdd":1681,"##uc3":1682,"##jf4":1683,"##jd5":1684,"##jj9":1685,"##jbh":1686,"##qmq":1687,"##qzy":1688,"##qee":1689,"##q762":1690,"##qnp":1691,"##qlz":1692,"##qg15":1693,"##qbsi":1694,"##ksi":1695,"##k7c":1696,"##ymv":1697,"##yz7s":1698,"##y6as":1699,"##wl0u":1700,"##or33":1701,"##ck56ec":1702,"##ch8x":1703,"##ro3f":1704,"##arm8":1705,"##ealg29":1706,"##izf9":1707,"##oglg":1708,"##ilkn":1709,"##il6xj":1710,"##mqhd7":1711,"##ndz8":1712,"##ndrw":1713,"##ulren":1714,"##85qh":1715,"##92ny":1716,"##15qbsi":1717,"##qu6o":1718,"##hews":1719,"##heoy7z":1720,"##ie4":1721,"##03sdr":1722,"##ex2f":1723,"##exomp":1724,"##xythe":1725,"##bfkp":1726,"##ewy3":1727,"##58w3":1728,"##w39q":1729,"##wne":1730,"##opoh":1731,"##op0z":1732,"##38r4k":1733,"##flk7c":1734,"##f1g3f":1735,"##4dm":1736,"##4dz6":1737,"##kn4b":1738,"##960hk":1739,"##dvh2a":1740,"##8vp6":1741,"##hg246":1742,"##2ach8x":1743,"##4ai05d":1744,"##7g4":1745,"##7gfva":1746,"##gx92ny":1747,"##whxv":1748,"##6c7g4":1749,"##f2v8":1750,"##ytk6":1751,"##ny5500":1752,"##wt8u":1753,"##wt4dm":1754,"##2to94":1755,"##49su":1756,"##ybzz6":1757,"##4l960hk":1758,"##zkze":1759,"##riv6":1760,"stdvh2a":1761,"##zqbeu":1762,"##zqrr":1763,"##jg2ach8x":1764,"##6obf0b":1765,"##9m6m":1766,"##ljrk":1767,"##ljfds":1768,"##igbfkp":1769,"##vm49su":1770,"##o4vs":1771,"##o4qee":1772,"##xvwne":1773,"##4kx1r":1774,"##3h5ljfds":1775,"##y7zvdd":1776,"##z7s3h5":1777,"##5iix":1778,"##ajexomp":1779,"##3z8vp6":1780,"##pve":1781,"##p5h":1782,"##uxob1":1783,"##uwfeg":1784,"##qdg4":1785,"##wbxcu16":1786,"##1v9m6m":1787,"##866gx92ny":1788,"##x9rbf":1789,"iz4ai05d":1790,"##1pb85qh":1791,"##pj38r4k":1792,"##2sopoh":1793,"##85315597":1794,"ostlr":1795,"##jzscp":1796,"##vipj38r4k":1797,"##9de9m":1798,"uxzmv":1799,"##8baqu6o":1800,"##d57uxob1":1801,"##3vhbl":1802,"##6jxythe":1803,"4658jj9":1804,"##ed34y7zvdd":1805,"##9d95yz7s":1806,"##fm5iix":1807,"##qf1ldi":1808,"0whwbxcu16":1809,"24lhu":1810,"8yarm8":1811,"9pf1g3f":1812,"ezuxg0":1813,"g1bzbb75":1814,"h1qdg4":1815,"hqrjg2ach8x":1816,"ki6obf0b":1817,"lyop0z":1818,"le42tb8":1819,"mfywt8u":1820,"py5vm49su":1821,"qjyr5703":1822,"rcflk7c":1823,"rjmqhd7":1824,"sct6jxythe":1825,"tp866gx92ny":1826,"tzu2to94":1827,"vxewy3":1828,"xe0d57uxob1":1829,"y6ndz8":1830,"ze2ksi":1831,"##dz6c7g4":1832,"##4nyya":1833,"##8w3zkze":1834,"##8zy2sopoh":1835,"##2gtb":1836,"##3w8zqbeu":1837,"##9jp3h5ljfds":1838,"##gch3z8vp6":1839,"##gwho34":1840,"##g5ga75":1841,"##sqvrqy":1842,"##oo2z7s3h5":1843,"##nqhpcln":1844,"##nu7si":1845,"##n0pzf4":1846,"##zj85315597":1847,"##zxhl":1848,"##to2qmq":1849,"##t6g0pve":1850,"##h7zmok":1851,"##h7mie4":1852,"##hbtzqrr":1853,"##l1bhg246":1854,"##xaoxvwne":1855,"##mzkybzz6":1856,"##mznpq762":1857,"##r1ey6as":1858,"##r51dr1ey6as":1859,"##vnd58w3":1860,"##vwnz9":1861,"##uc3nqhpcln":1862,"##jf4ytk6":1863,"##jd5wt4dm":1864,"##jbhnu7si":1865,"##qzyfm5iix":1866,"##qnphbtzqrr":1867,"##qlzor33":1868,"##qg15ro3f":1869,"##ymv03sdr":1870,"##ck56ecigbfkp":1871,"##ealg29whxv":1872,"##izf9h7mie4":1873,"##oglgjg":1874,"##ilkn2gtb":1875,"##il6xj8w3zkze":1876,"##ndrw9d95yz7s":1877,"##ulrenny5500":1878,"##15qbsi1v9m6m":1879,"##hews3vhbl":1880,"##heoy7zljrk":1881,"##ex2fjf4ytk6":1882,"##w39qo4qee":1883,"##4dz63w8zqbeu":1884,"##kn4bg5ga75":1885,"##7gfva7":1886,"##4l960hko4vs":1887,"##riv6f2v8":1888,"stdvh2aqzyfm5iix":1889,"##4kx1rjbhnu7si":1890,"##ajexompdz6c7g4":1891,"##uwfegzxhl":1892,"##x9rbfto2qmq":1893,"iz4ai05dndrw9d95yz7s":1894,"##1pb85qh4kx1rjbhnu7si":1895,"ostlr1pb85qh4kx1rjbhnu7si":1896,"##jzscp4l960hko4vs":1897,"##vipj38r4k8zy2sopoh":1898,"uxzmvvipj38r4k8zy2sopoh":1899,"##8baqu6o1":1900,"4658jj9zj85315597":1901,"##ed34y7zvddjd5wt4dm":1902,"##qf1ldik":1903,"0whwbxcu16r51dr1ey6as":1904,"24lhu4dz63w8zqbeu":1905,"8yarm8ex2fjf4ytk6":1906,"9pf1g3f15qbsi1v9m6m":1907,"ezuxg0w39qo4qee":1908,"g1bzbb75ulrenny5500":1909,"h1qdg4x9rbfto2qmq":1910,"hqrjg2ach8xil6xj8w3zkze":1911,"ki6obf0bgwho34":1912,"lyop0zck56ecigbfkp":1913,"le42tb8mznpq762":1914,"mfywt8uymv03sdr":1915,"py5vm49suvnd58w3":1916,"qjyr5703qlzor33":1917,"rcflk7ced34y7zvddjd5wt4dm":1918,"rjmqhd7h7zmok":1919,"sct6jxytheealg29whxv":1920,"tp866gx92nyn0pzf4":1921,"tzu2to94uc3nqhpcln":1922,"vxewy3jzscp4l960hko4vs":1923,"xe0d57uxob1ajexompdz6c7g4":1924,"y6ndz8qg15ro3f":1925,"ze2ksihews3vhbl":1926,"##9jp3h5ljfdsu":1927,"##gch3z8vp6ub":1928,"##sqvrqyvwnz9":1929,"##mzkybzz6ze":1930,"stdvh2aqzyfm5iixuwfegzxhl":1931,"iz4ai05dndrw9d95yz7s4nyya":1932,"uxzmvvipj38r4k8zy2sopoh8f":1933,"4658jj9zj85315597riv6f2v8":1934,"0whwbxcu16r51dr1ey6aswl0u":1935,"24lhu4dz63w8zqbeu8baqu6o1":1936,"8yarm8ex2fjf4ytk6ilkn2gtb":1937,"9pf1g3f15qbsi1v9m6m7gfva7":1938,"ezuxg0w39qo4qeeizf9h7mie4":1939,"g1bzbb75ulrenny5500oglgjg":1940,"h1qdg4x9rbfto2qmql1bhg246":1941,"hqrjg2ach8xil6xj8w3zkzeqp":1942,"ki6obf0bgwho34sqvrqyvwnz9":1943,"lyop0zck56ecigbfkpqf1ldik":1944,"le42tb8mznpq762qnphbtzqrr":1945,"mfywt8uymv03sdrheoy7zljrk":1946,"py5vm49suvnd58w3oo2z7s3h5":1947,"qjyr5703qlzor33mzkybzz6ze":1948,"rjmqhd7h7zmok9jp3h5ljfdsu":1949,"sct6jxytheealg29whxv9de9m":1950,"tp866gx92nyn0pzf4xaoxvwne":1951,"tzu2to94uc3nqhpclnt6g0pve":1952,"vxewy3jzscp4l960hko4vsp5h":1953,"y6ndz8qg15ro3fgch3z8vp6ub":1954,"ze2ksihews3vhblkn4bg5ga75":1955,"##cxn":1956,"nioservercxn":1957,"30":1958,"##aining":1959,"##client":1960,"training":1961,"##iation":1962,"##sk":1963,"##au":1964,"##t_":1965,"##a8":1966,"main":1967,"##..":1968,"down":1969,"pr":1970,"prep":1971,"##9l":1972,"##17":1973,"09":1974,"##aps":1975,"##xd":1976,"##v5":1977,"##ua":1978,"##j7":1979,"##41e":1980,"##ou":1981,"##20b":1982,"clic":1983,"clicls":1984,"##_v":1985,"envel":1986,"##2_0":1987,"##_v2_0":1988,"envelope":1989,"##fied":1990,"##_data":1991,"38":1992,"sr":1993,"##vcls":1994,"srvcls":1995,"##load":1996,"##429":1997,"modi":1998,"modified":1999,"##3o":2000,"##landing":2001,"##9c0":2002,"asset":2003,"##fstationdt":2004,"##takeof":2005,"platformtype":2006,"##fdt":2007,"disciplinetype":2008,"##base":2009,"##landingdt":2010,"##takeoffdt":2011,"option":2012,"optional":2013,"##env":2014,"soapenv":2015,"tas":2016,"task":2017,"tar":2018,"top":2019,"target":2020,"topic":2021,"9b":2022,"uri":2023,"end":2024,"##4f5":2025,"own":2026,"sen":2027,"deri":2028,"##tity":2029,"status_txt_tokenized":2030,"##ility_txt_tokenized":2031,"##ociation":2032,"system_txt_tokenized":2033,"entity":2034,"association":2035,"releasability_txt_tokenized":2036,"uri_txt_tokenized":2037,"derived":2038,"associations":2039,"##sor":2040,"sensor":2041,"##50e":2042,")=":2043,"=<":2044,"##quer":2045,"params":2046,"144":2047,"httpcon":2048,"li":2049,"01":2050,"##fa9":2051,"##43":2052,"##1f":2053,"35":2054,"sn":2055,"##hot":2056,"##apshot":2057,"snapshot":2058,"##7j":2059,"##ate":2060,"##9201":2061,"cli":2062,"##les":2063,"##6k":2064,"##0830":2065,"##poolexecutor":2066,"threadpoolexecutor":2067,"##oj":2068,"##1l":2069,"##4g":2070,"##8n":2071,"##c8":2072,"##1h":2073,"ff1":2074,"##2b65":2075,"##8o":2076,"##69f3":2077,"##2375":2078,"33":2079,"##dp":2080,"##mw":2081,"##v3":2082,"##av":2083,"##hol":2084,"##wx":2085,"##vf":2086,"##mis":2087,"1gd":2088,"2cw":2089,"6t0":2090,"b69f3":2091,"bv3":2092,"k52":2093,"nxj":2094,"p09":2095,"qx":2096,"r7":2097,"t94":2098,"tnn":2099,"u50":2100,"w7":2101,"wnn":2102,"wgd":2103,"wxd":2104,"xom":2105,"z44":2106,"##7lp":2107,"##1rt":2108,"##1uw":2109,"##1wg":2110,"##1pw":2111,"##5th":2112,"##5agg":2113,"##dha":2114,"##4ol":2115,"##cgx":2116,"##2in":2117,"##2lz":2118,"##3pb":2119,"##3zu":2120,"##g50":2121,"##g0b":2122,"##ggr":2123,"##g8o":2124,"##bv1":2125,"##feu":2126,"##sau":2127,"##i0h":2128,"##ob8":2129,"##oe4":2130,"##nj":2131,"##nhg":2132,"##nqw":2133,"##n8n":2134,"##n2375":2135,"##n4ol":2136,"##zc":2137,"##zxy":2138,"##zw8":2139,"##zpv":2140,"##zfa9":2141,"##zav":2142,"##z3zu":2143,"##zn8n":2144,"##tue":2145,"##t5i":2146,"##t5a":2147,"##tdha":2148,"##h2d":2149,"##h26":2150,"##h1wg":2151,"##lhg":2152,"##lm8":2153,"##l3l":2154,"##lcr":2155,"##xth":2156,"##xmb":2157,"##xb1":2158,"##xqw":2159,"##xx0":2160,"##m2d":2161,"##pi5":2162,"##rgx":2163,"##vo2":2164,"##vpi5":2165,"##uys":2166,"##u4g":2167,"##jew":2168,"##jb5":2169,"##ju7":2170,"##qic":2171,"##qan":2172,"##kb5":2173,"##kwv":2174,"##yvc":2175,"##y32":2176,"##ypr":2177,"##yz8":2178,"##y2in":2179,"##wwt":2180,"##wg0":2181,"##w7lp":2182,"##eakn":2183,"##rozpv":2184,"##xttue":2185,"##pex":2186,"##ol3f":2187,"##oln2375":2188,"##omih":2189,"##de9201":2190,"##ps5e":2191,"##id8a":2192,"##fauq":2193,"##61mis":2194,"##estlcr":2195,"##mpt0":2196,"##92xmb":2197,"##329c0":2198,"##xf2lz":2199,"##prih":2200,"##02w3":2201,"##xnps5e":2202,"##cng8o":2203,"##cnlm8":2204,"##52rs":2205,"##w3y2in":2206,"##7zi5":2207,"##o292xmb":2208,"##fl8v":2209,"##ty3pb":2210,"##4dw7lp":2211,"##8vvpi5":2212,"##hgju7":2213,"##frvo2":2214,"##7gaj":2215,"##11id8a":2216,"##6c41e":2217,"##40t5i":2218,"##h5fl8v":2219,"##z7ol3f":2220,"##w8ux":2221,"##m8o":2222,"##nnh1wg":2223,"##ybe5":2224,"##aozav":2225,"##lgzw8":2226,"##70sl":2227,"##i8tdha":2228,"##i8pex":2229,"##dbwg0":2230,"##wvd":2231,"##82l3l":2232,"##762vf":2233,"##ope70sl":2234,"##ohwvd":2235,"##uq3z":2236,"##jyi8pex":2237,"##p53x":2238,"##u16xnps5e":2239,"##qdc":2240,"##k6g50":2241,"##wbnnh1wg":2242,"##3lqdc":2243,"##f6n4ol":2244,"##wgh26":2245,"##v1u16xnps5e":2246,"##3xg0b":2247,"##pujb5":2248,"##p1zc":2249,"##0yomih":2250,"##fs1uw":2251,"##ygi8tdha":2252,"##o8dbwg0":2253,"##l5z3zu":2254,"##244nj":2255,"##434u4g":2256,"##wrde9201":2257,"##uedlhg":2258,"##skuys":2259,"##9lpb":2260,"09oln2375":2261,"##v5fauq":2262,"##uahol":2263,"##j7uedlhg":2264,"##20bzfa9":2265,"##429mpt0":2266,"##3o429mpt0":2267,"9bqic":2268,"##4f5p53x":2269,"##50e3lqdc":2270,"##7j8v":2271,"##6km8o":2272,"##oj52rs":2273,"##1lw3y2in":2274,"##1h244nj":2275,"ff1m2d":2276,"##2b65g":2277,"##dp8vvpi5":2278,"##mwxttue":2279,"1gdmwxttue":2280,"2cw434u4g":2281,"6t0prih":2282,"b69f3uq3z":2283,"bv3cng8o":2284,"k52jew":2285,"nxjh5fl8v":2286,"p09hgju7":2287,"qxk6g50":2288,"r7ybe5":2289,"t94rozpv":2290,"tnnfeu":2291,"u50xth":2292,"w7xf2lz":2293,"wnn1pw":2294,"wgd61mis":2295,"wxdope70sl":2296,"xomyvc":2297,"z44aozav":2298,"##1rtl5z3zu":2299,"##5th40t5i":2300,"##5aggv5fauq":2301,"##cgxxb1":2302,"##ggrdp8vvpi5":2303,"##bv1ygi8tdha":2304,"##sau1lw3y2in":2305,"##i0h6km8o":2306,"##ob8xx0":2307,"##oe4wgh26":2308,"##nhgwrde9201":2309,"##nqwi0h6km8o":2310,"##zxy02w3":2311,"##zn8n20bzfa9":2312,"##t5awwt":2313,"##h2drn":2314,"##xqw50e3lqdc":2315,"##rgx7j8v":2316,"##qanh2drn":2317,"##kwv5th40t5i":2318,"##y32qanh2drn":2319,"##yprnhgwrde9201":2320,"##yz86c41e":2321,"##eaknt5awwt":2322,"##estlcr6":2323,"##329c0rgx7j8v":2324,"##7zi5wx":2325,"##o292xmb9lpb":2326,"##ty3pbp1zc":2327,"##4dw7lpf":2328,"##frvo2ggrdp8vvpi5":2329,"##7gajxqw50e3lqdc":2330,"##z7ol3fw8ux":2331,"##lgzw8nqwi0h6km8o":2332,"##82l3l329c0rgx7j8v":2333,"##762vfz7ol3fw8ux":2334,"##wbnnh1wgeaknt5awwt":2335,"##f6n4olohwvd":2336,"##v1u16xnps5eoe4wgh26":2337,"##pujb5oj52rs":2338,"##0yomihf6n4olohwvd":2339,"##fs1uwkb5":2340,"##o8dbwg07zi5wx":2341,"##skuys4dw7lpf":2342,"09oln2375lgzw8nqwi0h6km8o":2343,"##uahol3xg0b":2344,"##j7uedlhgy32qanh2drn":2345,"##3o429mpt0ty3pbp1zc":2346,"9bqic1rtl5z3zu":2347,"##4f5p53x4":2348,"##1h244njskuys4dw7lpf":2349,"ff1m2dj7uedlhgy32qanh2drn":2350,"1gdmwxttue7gajxqw50e3lqdc":2351,"2cw434u4gzn8n20bzfa9":2352,"6t0prihpujb5oj52rs":2353,"b69f3uq3zcgxxb1":2354,"bv3cng8o5aggv5fauq":2355,"k52jew1h244njskuys4dw7lpf":2356,"nxjh5fl8vyz86c41e":2357,"p09hgju7bv1ygi8tdha":2358,"qxk6g50kwv5th40t5i":2359,"r7ybe5sau1lw3y2in":2360,"t94rozpvfrvo2ggrdp8vvpi5":2361,"tnnfeuyprnhgwrde9201":2362,"u50xthv1u16xnps5eoe4wgh26":2363,"w7xf2lz3o429mpt0ty3pbp1zc":2364,"wnn1pwob8xx0":2365,"wgd61mis82l3l329c0rgx7j8v":2366,"wxdope70sl762vfz7ol3fw8ux":2367,"xomyvcwbnnh1wgeaknt5awwt":2368,"z44aozav0yomihf6n4olohwvd":2369,"9bqic1rtl5z3zuo292xmb9lpb":2370,"2cw434u4gzn8n20bzfa9cnlm8":2371,"6t0prihpujb5oj52rsjyi8pex":2372,"b69f3uq3zcgxxb1uahol3xg0b":2373,"bv3cng8o5aggv5fauqzxy02w3":2374,"nxjh5fl8vyz86c41efs1uwkb5":2375,"p09hgju7bv1ygi8tdha11id8a":2376,"qxk6g50kwv5th40t5iestlcr6":2377,"r7ybe5sau1lw3y2in4f5p53x4":2378,"t94rozpvfrvo2ggrdp8vvpi5x":2379,"tnnfeuyprnhgwrde92012b65g":2380,"wnn1pwob8xx0o8dbwg07zi5wx":2381,"xomyvcwbnnh1wgeaknt5awwtc":2382,"v2018":2383,"v20180830":2384,"\"+)++":2385,"21":2386,"##ime":2387,"wa":2388,"wait":2389,"softcommit":2390,"waitsearcher":2391,"##6f":2392,"##d8":2393,"##_for":2394,"processing":2395,"19000_solr":2396,"19000_solr_x":2397,"xm":2398,"##km":2399,"##tg":2400,"catalogoperation":2401,"##simpl":2402,"catalogoperationsimpl":2403,"access":2404,"##ition":2405,"requests":2406,"./":2407,"##endpoint":2408,"##_fl":2409,"##etition":2410,"##etitions":2411,"##_quer":2412,"##tresponse":2413,"defaultresponse":2414,"defaultresponseerrorhandler":2415,"aut":2416,"##atic":2417,"##omatic":2418,"##workqueue":2419,"##duit":2420,"httpconduit":2421,"automatic":2422,"##workqueueimpl":2423,"automaticworkqueueimpl":2424,"handle":2425,"##files":2426,"##6a":2427,"##wor":2428,"alp":2429,"sel":2430,"alpn":2431,"select":2432,"##ester":2433,"har":2434,"##vester":2435,"harvester":2436,"qt":2437,"##e8":2438,"##chang":2439,"su":2440,"lib":2441,"##writ":2442,"##pi":2443,"ep":2444,"##z0":2445,"data":2446,"bl":2447,"56":2448,"##tim":2449,"41":2450,"lang":2451,"##_id":2452,"##_b":2453,"=+(+":2454,"rows":2455,"##)+&":2456,"blueprint":2457,"##call":2458,"exp":2459,"34":2460,"##um":2461,"read":2462,"##ged":2463,"##etes":2464,"##eletes":2465,"##unged":2466,"opensearcher":2467,"expunged":2468,"expungedeletes":2469,"get_params":2470,"##context":2471,":(":2472,"##*)":2473,":(*)":2474,":(*))+":2475,"></":2476,"ns2":2477,"##37":2478,"##2c":2479,"modu":2480,"module":2481,"index":2482,"missionid":2483,"_rom":2484,"_romemissiondataws":2485,"##ger":2486,"##clientimpl":2487,"registr":2488,"##1a":2489,"load":2490,"write":2491,"las":2492,"##metr":2493,"##metrics":2494,"40":2495,"queue":2496,"##mit":2497,"out":2498,"success":2499,"gc":2500,"beat":2501,"batch":2502,"cpu":2503,"current":2504,"hard":2505,"non":2506,"nor":2507,"val":2508,"##beat":2509,"##_all":2510,"##_files":2511,"##hem":2512,"##eral":2513,"states":2514,"uptime":2515,"##_the":2516,"in_the":2517,"##_next":2518,"}}}}":2519,"clients":2520,"published":2521,"##stats":2522,"open_files":2523,"added":2524,"##30s":2525,"handles":2526,"memstats":2527,"##_total":2528,"memory_all":2529,"memory_total":2530,"writes":2531,"zero_metrics":2532,"##t_30s":2533,"limit":2534,"libbeat":2535,"ephem":2536,"registrar":2537,"last_30s":2538,"output":2539,"gc_next":2540,"batches":2541,"norm":2542,"value":2543,"##eral_id":2544,"}}}}}}":2545,"memory_alloc":2546,"ephemeral_id":2547,"##val":2548,"10000":2549,"abstr":2550,"abstra":2551,"romeclientimpl":2552,"router":2553,"2021":2554,"eval":2555,"rule":2556,"##ep_state":2557,"##_rule":2558,"0000":2559,"alerting":2560,"keep_state":2561,"##eturned":2562,"evalcontext":2563,"##e7":2564,"##pace":2565,"##ception":2566,"20":2567,"size":2568,"##_commit":2569,"solrindexwrit":2570,"solrindexwriter":2571,"##vid":2572,"##nc":2573,"##ccessor":2574,"##:?":2575,"##?:?":2576,"##?:?]":2577,"##a5":2578,"refl":2579,"##tho":2580,"57":2581,"60":2582,"##_msg":2583,"logger":2584,"##daccessor":2585,"##thodaccessor":2586,"##checker":2587,"lv":2588,"info_msg":2589,"##_returned":2590,"no_data":2591,"rule_returned":2592,"##_ruleid":2593,"evalcontext_ruleid":2594,"lvl":2595,"reflect":2596,"##_bu":2597,"##_con":2598,"##component":2599,"##ef":2600,"servlet":2601,"##aaf":2602,"##enta":2603,"##ilding":2604,"##checkcomponent":2605,"spellcheckcomponent":2606,"spell_index":2607,"spell_checker":2608,"##_building":2609,"spellcheckcomponent_building":2610,"querysenderlistener":2611,"##_querysenderlistener":2612,"querysenderlistener_querysenderlistener":2613,"##xception":2614,"##rore":2615,"##errore":2616,"httpserver":2617,"##errorexception":2618,"httpservererrorexception":2619,"##edi":2620,"ch":2621,"##7d":2622,"))":2623,"##ita":2624,"##)}":2625,"exita":2626,"##directoryreader":2627,"uninvertingdirectoryreader":2628,"##bledi":2629,"##entadapter":2630,")))}":2631,"exitabledi":2632,"exitabledirectoryreader":2633,"02t15":2634,"##e1":2635,"##iti":2636,"##age":2637,"##methodaccessor":2638,"39":2639,"##itle":2640,"##temp":2641,"##itiating":2642,"##888":2643,"##cd":2644,"##ax":2645,"##meta":2646,"zookeeper_":2647,"hit":2648,"hits":2649,"eventthread":2650,"server_solr":2651,"0x10000046b0e0":2652,"esta":2653,"establish":2654,"24":2655,"~[?:?]":2656,"sub":2657,"##7b":2658,"36":2659,"##ego":2660,"##tiated":2661,"##egotiated":2662,"##c9":2663,"com":2664,"##_es":2665,"##tablish":2666,"##_establish":2667,"##back":2668,"##callback":2669,"rt":2670,"##ed_session":2671,"##_socket":2672,"44":2673,"##request":2674,"51":2675,"nioservercnxn":2676,"##_op":2677,"##ening":2678,"##searcher_op":2679,"solrindexsearcher_op":2680,"solrindexsearcher_opening":2681,"0012":2682,"directupdatehandler2":2683,"alerts_shard1_replica_n1":2684,"zookeeperserver":2685,"##able":2686,"##rl":2687,"##ement":2688,"validat":2689,"qtime":2690,"##_status":2691,"##ervic":2692,"##c4":2693,"replica_n1":2694,"replica_n2":2695,"##80":2696,"##4j":2697,"##_start":2698,"handleerror":2699,"handleresponse":2700,"##req":2701,"ns5":2702,"tail":2703,"transport":2704,"romes":2705,"not":2706,"##952":2707,"bod":2708,"##ename":2709,"##element":2710,"##endpoint_v2_0":2711,"body":2712,"validator":2713,"failed":2714,"\">":2715,"),":2716,"checks":2717,"##end_commit":2718,"##2_end_commit":2719,"directupdatehandler2_end_commit":2720,"##_flush":2721,"directupdatehandler2_end_commit_flush":2722,"/>":2723,"##wq":2724,"usa":2725,"checksum":2726,"##duc":2727,"owner":2728,"crs":2729,"des":2730,"qual":2731,"seri":2732,"tdl":2733,"url":2734,"##mat":2735,"##y_txt_tokenized":2736,"station_txt_tokenized":2737,"##ing_txt_tokenized":2738,"version_txt_tokenized":2739,"score":2740,"format":2741,"action_txt_tokenized":2742,"start_txt_tokenized":2743,"originator":2744,"comments_txt_tokenized":2745,"download":2746,"end_txt_tokenized":2747,"validators":2748,"desc":2749,"serial":2750,"url_txt_tokenized":2751,"time_txt_tokenized":2752,"prepar":2753,"##ecommit":2754,"optim":2755,"directupdatehandler2_start":2756,"preparecommit":2757,"optimize":2758,"37":2759,"##c2":2760,"50":2761,"response":2762,"unkno":2763,"unknown":2764,"##ports":2765,"transports":2766,"##aa":2767,"##thand":2768,"02":2769,"0006":2770,"##f28":2771,"warn":2772,"##8e":2773,"query":2774,"##ids":2775,"63":2776,"wor":2777,"47":2778,"##fd5":2779,"alerts_shard1_replica_n2":2780,"##774":2781,"negotiated":2782,"##_time":2783,"negotiated_time":2784,"negotiated_timeout":2785,"##filter":2786,"abstract":2787,"59":2788,"##p2":2789,"##c5":2790,"##d3":2791,"common":2792,"##thandler":2793,"c2":2794,"xml":2795,"##7f":2796,"80":2797,"im":2798,"548":2799,"rom2":2800,"##84":2801,"461":2802,"##metacard":2803,"client_":2804,"getmissions":2805,"##902":2806,"_0":2807,"ping":2808,"ping_params":2809,"##ecurity":2810,"_o":2811,"##bd":2812,"more":2813,"##ill":2814,"##9ab":2815,"##urn":2816,"port":2817,"_romemissiondatawsendpoint_v2_0":2818,"##78a":2819,"create":2820,"##ute":2821,"command":2822,"internal":2823,"32":2824,"##ht":2825,"##ed_":2826,"##ght":2827,"##080":2828,"sun":2829,"##41":2830,"ddf":2831,"##date":2832,"pax":2833,"##cod":2834,"encod":2835,"new":2836,"138":2837,"82":2838,"##497":2839,"##08c":2840,"=+(++(+":2841,"##b05":2842,"cho":2843,"##epetitions":2844,"##_repetitions":2845,"zero_or":2846,"more_repetitions":2847,"##5c":2848,"##b5d":2849,"201":2850,"##6b":2851,"##ome":2852,"##7f3":2853,"##fb":2854,"##leg":2855,"##extender":2856,"blueprintextender":2857,"##ow":2858,"##5v":2859,"##otm":2860,"clientadapter":2861,"##8a5":2862,"##comm":2863,"##9e":2864,"##--------------------------------":2865,"##command":2866,"##7ms":2867,"##current":2868,"cha":2869,"##0a":2870,"deleg":2871,"delegating":2872,"idreq":2873,"idreqlist":2874,"##0f3":2875,"romemissiondataws":2876,"concurrent":2877,"romesecurity":2878,"romesecuritytype":2879,"wh":2880,"##035":2881,"##methodaccessorimpl":2882,"delegatingmethodaccessorimpl":2883,"##5j":2884,"delet":2885,"##anding":2886,"##0168":2887,"##ick":2888,"getmissionids":2889,"##ourc":2890,"##3s":2891,"modifiedb":2892,"##944a":2893,"##*,":2894,"07":2895,"##flag":2896,"##und":2897,"landing":2898,"reason":2899,"fli":2900,"hda":2901,"ta":2902,"the":2903,"##dts":2904,"##fstation":2905,"##fbase":2906,"##numb":2907,"##nick":2908,"##nflag":2909,"##tanflag":2910,"##erid":2911,"##onof":2912,"##onstationdt":2913,"##aterid":2914,"missionlist":2915,"missionstate":2916,"missiontype":2917,"missionrequest":2918,"missionnick":2919,"titanflag":2920,"onstationdt":2921,"##unit":2922,"##offstationdt":2923,"##ba94":2924,"offstationdt":2925,"actuallandingdt":2926,"actualtakeoffdt":2927,"actualonof":2928,"02t22":2929,"02t23":2930,"plannedlandingdt":2931,"plannedtakeoffdt":2932,"plannedonstationdt":2933,"plannedoffstationdt":2934,"##keoffbase":2935,"comments":2936,"modifieddate":2937,"assetversion":2938,"disciplinetypelist":2939,"tailnumb":2940,"##ghtunit":2941,"modifiedby":2942,"landingbase":2943,"flightunit":2944,"hdam":2945,"takeoffbase":2946,"theaterid":2947,"##dtslist":2948,"##fstationdtslist":2949,"missionrequesttype":2950,"missionnickname":2951,"actualonoffstationdtslist":2952,"tailnumber":2953,"idlist":2954,"27":2955,"##2m":2956,"##041d":2957,"##1k":2958,"##406":2959,"##3ab":2960,"##643":2961,"##d4":2962,"##6271":2963,"##508c":2964,"##br":2965,"##f29b":2966,"##b05ec":2967,"##959ab":2968,"##48aaf":2969,"##f28f1":2970,"##49788":2971,"##oz":2972,"##xm":2973,"##dv9":2974,"##25966":2975,"##d27f3":2976,"##774959ab":2977,"##b5df29b":2978,"##8a5d27f3":2979,"##016825966":2980,"##944a48aaf":2981,"##ba946f":2982,"##508cb05ec":2983,"##f28f1b5df29b":2984,"##774959ab8a5d27f3":2985,"##016825966944a48aaf":2986,"##508cb05ec774959ab8a5d27f3":2987,"##016825966944a48aaff28f1b5df29b":2988,"##508cb05ec774959ab8a5d27f3ba946f":2989,"##6d866":2990,"##ce49788":2991,"##ad041d":2992,"##952ce49788":2993,"##78a6271":2994,"##0f3ad041d":2995,"##6d8660f3ad041d":2996,"##78a6271952ce49788":2997,"##6d8660f3ad041d78a6271952ce49788":2998,"##63":2999,"169024":3000,"##_in":3001,"exec":3002,"##91f":3003,"_con":3004,"##566":3005,"operation":3006,"##ve":3007,"##2h":3008,"##91c":3009,"##c1e":3010,"74":3011,"fr":3012,"##520":3013,"##f36":3014,"##bean":3015,"487":3016,"##to":3017,"##eb0":3018,"29":3019,"\":-":3020,"_p":3021,"##e3":3022,"##ng":3023,"##b2c":3024,"c8":3025,"##0ce":3026,"##vider":3027,"102":3028,"bund":3029,"##3b3":3030,"utils":3031,"_in":3032,"##ceed":3033,"##19":3034,"##inb":3035,"sizeinb":3036,"sizeinbytes":3037,"##f8":3038,"##eam":3039,"##3285":3040,"##stream":3041,"responseerrorhandler":3042,"wr":3043,"##edout":3044,"##iceprocessor":3045,"cataloghelper":3046,"##appedout":3047,"cxfclient":3048,"sendprocessor":3049,"beanprocessor":3050,"##putstream":3051,"clientimpl":3052,"abstractbean":3053,"choiceprocessor":3054,"wrappedout":3055,"cxfclientcallback":3056,"abstractbeanprocessor":3057,"wrappedoutputstream":3058,"05":3059,"##5x":3060,"c3":3061,"##5w":3062,"##8cf":3063,"##2n":3064,"##ecm":3065,"##ment":3066,"##3k":3067,"105":3068,"##l_":3069,"##change":3070,"##b4":3071,"##tm":3072,"header":3073,"##1x":3074,"##f0":3075,"##4acc":3076,"select_params":3077,"##2u":3078,"##7r":3079,"##3y":3080,"##5m":3081,"##1s":3082,"##dir":3083,"##6r":3084,"##orome":3085,"##etorome":3086,"##wsdl":3087,"routetorome":3088,"routetoromewsdl":3089,"##pol":3090,"##sec":3091,"##a5ab":3092,"##966d2":3093,"##ypa":3094,"##co":3095,"##06a8":3096,"##sp":3097,"##tered":3098,"+*])++)+&":3099,"\"+)++)++":3100,"##fq":3101,"servle":3102,"##3ab6":3103,"##fz":3104,"##jn":3105,"##5km":3106,"1r":3107,"9s":3108,"boz":3109,"eq":3110,"k1e":3111,"kc9":3112,"mi":3113,"p4j":3114,"r9":3115,"sl":3116,"sse":3117,"t42":3118,"uv":3119,"x1s":3120,"ypi":3121,"zh":3122,"z88":3123,"z2m":3124,"##0t":3125,"##0jn":3126,"##7mp":3127,"##7l5":3128,"##5ls":3129,"##4lse":3130,"##4qh":3131,"##8mp":3132,"##8o2":3133,"##89q":3134,"##cv":3135,"##3as":3136,"##3ts":3137,"##3y3":3138,"##9bl":3139,"##9o8":3140,"##g68":3141,"##gb0":3142,"##gbl":3143,"##gjp":3144,"##6pw":3145,"##bi":3146,"##s9":3147,"##sxt":3148,"##s5ls":3149,"##i93":3150,"##oq":3151,"##o58":3152,"##oyb":3153,"##ov6":3154,"##o3ab6":3155,"##nlj":3156,"##n9s":3157,"##n5m":3158,"##zfi":3159,"##z9m":3160,"##z566":3161,"##tj":3162,"##tbf":3163,"##t6m":3164,"##t3y":3165,"##tn5m":3166,"##hj":3167,"##l6o":3168,"##lkm":3169,"##l3as":3170,"##m5j":3171,"##mf36":3172,"##pap":3173,"##ru":3174,"##r32":3175,"##r1r":3176,"##vtj":3177,"##u3":3178,"##uz0":3179,"##j8e":3180,"##ji93":3181,"##q3285":3182,"##kfr":3183,"##yod":3184,"##y1f":3185,"##wao":3186,"##wzy":3187,"##w6pw":3188,"##taq3285":3189,"##er4l":3190,"##urag":3191,"##at8mp":3192,"##meys":3193,"##peco":3194,"##ke87":3195,"##tocfq":3196,"##alb2c":3197,"##erir1r":3198,"##ce888":3199,"##850y":3200,"opoyb":3201,"##un0ce":3202,"##mp4qh":3203,"##04m5j":3204,"##vclkm":3205,"##fi3y3":3206,"##15t6m":3207,"##xf6c":3208,"##xfnc":3209,"##3ftaq3285":3210,"##7zx9":3211,"##7zdir":3212,"##ts74":3213,"##56sp":3214,"##tytg":3215,"##lr0t":3216,"##mbed":3217,"##7g1x":3218,"##gx5x":3219,"##eg7g1x":3220,"##4lmp4qh":3221,"##zkv6":3222,"##ao91c":3223,"##iazq":3224,"##ia5km":3225,"##647zx9":3226,"##lgypa":3227,"##jgiazq":3228,"##mv3b3":3229,"##i5tm":3230,"##i8r32":3231,"##wv2h":3232,"##4855v":3233,"##vmru":3234,"##vmun0ce":3235,"##6mke87":3236,"##1vto":3237,"##1v2n":3238,"##vs06a8":3239,"##vsyod":3240,"##p1wao":3241,"##7mov6":3242,"##v8pol":3243,"izve":3244,"##1pbvclkm":3245,"##dru3":3246,"##pjo3ab6":3247,"##j9i8r32":3248,"##fsbr":3249,"##cwce888":3250,"##kno0jn":3251,"##ouia5km":3252,"##tgl3as":3253,"##piyg":3254,"##z0s9":3255,"##wqt3y":3256,"##fd5u":3257,"##p2902":3258,"##otm3ftaq3285":3259,"##7ms8o2":3260,"07l6o":3261,"##1kv8pol":3262,"##406wv2h":3263,"##643tgl3as":3264,"##xm4acc":3265,"##dv9peco":3266,"##91fhj":3267,"##c1ez566":3268,"##eb0lr0t":3269,"##ecmdru3":3270,"##3koq":3271,"##2umeys":3272,"##7r7ms8o2":3273,"##6rmbed":3274,"##a5abat8mp":3275,"##966d2p2902":3276,"##fz91fhj":3277,"1r9o8":3278,"9sz9m":3279,"bozouia5km":3280,"eqvsyod":3281,"k1eerir1r":3282,"kc9ts74":3283,"miy1f":3284,"p4jfi3y3":3285,"r9vmru":3286,"slfz91fhj":3287,"ssekfr":3288,"t421vto":3289,"uv7r7ms8o2":3290,"x1s4lmp4qh":3291,"ypiotm3ftaq3285":3292,"zh647zx9":3293,"z88mv3b3":3294,"z2mgjp":3295,"##7mpfd5u":3296,"##7l5piyg":3297,"##4lse1kv8pol":3298,"##89q6rmbed":3299,"##cveb0lr0t":3300,"##3tsdv9peco":3301,"##9bl56sp":3302,"##g68xf6c":3303,"##gb0mf36":3304,"##gblfsbr":3305,"##sxt1pbvclkm":3306,"##s5ls7mpfd5u":3307,"##o58406wv2h":3308,"##nljvmun0ce":3309,"##n9sxm4acc":3310,"##zfixfnc":3311,"##tbfzkv6":3312,"##tn5m3s":3313,"##papuz0":3314,"##j8e1v2n":3315,"##ji93tocfq":3316,"##wzy7l5piyg":3317,"##w6pwcwce888":3318,"##er4lo58406wv2h":3319,"##uragkno0jn":3320,"##alb2cs5ls7mpfd5u":3321,"##850ywzy7l5piyg":3322,"opoyb4lse1kv8pol":3323,"##04m5j7zdir":3324,"##15t6mtbfzkv6":3325,"##tytgn9sxm4acc":3326,"##gx5xbi":3327,"##eg7g1xpapuz0":3328,"##ao91c4855v":3329,"##lgypaao91c4855v":3330,"##jgiazqcveb0lr0t":3331,"##i5tm850ywzy7l5piyg":3332,"##6mke87ecmdru3":3333,"##vs06a8eg7g1xpapuz0":3334,"##7mov6gblfsbr":3335,"izvejgiazqcveb0lr0t":3336,"##pjo3ab6wqt3y":3337,"07l6ozfixfnc":3338,"##643tgl3as8cf":3339,"##3koq15t6mtbfzkv6":3340,"##2umeysji93tocfq":3341,"##a5abat8mp9":3342,"##966d2p2902j9i8r32":3343,"1r9o8lgypaao91c4855v":3344,"9sz9m04m5j7zdir":3345,"bozouia5km2umeysji93tocfq":3346,"eqvsyodpjo3ab6wqt3y":3347,"k1eerir1ralb2cs5ls7mpfd5u":3348,"kc9ts74i5tm850ywzy7l5piyg":3349,"miy1fg68xf6c":3350,"p4jfi3y3966d2p2902j9i8r32":3351,"r9vmruvs06a8eg7g1xpapuz0":3352,"slfz91fhj3koq15t6mtbfzkv6":3353,"ssekfrj8e1v2n":3354,"t421vto9bl56sp":3355,"uv7r7ms8o2w6pwcwce888":3356,"x1s4lmp4qhtytgn9sxm4acc":3357,"ypiotm3ftaq3285a5abat8mp9":3358,"zh647zx9gb0mf36":3359,"z88mv3b3er4lo58406wv2h":3360,"z2mgjp7mov6gblfsbr":3361,"##sxt1pbvclkm5w":3362,"##uragkno0jn7":3363,"opoyb4lse1kv8pol89q6rmbed":3364,"izvejgiazqcveb0lr0ttn5m3s":3365,"07l6ozfixfnc6mke87ecmdru3":3366,"1r9o8lgypaao91c4855vp1wao":3367,"9sz9m04m5j7zdir3tsdv9peco":3368,"eqvsyodpjo3ab6wqt3ygx5xbi":3369,"miy1fg68xf6csxt1pbvclkm5w":3370,"r9vmruvs06a8eg7g1xpapuz0t":3371,"ssekfrj8e1v2n643tgl3as8cf":3372,"t421vto9bl56spuragkno0jn7":3373,"uv7r7ms8o2w6pwcwce888z0s9":3374,"x1s4lmp4qhtytgn9sxm4accem":3375,"zh647zx9gb0mf36nljvmun0ce":3376,"z88mv3b3er4lo58406wv2hvtj":3377,"z2mgjp7mov6gblfsbrc1ez566":3378,"298":3379,"##_a":3380,"set":3381,"##79":3382,"str":3383,"##rea":3384,"framework":3385,"p3a":3386,"##ipb":3387,"##n01":3388,"p3aipb":3389,"p3aipbn01":3390,"##vis":3391,"##vision":3392,"+(":3393,"fq":3394,"revision":3395,"++(+(":3396,"warnings_txt":3397,"=+(++(++":3398,"deleted":3399,"##441":3400,"romemission":3401,"##idlist":3402,"romeidlist":3403,"0s1009s011":3404,"al":3405,"##21":3406,"##53":3407,"##set":3408,"##ing_state":3409,"##lert":3410,"chang":3411,"##_alert":3412,"changing_state":3413,"_c":3414,"##ff":3415,"##687":3416,"nat":3417,"bundle":3418,"pan":3419,"panel":3420,"##041":3421,"0014":3422,"fre":3423,"free":3424,"au":3425,"##b7":3426,"auth":3427,"_chang":3428,"##e_to":3429,"state_to":3430,"_changing":3431,"nul":3432,"null":3433,"##equest":3434,"##c77":3435,"28":3436,"##nect":3437,"##e6":3438,"177":3439,"c10":3440,"iw":3441,"##_call":3442,"##commitdata":3443,"solrindexwriter_call":3444,"##commandversion":3445,"setcommitdata":3446,"solrindexwriter_calling":3447,"##_st":3448,"##try":3449,"##tempt":3450,"68":3451,"##c0":3452,"sessionid_":3453,"_4":3454,"space":3455,"##dis":3456,"used_":3457,"space_alert":3458,"##disk":3459,"used_disk":3460,"##c7":3461,"##_stop":3462,"##877":3463,"servlethandler":3464,"##914":3465,"framework_stop":3466,"##tive":3467,"##_title":3468,"panel_title":3469,"##ervices":3470,"or_m":3471,"repetitions":3472,"or_more":3473,"72":3474,"##ilable":3475,"components":3476,"subj":3477,"0s1009s012":3478,"##dbrea":3479,"wordbrea":3480,"wordbreak":3481,"0s1009s013":3482,"##bfc":3483,"694":3484,"81":3485,"##based":3486,"indexbased":3487,"solrc":3488,"##58e":3489,"##faa":3490,"##ing_r":3491,"##1302":3492,"sending_r":3493,"##equests":3494,"sending_requests":3495,"##plet":3496,"##entic":3497,"authentic":3498,"1e":3499,"clou":3500,"##_new":3501,"registered":3502,"solrcore":3503,"registered_new":3504,"socket":3505,"mission_":3506,"##_connection":3507,"##hut":3508,"complet":3509,"222":3510,"##_name":3511,"ns10":3512,"is":3513,"##changeid":3514,"##_client":3515,"##_not":3516,"solrzk":3517,"solrzkclient":3518,"established":3519,"socket_connection":3520,"##atcher":3521,"sendthread_877":3522,"cloud":3523,"established_to":3524,"_initiating":3525,"initiating":3526,"##timeout":3527,"sessiontimeout":3528,"##string":3529,"zookeeper_441":3530,"_connect":3531,"initiating_client":3532,"_connectstring":3533,"ed":3534,"complete":3535,"169036":3536,"##322":3537,"will":3538,"##3d":3539,"##428":3540,"session_establish":3541,"sendthread_1302":3542,"will_not":3543,"session_establishment":3544,"##_shut":3545,"io":3546,"##1035":3547,"##erm":3548,"##formation":3549,"##mes":3550,"zookeeper_687":3551,"eventthread_":3552,"down_for":3553,"eventthread_shut":3554,"eventthread_520":3555,"tags_txt":3556,"69d":3557,"4938":3558,")..":3559,")...":3560,"##f5":3561,"0008":3562,"##estp":3563,"0_c":3564,"sid":3565,"term":3566,"##requ":3567,")::":3568,"processthread":3569,"processed_session":3570,"##ination_for":3571,"preprequ":3572,"##estprocessor":3573,"0_cport":3574,"termination_for":3575,"preprequestprocessor":3576,"sas":3577,"##_us":3578,"##ing_socket":3579,"attempt":3580,"opening_socket":3581,"sendthread_1035":3582,"##ate_us":3583,"authenticate_us":3584,"sasl_":3585,"attempt_to":3586,"authenticate_using":3587,"1056":3588,"title":3589,"##c13":3590,"992":3591,"cod":3592,"##32b":3593,"codice":3594,"##ync":3595,"accepted_s":3596,"nioservercnxnfactory":3597,"accepted_socket":3598,"track":3599,"##typ":3600,"##d59f":3601,"##stan":3602,"{,":3603,"##49f":3604,"7041":3605,"108":3606,"605":3607,"_version":3608,"_version_":3609,"sync":3610,"##c77c6":3611,"##stance":3612,"858e":3613,"##e1bfc":3614,"69dc77c6":3615,"992e1bfc":3616,"69dc77c6d59f":3617,"established_session":3618,"101":3619,"syncthread":3620,"a6d8660f3ad041d78a6271952ce49788":3621,"b508cb05ec774959ab8a5d27f3ba946f":3622,"1e016825966944a48aaff28f1b5df29b":3623,"##h_":3624,"##lin":3625,"##47":3626,"closed_socket":3627,"949":3628,"feat":3629,"##tempting":3630,"##attempting":3631,"client_attempting":3632,"##920":3633,"to_establish":3634,"imp":3635,"import":3636,"##ac":3637,"##ord":3638,"##ich_":3639,"##had":3640,"which_":3641,"which_had":3642,"##31":3643,"3_status":3644,"co":3645,"100":3646,"c6":3647,"##oker":3648,"coun":3649,"##chem":3650,"117":3651,"##ption":3652,"pas":3653,"##sword":3654,"username":3655,"password":3656,"##sn":3657,"##flow":3658,"workflow":3659,"##_out":3660,"##v2s":3661,"##emsn":3662,"romemsn":3663,"##v2services":3664,"romemsnv2services":3665,"schem":3666,"missionidlist":3667,"##_type":3668,"8080":3669,"/\"":3670,"_text":3671,"ic":3672,"##lsoap":3673,"##ayload":3674,"gov":3675,"xmlsoap":3676,"ism":3677,"##typename":3678,"schemas":3679,"inc":3680,"##ies":3681,"##ied":3682,"image":3683,"##itat":3684,"##oitat":3685,"##ization":3686,"aries":3687,"expl":3688,"##oitation":3689,"exploitation":3690,"pri":3691,"prior":3692,"##orting":3693,"reporting":3694,"country":3695,"##erc":3696,"0018":3697,"feature":3698,"_urn":3699,"sort":3700,"##produc":3701,"##leto":3702,"releasableto":3703,"ownerproduc":3704,"ownerproducer":3705,"retur":3706,"##p_in":3707,"##arset":3708,"##2a0":3709,"##esponseelement":3710,"utf":3711,"return":3712,"jo":3713,"498":3714,"\")+":3715,"=*,":3716,"ali":3717,"alg":3718,"by_txt_tokenized":3719,"dat":3720,"fl":3721,"gro":3722,"jc3":3723,"oth":3724,"rid":3725,"rating":3726,"sit":3727,"tail_txt_tokenized":3728,"voc":3729,"##d_txt_tokenized":3730,"##m_txt_tokenized":3731,"##uation":3732,"##ups":3733,"##uage":3734,"##ernal":3735,"##orith":3736,"##tatype":3737,"##ed_txt_tokenized":3738,"##ms_txt_tokenized":3739,"##arm":3740,"##ary_txt_tokenized":3741,"##ds_txt_tokenized":3742,"##it_txt_tokenized":3743,"##ective":3744,"##etime":3745,"indi":3746,"information":3747,"##de_txt_tokenized":3748,"organ":3749,"##lated_txt_tokenized":3750,"produc":3751,"mode_txt_tokenized":3752,"##forms_txt_tokenized":3753,"platforms_txt_tokenized":3754,"related_txt_tokenized":3755,"##anning":3756,"unit_txt_tokenized":3757,"##as_txt_tokenized":3758,"metacard_type":3759,"external":3760,"##ident":3761,"##ulary_txt_tokenized":3762,"contact_txt_tokenized":3763,"##pression":3764,"scanning":3765,"##+(+(":3766,"##abulary_txt_tokenized":3767,"names":3768,"##uals_txt_tokenized":3769,"systems_txt_tokenized":3770,"metadata_txt_tokenized":3771,"##ription":3772,"off":3773,"codewor":3774,"keywor":3775,"source_txt_tokenized":3776,"location_txt_tokenized":3777,"origin_txt_tokenized":3778,"original":3779,"datatype":3780,"+*])++)++)+&":3781,"owner_txt_tokenized":3782,"derived_txt_tokenized":3783,"language":3784,"=+(++(+(":3785,"##pace_txt_tokenized":3786,"size_txt_tokenized":3787,"##viduals_txt_tokenized":3788,"substance":3789,"compression":3790,"checksum_txt_tokenized":3791,"quality":3792,"quality_txt_tokenized":3793,"format_txt_tokenized":3794,"description":3795,"encoding_txt_tokenized":3796,"string_txt_tokenized":3797,"alarm":3798,"nato":3799,"subjective":3800,"##_name_txt_tokenized":3801,"edited":3802,"title_txt_tokenized":3803,"incident":3804,"##iedm":3805,"##izational":3806,"priority_txt_tokenized":3807,"alias_txt_tokenized":3808,"algorith":3809,"datetime":3810,"groups":3811,"jc3iedm":3812,"other":3813,"rid_txt_tokenized":3814,"rating_txt_tokenized":3815,"situation":3816,"vocabulary_txt_tokenized":3817,"individuals_txt_tokenized":3818,"information_txt_tokenized":3819,"organizational":3820,"producer_txt_tokenized":3821,"metacard_type_name_txt_tokenized":3822,"external_txt_tokenized":3823,"namespace_txt_tokenized":3824,"codewords_txt_tokenized":3825,"keyword_txt_tokenized":3826,"datatype_txt_tokenized":3827,"language_txt_tokenized":3828,"substance_txt_tokenized":3829,"compression_txt_tokenized":3830,"description_txt_tokenized":3831,"algorithm_txt_tokenized":3832,"groups_txt_tokenized":3833,"exit":3834,"sensors_txt_tokenized":3835,"join":3836,"79":3837,"##86":3838,"##c1":3839,"##036":3840,"##_res":3841,"180":3842,"_5":3843,"##f7":3844,"##ources":3845,"161":3846,"##ealtime":3847,"##242a":3848,"##984":3849,"11eb":3850,"0242a":3851,"amq22":3852,"0242ac13":3853,"##provider":3854,"71":3855,"##fail":3856,"##_source":3857,"##inv":3858,"_2":3859,"65":3860,"62":3861,"##4a95":3862,"0016":3863,"##failed":3864,"##908":3865,"6d8":3866,"to_s":3867,"for_":3868,"##yfilter":3869,"##ybyfilter":3870,"querybyfilter":3871,"b9b":3872,"servic":3873,"203":3874,"bfaa":3875,"##32b9b":3876,"42a0":3877,"##1d4a95":3878,"82da":3879,"6d81d4a95":3880,"b9b32b9b":3881,"6d81d4a9549f":3882,"...":3883,"##http":3884,"75":3885,"##ip":3886,"78":3887,"64":3888,"96":3889,"##vali":3890,"ns11":3891,"000002":3892,"_3":3893,"430":3894,"##0d":3895,"##904":3896,"##7e":3897,"000003":3898,"##fc":3899,"##da8":3900,"https":3901,"##ing_":3902,"##c61":3903,"90":3904,"460":3905,"##e74":3906,"unknown_source":3907,"346":3908,"188":3909,"##tainer":3910,"dof":3911,"##edhandler":3912,"##ilter":3913,"scop":3914,"##invoker":3915,"dofilter":3916,"scopedhandler":3917,"##ccd":3918,"realtime":3919,"##3f5":3920,"sta":3921,"execute":3922,"##172":3923,"##b3":3924,"##_f":3925,"560":3926,"624":3927,"##ecd":3928,"481":3929,"##e76":3930,"##07":3931,"##b6":3932,"endpoint":3933,"##t12":3934,"0242ac1300":3935,"##bc":3936,"0x10000046b0e03":3937,"_updat":3938,"_updating":3939,"421":3940,"##69c":3941,"=}":3942,"##ea3":3943,"##_of":3944,"##_xmlns":3945,"_romemissiondataws_v2_0":3946,"portname":3947,"porttypename":3948,"headers":3949,"servicename":3950,"300":3951,"##5d":3952,"748":3953,"##pt":3954,"125":3955,"##_failed":3956,"##4c":3957,"0x10000046b0e08":3958,"73":3959,"##956":3960,"##available":3961,"c5":3962,"551":3963,"69":3964,"500":3965,"160":3966,"commitcommandversion":3967,"##6bf":3968,"##56e":3969,"##ject":3970,"000008":3971,"##validat":3972,"stand":3973,"##upport":3974,"16903":3975,"67":3976,"##346":3977,"0x10000046b0e02":3978,"hour_":3979,"677":3980,"##972":3981,".<":3982,"gdesb":3983,"_10000":3984,"478":3985,"608":3986,"##ils":3987,"262":3988,"##248":3989,"r_":3990,"watcher":3991,"##roy":3992,"##estroy":3993,"3_":3994,"destroy":3995,"##1525":3996,"dopro":3997,"##b89d":3998,"##ble":3999,"##org":4000,"_http":4001,"##message":4002,"onmessage":4003,"nt":4004,"##ing_con":4005,"##blueprint":4006,"for_blueprint":4007,"3_322":4008,"destroying_con":4009,"destroying_container":4010,"rec":4011,"##edis":4012,"romedis":4013,"romedisciplinetype":4014,"##fccd":4015,"##ponsec":4016,"##ponsecode":4017,"##link":4018,"##b2":4019,"##emo":4020,"afr":4021,"bard":4022,"hyb":4023,"herc":4024,"jfccd":4025,"sro":4026,"vess":4027,"vip":4028,"##over":4029,"##zoc":4030,"##ted":4031,"##rid":4032,"##tails":4033,"##edmission":4034,"##icom":4035,"applica":4036,"capt":4037,"##ure_of":4038,"##verted":4039,"13t12":4040,"##ulean":4041,"##diverted":4042,"##91c6":4043,"us_fl":4044,"##t09":4045,"details":4046,"02t16":4047,"##agged":4048,"021525":4049,"imint":4050,"mission_diverted":4051,"to_support":4052,"standing":4053,".</":4054,"recover":4055,"##linkedmission":4056,"africom":4057,"hybrid":4058,"herculean":4059,"jfccdemo":4060,"vessel":4061,"##zoct09":4062,"applicable":4063,"capture_of":4064,"us_flagged":4065,"021525zoct09":4066,"recovered":4067,"##linkedmissionlist":4068,"hybridlinkedmissionlist":4069,"##34e7":4070,"##1c":4071,"157":4072,"70":4073,"##a4":4074,"##326a":4075,"solrcore_":4076,"##eb74":4077,"##e914":4078,"##3c":4079,"##cbde":4080,"##eee4":4081,"##be":4082,"##99c61":4083,"##597aaf":4084,"c4":4085,"ops":4086,"##dc":4087,"ops4j":4088,"##dae76":4089,"##eb34e7":4090,"##75cbde":4091,"##100e914":4092,"##1d91c6":4093,"##bb69c":4094,"##13eee4":4095,"##5ceb74":4096,"##428bb69c":4097,"##036326a":4098,"##da8b89d":4099,"##e7475cbde":4100,"##ecd1d91c6":4101,"##ea3eb34e7":4102,"##56e036326a":4103,"##99c61ea3eb34e7":4104,"##597aaf56e036326a":4105,"##dae765ceb74":4106,"##100e91413eee4":4107,"##428bb69cdb":4108,"##da8b89d428bb69cdb":4109,"##e7475cbde100e91413eee4":4110,"##ecd1d91c6e7475cbde100e91413eee4":4111,"##99c61ea3eb34e7da8b89d428bb69cdb":4112,"##597aaf56e036326a3f5":4113,"##dae765ceb74597aaf56e036326a3f5":4114,"gener":4115,"##ervlet":4116,"##catalogprovider":4117,"##408":4118,"1149":4119,"runwor":4120,"worker":4121,"runworker":4122,"##144":4123,"##atedmethodaccessor":4124,"generatedmethodaccessor":4125,"##0c":4126,"doexec":4127,"doexecute":4128,"88":4129,"##getmission":4130,"solrcatalogprovider":4131,"273":4132,"##b9":4133,"##ae":4134,"785":4135,"##d6":4136,"_l":4137,"c1":4138,"b05d":4139,"0242ac130014":4140,"66":4141,"85":4142,"857":4143,"##fe":4144,"##ob":4145,"##ago":4146,"hour_ago":4147,"743":4148,"1194":4149,"1695":4150,"05t":4151,"##39":4152,"awq":4153,"proceed":4154,"##threadfactory":4155,"handleresponseinternal":4156,"internalcallback":4157,"doproceed":4158,"awqthreadfactory":4159,"c12":4160,"envelope_xmlns":4161,"_payload":4162,"ava":4163,"##752":4164,"ssl":4165,"jvm":4166,"##_urn":4167,"charset":4168,"##tercep":4169,"se":4170,"##theader":4171,"##----------------------------------------------------------------":4172,"setheader":4173,"169035":4174,"##13a":4175,"##_from":4176,"##321":4177,"abstrac":4178,"##tys":4179,"000000":4180,"149":4181,"##4e":4182,"_r":4183,"mission_data":4184,"211":4185,"##df":4186,"0x10000046b0e01":4187,"##83":4188,"##method":4189,"_org":4190,"0010":4191,"clientadapter_":4192,"##a0":4193,"402":4194,"##8b":4195,"rss":4196,"##d3b":4197,"61":4198,"##67":4199,"172":4200,"missions":4201,"exchangeid":4202,"encoding":4203,"178":4204,"##metim":4205,"##rometim":4206,"##rometimer":4207,"##a3":4208,"##240":4209,"##thttp":4210,"##518":4211,"##bb1":4212,"##servererror":4213,"internalservererror":4214,"602":4215,"601":4216,"4b":4217,"##d0":4218,"##e9":4219,"168953":4220,"603":4221,"generatedmethodaccessor172":4222,"##f49":4223,"##terceptor":4224,"##servic":4225,"##921":4226,"83":4227,"action":4228,"aa":4229,"##d6d":4230,"##chain":4231,"cached":4232,"##connection":4233,"##249":4234,"eat":4235,"jax":4236,"##servlet":4237,"##kill":4238,"##you":4239,"##atyou":4240,"##whatyou":4241,"abstracthttp":4242,"eatwhatyou":4243,"jaxrs":4244,"eatwhatyoukill":4245,"##107":4246,"missionlist_urn":4247,"##a6":4248,"116":4249,"updatemission":4250,"updatemissionmetacard":4251,"##5b":4252,"##948":4253,"##eloc":4254,"16902454":4255,"##a2":4256,"##760":4257,"503":4258,"##5838":4259,"##d1":4260,"##6de":4261,"##_end":4262,"##_point":4263,"commit_end":4264,"commit_end_point":4265,"insec":4266,"cor":4267,"_1":4268,"477":4269,"_8":4270,"##522":4271,"##ured":4272,"##x10000046b0e":4273,"##9266":4274,"##9446":4275,"000001":4276,"000006":4277,"5c":4278,"##dd3":4279,"##bf3":4280,"168952":4281,"kara":4282,"karaf":4283,"##cont":4284,"##348":4285,"76":4286,"c16":4287,"604":4288,"##320":4289,"##ller":4290,"##73fa":4291,"698":4292,"metacard_":4293,"##da77":4294,"##c29c":4295,"001a":4296,"84":4297,"##048":4298,"##77f0":4299,"##9c246":4300,"153":4301,"##3f908":4302,"##6bf9c246":4303,"##d3b77f0":4304,"##5838c29c":4305,"##73fa6bf9c246":4306,"##d3b77f05838c29c":4307,"##73fa6bf9c246d3b77f05838c29c":4308,"##73fa6bf9c246d3b77f05838c29c321":4309,"##a7":4310,"##b8408":4311,"168955":4312,"##_h":4313,"##eb13a":4314,"##928":4315,"##9ada77":4316,"##bb13f908":4317,"##9266b8408":4318,"##eb13a9266b8408":4319,"##9ada77f49":4320,"##bb13f9089ada77f49":4321,"##eb13a9266b8408bb13f9089ada77f49":4322,"77":4323,"452":4324,"169":4325,"##040":4326,"##0103":4327,"##906":4328,"##344":4329,"##9101":4330,"##912":4331,"##gc":4332,"##0287":4333,"fi":4334,"##684f":4335,"##roller":4336,"##controller":4337,"##b7bb":4338,"b99c61ea3eb34e7da8b89d428bb69cdb":4339,"fecd1d91c6e7475cbde100e91413eee4":4340,"acdae765ceb74597aaf56e036326a3f5":4341,"##ai":4342,"##d5b":4343,"##validating":4344,"##e_":4345,"gm":4346,"text":4347,"_rec":4348,"##ei":4349,"103":4350,"_recei":4351,"_received":4352,"##ction":4353,"##2504":4354,"from_ro":4355,"from_rome":4356,"##action":4357,"##7cfa":4358,"##f9684f":4359,"##853d6d":4360,"##6de0287":4361,"##0103853d6d":4362,"##b7bb0103853d6d":4363,"##f9684fb7bb0103853d6d":4364,"##6de0287f9684fb7bb0103853d6d":4365,"##6de0287f9684fb7bb0103853d6d9446":4366,"##aims":4367,"##6e":4368,"##a1":4369,"##5f":4370,"##8c":4371,"##2021":4372,"req":4373,"##754":4374,"##944":4375,"argc":4376,"##eria":4377,"##riteria":4378,"getmissionselement":4379,"argcriteria":4380,"c18":4381,"##51":4382,"##ults":4383,"\",":4384,"=*":4385,"_n":4386,"_req":4387,"##red":4388,"##/*,":4389,"##><":4390,"##peci":4391,"##_server":4392,"faults":4393,"##almission":4394,"##readcr":4395,"httpmethod":4396,"ns7":4397,"ns4":4398,"ns8":4399,"ns3":4400,"ns9":4401,"ns6":4402,"soapaction":4403,"##umbid":4404,"##t_2021":4405,"romespeci":4406,"\"><":4407,"_post":4408,"romemissionsched":4409,"romeidlistrequest":4410,"/\"><":4411,"fired":4412,"gmt_2021":4413,"req_out":4414,"=*/*,":4415,"_req_out":4416,"##almissionsched":4417,"##readcrumbid":4418,"romespecialmissionsched":4419,"firedtime":4420,"##680":4421,"##_ex":4422,"equest":4423,"getmissionidselement":4424,"equestrometimer":4425,"720":4426,"##unavailable":4427,"##epro":4428,"500_server":4429,"##160":4430,"##eng":4431,"16124":4432,"p3aipbn0111":4433,"##518dd3":4434,"aa7cfa":4435,"##91012504":4436,"1612491012504":4437,"aa7cfa518dd3":4438,"318":4439,"##sresponseelement":4440,"##960":4441,"aip2":4442,"configservic":4443,"##pertys":4444,"getmissionsresponseelement":4445,"##ourceloc":4446,"##epropertys":4447,"configservicepropertys":4448,"##ourcelocator":4449,"configservicepropertysourcelocator":4450,"8_res":4451,"leng":4452,"##esp_in":4453,"resp_in":4454,"200_ex":4455,"_resp_in":4456,"8_responsecode":4457,"length":4458,"200_exchangeid":4459,"##responseelement":4460,"getmissionidsresponseelement":4461,"##3e":4462,"##27":4463,"##getmissionsr":4464,"##165":4465,"_client":4466,"resources":4467,"##2061":4468,"##entadapter_":4469,"##2107":4470,"335":4471,"600":4472,"##328":4473,"52972":4474,"118":4475,"52920":4476,"##gi":4477,"osgi":4478,"##earing_":4479,"clearing_":4480,"connection_failed":4481,"amq222061":4482,"resources_for":4483,"clearing_up":4484,"52956":4485,"##lear":4486,"up_res":4487,"_clear":4488,"amq222107":4489,"up_resources":4490,"_cleared":4491,"542":4492,"lientadapter_":4493,"##dd2":4494,"##exthandler":4495,"contexthandler":4496,"##59":4497,"##360":4498,"_0x10000046b0e":4499,"##object":4500,"168954":4501,"wi":4502,"aad":4503,"##008":4504,"544":4505,"##384":4506,"65a":4507,"86":4508,"##aimshandler":4509,"##car":4510,"##cards":4511,"_w":4512,"##reta":4513,"wireta":4514,"21t":4515,"##440":4516,"##metacards":4517,"##152":4518,"##_ca":4519,"breadcrumbid":4520,"##forobject":4521,"getforobject":4522,"to_quer":4523,"_unable":4524,"to_query":4525,"##448":4526,"##zz":4527,"##880":4528,"##146":4529,"##52aa":4530,"573":4531,"httpsolr":4532,"nio":4533,"##ebapp":4534,"_webapp":4535,"httpsolrcall":4536,"metrics_params":4537,"2921":4538,"a249":4539,"##95bf3":4540,"comman":4541,"461d5b":4542,"4bcc":4543,"65a95bf3":4544,"##52aa17":4545,"461d5b52aa17":4546,"##784":4547,"415":4548,"##242":4549,"91":4550,"1690245":4551,"98":4552,"##616":4553,"##184":4554,"_6":4555,"4224":4556,"##0111":4557,"552":4558,"##operations":4559,"22t":4560,"##ting_":4561,"##mer":4562,"##interceptor":4563,"catalogservice":4564,"168956":4565,"servletcontroller":4566,"createoperations":4567,"sslconnection":4568,"cachedchain":4569,"abstracthttpservlet":4570,"catalogserviceimpl":4571,"##0f":4572,"538":4573,"92":4574,"shel":4575,"shell":4576,"##016":4577,"##9d16":4578,"0x10000046b0e06":4579,"##340":4580,"000007":4581,"exis":4582,"93":4583,"87":4584,"##bb62":4585,"##ting_mission":4586,"existing_mission":4587,"534":4588,"##568":4589,"##_metacard":4590,"##856":4591,"2d3":4592,"provider":4593,"##940":4594,"platform_metacard":4595,"##664":4596,"9dd2":4597,"##1e016825966944a48aaff28f1b5df29b":4598,"46d3":4599,"gdes1e016825966944a48aaff28f1b5df29b":4600,"##cd9d16":4601,"gdesb508cb05ec774959ab8a5d27f3ba946f":4602,"aad0":4603,"4224bb62":4604,"2d3cd9d16":4605,"2d3cd9d16fd5":4606,"##a6d8660f3ad041d78a6271952ce49788":4607,"gdesa6d8660f3ad041d78a6271952ce49788":4608,"558":4609,"##d9":4610,"##998":4611,"##425":4612,"##_is":4613,"##950":4614,"##72a":4615,"89":4616,"##157":4617,"394":4618,"##120":4619,"463":4620,"400":4621,"##347":4622,"##954":4623,"##758":4624,"##946":4625,"##528":4626,"##773":4627,"##128":4628,"585":4629,"##750":4630,"95":4631,"##platform":4632,"##780":4633,"##ument":4634,"533":4635,"385":4636,"595":4637,"##_commitcommandversion":4638,"##942":4639,"p3aipbn0112":4640,"p3aipbn0113":4641,"395":4642,"594":4643,"##684":4644,"561":4645,"##d45":4646,"##0e":4647,"##992":4648,"##444":4649,"391":4650,"##964":4651,"##480":4652,"1_status":4653,"532":4654,"2173fa6bf9c246d3b77f05838c29c321":4655,"##2e":4656,"##753":4657,"##980":4658,"111":4659,"4eb13a9266b8408bb13f9089ada77f49":4660,"412":4661,"##976":4662,"##720":4663,"99":4664,"##ile_":4665,"while_":4666,"277":4667,"554":4668,"104":4669,"##f88":4670,"##900":4671,"##614":4672,"114":4673,"b6de0287f9684fb7bb0103853d6d9446":4674,"##306":4675,"1642":4676,"##884":4677,"##560":4678,"##ilab":4679,"##34e":4680,"##doc":4681,"##cope":4682,"##lable":4683,"adddoc":4684,"##handle":4685,"dohandle":4686,"adddocument":4687,"##958":4688,"404":4689,"_30":4690,"422":4691,"##925":4692,"##9b1":4693,"##993":4694,"##970":4695,"##regis":4696,"000005":4697,"##728":4698,"545":4699,"c9":4700,"wiretap":4701,"598":4702,"97":4703,"##342":4704,"536":4705,"229":4706,"##612":4707,"401":4708,"##tent":4709,"##dext":4710,"##038":4711,"##991":4712,"597":4713,"##ension":4714,"commandext":4715,"commandextension":4716,"##764":4717,"524":4718,"##744":4719,"##926":4720,"342":4721,"##618":4722,"388":4723,"##916":4724,"##978":4725,"588":4726,"##ly":4727,"##poll":4728,"##770":4729,"##_port":4730,"##858":4731,"romemissiondatawsendpoint_v2_0":4732,"_content":4733,"##740":4734,"##_and":4735,"##73f":4736,"##eplat":4737,"##formmetacard":4738,"updateplat":4739,"c5522":4740,"updateplatformmetacard":4741,"##_w":4742,"10000_w":4743,"10000_watcher":4744,"available":4745,"_ver":4746,"##ify":4747,"##_165":4748,"##ility":4749,"##checking":4750,"solr_p":4751,"solr_is":4752,"##figured":4753,"##rectly":4754,"##_configured":4755,"response_failed":4756,"solrcatalogprovider_165":4757,"availab":4758,"correctly":4759,"while_checking":4760,"available_and":4761,"_verify":4762,"solr_ping":4763,"availability":4764,"correctly_configured":4765,"##150":4766,"366":4767,"##0112":4768,"000004":4769,"##104":4770,"##974":4771,"##014":4772,"##682":4773,"575":4774,"##345":4775,"##380":4776,"606":4777,"120":4778,"##778":4779,"592":4780,"596":4781,"##988":4782,"130":4783,"##044":4784,"##182":4785,"timer":4786,"535":4787,"396":4788,"##010":4789,"##180":4790,"486":4791,"_ch":4792,"_charset":4793,"fri":4794,"537":4795,"543":4796,"##850":4797,"##020":4798,"375":4799,"555":4800,"##982":4801,"##7430":4802,"payload":4803,"##910":4804,"403":4805,"522":4806,"546":4807,"572":4808,"_7":4809,"##apper":4810,"_loc":4811,"582":4812,"##c81":4813,"##man":4814,"##756":4815,"557":4816,"220":4817,"361":4818,"150":4819,"584":4820,"515":4821,"##936":4822,"##wrapper":4823,"##econ":4824,"timeout_":4825,"_negotiated":4826,"556":4827,"94":4828,"553":4829,"444":4830,"78144":4831,"##d45f3":4832,"78144d45f3":4833,"##686":4834,"##386":4835,"##704":4836,"##924":4837,"##420":4838,"0013":4839,"528":4840,"372":4841,"332":4842,"##_j":4843,"##768":4844,"##990":4845,"##734":4846,"##ik":4847,"##766":4848,"475":4849,"##580":4850,"424":4851,"590":4852,"576":4853,"494":4854,"sts":4855,"##028":4856,"##6n":4857,"##nm":4858,"##xu":4859,"495":4860,"##030":4861,"##_jan":4862,"434":4863,"_main":4864,"##ategy":4865,"392":4866,"364":4867,"0x10000046b0e07":4868,"##f28d":4869,"##968":4870,"##962":4871,"##364":4872,"##777":4873,"334":4874,"416":4875,"526":4876,"382":4877,"132":4878,"##584":4879,"##socket":4880,"##922":4881,"##164":4882,"472":4883,"566":4884,"##_catalog":4885,"593":4886,"bundle_catalog":4887,"4f28d":4888,"4f28d773":4889,"488":4890,"##sub":4891,"0000015":4892,"##012":4893,"##382":4894,"398":4895,"##ueued":4896,"serviceunavailable":4897,"##794":4898,"##subject":4899,"##786":4900,"##484":4901,"strategy":4902,"##java":4903,"##ector":4904,"securityjava":4905,"##subjectfilter":4906,"securityjavasubjectfilter":4907,"queued":4908,"##terest":4909,"websocket":4910,"serviceinvoker":4911,"##564":4912,"sessionhandler":4913,"fillin":4914,"##threadpool":4915,"restendpoint":4916,"handlerwrapper":4917,"abstractinvoker":4918,"jaxrsinvoker":4919,"queuedthreadpool":4920,"serviceinvokerinterceptor":4921,"fillinterest":4922,"540":4923,"##a9":4924,"##986":4925,"##042":4926,"##570":4927,"##cf6":4928,"599":4929,"##6821":4930,"##110":4931,"577":4932,"609":4933,"619":4934,"##urede":4935,"##uredefaul":4936,"352":4937,"##886":4938,"used":4939,"##laimshandler":4940,"504":4941,"578":4942,"##724":4943,"##8d":4944,"411":4945,"_al":4946,"##eca":4947,"insecuredefaul":4948,"insecuredefaults":4949,"574":4950,"##326":4951,"541":4952,"##084":4953,"bundle_":4954,"512":4955,"502":4956,"host":4957,"586":4958,"default":4959,"##9106":4960,"485":4961,"##702":4962,"defaults":4963,"##coll":4964,"status_txt":4965,"\"+)+&":4966,"##name_txt":4967,"source_txt":4968,"insecure":4969,"insecuredefaultscoll":4970,"hostname_txt":4971,"insecuredefaultscollector":4972,"31t":4973,"562":4974,"ler":4975,"##004":4976,"lerpoll":4977,"],":4978,"##772":4979,"390":4980,"333":4981,"362":4982,"##022":4983,"##994":4984,"##362":4985,"##186":4986,"##782":4987,"564":4988,"550":4989,"##9437":4990,"001c":4991,"473":4992,"##158":4993,"##002":4994,"##54568":4995,"##pn":4996,"_alpn":4997,"##736":4998,"##027430":4999,"##db157":5000,"##f672a":5001,"##6821027430":5002,"##54568e4":5003,"##db157f672a":5004,"##6821027430db157f672a":5005,"##6821027430db157f672a54568e4":5006,"##852":5007,"##114":5008,"175":5009,"##712":5010,"##934":5011,"##572":5012,"810":5013,"0000028":5014,"432":5015,"##4075":5016,"501":5017,"344":5018,"c7":5019,"##126":5020,"##854":5021,"250":5022,"##662":5023,"405":5024,"_f":5025,"##304":5026,"##c31e":5027,"492":5028,"##025":5029,"##932":5030,"513":5031,"##154":5032,"_invalidating":5033,"##l_mission":5034,"all_mission":5035,"fe":5036,"##2b0b":5037,"530":5038,"##ching":5039,"531":5040,"354":5041,"568":5042,"245":5043,"invalidating":5044,"##tale":5045,"##_stale":5046,"##1d20":5047,"invalidating_stale":5048,"591":5049,"##b9b1":5050,"##746":5051,"442":5052,"##336":5053,"195":5054,"##996":5055,"126":5056,"##089b1":5057,"##788":5058,"mission_ids":5059,"06":5060,"425":5061,"1301":5062,"##086":5063,"##2b7d":5064,"##124":5065,"1302":5066,"##ec73f":5067,"0x10000046b0e00":5068,"525":5069,"##792":5070,"376":5071,"_server":5072,"responsecode":5073,"_200":5074,"##80f88":5075,"##9049106":5076,"##407580f88":5077,"##1d20ec73f":5078,"##b9b1407580f88":5079,"##9049106b9b1407580f88":5080,"##1d20ec73feb":5081,"##9049106b9b1407580f881d20ec73feb":5082,"8888":5083,"##918":5084,"##1bc81":5085,"##9437089b1":5086,"##c31e1bc81":5087,"##2b0b2b7d":5088,"##9437089b1c31e1bc81":5089,"##2b0b2b7d9437089b1c31e1bc81":5090,"##2b0b2b7d9437089b1c31e1bc81853":5091,"##99a":5092,"##81":5093,"378":5094,"612":5095,"##082":5096,"_mms":5097,"ids_from":5098,"requesting_":5099,"requesting_mission":5100,"805":5101,"##ron":5102,"16903641":5103,"476":5104,"565":5105,"tman":5106,"338":5107,"##etching":5108,"config_from":5109,"_fetching":5110,"468":5111,"##122":5112,"##162":5113,"bundle_s":5114,"8753":5115,"aip1":5116,"##ercules":5117,"##_hercules":5118,"130_hercules":5119,"##ef1":5120,"_name":5121,"profiles":5122,"##abel":5123,"envi":5124,"_label":5125,"_located":5126,"##ronment":5127,"environment":5128,"##726":5129,"581":5130,"377":5131,"_ro":5132,"_writ":5133,"dom":5134,"low":5135,"##fer":5136,"##_di":5137,"##_getmissionsr":5138,"##espon":5139,"##ross":5140,"##_side":5141,"##_cross":5142,"rome_getmissionsr":5143,"for_cross":5144,"##uterome":5145,"transfer":5146,"xml_to":5147,"##otman":5148,"##setotman":5149,"##getmissionsrespon":5150,"tman_di":5151,"_routerome":5152,"_writing":5153,"domain":5154,"low_side":5155,"rome_getmissionsresponse":5156,"##getmissionsresponsetotman":5157,"tman_directory":5158,"_routeromegetmissionsresponsetotman":5159,"##644":5160,"##903":5161,"583":5162,"482":5163,"358":5164,"458":5165,"355":5166,"##fdc":5167,"408":5168,"nati":5169,"336":5170,"##660":5171,"getplatform":5172,"getplatformmetacards":5173,"348":5174,"393":5175,"##c12":5176,"##938":5177,"##f96":5178,"##4b2":5179,"374":5180,"##gest":5181,"##493":5182,"490":5183,"508":5184,"##706":5185,"##econtext":5186,"##006":5187,"##_no":5188,"414":5189,"587":5190,"##m0":5191,"cann":5192,"cannot":5193,"##742":5194,"##112":5195,"##query":5196,"##e66":5197,"##748":5198,"##task":5199,"##125":5200,"497":5201,"##106":5202,"496":5203,"215":5204,"##882":5205,"##eby":5206,"deleteby":5207,"466":5208,"(-":5209,")}":5210,"455":5211,"deletebyquery":5212,"571":5213,"##325":5214,"##9ms":5215,"unavailable":5216,"503_service":5217,"350":5218,"##700":5219,"345":5220,"##reating":5221,"_creating":5222,"actionprovider":5223,"356":5224,"##026":5225,"##446":5226,"1611":5227,"##352":5228,"368":5229,"##ables":5230,"438":5231,"##4692":5232,"##9aa":5233,"428":5234,"##verage":5235,"365":5236,"##loa":5237,"##loada":5238,"516":5239,"##482":5240,"523":5241,"gdes4":5242,"471":5243,"##156":5244,"518":5245,"448":5246,"768":5247,"fs":5248,"hea":5249,"##uload":5250,"##506":5251,"processcp":5252,"usables":5253,"systemloada":5254,"##eroot":5255,"coreroot":5256,"heap":5257,"processcpuload":5258,"usablespace":5259,"systemloadaverage":5260,"##930":5261,"456":5262,"151":5263,"16902455":5264,"328":5265,"javax":5266,"##825":5267,"post":5268,"ingest":5269,"operations":5270,"##ca8":5271,"##c18":5272,"##ted_":5273,"##2208":5274,"##422":5275,"getmissionmetacards":5276,"563":5277,"-----------------------------------------------------------------":5278,"418":5279,"romegetmission":5280,"##------":5281,"delivery":5282,"choice":5283,"operationname":5284,"##----------------------------------------------------------------------":5285,"---------------------------------------------------------------------------------------------------------------------------------------":5286,"436":5287,"406":5288,"##forent":5289,"##586":5290,"##562":5291,"postforent":5292,"ingestmetacard":5293,"postforentity":5294,"305":5295,"514":5296,"##clientadapter":5297,"##1a4":5298,"dos":5299,"pha":5300,"##erved":5301,"onfil":5302,"##estination":5303,"reserved":5304,"doscope":5305,"phase":5306,"onfillable":5307,"08":5308,"457":5309,"464":5310,"169037":5311,"454":5312,"##e7f6":5313,"185":5314,"[?:?]":5315,"##de1":5316,"##526":5317,"##145":5318,"##acc":5319,"445":5320,"##574":5321,"##194":5322,"##lix":5323,"felix":5324,"c34e":5325,"##2484692":5326,"16112484692":5327,"##2208e7f6":5328,"c34e2208e7f6":5329,"1611248469279":5330,"343":5331,"gog":5332,"##fecd1d91c6e7475cbde100e91413eee4":5333,"secured":5334,"runtime":5335,"pipe":5336,"closure":5337,"gdesac":5338,"gdesfecd1d91c6e7475cbde100e91413eee4":5339,"c2984":5340,"c3991":5341,"gdesb99c61ea3eb34e7da8b89d428bb69cdb":5342,"c4035":5343,"c4752":5344,"c1777":5345,"78144d45f3bd":5346,"gogo":5347,"gdesacdae765ceb74597aaf56e036326a3f5":5348,"387":5349,"##628":5350,"173":5351,"610":5352,"529":5353,"384":5354,"_3h":5355,"##718":5356,"##c06":5357,"##ade":5358,"465":5359,"c6984":5360,"121":5361,"413":5362,"##394":5363,"474":5364,"_55":5365,"##2a4":5366,"506":5367,"##388":5368,"##ug":5369,"##796":5370,"##666":5371,"##582":5372,"##798":5373,"##368":5374,"423":5375,"107":5376,"##_feb":5377,"fri_feb":5378,"357":5379,"c54":5380,"##44a":5381,"##486":5382,"5a":5383,"580":5384,"443":5385,"386":5386,"_56":5387,"##722":5388,"##ae6821027430db157f672a54568e4":5389,"573ae6821027430db157f672a54568e4":5390,"##790":5391,"exchange":5392,"330":5393,"##34a":5394,"373":5395,"435":5396,"##ef8":5397,"##176":5398,"##178":5399,"505":5400,"##745":5401,"##d7a":5402,"03":5403,"8e":5404,"##426":5405,"##4aa":5406,"549":5407,"##738":5408,"511":5409,"491":5410,"##8ae":5411,"462":5412,"613":5413,"##24a":5414,"##1849":5415,"##aff":5416,"836":5417,"##b44":5418,"156":5419,"##claimshandler":5420,"##son":5421,"##136":5422,"##05c":5423,"c48":5424,"##083":5425,"##635":5426,"_54":5427,"426":5428,"ldap":5429,"c38":5430,"##192":5431,"##5495":5432,"##714":5433,"433":5434,"[{":5435,"##134":5436,"##bbca":5437,"ldapclaimshandler":5438,"##190":5439,"493":5440,"_52":5441,"_2e":5442,"##24b":5443,"353":5444,"_3f":5445,"##945":5446,"140":5447,"4022b0b2b7d9437089b1c31e1bc81853":5448,"##c4d":5449,"claimshandler":5450,"##cb7":5451,"611":5452,"##79c":5453,"##168":5454,"##245":5455,"##ands":5456,"##732":5457,"371":5458,"_53":5459,"##730":5460,"##_comm":5461,"##94a":5462,"216":5463,"##312":5464,"_2l":5465,"##ipe":5466,"79049106b9b1407580f881d20ec73feb":5467,"}]":5468,"##725":5469,"_2m":5470,"##776":5471,"##833":5472,"ad_":5473,"##e44":5474,"proxy":5475,"mpl":5476,"##_146":5477,"##ing_comm":5478,"251":5479,"##554":5480,"commandextension_146":5481,"##ing_commands":5482,"3993":5483,"##c42":5484,"484":5485,"##646":5486,"_0x10000046b0e02":5487,"##c4a":5488,"399":5489,"##5287":5490,"##708":5491,"##142":5492,"329":5493,"##716":5494,"##525":5495,"##eaders":5496,"##_v2_0_port":5497,"##ervicename":5498,"romemissiondataws_v2_0_port":5499,"75bbca":5500,"##_headers":5501,"##_porttypename":5502,"romemissiondatawsendpoint_v2_0_headers":5503,"romemissiondatawsendpoint_v2_0_porttypename":5504,"romemissiondataws_v2_0_portname":5505,"75bbca02":5506,"440":5507,"c5425":5508,"39931849":5509,"unregis":5510,"unregister":5511,"##204":5512,"##_servicename":5513,"##654":5514,"c5437":5515,"##e78":5516,"##d44":5517,"c3754":5518,"c35287":5519,"1690356":5520,"255":5521,"110":5522,"230":5523,"c35495":5524,"##054":5525,"##710":5526,"##620":5527,"363":5528,"##active":5529,"rus":5530,"109":5531,"usa_ca":5532,"bundle_security":5533,"##797":5534,"##e34":5535,"##1511":5536,"446":5537,"##09b":5538,"##196":5539,"##reate":5540,"615":5541,"##lo":5542,"##94b":5543,"##am":5544,"##188":5545,"##f44":5546,"570":5547,"##d575":5548,"##9e52":5549,"##761":5550,"##905":5551,"696":5552,"##174":5553,"##t06":5554,"##c44":5555,"##log":5556,"##cker":5557,"483":5558,"##e4a":5559,"##997":5560,"##0c5":5561,"##04a":5562,"##99b":5563,"##use":5564,"##901":5565,"##c8c2":5566,"##cc4":5567,"616":5568,"614":5569,"##626":5570,"450":5571,"##b5b":5572,"661":5573,"618":5574,"##148":5575,"##917a":5576,"var":5577,"##9t":5578,"containers":5579,"##243":5580,"docker":5581,"json":5582,"##913":5583,"##f4b":5584,"##98a":5585,"001e":5586,"##io":5587,"228":5588,"##665":5589,"683":5590,"##ecause":5591,"517":5592,"lu":5593,"##former":5594,"##7d0":5595,"cff":5596,"##_at":5597,"interceptor":5598,"##6bf0":5599,"##j1":5600,"gdes4eb13a9266b8408bb13f9089ada77f49":5601,"rclientadapter":5602,"##x1":5603,"##045":5604,"##b8a":5605,"_no":5606,"##sj":5607,"##qx":5608,"##kg":5609,"##546":5610,"subject":5611,"##138":5612,"##995":5613,"##68a":5614,"499":5615,"44b2":5616,"193":5617,"0i8":5618,"7l":5619,"hen":5620,"j9":5621,"kn":5622,"lg3f":5623,"nvm":5624,"nnm":5625,"oh":5626,"o6n":5627,"uty":5628,"vq":5629,"xn":5630,"xk":5631,"yu":5632,"##0qs":5633,"##7k":5634,"##7xu":5635,"##aqr":5636,"##efy":5637,"##1n":5638,"##1us":5639,"##5h":5640,"##5dt":5641,"##dx":5642,"##drs":5643,"##dnm":5644,"##4m":5645,"##4zz":5646,"##8i":5647,"##8kg":5648,"##2xv":5649,"##3n":5650,"##3q":5651,"##3rk":5652,"##9lr":5653,"##gl":5654,"##gpb":5655,"##gzu":5656,"##g2b":5657,"##gc7":5658,"##6i":5659,"##bn":5660,"##bmp":5661,"##bxd":5662,"##bx1":5663,"##bgzu":5664,"##sjg":5665,"##iu":5666,"##iqu":5667,"##iof":5668,"##ixj":5669,"##i0p":5670,"##i7xu":5671,"##i3rk":5672,"##o8ae":5673,"##nv1":5674,"##nsj":5675,"##zeb":5676,"##z34":5677,"##zjz":5678,"##zdnm":5679,"##tpe":5680,"##t833":5681,"##hx":5682,"##hrt":5683,"##hw8":5684,"##h9l":5685,"##h0c":5686,"##l04":5687,"##lbmp":5688,"##xoh":5689,"##xixj":5690,"##mtr":5691,"##m28":5692,"##pcn":5693,"##pya":5694,"##pf7":5695,"##p4zz":5696,"##r78":5697,"##r2xv":5698,"##vu":5699,"##vw":5700,"##vin":5701,"##vfy":5702,"##v9e52":5703,"##v4m":5704,"##u9t":5705,"##u6bf0":5706,"##jit":5707,"##joz":5708,"##jhrt":5709,"##q45":5710,"##qm0":5711,"##qc8c2":5712,"##q7k":5713,"##q5h":5714,"##ql04":5715,"##k0y":5716,"##kv4m":5717,"##yva":5718,"##ynd":5719,"##yw3":5720,"##y14":5721,"##yik":5722,"##yjoz":5723,"##wf2":5724,"##wow":5725,"##w1n":5726,"##okt833":5727,"##iz8":5728,"##izaqr":5729,"##izvu":5730,"##fof7":5731,"##ogzdnm":5732,"##mqbgzu":5733,"##ebk0y":5734,"##ueq45":5735,"##ctq5h":5736,"##045j":5737,"##prc12":5738,"##apyw3":5739,"##ys3q":5740,"##02u9t":5741,"##exs":5742,"##38qx":5743,"##o25":5744,"##o22":5745,"##ty5g":5746,"##0bpa":5747,"##48x0":5748,"##48d575":5749,"##72gc7":5750,"##wtg4":5751,"##m80c5":5752,"##zkwf2":5753,"##zq3s":5754,"##zqxoh":5755,"##zyv9e52":5756,"##dudrs":5757,"##ig045j":5758,"##i5tg":5759,"##o4pcn":5760,"##plqc8c2":5761,"##u7iu":5762,"##uqxm":5763,"##uqiqu":5764,"##3llr":5765,"##6mzkwf2":5766,"##wgig045j":5767,"niyjoz":5768,"##935":5769,"##2bw":5770,"##35y14":5771,"55apyw3":5772,"##adprc12":5773,"##jzam":5774,"##9fxu":5775,"##cbm28":5776,"##y5zeb":5777,"ux644":5778,"##gtq":5779,"##p648d575":5780,"##rw72gc7":5781,"##qvzqxoh":5782,"##kpgl":5783,"##x0fof7":5784,"##gr2bw":5785,"##17kv4m":5786,"##v5ebk0y":5787,"##ua0":5788,"##j7pya":5789,"##km6mzkwf2":5790,"ep8i":5791,"##umu6bf0":5792,"##5cvin":5793,"##5v0bpa":5794,"##1kj7pya":5795,"##brx0fof7":5796,"##dv9gtq":5797,"##ngp4zz":5798,"##90648x0":5799,"##zztpe":5800,"##zzueq45":5801,"##ikdx":5802,"##6ngr2bw":5803,"##ef11us":5804,"##fdc90648x0":5805,"##f96wgig045j":5806,"##e66w1n":5807,"##1a4r78":5808,"##de1wtg4":5809,"##635v5ebk0y":5810,"##lo02u9t":5811,"##ioys3q":5812,"luhx":5813,"cffplqc8c2":5814,"##j1iz8":5815,"0i8wow":5816,"7lu7iu":5817,"hen5dt":5818,"j9jzam":5819,"kn635v5ebk0y":5820,"lg3f9lr":5821,"nvmjit":5822,"nnmrw72gc7":5823,"oh3n":5824,"o6nefy":5825,"utyngp4zz":5826,"vqi0p":5827,"xnbn":5828,"xkadprc12":5829,"yufdc90648x0":5830,"##0qs8kg":5831,"##gpbioys3q":5832,"##g2bxixj":5833,"##6iiof":5834,"##bxdokt833":5835,"##bx1zyv9e52":5836,"##sjge66w1n":5837,"##i7xuuqiqu":5838,"##i3rko4pcn":5839,"##o8aekpgl":5840,"##nv1r2xv":5841,"##nsj3llr":5842,"##z345v0bpa":5843,"##zjzty5g":5844,"##h9lq7k":5845,"##h0cizvu":5846,"##lbmp17kv4m":5847,"##mtrf96wgig045j":5848,"##pf7de1wtg4":5849,"##vwctq5h":5850,"##vfycbm28":5851,"##jhrto22":5852,"##qm0i5tg":5853,"##ql04qvzqxoh":5854,"##yva6":5855,"##yndq":5856,"##yikzztpe":5857,"##izaqryikzztpe":5858,"##ogzdnmh0cizvu":5859,"##mqbgzu6ngr2bw":5860,"##zq3svfycbm28":5861,"##dudrsdv9gtq":5862,"##uqxmmtrf96wgig045j":5863,"niyjozikdx":5864,"##35y14z":5865,"55apyw30qs8kg":5866,"##9fxu1kj7pya":5867,"##y5zebzzueq45":5868,"ux644vwctq5h":5869,"##p648d575jhrto22":5870,"##km6mzkwf2i7xuuqiqu":5871,"ep8iqm0i5tg":5872,"##umu6bf0nsj3llr":5873,"##5cvinizaqryikzztpe":5874,"##brx0fof7yva6":5875,"##ef11usogzdnmh0cizvu":5876,"##1a4r78exs":5877,"luhx5cvinizaqryikzztpe":5878,"cffplqc8c2ql04qvzqxoh":5879,"0i8wow6iiof":5880,"7lu7iuuqxmmtrf96wgig045j":5881,"hen5dtnv1r2xv":5882,"j9jzami3rko4pcn":5883,"kn635v5ebk0yzq3svfycbm28":5884,"lg3f9lrz345v0bpa":5885,"nvmjitbx1zyv9e52":5886,"nnmrw72gc7p648d575jhrto22":5887,"oh3nkm6mzkwf2i7xuuqiqu":5888,"o6nefyef11usogzdnmh0cizvu":5889,"utyngp4zz9fxu1kj7pya":5890,"vqi0py5zebzzueq45":5891,"xnbnlbmp17kv4m":5892,"xkadprc12bxdokt833":5893,"yufdc90648x0mqbgzu6ngr2bw":5894,"##gpbioys3qj1iz8":5895,"##g2bxixjt":5896,"##sjge66w1n35y14z":5897,"##o8aekpgl38qx":5898,"##zjzty5gjz":5899,"##h9lq7k1511":5900,"##pf7de1wtg4o25":5901,"niyjozikdxsjge66w1n35y14z":5902,"55apyw30qs8kgbrx0fof7yva6":5903,"ux644vwctq5hpf7de1wtg4o25":5904,"ep8iqm0i5tgumu6bf0nsj3llr":5905,"luhx5cvinizaqryikzztpeua0":5906,"cffplqc8c2ql04qvzqxohyndq":5907,"0i8wow6iiofgpbioys3qj1iz8":5908,"7lu7iuuqxmmtrf96wgig045j5":5909,"hen5dtnv1r2xvo8aekpgl38qx":5910,"j9jzami3rko4pcnh9lq7k1511":5911,"kn635v5ebk0yzq3svfycbm28w":5912,"lg3f9lrz345v0bpazjzty5gjz":5913,"nvmjitbx1zyv9e521a4r78exs":5914,"oh3nkm6mzkwf2i7xuuqiquhw8":5915,"utyngp4zz9fxu1kj7pyam80c5":5916,"vqi0py5zebzzueq45g2bxixjt":5917,"xnbnlbmp17kv4mdudrsdv9gtq":5918,"xkadprc12bxdokt833lo02u9t":5919,"620":5920,"_acc":5921,"##116":5922,"##ept":5923,"##fa4":5924,"_accept":5925,"##fa8":5926,"##3f4":5927,"gdes21":5928,"gdes2173fa6bf9c246d3b77f05838c29c321":5929,"4a":5930,"##399":5931,"158":5932,"c57":5933,"##e48":5934,"##140":5935,"##961":5936,"##ry":5937,"##ons":5938,"##tryproxy":5939,"##registryproxy":5940,"actionproviderregistryproxy":5941,"10080":5942,"clientinfo":5943,"176":5944,"410":5945,"112":5946,"165":5947,"##108":5948,"225":5949,"470":5950,"##der":5951,"##915":5952,"##minutes":5953,"##_tdt":5954,":[*":5955,"cached_tdt":5956,"10080minutes":5957,"##fd4":5958,"##ace":5959,"##daa":5960,"##34d":5961,"##102":5962,"##975":5963,"##94d":5964,"##97a":5965,"gdesb6de0287f9684fb7bb0103853d6d9446":5966,"c50":5967,"##170":5968,"##cceed":5969,"##90a":5970,"succeed":5971,"succeeded":5972,"##ervicecontext":5973,"httpservicecontext":5974,"208":5975,"4f":5976,"625":5977,"csr":5978,"nex":5979,"next":5980,"##destination":5981,"##collection":5982,"##ffilter":5983,"##scope":5984,"##nel":5985,"##nons":5986,"##tend":5987,"##erform":5988,"##ontend":5989,"##inin":5990,"##ints":5991,"##thol":5992,"##threa":5993,"##chan":5994,"##ervle":5995,"##itiation":5996,"##ecutor":5997,"catalogframework":5998,"##upgr":5999,"##elendpoint":6000,"httpchan":6001,"##handlercollection":6002,"cxfnons":6003,"##pringservlet":6004,"##erverhandlercollection":6005,"fillable":6006,"securityhandler":6007,"##dexecutor":6008,"##nnelendpoint":6009,"jettys":6010,"##duce":6011,"invoker":6012,"##points":6013,"endpoints":6014,"httpconnection":6015,"responsefilter":6016,"##thandle":6017,"abstractconnection":6018,"chainin":6019,"channelendpoint":6020,"frontend":6021,"bundles":6022,"servlethol":6023,"##erviceservle":6024,"httpservlet":6025,"httpserviceservle":6026,"##observer":6027,"abstracthttpdestination":6028,"##interceptorchain":6029,"websocketupgr":6030,"reservedthrea":6031,"phaseinterceptorchain":6032,"##adefilter":6033,"clientinfofilter":6034,"csrffilter":6035,"nexthandle":6036,"nextscope":6037,"##itiationobserver":6038,"catalogframeworkimpl":6039,"httpchannel":6040,"cxfnonspringservlet":6041,"jettyserverhandlercollection":6042,"chaininitiationobserver":6043,"servletholder":6044,"httpserviceservlethandler":6045,"websocketupgradefilter":6046,"reservedthreadexecutor":6047,"_k":6048,"##117":6049,"##_cau":6050,"##_caught":6051,"##323":6052,"146":6053,"##305":6054,"##96b":6055,"617":6056,"##bf4":6057,"1689558":6058,"##44b":6059,"##f4f":6060,"##715":6061,"_mission":6062,"520":6063,"data_in":6064,"##validated":6065,"data_invalidated":6066,"569":6067,"##392":6068,"##_1":6069,"##_now":6070,"to_now":6071,"##42a":6072,"##000a":6073,"msg":6074,"_9":6075,"##885":6076,"115":6077,"##115":6078,"##198":6079,"##d48":6080,"##99d":6081,"000003a":6082,"##300":6083,"##985":6084,"##f4a":6085,"##49a":6086,"136":6087,"340":6088,"122":6089,"539":6090,"##c48":6091,"##356":6092,"##b54":6093,"##9d4":6094,"lerpollthread":6095,"##eeb":6096,"##e24":6097,"155":6098,"##060":6099,"05_":6100,"_0x10000046b0e01":6101,"securedcommand":6102,"bundlescommand":6103,"##e8a":6104,"##9b4":6105,"lerpollthread_":6106,"##334":6107,"rol":6108,"##111":6109,"##64b":6110,"370":6111,"##85b":6112,"##e94":6113,"_46":6114,"##74a":6115,"237":6116,"417":6117,"##d4a":6118,"##545":6119,"##92a":6120,"194":6121,"234":6122,"##cba":6123,"##335":6124,"##t07":6125,"##7353":6126,"612ms":6127,"##_unavailable":6128,"filtered":6129,"##used":6130,"_57":6131,"_1d":6132,"##332":6133,"##9ea":6134,"##f94":6135,"##855":6136,"##c52":6137,"##9c4":6138,"##e4d":6139,"##f1a":6140,"265":6141,"288":6142,"##c34":6143,"##9eb":6144,"##701":6145,"##365":6146,"##c94":6147,"##91b":6148,"##118":6149,"##c7a":6150,"145":6151,"##505":6152,"##9f2":6153,"360":6154,"##da4":6155,"##aba":6156,"##91a":6157,"621":6158,"##e95":6159,"##abb":6160,"##9c23":6161,"0242ac130003":6162,"205":6163,"##130":6164,"##294":6165,"##615":6166,"1925":6167,"510":6168,"##04b":6169,"##393":6170,"##c9d":6171,"223":6172,"##0238":6173,"##005":6174,"##3f8":6175,"162":6176,"181":6177,"266":6178,"##_un":6179,"##eb4":6180,"##34b":6181,"##30a":6182,"##40a":6183,"8493":6184,"d7353":6185,"e917a":6186,"##c24":6187,"600ms":6188,"8e36":6189,"##9c23c06":6190,"d7353cb7":6191,"e917a9c23c06":6192,"c13":6193,"##14b":6194,"196":6195,"##785":6196,"##c88":6197,"##_pro":6198,"152":6199,"##38a":6200,"##55a":6201,"b8":6202,"##795":6203,"##015":6204,"622":6205,"##e98":6206,"##765":6207,"1689541":6208,"##exception":6209,"123":6210,"##220":6211,"1689552":6212,"380":6213,"##68d":6214,"##68b":6215,"##3ae":6216,"##event":6217,"##_method":6218,"##eab":6219,"135":6220,"##ve_method":6221,"native_method":6222,"##4d5":6223,"##e9a":6224,"127":6225,"##228":6226,"30t":6227,"##e04":6228,"server_":6229,"##79a":6230,"##132":6231,"adds":6232,"##bf8":6233,"fri_jan":6234,"##755":6235,"##9ce":6236,"##de4":6237,"##95a":6238,"##4d8":6239,"276":6240,"##c40":6241,"##7f8":6242,"420":6243,"returned":6244,"##_lv":6245,"##ogger":6246,"##24f":6247,"##eb64":6248,"##9d98":6249,"##e45":6250,"480":6251,"alert_rule":6252,"ruleid":6253,"0000_lv":6254,"_logger":6255,"returned_no":6256,"0000_lvl":6257,"674":6258,"##c5a":6259,"##eb8":6260,"##48a":6261,"##645":6262,"##241":6263,"##eb32":6264,"1689561":6265,"1690357":6266,"287":6267,"##ef4":6268,"##fdd":6269,"##405":6270,"212":6271,"c45":6272,"le":6273,"##390":6274,"##uture":6275,"##955":6276,"##445":6277,"level":6278,"##uturetask":6279,"##76a":6280,"##opp":6281,"##9d8":6282,"stopp":6283,"_4p":6284,"##b0a":6285,"##9c8":6286,"_3e":6287,"##c4f":6288,"##95d":6289,"##caa":6290,"##b8b":6291,"##ee8":6292,"##6500":6293,"##4bd":6294,"##c54":6295,"##9ed":6296,"##9ba":6297,"to_in":6298,"##76b":6299,"##f14":6300,"##98b":6301,"##validate":6302,"to_invalidate":6303,"##7ab":6304,"##eaa":6305,"626":6306,"9a":6307,"futuretask":6308,"##0b1a":6309,"##4a8":6310,"##735":6311,"##7aa":6312,"##7a8":6313,"doc":6314,"##222":6315,"179":6316,"1775":6317,"##4d4":6318,"##483":6319,"##9db":6320,"##9bd":6321,"##9a8":6322,"1725":6323,"caused":6324,"1689536":6325,"##f9a":6326,"##e58":6327,"##76e8":6328,"##743":6329,"##33b":6330,"nativ":6331,"##7ba":6332,"##155":6333,"##0bb":6334,"##965":6335,"##7c4":6336,"##9a4":6337,"##9bb":6338,"##ebb":6339,"##96a":6340,"=-":6341,"##75f":6342,"##4db":6343,"##11ba":6344,"##7b4":6345,"1825":6346,"rome_id":6347,"##77a":6348,"##981":6349,"##e4b":6350,"mission_metacard":6351,"623":6352,"##eec":6353,"##75b":6354,"##98d":6355,"000c_from":6356,"##d8a":6357,"##ea4":6358,"##eall":6359,"1689534":6360,"##eda":6361,"##b84":6362,"##ecipe":6363,"##f4c":6364,"1689528":6365,"190":6366,"_3o":6367,"##9fa":6368,"113":6369,"133":6370,"##02b":6371,"##663":6372,"##48d":6373,"2a":6374,"4d":6375,"##_platform":6376,"##3fb":6377,"new_platform":6378,"##ed4":6379,"##04f":6380,"##3f6":6381,"##ipp":6382,"b05c":6383,"##11b":6384,"route":6385,"0242ac13000a":6386,"192":6387,"##ed8":6388,"##38d":6389,"##f1b":6390,"##f6b":6391,"##e84":6392,"##91698":6393,"##32a":6394,"1675":6395,"##7a4":6396,"_3v":6397,"##88b":6398,"##49c":6399,"383":6400,"##9cb":6401,"_3p":6402,"197":6403,"d783":6404,"##3691698":6405,"##a809b":6406,"161204":6407,"d783a809b":6408,"1612043691698":6409,"d783a809bcf6":6410,"##90b":6411,"##38b":6412,"##ba07":6413,"##iv":6414,"##ileg":6415,"##priv":6416,"##78b":6417,"##16a":6418,"##af8":6419,"##0b4":6420,"##96d":6421,"##1b4":6422,"##ileged":6423,"##privileged":6424,"429":6425,"bb":6426,"equ":6427,"sk":6428,"##iw":6429,"##ox":6430,"##inox":6431,"uncommit":6432,"##90f":6433,"##460":6434,"##changes":6435,"directupdatehandler2_no":6436,"##ing_iw":6437,"##ted_changes":6438,"##ipping_iw":6439,"equinox":6440,"skipping_iw":6441,"uncommitted_changes":6442,"409":6443,"##943":6444,"##033":6445,"##166":6446,"1875":6447,"##efb":6448,"##c4c":6449,").":6450,"124":6451,"##e54":6452,"##e6a":6453,"##ugin":6454,"##c8a":6455,"##00a":6456,"##0ba":6457,"609ms":6458,"1_caught":6459,"257":6460,"[]":6461,"_failed":6462,"el":6463,"l2h":6464,"period":6465,"##9ca":6466,"##93f":6467,"##sendpoint":6468,"##_processor":6469,"##usted_":6470,"##cktr":6471,"##istory":6472,"exha":6473,"##rorhandler":6474,"messageid":6475,"message_h":6476,"##terrorhandler":6477,"##id_processor":6478,"to1":6479,"to2":6480,"##after":6481,"##963":6482,"processorid_processor":6483,"soaprequest":6484,"bean4":6485,"bean2":6486,"bean3":6487,"defaulterrorhandler":6488,"##apsed_":6489,"##idsendpoint":6490,"when":6491,"300000":6492,"608ms":6493,"setheader1":6494,"setheader2":6495,"setheader3":6496,"wiretap1":6497,"romegetmissionsendpoint":6498,"romegetmissionidsendpoint":6499,"delivery_at":6500,"choice1":6501,"routeid":6502,"elapsed_":6503,"##usted_after":6504,"##cktrace":6505,"exhausted_after":6506,"message_history":6507,"soaprequestrometimer":6508,"delivery_attempt":6509,"##e93":6510,"##57a":6511,"##74b":6512,"835":6513,"##f24":6514,"invalidat":6515,"##dad":6516,"##eba":6517,"##missions":6518,"##ba4":6519,"##eallmissions":6520,"invalidateallmissions":6521,"].":6522,"##f48":6523,"error_pro":6524,"##cessing":6525,"##consu":6526,"##_by":6527,"##37ef":6528,"timerconsu":6529,"caused_by":6530,"error_processing":6531,"timerconsumer":6532,"509":6533,"649":6534,"##7ca":6535,"##161":6536,"##14f":6537,"##c4b":6538,"##ook":6539,"##56a":6540,"1689547":6541,"##d54":6542,"##d413":6543,"628":6544,"##12a":6545,"##08a":6546,"##225":6547,"##10a":6548,"601ms":6549,"_4f":6550,"_45":6551,"af6":6552,"##36b":6553,"##73d":6554,"_realtime":6555,"##a0eb":6556,"224":6557,"9d":6558,"c44":6559,"##625":6560,"##977":6561,"##b5a":6562,"##9f8":6563,"198":6564,"##e61":6565,"##ec8":6566,"##88d":6567,"##ab8":6568,"##4a5":6569,"547":6570,"279":6571,"630":6572,"##df4":6573,"##3d8":6574,"##bd7a":6575,"##50eb32":6576,"1689524":6577,"##7cb":6578,"##82c18":6579,"78144d45f3bd7a":6580,"##cf6ba07":6581,"##9aa6500":6582,"##79c82c18":6583,"##e78cf6ba07":6584,"##9d980b1a":6585,"##37ef9d980b1a":6586,"##a0eb50eb32":6587,"78144d45f3bd7a37ef9d980b1a":6588,"##9aa650079c82c18":6589,"##e78cf6ba079aa650079c82c18":6590,"##a0eb50eb322a4":6591,"78144d45f3bd7a37ef9d980b1ae78cf6ba079aa650079c82c18":6592,"78144d45f3bd7a37ef9d980b1ae78cf6ba079aa650079c82c18a0eb50eb322a4":6593,"##101":6594,"##f8a":6595,"_40":6596,"_4k":6597,"119":6598,"##fdb":6599,"##4a6":6600,"##49b":6601,"1689563":6602,"##683":6603,"##48b":6604,"##4a4":6605,"_500":6606,"server_error":6607,"##763":6608,"##02a":6609,"6a":6610,"##e0b":6611,"##90d":6612,"##04d":6613,"##4ad":6614,"##baa":6615,"##9cd":6616,"##bbb":6617,"607ms":6618,"5ef8":6619,"##9f4":6620,"##68c":6621,"##72_commitcommandversion":6622,"##bd65":6623,"##99a72_commitcommandversion":6624,"5a11ba":6625,"unregistering_commands":6626,"66199a72_commitcommandversion":6627,"##7d0_commitcommandversion":6628,"af67d0_commitcommandversion":6629,"5ef8bd65":6630,"5a11ba69":6631,"##733":6632,"##ecb":6633,"##e2f":6634,"##71a":6635,"2976e8":6636,"2976e808":6637,"260":6638,"##7f4":6639,"1689519":6640,"##c84":6641,"##e5a":6642,"##357":6643,"##bund":6644,"##88a":6645,"603ms":6646,"##ea8":6647,"##b1a":6648,"##c8b":6649,"##d24":6650,"##eaf":6651,"##ec4":6652,"##ee4":6653,"0c8":6654,"##e85":6655,"##103":6656,"##fd8":6657,"1625":6658,"000006a":6659,"##7c8":6660,"05t15":6661,"1ca8":6662,"##793":6663,"##10b":6664,"##edb":6665,"##4df":6666,"1975":6667,"##9dd":6668,"##7d4":6669,"_4x":6670,"1ca8eb64":6671,"_50":6672,"##933":6673,"##cca":6674,"##56b":6675,"##e0a":6676,"##3ad":6677,"##3b4":6678,"6b":6679,"c46":6680,"##9b8":6681,"##ll":6682,"call":6683,"##4ac":6684,"05t17":6685,"598ms":6686,"301":6687,"a2":6688,"##c9a":6689,"##97c":6690,"##c5b":6691,"05t12":6692,"_4z":6693,"30t23":6694,"0c8d413":6695,"349":6696,"633":6697,"_4a":6698,"##4dd":6699,"##b8d":6700,"453":6701,"deb":6702,"##2a7":6703,"##bb4":6704,"2025":6705,"la":6706,"##fab":6707,"##36e":6708,"##cb4":6709,"bundle_org":6710,"1a":6711,"##70b":6712,"##afb":6713,"##db4":6714,"##61a":6715,"##15a":6716,"##fd2":6717,"6d":6718,"##f42":6719,"##383":6720,"##6c4":6721,"##e4c":6722,"##c3a":6723,"##73a":6724,"_4u":6725,"##1ms":6726,"##70a":6727,"310":6728,"##c64":6729,"##9ee":6730,"##40f":6731,"449":6732,"ty":6733,"##eme":6734,"##ce8":6735,"##36d":6736,"##14c":6737,"commands":6738,"a8":6739,"c23":6740,"##cc8":6741,"##ccb":6742,"##e2b":6743,"##353":6744,"c148":6745,"675":6746,"##9b2":6747,"##thodaccessorimpl":6748,"602ms":6749,"nativeme":6750,"nativemethodaccessorimpl":6751,"##e1d":6752,"##44c":6753,"605ms":6754,"182":6755,"##mbda":6756,"##91d":6757,"lambda":6758,"369":6759,"##953":6760,"##92b":6761,"##08b":6762,"186":6763,"##e7b":6764,"_0x10000046b0e08":6765,"597ms":6766,"c58":6767,"##105":6768,"##2240":6769,"##34f":6770,"##723":6771,"_51":6772,"_3i":6773,"##76d":6774,"##af4":6775,"##e06":6776,"_5v":6777,"##9da":6778,"##18a":6779,"##38c":6780,"##9d5":6781,"##6b4":6782,"_to":6783,"##e1a":6784,"##b1b":6785,"##93d":6786,"c40":6787,"##799":6788,"##705":6789,"##9cc":6790,"##fed":6791,"##deb":6792,"##42d":6793,"##33a":6794,"##cf8":6795,"getmissionselement_xmlns":6796,"##24d":6797,"##04c":6798,"##bf2":6799,"##e64":6800,"##b14":6801,"c23580":6802,"275":6803,"##7e4":6804,"##355":6805,"##eclaimshandler":6806,"##50a":6807,"##9d6":6808,"c3948":6809,"41230":6810,"174":6811,"308":6812,"8d":6813,"##eb5":6814,"##74c":6815,"267":6816,"1690361":6817,"##14a":6818,"##ced":6819,"##fac":6820,"##1ba":6821,"688":6822,"685":6823,"##f34":6824,"##03a":6825,"##4b4":6826,"##280":6827,"c16347":6828,"629":6829,"765":6830,"9aff":6831,"##1ce":6832,"##u_jan":6833,"##42b":6834,"thu_jan":6835,"session_":6836,"_5z":6837,"##e2a":6838,"##195":6839,"##9e4":6840,"##ea5":6841,"159":6842,"254":6843,"0x10000046b0e06a":6844,"632":6845,"##e2d":6846,"##de8":6847,"##cad":6848,"##443":6849,"000002b":6850,"##bad":6851,"##135":6852,"0000028c":6853,"##e15":6854,"1575":6855,"##44d":6856,"##44f":6857,"##565":6858,"##b1d":6859,"0000028a":6860,"0000028b":6861,"crl":6862,"##01a":6863,"##94c":6864,"##58b":6865,"##13b":6866,"158610":6867,"##185":6868,"##58a":6869,"##72b":6870,"httpcontext":6871,"204":6872,"##f04":6873,"##3f2":6874,"##6c8":6875,"##ed_http":6876,"05t03":6877,"##servicecontext":6878,"contexthandler_1":6879,"roleclaimshandler":6880,"stopped_http":6881,"contexthandler_1040":6882,"stopped_httpservicecontext":6883,"690":6884,"##e88":6885,"solrclient":6886,"##fad":6887,"##66a":6888,"##828":6889,"##cfb":6890,"05t08":6891,"##14d":6892,"##3aa":6893,"05t06":6894,"235":6895,"693":6896,"_69":6897,"##eref":6898,"##183":6899,"##ca6":6900,"##77b":6901,"##f45":6902,"##553":6903,"##_log":6904,"##ore_un":6905,"theref":6906,"##11a":6907,"##_connect":6908,"more_in":6909,"set_log":6910,"to_set":6911,"to_server":6912,"ststhread":6913,"cannot_connect":6914,"##ug_for":6915,"level_for":6916,"debug_for":6917,"##ore_unable":6918,"therefore_unable":6919,"more_information":6920,"c41":6921,"##c95":6922,"##9bf":6923,"##dab":6924,"##16b":6925,"##226":6926,"2440":6927,"7a":6928,"##ec5":6929,"##423":6930,"##69a":6931,"3a":6932,"5d":6933,"##703":6934,"285":6935,"e8":6936,"##ames":6937,"##onames":6938,"##4d2":6939,"##983":6940,"##113":6941,"##70d":6942,"##e46":6943,"##7cd":6944,"202":6945,"668":6946,"##9af":6947,"##da5":6948,"##1e4":6949,"##ba6":6950,"##46a":6951,"169035790":6952,"##publish":6953,"##85d":6954,"##055":6955,"1689553":6956,"##eventpublish":6957,"equinoxeventpublish":6958,"equinoxeventpublisher":6959,"##e9f":6960,"##e6b":6961,"##cde":6962,"##9b5":6963,"128":6964,"##16d":6965,"##30d":6966,"##96f":6967,"missionidlist_urn":6968,"634":6969,"745":6970,"##e00":6971,"##cfa":6972,"##923":6973,"##52b":6974,"##50d":6975,"##50b":6976,"##05a":6977,"41598":6978,"596ms":6979,"213":6980,"293":6981,"##349":6982,"##3b2":6983,"_5p":6984,"##7af":6985,"##57b":6986,"##f3a":6987,"666":6988,"##c2d":6989,"##0113":6990,"##343":6991,"##ab4":6992,"##5a8":6993,"##35b":6994,"2075":6995,"##efd":6996,"##c43":6997,"148":6998,"142":6999,"##613":7000,"000002c":7001,"##2aa":7002,"##ba5":7003,"0b":7004,"248":7005,"233":7006,"##pat":7007,"##cc6":7008,"##61b":7009,"##97d":7010,"##4a0":7011,"##b83":7012,"##bbd":7013,"1689532":7014,"636":7015,"##7bb":7016,"##efa":7017,"##03b":7018,"##bfb":7019,"##ddf":7020,"678":7021,"635":7022,"##7bf":7023,"##e03":7024,"##c45":7025,"##18d":7026,"##02d":7027,"##b0d":7028,"##f2b":7029,"##7da":7030,"##61d":7031,"##3ff":7032,"##4416":7033,"doprivileged":7034,"##b80":7035,"##c6d":7036,"accesscontroller":7037,"##1aa":7038,"610ms":7039,"##e01":7040,"##c08":7041,"##94f":7042,"##38f":7043,"##e8d":7044,"691":7045,"865":7046,"##e9d":7047,"##e22":7048,"##source":7049,"##36a":7050,"##ba8":7051,"##e28":7052,"##e38":7053,"##75a":7054,"##043":7055,"##f43":7056,"##9b6":7057,"##4f8":7058,"##d28":7059,"##7b2":7060,"##791":7061,"##e52":7062,"##e82":7063,"##1bb":7064,"0x10000046b0e05":7065,"##7a3":7066,"611ms":7067,"707":7068,"##1ad":7069,"##erau":7070,"##userau":7071,"##thservice":7072,"serveruserau":7073,"##61f":7074,"##ca4":7075,"##973":7076,"serveruserauthservice":7077,"##e12":7078,"##e1e":7079,"##32d":7080,"##421":7081,"##f6a":7082,"##e5b":7083,"247":7084,"606ms":7085,"638":7086,"637":7087,"##7f2":7088,"##b55":7089,"1689568":7090,"##c8d":7091,"604ms":7092,"##e97":7093,"##c2a":7094,"##c14":7095,"##ed5":7096,"##24c":7097,"##95b":7098,"closing":7099,"b6":7100,"1689556":7101,"1689522":7102,"transformer":7103,"##7d6":7104,"5m0":7105,"##e14":7106,"##e_in":7107,"##c15":7108,"##s_r":7109,"##eached":7110,"inactive":7111,"##fa0":7112,"##66b":7113,"file_":7114,"##40d":7115,"##7c6":7116,"close_in":7117,"##_because":7118,"##active_of":7119,"closing_because":7120,"5m0s_r":7121,"file_is":7122,"close_inactive_of":7123,"5m0s_reached":7124,"2b":7125,"3b":7126,"##e9c":7127,"input":7128,"##4a2":7129,"##7eb":7130,"##79d":7131,"##cfd":7132,"ca_r":7133,"##ebf":7134,"##75d":7135,"##121":7136,"##10d":7137,"_5l":7138,"ca_rus":7139,"665":7140,"a5":7141,"##e7a":7142,"##c56":7143,"##cd8":7144,"##edf":7145,"##ce4":7146,"_3m":7147,"677ms":7148,"##0x10000046b0e":7149,"##e49":7150,"##eb2":7151,"##57d":7152,"##c3d":7153,"##dd4":7154,"##54b":7155,"##5aa":7156,"##93b":7157,"sessionid_0x10000046b0e":7158,"191":7159,"682":7160,"##e56":7161,"##c26":7162,"##lugin":7163,"##00d":7164,"##851":7165,"##92f":7166,"##bb3":7167,"##eea":7168,"##e6c":7169,"##e3a":7170,"##08d":7171,"##555":7172,"##71b":7173,"##ef2":7174,"##cf4":7175,"##cd7":7176,"##92d":7177,"##cab":7178,"1689523":7179,"##cd4":7180,"594ms":7181,"##e1b":7182,"##cec":7183,"##ebd":7184,"##42f":7185,"##e43":7186,"##653":7187,"210":7188,"680":7189,"##88f":7190,"##01d":7191,"##76f":7192,"##123":7193,"##98f":7194,"##c6b":7195,"686":7196,"692":7197,"##e68":7198,"##6f0":7199,"##fb3":7200,"586ms":7201,"_3l":7202,"##7ea":7203,"1595":7204,"##b8f":7205,"##f3b":7206,"##09a":7207,"##3bd":7208,"##7fb":7209,"16903572":7210,"3175":7211,"##7b6":7212,"613ms":7213,"eb":7214,"##e3f":7215,"##daf":7216,"1689555":7217,"1689545":7218,"##cbd":7219,"687":7220,"7b":7221,"##7fa":7222,"##71d":7223,"##583":7224,"##141":7225,"##543":7226,"##7a2":7227,"673":7228,"ea":7229,"##775":7230,"##013":7231,"##ca5":7232,"##78d":7233,"1689542":7234,"1689564":7235,"1689525":7236,"16903575":7237,"2325":7238,"db":7239,"##cea":7240,"##c1d":7241,"1052":7242,"##18b":7243,"##12d":7244,"##03d":7245,"##f6d":7246,"2125":7247,"700":7248,"}=":7249,"##175":7250,"##c9c":7251,"##c46":7252,"##9fd":7253,"##95f":7254,"scope":7255,"##bf5":7256,"bundleid":7257,"16903704":7258,"}={":7259,"_service":7260,"ba":7261,"##7cc":7262,"##79b":7263,"##e91":7264,"##e8f":7265,"##ec3":7266,"##01b":7267,"##abd":7268,"7d":7269,"7f":7270,"##c82":7271,"##c2b":7272,"##ge":7273,"##93a":7274,"##c6f":7275,"2175":7276,"_0x10000046b0":7277,"2612":7278,"3d":7279,"##7dd":7280,"##c38":7281,"##_2":7282,"##58d":7283,"1655":7284,"##bb6":7285,"##333":7286,"##d5a":7287,"##341":7288,"##b06":7289,"1689573":7290,"##0a4":7291,"678ms":7292,"5b":7293,"697":7294,"##c04":7295,"##fa6":7296,"##74f":7297,"##7c5":7298,"##1f8":7299,"##e72":7300,"##c0b":7301,"##c6c":7302,"##hook":7303,"##f46":7304,"1689565":7305,"##3a4":7306,"servicer":7307,"16903512":7308,"1d":7309,"1b":7310,"1242":7311,"676":7312,"134":7313,"##1e0":7314,"##9ad":7315,"##7bd":7316,"1690362":7317,"218":7318,"##7b1":7319,"##e05":7320,"api":7321,"##97b":7322,"##78f":7323,"##48f":7324,"##9d2":7325,"##73b":7326,"##17b":7327,"8f":7328,"1564":7329,"0020":7330,"##52d":7331,"##4d6":7332,"##60a":7333,"##43d":7334,"704":7335,"dec":7336,"##e90":7337,"##c28":7338,"##00b":7339,"##163":7340,"##30b":7341,"1689518":7342,"1689562":7343,"695":7344,"672":7345,"b5":7346,"##e18":7347,"##cbf":7348,"##9e2":7349,"154":7350,"##da0":7351,"##0239":7352,"##573ae":7353,"##f35":7354,"gdes573ae":7355,"gdes573ae6821027430db157f672a54568e4":7356,"2f":7357,"8a":7358,"b4":7359,"##79049106b9b1407580f881d20ec73feb":7360,"##ial":7361,"1340":7362,"##f1d":7363,"##af5":7364,"0000026":7365,"1689530":7366,"##4b6":7367,"gdes79049106b9b1407580f881d20ec73feb":7368,"599ms":7369,"##patial":7370,"684":7371,"702":7372,"f8":7373,"tion":7374,"##c92":7375,"##ec0":7376,"##15d":7377,"##fdf":7378,"##573":7379,"##1e8":7380,"31t01":7381,"679":7382,"##edd":7383,"##ea2":7384,"##68f":7385,"##0b2":7386,"##99f":7387,"##b82":7388,"##1bd":7389,"##5a4":7390,"16903511":7391,"##cb8":7392,"1525":7393,"##85a":7394,"##fd6":7395,"##f3d":7396,"##8aa":7397,"##7a5":7398,"##7ec":7399,"##oked":7400,"invoked":7401,"##d8d":7402,"doa":7403,"##ce2":7404,"##2a8":7405,"##ee2":7406,"##db2":7407,"##46d":7408,"##69f":7409,"583ms":7410,"doas":7411,"701":7412,"##de5":7413,"##caf":7414,"##0b8":7415,"##363":7416,"419":7417,"##37b":7418,"688ms":7419,"217":7420,"because":7421,"dop":7422,"perform":7423,"##74d":7424,"##ceb":7425,"##cf2":7426,"##_ent":7427,"##_operation":7428,"##_780":7429,"##lem":7430,"##job":7431,"##ypro":7432,"##intercep":7433,"##edendpoint":7434,"##ecf":7435,"##util":7436,"catalog_ent":7437,"##_create":7438,"##alsource":7439,"##ca2":7440,"##08f":7441,"trypro":7442,"##_perform":7443,"dointercep":7444,"not_":7445,"runtask":7446,"runjob":7447,"handlem":7448,"sourceunavailable":7449,"##cf5":7450,"handlerequest":7451,"readcallback":7452,"validateloc":7453,"create_operation":7454,"is_unavailable":7455,"##invocation":7456,"##ptedendpoint":7457,"doproduce":7458,"catalogserviceimpl_780":7459,"provider_is":7460,"_local":7461,"cannot_create":7462,"cannot_perform":7463,"reservedthread":7464,"##ryptedendpoint":7465,"docreate":7466,"decryptedendpoint":7467,"invokedestination":7468,"because_source":7469,"dopost":7470,"performinvocation":7471,"catalog_entry":7472,"tryproduce":7473,"dointercept":7474,"not_available":7475,"handlemessage":7476,"sourceunavailableexception":7477,"validatelocalsource":7478,"##inute":7479,"129":7480,"##b0f":7481,"##admin":7482,"631":7483,"595ms":7484,"683ms":7485,"693ms":7486,"187":7487,"##tz":7488,"##af0":7489,"##65d":7490,"##e5f":7491,"##45d":7492,"673ms":7493,"f4":7494,"##e11":7495,"1475":7496,"##77d":7497,"##ee5":7498,"##e0d":7499,"##62b":7500,"##e4f":7501,"05t16":7502,"##e9b":7503,"##19a":7504,"##cf1":7505,"##fa2":7506,"##af3":7507,"##b10":7508,"##1d4":7509,"##54f":7510,"##c6a":7511,"##37f":7512,"590ms":7513,"593ms":7514,"##e33":7515,"##cbb":7516,"updating_commands":7517,"##13d":7518,"##65a":7519,"##f6f":7520,"##d84":7521,"584ms":7522,"##e26":7523,"##9f1":7524,"##581":7525,"##0b5":7526,"##dbd":7527,"##143":7528,"##a84":7529,"##aa4":7530,"##c0d":7531,"3f":7532,"3_name":7533,"6f":7534,"a_m":7535,"##e6d":7536,"##artz":7537,"##153":7538,"##66f":7539,"##0552":7540,"1689533":7541,"0015":7542,"title_alert":7543,"690ms":7544,"686ms":7545,"a_minute":7546,"##7b8":7547,"##ea6":7548,"##7520":7549,"##97f":7550,"##022b0b2b7d9437089b1c31e1bc81853":7551,"##2a5":7552,"##b53":7553,"##72d":7554,"##65b":7555,"##7c0":7556,"607":7557,"##manag":7558,"gdes4022b0b2b7d9437089b1c31e1bc81853":7559,"##da6":7560,"##6cd":7561,"bundle_spatial":7562,"691ms":7563,"665ms":7564,"##e92":7565,"##cdd":7566,"##91e":7567,"##9e5":7568,"##fa5":7569,"##1d8":7570,"##55b":7571,"##c3b":7572,"##4ff":7573,"##17d":7574,"0a":7575,"d_":7576,"plugin":7577,"##e99":7578,"##sol":7579,"consol":7580,"##ed2":7581,"##ec6":7582,"22t07":7583,"##bf6":7584,"##11f":7585,"##3b6":7586,"actioncommand":7587,"21t20":7588,"21t21":7589,"22t03":7590,"shellutil":7591,"675ms":7592,"687ms":7593,"684ms":7594,"console":7595,"##c98":7596,"##9b0":7597,"##77f":7598,"##9776":7599,"##023":7600,"##1dd":7601,"##8a4":7602,"##7c2":7603,"##9a3":7604,"##a8b":7605,"d8":7606,"##c96":7607,"131":7608,"22t06":7609,"##faf":7610,"21t18":7611,"21t23":7612,"21t19":7613,"22t00":7614,"22t01":7615,"22t02":7616,"22t05":7617,"682ms":7618,"1f":7619,"238":7620,"##15b":7621,"##12b":7622,"##0b3":7623,"##05b":7624,"##235":7625,"##8a8":7626,"##ansformer":7627,"c3145":7628,"##c68":7629,"##cc0":7630,"##85f":7631,"##46b":7632,"##ef5":7633,"c3083":7634,"16903698":7635,"21t22":7636,"22t04":7637,"685ms":7638,"679ms":7639,"671":7640,"d5":7641,"##c2c":7642,"##721":7643,"##37d":7644,"656":7645,"_62":7646,"##e87":7647,"184":7648,"##c86":7649,"166":7650,"##19f":7651,"##ab5":7652,"##64f":7653,"##3a8":7654,"##c63":7655,"0x10000046b0e088":7656,"##_started":7657,"##c74":7658,"##_0":7659,"##cc2":7660,"##ce3":7661,"##4a3":7662,"##6c2":7663,"##f22":7664,"##d5f":7665,"##06a":7666,"c112":7667,"699":7668,"_73":7669,"_6j":7670,"##acker":7671,"##70f":7672,"##9a5":7673,"##e8b":7674,"627":7675,"##7d8":7676,"##de2":7677,"##2ad":7678,"##6c5":7679,"##8f8":7680,"##9f5":7681,"_0x10000046b0e0":7682,"##c93":7683,"##mx":7684,"##2a6":7685,"##11d":7686,"##9df":7687,"##29a":7688,"##9a6":7689,"05t05":7690,"##713":7691,"##c36":7692,"##cf3":7693,"##9e8":7694,"##de6":7695,"##381":7696,"started":7697,"2375":7698,"##7ff":7699,"669":7700,"703":7701,"ller":7702,"##e77":7703,"##e3b":7704,"##781":7705,"##16f":7706,"##2d8":7707,"##7cf":7708,"##820":7709,"189":7710,"589ms":7711,"05t07":7712,"_6t":7713,"585ms":7714,"588ms":7715,"##pollthread":7716,"31t03":7717,"591ms":7718,"llerpollthread":7719,"##c0a":7720,"##003":7721,"##e7d":7722,"689ms":7723,"680ms":7724,"e4":7725,"f5":7726,"##e32":7727,"##c1a":7728,"##1650":7729,"##3f0":7730,"##9c5":7731,"##d5d":7732,"##2f8":7733,"##9e6":7734,"_0x10000046b0e028b":7735,"##133":7736,"##c22":7737,"##58f":7738,"webapphttp":7739,"##1ff":7740,"##bd4":7741,"587ms":7742,"16903701":7743,"_0x10000046b0e028c":7744,"webapphttpcontext":7745,"##7e2":7746,"##66d":7747,"##52a":7748,"##2d2":7749,"##260":7750,"##f9f":7751,"##file":7752,"harvester_started":7753,"for_file":7754,"668ms":7755,"##7e5":7756,"##e08":7757,"##e96":7758,"##e55":7759,"solrclientadapter":7760,"##1e5":7761,"##6cb":7762,"##306ad":7763,"0c8d413306ad":7764,"_id":7765,"##ed3":7766,"##883":7767,"##cb6":7768,"##1fb":7769,"##6a4":7770,"##9e3":7771,"##letr":7772,"1425":7773,"##_cl":7774,"##trecipe":7775,"##2d5":7776,"beanrec":7777,"##87a":7778,"2475":7779,"bundlehook":7780,"681ms":7781,"abstractrecipe":7782,"##bundletr":7783,"beanrecipe":7784,"bundlehookbundletr":7785,"bundlehookbundletracker":7786,"##e75":7787,"##e23":7788,"##1ed":7789,"##173":7790,"##c90":7791,"##c1b":7792,"##3f3":7793,"##4d1":7794,"##0b6":7795,"##ee3":7796,"##eef":7797,"##26a":7798,"640":7799,"e5":7800,"##e57":7801,"##1eb":7802,"##da2":7803,"##ce0":7804,"##b86":7805,"##6c6":7806,"##ee6":7807,"##9fb":7808,"c3904":7809,"694ms":7810,"1690354":7811,"692ms":7812,"2425":7813,"jmx":7814,"##ea0":7815,"2225":7816,"##8544":7817,"##764416":7818,"##6c0":7819,"##06f":7820,"##7f0":7821,"##cd2":7822,"##def":7823,"2275":7824,"##af2":7825,"##f63":7826,"##d86":7827,"615ms":7828,"2d":7829,"d6":7830,"##7ad":7831,"##e6f":7832,"##c91":7833,"service_unavailable":7834,"##22b":7835,"##fb4":7836,"_503":7837,"5f":7838,"##e50":7839,"##c01":7840,"##eb3":7841,"##32f":7842,"##f25":7843,"##9a0":7844,"##6d4":7845,"##7df":7846,"31t04":7847,"580ms":7848,"##7b5":7849,"616ms":7850,"2976e808_commitcommandversion":7851,"199":7852,"8b":7853,"_65":7854,"##ccf":7855,"##0448":7856,"##ca3":7857,"##4d3":7858,"##1db":7859,"##c37e":7860,"##45b":7861,"##7a0":7862,"##a5b":7863,"##f8d":7864,"16903632":7865,"##f5b":7866,"##8304":7867,"674ms":7868,"##e62":7869,"##cc5":7870,"226":7871,"##941":7872,"opt":7873,"##03f":7874,"##4fb":7875,"##984764416":7876,"1690370552":7877,"676ms":7878,"1690370552984764416":7879,"c117":7880,"##e36":7881,"##c58":7882,"##c49":7883,"##56d":7884,"##db6":7885,"##6b6":7886,"##f8b":7887,"592ms":7888,"##711":7889,"##c57":7890,"##ourcep":7891,"##523":7892,"##0b0":7893,"##1d2":7894,"##cf0":7895,"##cb2":7896,"##eff":7897,"0000015e":7898,"581ms":7899,"614ms":7900,"670":7901,"##681":7902,"##ab2":7903,"2575":7904,"##d7b":7905,"##351":7906,"169024543":7907,"696ms":7908,"0d":7909,"171":7910,"214":7911,"863":7912,"##cda":7913,"##cb5":7914,"##oller":7915,"##0880":7916,"##cef":7917,"##8528":7918,"##9232":7919,"##fd3":7920,"##4d0":7921,"##1ef":7922,"582ms":7923,"5597":7924,"##b1f":7925,"##ba2":7926,"##ba3":7927,"##70cc":7928,"1689544":7929,"3947":7930,"##econtainer":7931,"##c55":7932,"##af6":7933,"##33d":7934,"183":7935,"##8ff":7936,"0000015f":7937,"_6f":7938,"##c85":7939,"0000023":7940,"1689526":7941,"##9ff":7942,"##6a5":7943,"sun_jan":7944,"169024542":7945,"671ms":7946,"642":7947,"643":7948,"##c75":7949,"lientadapter_110":7950,"232":7951,"##c65":7952,"##9ec":7953,"##f10":7954,"##2a3":7955,"##f40":7956,"##9d3":7957,"##2db":7958,"##82b":7959,"##60d":7960,"618ms":7961,"##7e8":7962,"##c02":7963,"##bf0":7964,"##1b2":7965,"##e53":7966,"##1a2":7967,"c39":7968,"a3d8":7969,"ef":7970,"##cc19":7971,"##68e":7972,"##12f":7973,"##641":7974,"1689520":7975,"##71f":7976,"##2fb":7977,"##8880":7978,"##c5f":7979,"##7f5":7980,"617ms":7981,"672ms":7982,"b2":7983,"##193":7984,"##c00":7985,"##9f3":7986,"##cff":7987,"209":7988,"_sta":7989,"_7d":7990,"##19b":7991,"##c76":7992,"##9e0":7993,"##0000":7994,"##de3":7995,"##9280":7996,"##ab3":7997,"##05f":7998,"##2d4":7999,"527":8000,"##7c3":8001,"##5a2":8002,"##7104":8003,"579ms":8004,"##c5d":8005,"0000015d":8006,"bundle_admin":8007,"1690364198":8008,"##ourcepoller":8009,"_stacktrace":8010,"e0":8011,"00000160":8012,"##9cf":8013,"##731":8014,"54220":8015,"620ms":8016,"295":8017,"_g":8018,"a6":8019,"##e10":8020,"##e65":8021,"##c78":8022,"##c9b":8023,"##b13":8024,"##f23":8025,"##container":8026,"##35d":8027,"##284":8028,"_6p":8029,"4fc37e":8030,"solrclientproxy":8031,"4fc37e69":8032,"f6":8033,"##7de":8034,"##e30":8035,"##bff":8036,"##109":8037,"##8ad":8038,"##87d":8039,"##3a9":8040,"0f":8041,"e2":8042,"##e40":8043,"##1c4":8044,"000000a":8045,"##8a2":8046,"##87b":8047,"697ms":8048,"a3d86f0":8049,"##79f":8050,"##02f":8051,"##52f":8052,"##9c6":8053,"##06b":8054,"##8fb":8055,"##286":8056,"##c83":8057,"bf":8058,"##c70":8059,"139":8060,"##transformer":8061,"52976":8062,"##826":8063,"##c80":8064,"getmissionidselement_xmlns":8065,"_0x10000046b0e03":8066,"169024552":8067,"644":8068,"##e70":8069,"##1603":8070,"##ad4":8071,"##9f0":8072,"05t14":8073,"60312":8074,"2525":8075,"fb":8076,"##e16":8077,"##ef6":8078,"##e1f":8079,"##c99":8080,"##c11":8081,"##_4":8082,"0000025":8083,"##6c3":8084,"##09f":8085,"wab":8086,"##71e":8087,"##7d7":8088,"##c72":8089,"##_searcher":8090,"##94336":8091,"searcher_searcher":8092,"##6aa":8093,"##1a6":8094,"236":8095,"206":8096,"a4":8097,"bd":8098,"##c3f":8099,"##ed6":8100,"##751":8101,"##fd0":8102,"##2dd":8103,"60120":8104,"60428":8105,"619ms":8106,"cf":8107,"##c30":8108,"##essaging":8109,"##f26":8110,"##9c3":8111,"##c35":8112,"53912":8113,"##e86":8114,"##c0f":8115,"##3d6":8116,"cd":8117,"##9594":8118,"##0bd":8119,"##747":8120,"1689546":8121,"1689560":8122,"##e3d":8123,"60172":8124,"_b":8125,"d3":8126,"##ef3":8127,"##c05":8128,"##037":8129,"##521":8130,"##62f":8131,"##cdf":8132,"##aaa":8133,"_6z":8134,"576ms":8135,"1375":8136,"##36f":8137,"##6c1":8138,"##053":8139,"##ee0":8140,"##9b3":8141,"##d8b":8142,"_79":8143,"f0":8144,"##c66":8145,"##c16":8146,"up_":8147,"##6128":8148,"##7424":8149,"##ddd":8150,"quartz":8151,"##3a0":8152,"699ms":8153,"##c33":8154,"##8848":8155,"##3424":8156,"##0336":8157,"##1d5":8158,"48ed":8159,"df":8160,"##e7c":8161,"##c7f":8162,"##9f6":8163,"##9e7":8164,"164":8165,"##f13":8166,"##9a2":8167,"##1775":8168,"##bdf":8169,"stacktrace":8170,"generatedmethodaccessor178":8171,"242":8172,"sched":8173,"##197":8174,"##c73":8175,"##c7d":8176,"##ab0":8177,"##307":8178,"##563":8179,"##1e3":8180,"##917":8181,"##453":8182,"##e7f":8183,"##63d":8184,"bundle_m":8185,"60222":8186,"169024548":8187,"##70238":8188,"1_name":8189,"664":8190,"705":8191,"##k_s":8192,"##04e":8193,"disk_s":8194,"##f20":8195,"##3a6":8196,"##6fb":8197,"##ef0":8198,"31t02":8199,"disk_space":8200,"##19d":8201,"##0114":8202,"##3200":8203,"##0352":8204,"##e41":8205,"706":8206,"d4":8207,"fd":8208,"##eb6":8209,"##01f":8210,"##7648":8211,"##1d6":8212,"##db3":8213,"##4b3":8214,"##7144":8215,"##ad8":8216,"##1a0":8217,"67a":8218,"##1fd":8219,"##c97":8220,"##instance":8221,"##9024":8222,"##9472":8223,"##8f5":8224,"48db":8225,"##1a5":8226,"29t":8227,"##f0f":8228,"88e8":8229,"aadc42":8230,"21t17":8231,"a21a":8232,"695ms":8233,"##70cccc19":8234,"48ed70cccc19":8235,"aadc4291":8236,"##fa3":8237,"##ca0":8238,"##223":8239,"60378":8240,"##c23":8241,"##30f":8242,"##306a":8243,"##463":8244,"##6f8":8245,"##e83":8246,"639":8247,"60220":8248,"60170":8249,"698ms":8250,"##az":8251,"##cb0":8252,"##7504":8253,"##f1f":8254,"##2c4":8255,"##c53":8256,"60380":8257,"252":8258,"##d65":8259,"##9056":8260,"##ce5":8261,"##9546":8262,"##7600":8263,"##03008":8264,"163":8265,"##1e6":8266,"##b8ce":8267,"##b5f":8268,"##f2d":8269,"1689574":8270,"1689554":8271,"##17f":8272,"219":8273,"60266":8274,"1690357278":8275,"669ms":8276,"648":8277,"e6":8278,"ts":8279,"##1008":8280,"##3a5":8281,"##1f5":8282,"60314":8283,"60430":8284,"ssh":8285,"##ging":8286,"##247":8287,"147":8288,"##1552":8289,"##ba0":8290,"##4f0":8291,"3075":8292,"##cd3":8293,"60122":8294,"141":8295,"221":8296,"##127":8297,"##1d3":8298,"##49fd":8299,"##10f":8300,"##65f":8301,"##6f5":8302,"60268":8303,"##da3":8304,"##611":8305,"##6144":8306,"##9552":8307,"##771":8308,"##ab6":8309,"##1648":8310,"##tributes":8311,"##2a16":8312,"1689569":8313,"##28d":8314,"##8832":8315,"##bb2":8316,"##55d":8317,"##4858":8318,"##7b3":8319,"169036356":8320,"_7n":8321,"16903641988":8322,"315":8323,"##1f1":8324,"##c2f":8325,"##9200":8326,"##38e":8327,"##22d":8328,"1689543":8329,"##5a5":8330,"##29f":8331,"##3a2":8332,"_5j":8333,"d2":8334,"##de0":8335,"##50f":8336,"##5728":8337,"##dd8":8338,"##a8d":8339,"##038912":8340,"670ms":8341,"gaz":8342,"##7f6":8343,"##eer":8344,"##teer":8345,"##etteer":8346,"##1605":8347,"##9c2":8348,"##06d":8349,"2975":8350,"gazetteer":8351,"256":8352,"##0032":8353,"mod":8354,"##7508":8355,"000006b":8356,"##2a2":8357,"##919":8358,"##7a6":8359,"207":8360,"258":8361,"b0":8362,"##e37":8363,"##1e2":8364,"##72f":8365,"geonames":8366,"1689548":8367,"##e25":8368,"##e80":8369,"641":8370,"663":8371,"715":8372,"f2":8373,"##001":8374,"##137":8375,"##dd6":8376,"##fb6":8377,"##f5d":8378,"645":8379,"72240":8380,"_5g":8381,"##do":8382,"##c03":8383,"##18f":8384,"167":8385,"##b81":8386,"##f2f":8387,"##9d0":8388,"##55f":8389,"##5e8":8390,"##9664":8391,"666ms":8392,"##down":8393,"662":8394,"##e_cl":8395,"##_332":8396,"##0144":8397,"##7840":8398,"##647":8399,"##2f5":8400,"0x10000046b0e06b":8401,"##3df":8402,"role_cl":8403,"roleclaimshandler_332":8404,"role_claims":8405,"7038912":8406,"zip":8407,"##1bf":8408,"##9ef":8409,"##ce6":8410,"253":8411,"##23a":8412,"##651":8413,"##e5d":8414,"18399":8415,"281650":8416,"24870238":8417,"10528304":8418,"86370":8419,"28165094336":8420,"2925":8421,"708":8422,"_5e":8423,"##61f2":8424,"0x":8425,"170":8426,"244":8427,"646":8428,"]-":8429,"##e60":8430,"##191":8431,"##c32":8432,"##c87":8433,"000000d":8434,"1689557":8435,"1689572":8436,"1689537":8437,"nio2":8438,"1690246":8439,"##0a2":8440,"##ff5":8441,"701ms":8442,"9f":8443,"##316":8444,"##_182":8445,"##927":8446,"##9648":8447,"##571":8448,"user_at":8449,"##20a":8450,"##a80":8451,"##cd6":8452,"ldapclaimshandler_182":8453,"user_attributes":8454,"246":8455,"##ctor":8456,"##c8f":8457,"##uctor":8458,"##ed0":8459,"##0432":8460,"##6608":8461,"##9975":8462,"1689535":8463,"##e0f":8464,"##structor":8465,"559":8466,"##6a6":8467,"##f0d":8468,"700ms":8469,"##c25":8470,"##6112":8471,"##23b":8472,"##aa2":8473,"2725":8474,"##7fd":8475,"##7e3":8476,"##e02":8477,"##e71":8478,"##e35":8479,"##89":8480,"##350":8481,"##56f":8482,"##1d0":8483,"##339":8484,"##063":8485,"##9a1":8486,"blueprintcontainer":8487,"##7d3":8488,"169024544":8489,"blueprintcontainerimpl":8490,"240":8491,"718":8492,"1042":8493,"##7584":8494,"##1b6":8495,"##737":8496,"1690368":8497,"272":8498,"_5x":8499,"c71":8500,"##run":8501,"##15f":8502,"##5a0":8503,"##3a3":8504,"##283":8505,"##c210":8506,"##f83":8507,"sshd":8508,"##runn":8509,"_z":8510,"er_":8511,"##9d1":8512,"2875":8513,"_5h":8514,"_0x10000046b0e028a":8515,"243":8516,"##e69":8517,"1275":8518,"##7712":8519,"##3354":8520,"1689570":8521,"##f60":8522,"##e5d7":8523,"0x10000046b0e028b":8524,"703ms":8525,"2825":8526,"ui":8527,"##7f1":8528,"##eae1":8529,"##ec2":8530,"##907":8531,"##3056":8532,"##481":8533,"##9d0e":8534,"##331":8535,"##60f":8536,"##ad6":8537,"##1a3":8538,"##d330":8539,"0x10000046b0e028c":8540,"sessionid_0x10000046b0e02":8541,"325":8542,"3025":8543,"716":8544,"@/":8545,"a0":8546,"##cdb":8547,":\"/":8548,"##82f":8549,"##25d":8550,"location_txt":8551,"default_":8552,"authenticated":8553,"2625":8554,"577ms":8555,"bundle_platform":8556,"##onames_data":8557,"serveruserauthservice_2":8558,"##geonames_data":8559,"default_geonames_data":8560,"serveruserauthservice_296":8561,"b3":8562,"##c7b":8563,"##istry":8564,"##0128":8565,"##6848":8566,"##egistry":8567,"##2549fd":8568,"featur":8569,"##399c":8570,"4af":8571,"##149":8572,"##31e":8573,"##7456":8574,"##f33":8575,"##23d":8576,"##2cd":8577,"_2y":8578,"169024550":8579,"621ms":8580,"704ms":8581,"_12":8582,"##c17":8583,"##2496":8584,"##57f":8585,"##1b3":8586,"##3d0":8587,"##2432":8588,"##ce6b":8589,"##3264":8590,"##9712":8591,"##741":8592,"##14e":8593,"49152":8594,"##1936":8595,"standard":8596,"_breadcrumbid":8597,"3125":8598,"c49":8599,"sing":8600,"tp1":8601,"##d903":8602,"##_9d0e":8603,"##_2549fd":8604,"##_399c":8605,"##047":8606,"##972_":8607,"##4288":8608,"##4aa3":8609,"##leton":8610,"##_bd65":8611,"##_a294":8612,"##59e2f":8613,"##1641603":8614,"proxy10b":8615,"proxyd903":8616,"##cc4020":8617,"702ms":8618,"##_0972_":8619,"##3a9_a294":8620,"##_43a9_a294":8621,"##61f2d330":8622,"##eae1_0972_":8623,"singleton":8624,"tp11641603":8625,"##_9d0e61f2d330":8626,"##_2549fdcc4020":8627,"##_399c_43a9_a294":8628,"##4aa3_bd65":8629,"##59e2f_399c_43a9_a294":8630,"proxy10b59e2f_399c_43a9_a294":8631,"proxyd903eae1_0972_":8632,"tp1164160313":8633,"##4aa3_bd65_9d0e61f2d330":8634,"proxy10b59e2f_399c_43a9_a294_2549fdcc4020":8635,"proxyd903eae1_0972_4aa3_bd65_9d0e61f2d330":8636,"##8864":8637,"##ulecontainer":8638,"##9456":8639,"##7664":8640,"000008a":8641,"##1df":8642,"1689540":8643,"##35f":8644,"##cb3":8645,"##a5d":8646,"##bd6":8647,"##631":8648,"c89":8649,"169036954":8650,"169036388":8651,"624ms":8652,"modulecontainer":8653,"_5w":8654,"ff":8655,"##e73":8656,"##c5e":8657,"##00f":8658,"##9536":8659,"##0350":8660,"##9c1":8661,"##9312":8662,"##fb2":8663,"711":8664,"714":8665,"##7ed":8666,"##ec1":8667,"##881":8668,"##anag":8669,"##9424":8670,"##971":8671,"##49f4":8672,"##1408":8673,"##5ad":8674,"##e20":8675,"##d7f":8676,"##289":8677,"05t13":8678,"clientadapter_88":8679,"pk":8680,"##9040":8681,"##0464":8682,"##7808":8683,"##3696":8684,"##9136":8685,"##87f":8686,"##bundle":8687,"pki":8688,"264":8689,"_60":8690,"##909":8691,"##9744":8692,"##bf1":8693,"##0b1":8694,"##62eb":8695,"##6d0":8696,"##6d8":8697,"##0180":8698,"##c41":8699,"c1420":8700,"c1271":8701,"sessionid_0x10000046b0e01":8702,"pur":8703,"##00346":8704,"##3472":8705,"##9264":8706,"##7696":8707,"##7744":8708,"##03c":8709,"##147":8710,"##5a3":8711,"##26b":8712,"##2b4":8713,"##c67":8714,"2675":8715,"bundle_messaging":8716,"a3":8717,"c52":8718,"##7d2":8719,"##c1f":8720,"##9072":8721,"##ce96":8722,"##9296":8723,"##587":8724,"##7072":8725,"1689550":8726,"##2372a":8727,"##80a":8728,"##f86":8729,"##c1c":8730,"667ms":8731,"_0x10000046b0e015d":8732,"d0":8733,"##7536":8734,"##42c":8735,"##2bd":8736,"##fff":8737,"578ms":8738,"support":8739,"##7ce":8740,"##c29":8741,"##ers":8742,"1325":8743,"##857":8744,"##3444":8745,"##4272":8746,"##167":8747,"##6cf":8748,"##263":8749,"##2b2":8750,"##d7d":8751,"##d2f":8752,"231":8753,"##a86":8754,"newinstance":8755,"16902478":8756,"_8h":8757,"servicerecipe":8758,"serviceregistry":8759,"##ourcepollerrunn":8760,"scheduler":8761,"##ourcepollerrunner":8762,"261":8763,"658":8764,"_3s":8765,"##0160":8766,"##90c":8767,"##1824":8768,"##7488":8769,"##22f":8770,"##5a6":8771,"##2460":8772,"_5q":8773,"_0x10000046b0e015f":8774,"622ms":8775,"1ca8eb64_commitcommandversion":8776,"278":8777,"655":8778,"660":8779,"717":8780,"91f":8781,"_a":8782,"ce":8783,"comp":8784,"##0048":8785,"##88c":8786,"##6192":8787,"##ee04":8788,"##c31":8789,"##9395":8790,"##46f":8791,"##_bund":8792,"##aa0":8793,"_3r":8794,"33052":8795,"_0x10000046b0e015e":8796,"653":8797,"712":8798,"##0115":8799,"##0416":8800,"##2d0":8801,"##3392":8802,"##ed_ddf":8803,"16903623":8804,"unregistered_ddf":8805,"actionproviderregistryproxy_1":8806,"actionproviderregistryproxy_105":8807,"_7j":8808,"##8ea":8809,"##_99":8810,"metacardtransformer":8811,"##122a7":8812,"displ":8813,"service_un":8814,"##081":8815,"##9984":8816,"##2a2a16":8817,"##911":8818,"##119":8819,"##1168":8820,"##b51":8821,"##f255a":8822,"##ayname":8823,"##2df":8824,"16895212":8825,"16895643":8826,"16895734":8827,"16895382":8828,"16895665":8829,"##e0980":8830,"##d568":8831,"##dd2372a":8832,"##873":8833,"##0642":8834,"##2b6":8835,"transform":8836,"##28b":8837,"##a751605":8838,"169036294":8839,"16895385":8840,"##registered":8841,"_7x":8842,"##903e0980":8843,"actionproviderregistryproxy_99":8844,"0c8d413306a":8845,"##1cef255a":8846,"##b8ce122a7":8847,"##c210e5d7":8848,"displayname":8849,"service_unregistered":8850,"##dd2372ac210e5d7":8851,"##a7516051cef255a":8852,"##903e0980a7516051cef255a":8853,"0c8d413306add2372ac210e5d7":8854,"##b8ce122a7903e0980a7516051cef255a":8855,"0c8d413306add2372ac210e5d7b8ce122a7903e0980a7516051cef255a":8856,"0c8d413306add2372ac210e5d7b8ce122a7903e0980a7516051cef255a2a2a16":8857,"_87":8858,"##1cd":8859,"##3440":8860,"##151":8861,"##1264":8862,"##5824":8863,"##3875":8864,"##3a7":8865,"b87c":8866,"654":8867,"a08":8868,"##7ee":8869,"fac":8870,"##617":8871,"##947":8872,"##667":8873,"##5840":8874,"##ab1":8875,"##2a1":8876,"##4a1":8877,"##7620":8878,"##541":8879,"##d20":8880,"311":8881,"_64":8882,"_2n":8883,"##9568":8884,"##3494":8885,"0022":8886,"##2d6":8887,"##e4e":8888,"##adf":8889,"##6ff":8890,"##6a0":8891,"##aa3":8892,"_5u":8893,"##anagement":8894,"1manag":8895,"652":8896,"804":8897,"811":8898,"c11":8899,"il":8900,"##_393":8901,"##xlog":8902,"##edpa":8903,"##ea1":8904,"##0080":8905,"##2416":8906,"##0882":8907,"##service_393":8908,"##0176":8909,"##949":8910,"##9632":8911,"##2ac":8912,"##9168":8913,"168957":8914,"16895224":8915,"16895246":8916,"168953285":8917,"16895444":8918,"##26f":8919,"##a5f":8920,"##legal":8921,"_2x":8922,"16895202":8923,"16895271":8924,"16895548":8925,"16895514":8926,"16895466":8927,"16895652":8928,"33056":8929,"crlchecker":8930,"29t18":8931,"##gingservice_393":8932,"ceimpl":8933,"1managedpa":8934,"illegal":8935,"##xloggingservice_393":8936,"1managedpaxloggingservice_393":8937,"3485":8938,"709":8939,"_5i":8940,"##e17":8941,"##017":8942,"##90e":8943,"##9968":8944,"##9661":8945,"##bd0":8946,"lerpollthread_25":8947,"##c52e8":8948,"233c52e8":8949,"f3":8950,"##676":8951,"##00111":8952,"##24e":8953,"##8576":8954,"##94e":8955,"##3488":8956,"##689":8957,"##327":8958,"##0384":8959,"##4294":8960,"##scheduler_":8961,"33150":8962,"2775":8963,"execut":8964,"286":8965,"##c0_commitcommandversion":8966,"169036797":8967,"_5f":8968,"16903682":8969,"16895315":8970,"docall":8971,"##3adc0_commitcommandversion":8972,"1690363255":8973,"4af3adc0_commitcommandversion":8974,"c0":8975,"##34c":8976,"##7872":8977,"##3648":8978,"##239":8979,"##e51":8980,"##a83":8981,"tracker":8982,"generatedmethodaccessor289":8983,"clientadapter_87":8984,"623ms":8985,"268":8986,"3225":8987,"he":8988,"match":8989,"##gument":8990,"##_152":8991,"##tatement":8992,"##argument":8993,"##uting":8994,"##ing_bund":8995,"type_txt":8996,"exception":8997,"##2400":8998,"##0192":8999,"##eed9a":9000,"##6176":9001,"##8560":9002,"##utestatement":9003,"##1808":9004,"##16c":9005,"##executing":9006,"##6400":9007,"16895712":9008,"16895706":9009,"##0460":9010,"##7c7":9011,"##937":9012,"##7a1":9013,"##431":9014,"##7d1":9015,"##7dc":9016,"270336":9017,"executestatement":9018,"##ecmd":9019,"##f5f":9020,"16895561":9021,"##9120":9022,"169024540":9023,"while_executing":9024,"shellutil_152":9025,"facet":9026,"illegalargument":9027,"executecmd":9028,"matching_bund":9029,"exception_caught":9030,"illegalargumentexception":9031,"matching_bundles":9032,"724":9033,"710":9034,"713":9035,"##0104":9036,"##9032":9037,"##32c":9038,"33104":9039,"##d80":9040,"##1912":9041,"1690355":9042,"33202":9043,"##manager":9044,"_10":9045,"##79e":9046,"##ist":9047,"##0884":9048,"##da94":9049,"##7552":9050,"##1504":9051,"##12c":9052,"##abc":9053,"##3866":9054,"##3808":9055,"##bac":9056,"##621":9057,"##2688":9058,"42590":9059,"296":9060,"_78":9061,"_74":9062,"##ef9":9063,"1044":9064,"1048":9065,"##dac":9066,"##9473":9067,"0000013":9068,"##6208":9069,"##dd0":9070,"##2ff":9071,"##e703":9072,"1690363":9073,"627ms":9074,"573ms":9075,"271":9076,"_63":9077,"1058":9078,"proper":9079,"##eed7":9080,"##9034":9081,"##3418":9082,"##32_":9083,"##787":9084,"##_minutes":9085,"##582d":9086,"context":9087,"##bbc":9088,"16895702":9089,"16895662":9090,"##6a2":9091,"##4144":9092,"_4n":9093,"##4c15":9094,"16895375":9095,"168953914":9096,"16895504":9097,"16895511":9098,"168955990":9099,"16895400":9100,"16895488":9101,"168955235":9102,"626ms":9103,"##981bf":9104,"168954355":9105,"_38":9106,"##9544":9107,"##7792":9108,"##0288":9109,"##6672":9110,"##mbean":9111,"##6544":9112,"##253":9113,"31_":9114,"33100":9115,"##6b2":9116,"_37":9117,"_7e":9118,"ev":9119,"##011":9120,"##8592":9121,"##9408":9122,"##0256":9123,"##2d3":9124,"##931":9125,"4096":9126,"6355":9127,"##b402":9128,"647":9129,"734":9130,"##2248":9131,"1125":9132,"##61c":9133,"##6832":9134,"##30346":9135,"##4d7":9136,"##1104":9137,"invoke0":9138,"_2o":9139,"1690370175":9140,"664ms":9141,"_61":9142,"##ocod":9143,"##level":9144,"##789":9145,"##5072":9146,"##3840":9147,"##96904":9148,"##start":9149,"##f21":9150,"##10346":9151,"##d53":9152,"##451":9153,"##1712":9154,"33146":9155,"##8e3":9156,"##0a0":9157,"_8i":9158,"16895297":9159,"168956116":9160,"705ms":9161,"##startlevel":9162,"249":9163,"725":9164,"uu":9165,"##e13":9166,"##cc3":9167,"##769":9168,"##027":9169,"##3632":9170,"##6432":9171,"##337":9172,"##8a6":9173,"##179":9174,"##1776":9175,"##0351":9176,"##7936":9177,"##5d6":9178,"_6u":9179,"uuid":9180,"4866":9181,"722":9182,"_88":9183,"_4l":9184,"hook":9185,"##accessor":9186,"##9f9":9187,"##_8e":9188,"##_62eb":9189,"##_8ea":9190,"##_0642":9191,"##_4c15":9192,"##cc1":9193,"##olrclient":9194,"1064":9195,"##fa1":9196,"##6160":9197,"qtp96904":9198,"##669":9199,"000003b":9200,"##74e":9201,"##1376":9202,"creat":9203,"##5ef":9204,"##9ffb3":9205,"##20b36e":9206,"##e81":9207,"##_b1e0":9208,"##6b3":9209,"generatedmethodaccessor676":9210,"##e_49f4":9211,"3625":9212,"169036419":9213,"proxy5a8":9214,"proxy31e":9215,"##structoraccessor":9216,"##d568eed9a":9217,"##32_d568eed9a":9218,"##981bf_0642":9219,"##_8e32_d568eed9a":9220,"##_62eb20b36e":9221,"##_8eae_49f4":9222,"##_4c15_b1e0":9223,"qtp969043354":9224,"##9ffb3_8eae_49f4":9225,"proxy5a8981bf_0642":9226,"proxy31e9ffb3_8eae_49f4":9227,"##structoraccessorimpl":9228,"##_8e32_d568eed9a04e":9229,"##_62eb20b36e9e":9230,"##_4c15_b1e0_62eb20b36e9e":9231,"proxy5a8981bf_0642_4c15_b1e0_62eb20b36e9e":9232,"proxy31e9ffb3_8eae_49f4_8e32_d568eed9a04e":9233,"657":9234,"##5744":9235,"##e21":9236,"##73c":9237,"##8f0":9238,"55610":9239,"706ms":9240,"]}":9241,"_7a":9242,"##c7c":9243,"##ed988":9244,"1085":9245,"227":9246,"##619":9247,"##329":9248,"##ca1":9249,"##7716":9250,"##5872":9251,"##5696":9252,"##0538":9253,"##9c761":9254,"##707":9255,"16895545":9256,"16895353":9257,"##65e3":9258,"##7304":9259,"##0640":9260,"##71c":9261,"##7136":9262,"##cd1":9263,"##c21":9264,"##8e6":9265,"##53d":9266,"169024545":9267,"168956871":9268,"1689523104":9269,"168957312":9270,"168957091":9271,"3434":9272,"4434":9273,"##9504":9274,"##77e":9275,"##9824":9276,"##1072":9277,"3475":9278,"_4o":9279,"_3c":9280,"compname":9281,"282":9282,"736":9283,"_42":9284,"_17":9285,"_41":9286,"c43":9287,"e3":9288,"##2444":9289,"##9728":9290,"##16e":9291,"##3f1":9292,"##1e1":9293,"##4032":9294,"##7296":9295,"geocod":9296,"##6272":9297,"##871":9298,"##aa6":9299,"##d4ce6b":9300,"##63c":9301,"75d4ce6b":9302,"##logger":9303,"663ms":9304,"91feed7":9305,"650":9306,"##7f9":9307,"##7544":9308,"##fa7":9309,"##6800":9310,"##6896":9311,"##6864":9312,"##7632":9313,"##9792":9314,"##65e":9315,"##7312":9316,"##6d6":9317,"##c2e":9318,"_5d":9319,"16903557":9320,"42290":9321,"_3b":9322,"_6k":9323,"d1":9324,"shut":9325,"##c9f":9326,"solrj":9327,"solrmetacard":9328,"##9434":9329,"##0304":9330,"##9900":9331,"##987":9332,"16895570":9333,"##4624":9334,"##5e3":9335,"##45f":9336,"##20f":9337,"##ad3":9338,"##a53":9339,"##3104":9340,"##3136":9341,"_5k":9342,"16895394":9343,"168952908":9344,"55808":9345,"55400":9346,"168953600":9347,"168953254":9348,"1689545124":9349,"168954072":9350,"solrmetacardclientimpl":9351,"291":9352,"_6a":9353,"management":9354,"##ebc":9355,"1225":9356,"##0116":9357,"##9440":9358,"##3485":9359,"##1840":9360,"##50346":9361,"##1f0":9362,"16903692":9363,"1690362940":9364,"_19":9365,"##c50":9366,"##c10":9367,"1075":9368,"##887":9369,"##0888":9370,"##954b":9371,"##0400":9372,"##iew":9373,"##0272":9374,"##389":9375,"0000036":9376,"##7216":9377,"##1392":9378,"##3712":9379,"1690369232":9380,"##e1a0":9381,"tsdb":9382,"322":9383,"1025":9384,"##0024":9385,"##6148":9386,"##3456":9387,"##7776":9388,"##507":9389,"##96c":9390,"##7024":9391,"##1488":9392,"##25f":9393,"55756":9394,"##04800":9395,"2d6":9396,"_d":9397,"_76":9398,"##da9":9399,"##757":9400,"##957":9401,"##951":9402,"##0480":9403,"##cae":9404,"##_mbean":9405,"##58f8":9406,"##4432":9407,"##3872":9408,"##99c":9409,"##3376":9410,"16895724":9411,"##7c1":9412,"##7c9":9413,"##7628":9414,"##c37":9415,"##2816":9416,"##2c2":9417,"16895278":9418,"16895498":9419,"_6y":9420,"55876":9421,"168954134":9422,"168954795":9423,"630ms":9424,"168953222":9425,"168956557":9426,"168956211":9427,"169036891":9428,"##dmin":9429,"##767":9430,"##3216":9431,"##3280":9432,"##031":9433,"##0864":9434,"##f11":9435,"##1810":9436,"##9148":9437,"##70346":9438,"##plugin":9439,"##6d3":9440,"_4c":9441,"_39":9442,"_3t":9443,"_3j":9444,"r_55":9445,"r_31":9446,"_1t":9447,"_8d":9448,"169035696":9449,"266240":9450,">(":9451,"rem":9452,"##cb1":9453,"init":9454,"##88e":9455,"##ccc":9456,"##0488":9457,"##0544":9458,"##e40b":9459,"##7168":9460,"##d83":9461,"##2c5":9462,"_4q":9463,"##a0f":9464,"60062":9465,"_7t":9466,"4212":9467,"##007":9468,"##7568":9469,"##3232":9470,"55764":9471,"##2c0":9472,"##entadmin":9473,"##6368":9474,"_6w":9475,"55450":9476,"eventadmin":9477,"_75":9478,"##c3f6":9479,"##779":9480,"##61065e3":9481,"##9844":9482,"##1e4bd":9483,"19f2":9484,"##11fb":9485,"##7494":9486,"##40e":9487,"##4912":9488,"##ba1":9489,"16895422":9490,"16895196":9491,"##9392":9492,"##26d":9493,"##7ae":9494,"263":9495,"56022":9496,"##7b7":9497,"32768":9498,"##c0e":9499,"##3d1":9500,"_3u":9501,"c51":9502,"168952687":9503,"16895454":9504,"_6s":9505,"55498":9506,"625ms":9507,"##d48b402":9508,"##4d57716":9509,"##96d1e4bd":9510,"##e939c761":9511,"168956336":9512,"168951995":9513,"##cd7e939c761":9514,"##7520cd7e939c761":9515,"1690369861":9516,"168957437":9517,"168953788":9518,"##ee0461065e3":9519,"a084d57716":9520,"##ed988c3f6":9521,"##e1a096d1e4bd":9522,"19f2ce96":9523,"##7520cd7e939c761ed988c3f6":9524,"##ee0461065e3d48b402":9525,"a084d57716e1a096d1e4bd":9526,"##7520cd7e939c761ed988c3f6ee0461065e3d48b402":9527,"a084d57716e1a096d1e4bd7520cd7e939c761ed988c3f6ee0461065e3d48b402":9528,"_s":9529,"_13":9530,"##8800":9531,"##8844":9532,"##eb1":9533,"##61e":9534,"##85e":9535,"##9216":9536,"##15c":9537,"##bf4b":9538,"##7434":9539,"##6c7":9540,"##7232":9541,"##0992":9542,"##359":9543,"defaulthttp":9544,"3575":9545,"3275":9546,"59694":9547,"55706":9548,"3725":9549,"59390":9550,"geocoding":9551,"defaulthttpcontext":9552,"_16":9553,"_2d":9554,"##de7":9555,"##9448":9556,"##187":9557,"##cac":9558,"##3fe":9559,"##57c":9560,"##f31":9561,"##2288":9562,"##ee83":9563,"##237":9564,"521":9565,"3975":9566,"169035664":9567,"55546":9568,"_7y":9569,"contextid":9570,"4485":9571,"726":9572,"_5a":9573,"sat":9574,"##5c3":9575,"##9444":9576,"##1584":9577,"##3296":9578,"##77c":9579,"##52e":9580,"##1024":9581,"##3552":9582,"55444":9583,"_4v":9584,"_5y":9585,"16903686":9586,"575ms":9587,"55550":9588,"55712":9589,"55656":9590,"sat_jan":9591,"3425":9592,"76c":9593,"##nail":9594,"##wti":9595,"##2448":9596,"##da4a":9597,"##0118":9598,"##959":9599,"##9528":9600,"##6816":9601,"##1536":9602,"##0894":9603,"##f1c":9604,"##0b9":9605,"##4864":9606,"16895684":9607,"16895526":9608,"168951775":9609,"##629":9610,"##umbnail":9611,"##939":9612,"##cbc":9613,"##c51":9614,"_4m":9615,"0x10000046b0e015d":9616,"1689539776":9617,"1689527508":9618,"05_03":9619,"168952876":9620,"168954260":9621,"168956274":9622,"730":9623,"_7c":9624,"_4b":9625,"_7b":9626,"head":9627,"##da1":9628,"##9430":9629,"##567":9630,"0000022":9631,"##9840":9632,"##2ae":9633,"##749":9634,"##72e":9635,"##7ac":9636,"##0186":9637,"##c4e":9638,"##7fe":9639,"_59":9640,"55812":9641,"55502":9642,"_14":9643,"_7f":9644,"c47":9645,"wfs":9646,"1175":9647,"##3448":9648,"##0832":9649,"##529":9650,"##387":9651,"##3024":9652,"##5600":9653,"##5632":9654,"##af7":9655,"##b5c":9656,"##5a1":9657,"##717":9658,"3675":9659,"16902488":9660,"##31c":9661,"0x10000046b0e028a":9662,"707ms":9663,"3525":9664,"574ms":9665,"1690356334":9666,"##getask":9667,"purgetask":9668,"723":9669,"_11":9670,"##ece":9671,"##8896":9672,"##0148":9673,"##90346":9674,"##6184":9675,"##1296":9676,"##089":9677,"##f17":9678,"##afe":9679,"##9104":9680,"##1d1":9681,"##10c":9682,"##7626":9683,"##2f0":9684,"##4544":9685,"##efc":9686,"241":9687,"##0a3":9688,"05t04":9689,"0x10000046b0e015e":9690,"_1j":9691,"55394":9692,"629ms":9693,"standardframework":9694,"284":9695,"3597":9696,"_3k":9697,"_83":9698,"fd8a":9699,"##70111":9700,"##e63":9701,"##376":9702,"##370":9703,"##90111":9704,"##intr":9705,"##ence":9706,"##essourcepollerrunner":9707,"##epos":9708,"##itory":9709,"##utils":9710,"##enttyp":9711,"##availab":9712,"unavailab":9713,"##9488":9714,"##0424":9715,"##427":9716,"##ectionutils":9717,"##969":9718,"##factoryimpl":9719,"##913f":9720,"##9114":9721,"getcont":9722,"##72c40":9723,"##49e":9724,"##4994":9725,"46dd":9726,"16895448":9727,"##1472":9728,"##4bc":9729,"##e2e":9730,"##2b3":9731,"55614":9732,"55924":9733,"55918":9734,"contenttyp":9735,"##ueprintr":9736,"##43cd":9737,"blueprintr":9738,"56018":9739,"reflectionutils":9740,"##cd0":9741,"internalc":9742,"##4286":9743,"_3w":9744,"##be3a7":9745,"16895366":9746,"16895533":9747,"168955928":9748,"22t08":9749,"55872":9750,"168955865":9751,"lerpollthread_26":9752,"##9ce2e":9753,"168953694":9754,"628ms":9755,"8d93":9756,"solrclientfactoryimpl":9757,"1689568088":9758,"b672c40":9759,"168955644":9760,"168952530":9761,"662ms":9762,"##epository":9763,"##enttypes":9764,"unavailables":9765,"getcontenttypes":9766,"contenttypessourcepollerrunner":9767,"blueprintrepository":9768,"b672c409ce2e":9769,"312":9770,"888":9771,"_66":9772,"_3a":9773,"_43":9774,"a1":9775,"b851":9776,"##576":9777,"1057":9778,"##0096":9779,"##9794":9780,"##6640":9781,"##3800":9782,"##9640":9783,"##5792":9784,"##5712":9785,"##9872":9786,"##2368":9787,"##14914":9788,"##0608":9789,"##46e":9790,"0x10000046b0e035":9791,"##cfc":9792,"33e703":9793,"40960":9794,"##d3d":9795,"##4176":9796,"##0a6":9797,"0x10000046b0e015f":9798,"4025":9799,"_6l":9800,"31t00":9801,"lerpollthread_19":9802,"9dc1":9803,"1690363884":9804,"##582dfc":9805,"##149143f":9806,"33e703582dfc":9807,"##2440":9808,"##244b":9809,"##da7":9810,"##85c":9811,"##3288":9812,"##7842":9813,"##5288":9814,"##3818":9815,"##0bc":9816,"##0006":9817,"##72c":9818,"##64c":9819,"##10e":9820,"##e09":9821,"##8a0":9822,"##547":9823,"##5424":9824,"##5472":9825,"##0901":9826,"##9ac":9827,"##20d":9828,"##f7fd":9829,"_0x10000046b0e015c":9830,"remot":9831,"306":9832,"3866":9833,"c42":9834,"##9e1":9835,"##ed1":9836,"##9480":9837,"##12e":9838,"##087":9839,"##3f9":9840,"##3824":9841,"##3072":9842,"##9696":9843,"##9848":9844,"##7416":9845,"##7214":9846,"##9be":9847,"##e2c":9848,"##4592":9849,"3375":9850,"631ms":9851,"##d4c":9852,"05t11":9853,"16903566":9854,"lerpollthread_27":9855,"55970":9856,"316":9857,"_18":9858,"e1":9859,"##10111":9860,"##2484":9861,"##944b":9862,"##0390":9863,"##0896":9864,"##447":9865,"##9600":9866,"##7408":9867,"##709":9868,"##1094":9869,"16895715":9870,"##e47":9871,"##69e":9872,"##3ac":9873,"##cb48":9874,"##43e":9875,"##efe":9876,"##6bc":9877,"169024852":9878,"##e3c":9879,"_89":9880,"1689558336":9881,"168954197":9882,"168952813":9883,"168955361":9884,"168955676":9885,"1689518700":9886,"709ms":9887,"mime":9888,"1055":9889,"##00112":9890,"idp":9891,"##3434":9892,"##7640":9893,"##7790":9894,"##4256":9895,"##0848":9896,"##1696":9897,"##5795":9898,"##1814":9899,"##9808":9900,"##7413":9901,"##551":9902,"##2304":9903,"##627":9904,"55662":9905,"572ms":9906,"55974":9907,"304":9908,"_23":9909,"_1v":9910,"c56":9911,"##yption":9912,"##aliz":9913,"##7543":9914,"1104":9915,"##ce1":9916,"##9534":9917,"##9288":9918,"##7748":9919,"##7834":9920,"##3f7":9921,"##384a":9922,"##99e":9923,"##9894":9924,"##ba4d":9925,"encr":9926,"##9a7":9927,"239":9928,"##6a3":9929,"##itializ":9930,"##8884":9931,"##cdfa":9932,"639ms":9933,"##d31":9934,"##7976":9935,"##539":9936,"##5df":9937,"16903550":9938,"_1u":9939,"40352":9940,"16903641986":9941,"c383":9942,"shutdown":9943,"encryption":9944,"749":9945,"_25":9946,"##sv":9947,"##759":9948,"##7528":9949,"to_mbean":9950,"##0208":9951,"##6624":9952,"##44e":9953,"##30345":9954,"##6106":9955,"##4896":9956,"##serverwrapper":9957,"##4688":9958,"##251":9959,"##3536":9960,"##6df":9961,"##c492":9962,"##0d6":9963,"##ing_org":9964,"unregistering_org":9965,"##64be7":9966,"##mbeanserverwrapper":9967,"eventadminmbeanserverwrapper":9968,"to_mbeanserver":9969,"274":9970,"323":9971,"3dc":9972,"5224":9973,"_u":9974,"_1a":9975,"_1k":9976,"_3d":9977,"c60":9978,"c172":9979,"nit":9980,"##view":9981,"##edc":9982,"##eae":9983,"1082":9984,"##2493":9985,"##9520":9986,"##9584":9987,"##0405":9988,"##929":9989,"##1529":9990,"##129":9991,"##1216":9992,"##979":9993,"##66e":9994,"##66c":9995,"##fd1":9996,"thumbnail":9997,"##4480":9998,"##30c":9999,"##999":10000,"##57e":10001,"##f41":10002,"##b5e":10003,"16895740":10004,"16895460":10005,"##1456":10006,"##2624":10007,"##60c":10008,"##7a9":10009,"##c599":10010,"##bd2a":10011,"169024758":10012,"star":10013,"169035444":10014,"16895350":10015,"_8j":10016,"16895432":10017,"38856":10018,"_9w":10019,"30t22":10020,"1689536316":10021,"168952058":10022,"168953568":10023,"168955078":10024,"##01c":10025,"##9560":10026,"##5648":10027,"##489c":10028,"##9144":10029,"##b594":10030,"##7485":10031,"##729":10032,"##9dc":10033,"##6464":10034,"##3300":10035,"##1034":10036,"##5504":10037,"##db9":10038,"##5488":10039,"39902":10040,"count":10041,"_3q":10042,"##5d0":10043,"_1y":10044,"_7o":10045,"_7h":10046,"39860":10047,"633ms":10048,"1690368288":10049,"746":10050,"876":10051,"_ex":10052,"_8a":10053,"f1":10054,"##urem":10055,"1054":10056,"1084":10057,"##2480":10058,"failure_m":10059,"##6158":10060,"##9421":10061,"##1568":10062,"##1872":10063,"##0360":10064,"##78c":10065,"##7863":10066,"##3055":10067,"##9918":10068,"##99ab":10069,"##9936":10070,"##36ca":10071,"##3656":10072,"##f47a":10073,"##f288":10074,"##051":10075,"collection_st":10076,"0x10000046b0e08c":10077,"##9f4a":10078,"##cb9":10079,"##1730":10080,"567":10081,"5701":10082,"##8886":10083,"3775":10084,"##7fc":10085,"executor":10086,"##7968":10087,"283":10088,"1690369546":10089,"##8640":10090,"##failurem":10091,"_3g":10092,"##3968":10093,"40250":10094,"##e91e":10095,"0x100":10096,"710ms":10097,"_exchange":10098,"failure_mode":10099,"collection_step":10100,"##failuremode":10101,"303":10102,"_8e":10103,"##7d5":10104,"##ec78":10105,"##2436":10106,"##6688":10107,"##58c":10108,"##1632":10109,"##5688":10110,"##9994":10111,"##9890":10112,"##7272":10113,"##4608":10114,"##7190":10115,"##3504":10116,"##9660":10117,"##7d9":10118,"_5r":10119,"##0d0":10120,"169036168":10121,"##ersist":10122,"5100":10123,"754":10124,"_j":10125,"_67":10126,"##ea7":10127,"##eac":10128,"##0034":10129,"##dac8":10130,"##90cf":10131,"##9425":10132,"##3220":10133,"##1200":10134,"##1232":10135,"##7784":10136,"##56c":10137,"##9140":10138,"##f474":10139,"##720b":10140,"16895718":10141,"16895721":10142,"##9b9":10143,"##c3c":10144,"##5ac3":10145,"##7376":10146,"##e5e8":10147,"##719":10148,"##fff36":10149,"_27":10150,"c430":10151,"168953128":10152,"_1w":10153,"168955770":10154,"1689559594":10155,"39080":10156,"168955802":10157,"168951901":10158,"168952278":10159,"168956462":10160,"1690354761":10161,"708ms":10162,"169024695":10163,"##ersistence":10164,"270":10165,"7ce":10166,"721":10167,"_72":10168,"##310":10169,"##2425":10170,"##019":10171,"##6100":10172,"##9204":10173,"##159":10174,"##15c18":10175,"##7728":10176,"##bf7":10177,"##4424":10178,"##3032":10179,"##96e":10180,"##b17":10181,"##5408":10182,"##7188":10183,"##35c":10184,"_2z":10185,"39060":10186,"42515c18":10187,"76c64be7":10188,"1eb":10189,"290":10190,"755":10191,"_3x":10192,"_6b":10193,"lay":10194,"##ties":10195,"##lication":10196,"##eb4a":10197,"##95e":10198,"##9590":10199,"##0408":10200,"##18e":10201,"##7704":10202,"##5861":10203,"##584a":10204,"##4448":10205,"##0be":10206,"##9800":10207,"##9864":10208,"##ortname":10209,"##7452":10210,"##1bc":10211,"##3312":10212,"##3396":10213,"##625d":10214,"##9b01":10215,"##f642":10216,"##5e1":10217,"##9662":10218,"##43c":10219,"##ojson":10220,"44144":10221,"##6336":10222,"##531":10223,"_5n":10224,"40050":10225,"39172":10226,"##7f801":10227,"sessionid_0x10000046b0e028c":10228,"660ms":10229,"3dc7f801":10230,"294":10231,"292":10232,"326":10233,"775":10234,"796":10235,"_68":10236,"_44":10237,"##aging":10238,"##75c":10239,"##8585":10240,"##8594":10241,"##0237":10242,"##3815":10243,"##b89":10244,"##f47":10245,"##bb34":10246,"##33e":10247,"##8a3":10248,"##8fc":10249,"##5e6":10250,"##60e":10251,"##7be":10252,"_4w":10253,"1690364":10254,"##0704":10255,"1690357592":10256,"169036262":10257,"sessionid_0x10000046b0e028b":10258,"297":10259,"269":10260,"5485":10261,"763":10262,"875":10263,"]:":10264,"_t":10265,"_q":10266,"_4d":10267,"_1b":10268,"htm":10269,"##d4d":10270,"##0044":10271,"##2476":10272,"##0886":10273,"##7585":10274,"##fa94":10275,"##fa0a":10276,"##6154":10277,"##9524":10278,"##94d5":10279,"##6840":10280,"##9213":10281,"##184d":10282,"##ca9":10283,"##ca32":10284,"##6666":10285,"##78e":10286,"##169":10287,"##9934":10288,"##b892":10289,"##b84a":10290,"##1b7":10291,"##5568":10292,"16895485":10293,"##6260":10294,"##2656":10295,"##9ae":10296,"##ad0":10297,"##6dc":10298,"##1744":10299,"##80d":10300,"##5c0":10301,"##c0c":10302,"##c14d":10303,"##dcb1":10304,"168953726":10305,"168952625":10306,"c183":10307,"40314":10308,"39838":10309,"168953411":10310,"168953474":10311,"16895284":10312,"168952404":10313,"168956399":10314,"168952373":10315,"168956494":10316,"168954638":10317,"168956934":10318,"168954827":10319,"168957280":10320,"1689564313":10321,"html":10322,"3925":10323,"5866":10324,"788":10325,"_32":10326,"_77":10327,"_7z":10328,"_6c":10329,"##fec":10330,"##ebe":10331,"##9099":10332,"##94b1":10333,"##9484":10334,"##3295":10335,"##1864":10336,"##4dc":10337,"##9960":10338,"##489":10339,"##407":10340,"##7290":10341,"##659":10342,"##1424":10343,"##9376":10344,"##2976":10345,"##d27":10346,"##c89":10347,"##37e":10348,"##b4fa":10349,"169035570":10350,"39692":10351,"38792":10352,"169035601":10353,"6c":10354,"766":10355,"7c8":10356,"93875":10357,"containerstartlevel":10358,"##ec4a":10359,"##0025":10360,"##cce":10361,"##dae95":10362,"##0143":10363,"##9031":10364,"##fafa":10365,"##859":10366,"##8540":10367,"##94cb":10368,"##3497":10369,"##9294":10370,"##0368":10371,"##0376":10372,"##7824":10373,"##5803":10374,"##1634":10375,"##1672":10376,"##4464":10377,"##9961":10378,"##9964":10379,"##99bd":10380,"##48c":10381,"##1e7":10382,"##b8f4":10383,"##7458":10384,"##7472":10385,"##f2c":10386,"##64e":10387,"##70c":10388,"##2d1":10389,"##eef4":10390,"##ee1ad":10391,"##dbc":10392,"##db9a":10393,"##62c":10394,"##54e":10395,"##54c":10396,"##f688":10397,"##9394":10398,"##35e":10399,"##cf7":10400,"##3776":10401,"##7be85":10402,"##c9ab":10403,"6352":10404,"_4e":10405,"##7e9":10406,"1690352":10407,"16903510":10408,"##94656":10409,"##05c03c":10410,"##3f458f8":10411,"##1b43f458f8":10412,"##36b4f8":10413,"000002c0":10414,"##94737be85":10415,"##5c3ee1ad":10416,"##cdfac7":10417,"##fff365c3ee1ad":10418,"##625dcdfac7":10419,"9387536b4f8":10420,"##dae95fff365c3ee1ad":10421,"##05c03c1b43f458f8":10422,"##94737be8505c03c1b43f458f8":10423,"9387536b4f8dae95fff365c3ee1ad":10424,"##94737be8505c03c1b43f458f8625dcdfac7":10425,"9387536b4f8dae95fff365c3ee1ad94737be8505c03c1b43f458f8625dcdfac7":10426,"795":10427,"892":10428,"_15":10429,"_8f":10430,"_28":10431,"_31":10432,"##_23":10433,"hawti":10434,"caller":10435,"##_component":10436,"##9080":10437,"##9493":10438,"##3432":10439,"##1520":10440,"##7644":10441,"##0280":10442,"##5280":10443,"##449":10444,"##9980":10445,"##1000":10446,"##7495":10447,"##1056":10448,"##143b":10449,"##f9e":10450,"##7a7":10451,"30_23":10452,"##17e":10453,"##437":10454,"##84c":10455,"_3n":10456,"r_44":10457,"lientadapter_108":10458,"634ms":10459,"000002c1":10460,"67ae":10461,"095":10462,"777":10463,"742":10464,"729":10465,"_6m":10466,"_1l":10467,"_4g":10468,"##90112":10469,"hawt":10470,"##ec24":10471,"##2490":10472,"##_session":10473,"##cc64":10474,"##9085":10475,"##95c":10476,"##9490":10477,"##34ad":10478,"##fdfa":10479,"##0816":10480,"##084a":10481,"##4485":10482,"##50c":10483,"##3844":10484,"##381a":10485,"##f14b":10486,"##9694":10487,"##b0c":10488,"##221":10489,"##3334":10490,"##5534":10491,"16895180":10492,"##e472":10493,"##7cea":10494,"##dd04":10495,"##f64a":10496,"##8744":10497,"##e234":10498,"##73e":10499,"##0672":10500,"##e59":10501,"38904":10502,"##d8c":10503,"##e1c":10504,"##e104":10505,"##7f7":10506,"c300":10507,"16903553":10508,"##1448":10509,"40268":10510,"_8s":10511,"16895234":10512,"168952562":10513,"16895501":10514,"168954921":10515,"1689567144":10516,"1689569975":10517,"39602":10518,"38744":10519,"05_15":10520,"168954166":10521,"168955204":10522,"168953442":10523,"1689553932":10524,"168955550":10525,"168954575":10526,"168957375":10527,"1689530968":10528,"168956085":10529,"1689566515":10530,"1689522475":10531,"1689565257":10532,"1689540091":10533,"1689535372":10534,"starting":10535,"728":10536,"900":10537,"##544":10538,"##dee":10539,"##75e":10540,"##9505":10541,"##049":10542,"##76e":10543,"##32e":10544,"##fd48":10545,"##7848":10546,"##4496":10547,"##af4b":10548,"##9914":10549,"##9845":10550,"##11c":10551,"##7404":10552,"##9d7":10553,"##25b":10554,"##2536":10555,"##7a44":10556,"33944":10557,"##c07":10558,"_2p":10559,"_6v":10560,"40474":10561,"40304":10562,"40566":10563,"302":10564,"313":10565,"42d":10566,"762":10567,"735":10568,"_33":10569,"_2f":10570,"_1x":10571,"_6e":10572,"pre":10573,"sourcepoller":10574,"##398":10575,"##erts":10576,"##eaba":10577,"##ea9a":10578,"##ecc":10579,"##0070":10580,"##dae":10581,"##7588":10582,"##940b":10583,"##3446":10584,"##044a":10585,"##046c":10586,"##0427":10587,"##9272":10588,"publishbundle":10589,"##76c":10590,"##7642":10591,"##1891":10592,"##7742":10593,"##9798":10594,"##979c":10595,"##fd7":10596,"##589":10597,"##abeb":10598,"##ab9b":10599,"##1600":10600,"##f144":10601,"##0b9a":10602,"##9985":10603,"##4800":10604,"##982d":10605,"##9847":10606,"##36aa":10607,"##7400":10608,"##7410":10609,"##7459":10610,"##0593":10611,"##4992":10612,"##ba96":10613,"notify":10614,"##1442":10615,"##9354":10616,"##f994":10617,"##3a1":10618,"##cb16":10619,"##7aaa":10620,"##1704":10621,"3875":10622,"sug":10623,"##value":10624,"##cdc":10625,"##c5c":10626,"newclient":10627,"##0a1":10628,"1690365":10629,"169036357":10630,"169036923":10631,"tracked":10632,"##c1f4":10633,"_5s":10634,"##0df4":10635,"lientadapter_109":10636,"39174":10637,"40416":10638,"##econstructoraccessorimpl":10639,"nativeconstructoraccessorimpl":10640,"711ms":10641,"1690355390":10642,"properties":10643,"createcontainer":10644,"internalcreate":10645,"preview":10646,"publishbundleevent":10647,"2c":10648,"3af":10649,"66d":10650,"738":10651,"756":10652,"772":10653,"_20":10654,"_80":10655,"et":10656,"##7e1":10657,"1092":10658,"##9096":10659,"##9598":10660,"##953a":10661,"##9432":10662,"##0496":10663,"##3090":10664,"##3600":10665,"##1131":10666,"##b194":10667,"##1dc":10668,"##13c":10669,"##e07a":10670,"##1485":10671,"##9350":10672,"48966":10673,"38906":10674,"##c8ab":10675,"##6a1":10676,"##ef48":10677,"39224":10678,"##_input":10679,"651":10680,"clientadapter_64":10681,"_8c":10682,"_8k":10683,"39124":10684,"38812":10685,"40512":10686,"etc":10687,"085":10688,"8b1":10689,"_2h":10690,"_1c":10691,"b1":10692,"##ea08":10693,"##de9":10694,"##2464":10695,"##8872":10696,"##daad":10697,"##9400":10698,"##94fd":10699,"##94bb":10700,"##0440":10701,"##1804":10702,"##7785":10703,"##ab7":10704,"##4d42":10705,"##487":10706,"##b898":10707,"##b8ba":10708,"##9172":10709,"##b524":10710,"##b144":10711,"##9d61":10712,"##0576":10713,"##6490":10714,"##f398":10715,"##7056":10716,"##ee60":10717,"0019":10718,"##131":10719,"##14fb":10720,"##9bc8":10721,"##4b94":10722,"##e29d":10723,"##d2c":10724,"##4512":10725,"##cb9b":10726,"##a81":10727,"39906":10728,"39126":10729,"##7bc":10730,"rtf":10731,"##c47":10732,"##c4da":10733,"##c4ba":10734,"##841":10735,"##4130":10736,"##f8c":10737,"##5376":10738,"is_not":10739,"_5b":10740,"_2q":10741,"c129":10742,"16895388":10743,"168953033":10744,"16895215":10745,"168952184":10746,"168952153":10747,"168955173":10748,"lientadapter_105":10749,"##880f":10750,"168956745":10751,"40462":10752,"_7i":10753,"_7k":10754,"3825":10755,"169035602":10756,"661ms":10757,"##000a1529":10758,"05_17":10759,"168954292":10760,"168951807":10761,"168953065":10762,"168955424":10763,"1689557392":10764,"1689544495":10765,"1689566200":10766,"1689554561":10767,"0x100000a1529":10768,"280":10769,"3cc":10770,"4100":10771,"_5c":10772,"##ea3b":10773,"##88aa":10774,"##3422":10775,"##3445":10776,"##6843":10777,"##1561":10778,"##9780":10779,"##5232":10780,"##2a9":10781,"##3642":10782,"##91c8":10783,"##f488":10784,"##7096":10785,"##2336":10786,"##1304":10787,"##067":10788,"##0606":10789,"##9a22":10790,"##607":10791,"##1fc":10792,"##e80a":10793,"##90238":10794,"##5368":10795,"services":10796,"000002c3":10797,"clientadapter_97":10798,"lientadapter_106":10799,"39434":10800,"39580":10801,"40162":10802,"38858":10803,"44452":10804,"39272":10805,"##32640":10806,"40576":10807,"000002c2":10808,"features":10809,"658ms":10810,"761":10811,"797":10812,"752":10813,"719":10814,"825":10815,"_58":10816,"_8b":10817,"ag":10818,"be_":10819,"lchecker":10820,"ws":10821,"##st_":10822,"##im":10823,"##esh_":10824,"##ea48":10825,"in_":10826,"##24ce":10827,"##checked":10828,"##da1e":10829,"##da54":10830,"##refr":10831,"##9090":10832,"##9026":10833,"##ce77":10834,"##9545":10835,"##9580":10836,"##8512":10837,"##9418":10838,"##348a":10839,"##0436":10840,"##04aa":10841,"##92fa":10842,"##1510":10843,"##7652":10844,"##9742":10845,"##9749":10846,"##03e":10847,"##42e":10848,"##7874":10849,"##0844":10850,"##5844":10851,"##1690":10852,"##3834":10853,"##38b1":10854,"##af42":10855,"##99d5":10856,"##5776":10857,"##4848":10858,"##b87":10859,"##b8c3":10860,"##9188":10861,"##91360":10862,"##b514":10863,"##9dca":10864,"##646a":10865,"##ainst_":10866,"##ee1":10867,"39748":10868,"##d5c":10869,"##9bfa":10870,"##9b4f":10871,"andler":10872,"##perty":10873,"##5456":10874,"##e54a":10875,"##d7e":10876,"##thread_0":10877,"1724":10878,"38962":10879,"351":10880,"40528":10881,"##e70b":10882,"39008":10883,"##7b9":10884,"c261":10885,"##5664":10886,"##b4e":10887,"##7934":10888,"_certs":10889,"##68736":10890,"8192":10891,"_5t":10892,"_2g":10893,"_2r":10894,"r_88":10895,"r_87":10896,"r_26":10897,"clientadapter_94":10898,"_1p":10899,"lientadapter_107":10900,"40004":10901,"40008":10902,"40166":10903,"bundle_im":10904,"##_property":10905,"crlrefr":10906,"crl_property":10907,"643ms":10908,"against_":10909,"be_checked":10910,"lcheckerthread_0":10911,"##esh_172":10912,"bundle_imaging":10913,"crlrefresh_172":10914,"against_a":10915,"324":10916,"903":10917,"##_de":10918,"##tqu":10919,"##on_cl":10920,"##ustered":10921,"1050":10922,"##de42":10923,"1068":10924,"##eb7":10925,"##909b":10926,"##3270":10927,"##1838":10928,"##4208":10929,"##4465":10930,"##509a":10931,"##5640":10932,"##9991":10933,"##36c":10934,"##f2ca":10935,"##7200":10936,"##f37":10937,"##9c4a":10938,"##70e":10939,"##ee7a":10940,"##14f1":10941,"##7300":10942,"##faultqu":10943,"##1792":10944,"##1ae":10945,"39344":10946,"##3168":10947,"##90400":10948,"##1440":10949,"clientadapter_66":10950,"_1n":10951,"_8g":10952,"_non_cl":10953,"lientadapter_127":10954,"_6x":10955,"39486":10956,"3325":10957,"05_08":10958,"635ms":10959,"##artzscheduler_":10960,"quartzscheduler":10961,"quartzscheduler_":10962,"scheduler_de":10963,"##faultquartzscheduler_":10964,"_non_clustered":10965,"scheduler_defaultquartzscheduler_":10966,"%,":10967,"0x10000":10968,"69a":10969,"744":10970,"_i":10971,"_91":10972,"_executor":10973,"_9b":10974,"_1r":10975,"be7":10976,"c91":10977,"c1b":10978,"c146":10979,"c342":10980,"ec":10981,"##032":10982,"##9_status":10983,"##esolr":10984,"##ea3f":10985,"##ea44":10986,"##88d2":10987,"##da16":10988,"##da2c":10989,"##ebb4":10990,"##755a":10991,"##75aa":10992,"##0188":10993,"##9540":10994,"##95aa":10995,"##85408":10996,"##9464":10997,"##34eb":10998,"##34e4":10999,"##68ce":11000,"##92eb":11001,"##1576":11002,"##18c":11003,"##1283":11004,"##774f":11005,"##97b4":11006,"##02dd":11007,"##0310":11008,"##bf4a":11009,"##7860":11010,"##084d":11011,"##0874":11012,"##3f92":11013,"##3865":11014,"##38c8":11015,"##9910":11016,"##99c5":11017,"##9602":11018,"##b0ab":11019,"##b8c":11020,"##3674":11021,"##3622":11022,"configuration":11023,"##91da":11024,"##91a4":11025,"##f4f1":11026,"##f4bb":11027,"##b5ca":11028,"##7478":11029,"##74b1":11030,"##b1a4":11031,"##9d3a":11032,"##f3c":11033,"##559":11034,"##e476":11035,"##d51":11036,"##6592":11037,"##9b74":11038,"##c3e":11039,"##547b":11040,"##9316":11041,"##4f58":11042,"##7352":11043,"##467":11044,"##e5c":11045,"##9a46":11046,"##c6f4":11047,"##7a94":11048,"0975":11049,"##c8e":11050,"##1a94":11051,"##efbb":11052,"44770":11053,"##c4bf":11054,"##c4ab":11055,"##c59":11056,"c350":11057,"c317":11058,"##c0f4":11059,"67af":11060,"c132":11061,"clientadapter_99":11062,"40214":11063,"##d0f":11064,"1689531912":11065,"16895218":11066,"1689529395":11067,"168954952":11068,"168954764":11069,"1689543866":11070,"168956242":11071,"1689560538":11072,"40120":11073,"39648":11074,"1689552988":11075,"168956148":11076,"1689561796":11077,"##02b96b":11078,"168954701":11079,"168952593":11080,"1690357593":11081,"168953317":11082,"168952656":11083,"4fc37e69_commitcommandversion":11084,"715ms":11085,"c1188":11086,"1689551101":11087,"31_01":11088,"remotesolr":11089,"1689574065":11090,"1689528452":11091,"0x1000002b96b":11092,"remotesolrcatalogprovider":11093,"3c":11094,"912":11095,"_7g":11096,"_6d":11097,"csv":11098,"ob":11099,"##9486":11100,"##3404":11101,"##3464":11102,"##3480":11103,"##0444":11104,"##6842":11105,"##92c":11106,"##6656":11107,"##7800":11108,"##0840":11109,"##5800":11110,"##4447":11111,"##9830":11112,"##1108":11113,"##40346":11114,"##059":11115,"##1be":11116,"##70ca":11117,"##5a7":11118,"##e29":11119,"##069":11120,"##6976":11121,"##c845":11122,"40926":11123,"39956":11124,"_47":11125,"_4i":11126,"completed":11127,"##b294":11128,"clientadapter_62":11129,"_1m":11130,"_81":11131,"lientadapter_126":11132,"lientadapter_111":11133,"40098":11134,"39644":11135,"40362":11136,"39280":11137,"##c40f":11138,"636ms":11139,"638ms":11140,"object":11141,"314":11142,"4c3":11143,"778":11144,"740":11145,"733":11146,"7a2":11147,"_24":11148,"_2u":11149,"a90":11150,"##354":11151,"##ed9":11152,"##ea76":11153,"##ea9b":11154,"1062":11155,"##dab8":11156,"##7554":11157,"##fa98":11158,"##fa4a":11159,"##fa4f":11160,"##fa0d":11161,"##615a":11162,"##9543":11163,"##8599":11164,"##9403":11165,"##9496":11166,"##340b":11167,"##349a":11168,"##3447":11169,"##04f4":11170,"##0482":11171,"##6844":11172,"##68c4":11173,"##9235":11174,"##128a":11175,"##ca7":11176,"##7714":11177,"##6620":11178,"##fd44":11179,"##4250":11180,"##4282":11181,"##bf45":11182,"##58ab":11183,"##58ba":11184,"##abdb":11185,"##ab7a":11186,"##5024":11187,"##50b4":11188,"##3862":11189,"##f148":11190,"##5690":11191,"##0b3a":11192,"##9924":11193,"##9802":11194,"##984d":11195,"##4a4b":11196,"##b844":11197,"##913a":11198,"##f49d":11199,"##f41d":11200,"##b544":11201,"##7470":11202,"##b19":11203,"##b19b":11204,"##6c01":11205,"##40c":11206,"##9d6f":11207,"##0594":11208,"##4930":11209,"##6416":11210,"##bae":11211,"##9c7c":11212,"##bbed":11213,"##2d7":11214,"##e477":11215,"##e41f":11216,"##e43e":11217,"39792":11218,"##14bf":11219,"##9b41":11220,"##9bc44":11221,"##c3a75":11222,"##f67":11223,"##9300":11224,"##4b88":11225,"##d744":11226,"##ad7c":11227,"##c678":11228,"54156":11229,"##e8e":11230,"##e8fd4":11231,"##1a4f":11232,"##c43a":11233,"##7994":11234,"281":11235,"##0df":11236,"##a2e":11237,"lientadapter_103":11238,"39438":11239,"39534":11240,"43208":11241,"36550":11242,"lerpollthread_18":11243,"38074":11244,"suggest":11245,"4f2":11246,"790":11247,"808":11248,"872":11249,"813":11250,"bd5":11251,"b0a":11252,"##ene":11253,"1088":11254,"##2412":11255,"##90345":11256,"##9510":11257,"##8548":11258,"##9492":11259,"##9415":11260,"##1515":11261,"##1272":11262,"##1280":11263,"##7877":11264,"##0800":11265,"##5252":11266,"##5056":11267,"##6105":11268,"##746b":11269,"##6c94":11270,"##727":11271,"##9df4":11272,"##0592":11273,"##2260":11274,"##9b04":11275,"##2690":11276,"##d71":11277,"##5e7":11278,"55484":11279,"43982":11280,"##pact":11281,"##9fc":11282,"##021a":11283,"39952":11284,"compact":11285,"##ourcer":11286,"_4y":11287,"000002bf":11288,"clientadapter_85":11289,"lientadapter_100":11290,"39538":11291,"16903641990":11292,"39390":11293,"16903563":11294,"48072":11295,"1690361997":11296,"nitf":11297,"0925":11298,"299":11299,"7c":11300,"834":11301,"_y":11302,"_34":11303,"_92":11304,"_99":11305,"_9c":11306,"_6o":11307,"_2s":11308,"_9l":11309,"c365":11310,"c222":11311,"c339":11312,"eec":11313,"##1a8":11314,"##f7a":11315,"##edfd":11316,"##ea04":11317,"##icy":11318,"##ec85":11319,"##0037":11320,"##2495":11321,"##2450":11322,"##2426":11323,"##2244":11324,"##da98":11325,"##01312":11326,"##9044":11327,"##614b":11328,"##9494":11329,"##94aa":11330,"##3496":11331,"##3484":11332,"##0452":11333,"##04d5":11334,"##0417":11335,"##9273":11336,"##ca4d":11337,"##9726":11338,"##bf94":11339,"##bf2a":11340,"##ab4a":11341,"##3fc":11342,"##3feb":11343,"##444f":11344,"##509":11345,"##38da":11346,"##3864":11347,"000002f":11348,"##989":11349,"##9832":11350,"##b8138":11351,"##9110":11352,"eventmanager":11353,"##7474":11354,"##747b":11355,"##b1c":11356,"##b185":11357,"##4995":11358,"##1b52":11359,"##6458":11360,"##64bb":11361,"##f31f":11362,"##7097":11363,"##33c":11364,"16895249":11365,"##e07":11366,"##e41d":11367,"##e4fb":11368,"##d598":11369,"##1465":11370,"##7c44":11371,"##7c2d":11372,"##7cd4":11373,"##ddc":11374,"##93e4":11375,"##e201":11376,"##e54d":11377,"##3568":11378,"##cb88":11379,"##cbda":11380,"##0184":11381,"4275":11382,"42734":11383,"##4390":11384,"##e8c":11385,"##1ac":11386,"##e776":11387,"##e195":11388,"39016":11389,"##c424":11390,"##c544":11391,"c232":11392,"c277":11393,"c256":11394,"c298":11395,"c214":11396,"##bdc":11397,"##419":11398,"##6324":11399,"16902466":11400,"##b4ea":11401,"##7995":11402,"##4704":11403,"##4718":11404,"c404":11405,"c468":11406,"c471":11407,"c101":11408,"1690351":11409,"##4e24":11410,"clientadapter_67":11411,"1689533485":11412,"c187":11413,"lientadapter_113":11414,"168954040":11415,"1689569661":11416,"39490":11417,"36660":11418,"55374":11419,"1690364199":11420,"16903641993":11421,"38748":11422,"c489":11423,"_9v":11424,"168954732":11425,"c449":11426,"000002be":11427,"1689520273":11428,"1689570604":11429,"1689537574":11430,"1690355705":11431,"1689542293":11432,"1689536630":11433,"1689553303":11434,"48a":11435,"877":11436,"916":11437,"_36":11438,"_26":11439,"##cd5":11440,"##ed2d":11441,"1090":11442,"##eca8":11443,"##2488":11444,"##2456":11445,"##cc8b":11446,"##7575":11447,"##759d":11448,"##01e":11449,"##0140":11450,"##9084":11451,"##3490":11452,"##3455":11453,"##6892":11454,"##764b":11455,"##9784":11456,"##0311":11457,"##4264":11458,"##08e":11459,"##3842":11460,"##3860":11461,"##30e":11462,"##9916":11463,"##9965":11464,"##9688":11465,"##5700":11466,"##48e":11467,"##9834":11468,"##f4cd":11469,"##746a":11470,"##4932":11471,"##igr":11472,"##6294":11473,"##9b47":11474,"##dd9":11475,"##e27":11476,"##e5e":11477,"381":11478,"38448":11479,"##4336":11480,"4175":11481,"##e14a":11482,"##cd4a":11483,"50682":11484,"##77408":11485,"##bd1":11486,"##1968":11487,"_4h":11488,"##3dc":11489,"_2i":11490,"##0744":11491,"##validator":11492,"1690366":11493,"05t02":11494,"##3936":11495,"0x10000046b0e015c":11496,"clientadapter_93":11497,"_1o":11498,"lientadapter_104":11499,"lientadapter_101":11500,"40056":11501,"41656":11502,"##a9ce":11503,"05_12":11504,"656ms":11505,"0x7f":11506,"028":11507,"204800":11508,"4597":11509,"741":11510,"786":11511,"944":11512,"906":11513,"_2t":11514,"_4j":11515,"gu":11516,"##7db":11517,"##f03":11518,"##edba":11519,"##ed46":11520,"##ea64":11521,"##de9a":11522,"##2485":11523,"##2404":11524,"##2430":11525,"##24cb":11526,"##8830":11527,"##8828":11528,"##da9b":11529,"##ansion":11530,"##eb94":11531,"logout":11532,"##7512":11533,"##75b8":11534,"##0117":11535,"##01408":11536,"##90ec":11537,"##9582":11538,"##8514":11539,"##85fb":11540,"##8527":11541,"##942a":11542,"##3412":11543,"##04da":11544,"##0406":11545,"##12da":11546,"##caf4":11547,"##0264":11548,"##6634":11549,"##664a":11550,"##6664":11551,"##4238":11552,"##7815":11553,"##789a":11554,"##1640":11555,"##3070":11556,"##56f1":11557,"##aff3":11558,"##99ca":11559,"##99fd":11560,"##99b4":11561,"##967":11562,"##9650":11563,"##9674":11564,"##9672":11565,"##969d":11566,"##96dd":11567,"##4891":11568,"##9868":11569,"##98f2":11570,"##b834":11571,"##f4e":11572,"##f4b8":11573,"##b54f":11574,"##7475":11575,"##b148":11576,"##9d24":11577,"##9dda":11578,"##9d03":11579,"##9d2a":11580,"##baaa":11581,"##f3bb":11582,"##70f5":11583,"##bb98":11584,"##bbd8":11585,"##ee4a":11586,"##231":11587,"001b":11588,"##db42":11589,"##e418":11590,"##1432":11591,"##1450":11592,"##93b4":11593,"##e21a":11594,"##7142":11595,"##71aa":11596,"##2912":11597,"43b":11598,"##3be":11599,"##3b18":11600,"##207":11601,"##cbe":11602,"##9de2":11603,"##9666":11604,"38958":11605,"##d81":11606,"##e843":11607,"expansion":11608,"##3744":11609,"##c494":11610,"##c594":11611,"##41c":11612,"##d40b":11613,"##63e":11614,"##1990":11615,"##7988":11616,"##98464":11617,"clientadapter_65":11618,"5c68":11619,"5c44":11620,"40426":11621,"39696":11622,"51256":11623,"34898":11624,"632ms":11625,"000002bc":11626,"714ms":11627,"712ms":11628,"guest":11629,"3ec":11630,"758":11631,"921":11632,"_82":11633,"c90":11634,"dard":11635,"##d_session":11636,"##_54":11637,"##ml":11638,"##ich":11639,"had_session":11640,"##de88":11641,"##2497":11642,"##cc88":11643,"##0135":11644,"##fa84":11645,"##9576":11646,"##9518":11647,"##8500":11648,"##0446":11649,"##92e":11650,"##9270":11651,"##7775":11652,"##0892":11653,"##0842":11654,"##5864":11655,"##ab9":11656,"##309":11657,"##afed":11658,"##98304":11659,"##1174":11660,"##7464":11661,"##which":11662,"##1d7":11663,"##ba8a":11664,"##55c":11665,"##5536":11666,"##9bed":11667,"dev":11668,"##9374":11669,"##7392":11670,"##69ac":11671,"55932":11672,"##c64a":11673,"35248":11674,"56_minutes":11675,"6354":11676,"4775":11677,"##4112":11678,"##5c7":11679,"clientadapter_71":11680,"clientadapter_80":11681,"lientadapter_114":11682,"lientadapter_115":11683,"lientadapter_118":11684,"lientadapter_123":11685,"##68416":11686,"16903641992":11687,"45540":11688,"47196":11689,"standardlogger":11690,"##loggerfactory":11691,"5701_":11692,"dardloggerfactory":11693,"had_sessionid":11694,"standardlogger_54":11695,"26c":11696,"3ea":11697,"309":11698,"854":11699,"806":11700,"82288":11701,"_h":11702,"_v":11703,"_sh":11704,"_84":11705,"_3y":11706,"dce":11707,"ea5":11708,"f65":11709,"##monitor":11710,"##ui":11711,"##ea58":11712,"1045":11713,"10e5e8":11714,"##ecf4":11715,"application":11716,"##de95":11717,"##240b":11718,"##24b1":11719,"##ccea":11720,"##ccab":11721,"##08896":11722,"1060":11723,"##7548":11724,"##7545":11725,"##fa6a":11726,"##6168":11727,"##6118":11728,"##9574":11729,"##959d":11730,"##959f":11731,"##951a":11732,"##8582":11733,"##9412":11734,"##9487":11735,"##9428":11736,"##34cc":11737,"##34f4":11738,"##34d5":11739,"##34d1":11740,"##34936":11741,"##044b":11742,"##0428":11743,"##049f":11744,"##68ab":11745,"##9214":11746,"##76ca":11747,"##3260":11748,"##18ca":11749,"##ca87":11750,"##ca3b":11751,"##ca48d":11752,"##fdbf":11753,"##fd54":11754,"##bf28":11755,"##bf80":11756,"##0895":11757,"##08f1":11758,"##080b":11759,"##08f8":11760,"##4430":11761,"##5075":11762,"from_":11763,"##3848":11764,"##f134":11765,"##f166":11766,"##3050":11767,"##4db5":11768,"##af0b":11769,"##af43cd":11770,"##99ea":11771,"##9988":11772,"##9901":11773,"##574b":11774,"0000082":11775,"##98ec":11776,"##98f5":11777,"##1e1a":11778,"##b8e":11779,"##b842":11780,"##b8ab":11781,"##36a8":11782,"##9108":11783,"##f401":11784,"##f412":11785,"filter":11786,"##b534":11787,"##b546":11788,"##74f6":11789,"##74fc":11790,"##6c44":11791,"##f23b":11792,"##9d3f":11793,"##9d4d":11794,"##4990":11795,"##4976":11796,"##49ca":11797,"##baeb":11798,"##ba85":11799,"##baaf":11800,"##9c42":11801,"##9c4d":11802,"##bb66":11803,"##bbdb":11804,"##5594":11805,"##55ab":11806,"##5544":11807,"168951":11808,"16895183":11809,"168954858":11810,"##ee7":11811,"##db44":11812,"##db4a":11813,"##62e":11814,"##621b":11815,"##e4ab":11816,"39744":11817,"##7c4d":11818,"##7c014":11819,"##dd1":11820,"##dd8d":11821,"##93888":11822,"##4fc":11823,"##7361":11824,"##e5b8":11825,"##f900":11826,"##8f44":11827,"##7176":11828,"##714a":11829,"##35ab":11830,"##246a":11831,"##3a5ac3":11832,"##9afd":11833,"451":11834,"##9f7":11835,"##cfb4":11836,"##cb4d":11837,"##a818":11838,"##429ca48d":11839,"01ex":11840,"##1fe":11841,"##c824":11842,"##d84b":11843,"##e844":11844,"##e811":11845,"##e822":11846,"##e8cde":11847,"##379":11848,"##ef7":11849,"##e19":11850,"39322":11851,"39386":11852,"##cd9b":11853,"##7b16":11854,"##80c":11855,"##b47a":11856,"##7990":11857,"##2144":11858,"##5312":11859,"##13021131":11860,"69dc599":11861,"##f74a":11862,"0242ac130026":11863,"16895303":11864,"1689538832":11865,"##94816":11866,"_8r":11867,"_6h":11868,"##9989032":11869,"55636":11870,"47500":11871,"169036419989032":11872,"41300":11873,"54918":11874,"##140e3":11875,"server_ui":11876,"##7f8e8cde":11877,"##57a90cf":11878,"##fb3b8138":11879,"##c63ce":11880,"1689526564":11881,"##7424ec78":11882,"29t19":11883,"##25d3a5ac3":11884,"717ms":11885,"1689538518":11886,"1689532856":11887,"713ms":11888,"1689557078":11889,"##11fbe8fd4":11890,"##913ffb3b8138":11891,"##f7fdca32":11892,"1689546068":11893,"##bd2a913ffb3b8138":11894,"##3396c3a75":11895,"##ee60af43cd":11896,"##ce77140e3":11897,"172413021131":11898,"##8540874":11899,"##9bc443396c3a75":11900,"##ad7cf7fdca32":11901,"82288ad7cf7fdca32":11902,"_shortname":11903,"10e5e8429ca48d":11904,"##7c014ee60af43cd":11905,"69dc599c63ce":11906,"1690364199890321408":11907,"##7f8e8cde9bc443396c3a75":11908,"##57a90cf7f8e8cde9bc443396c3a75":11909,"##7424ec78bd2a913ffb3b8138":11910,"##25d3a5ac357a90cf7f8e8cde9bc443396c3a75":11911,"##11fbe8fd47424ec78bd2a913ffb3b8138":11912,"1724130211318540874":11913,"82288ad7cf7fdca3225d3a5ac357a90cf7f8e8cde9bc443396c3a75":11914,"10e5e8429ca48d11fbe8fd47424ec78bd2a913ffb3b8138":11915,"##7c014ee60af43cd42":11916,"82288ad7cf7fdca3225d3a5ac357a90cf7f8e8cde9bc443396c3a75ce77140e3":11917,"10e5e8429ca48d11fbe8fd47424ec78bd2a913ffb3b81387c014ee60af43cd42":11918,"753":11919,"9c":11920,"911":11921,"_1e":11922,"_7r":11923,"search":11924,"##330":11925,"##_check":11926,"1072":11927,"1047":11928,"10903":11929,"##2494":11930,"##cc45":11931,"##6114":11932,"##9577":11933,"##8590":11934,"##3460":11935,"##6830":11936,"##1895":11937,"##7700":11938,"##7701":11939,"##0382":11940,"##5808":11941,"##169a":11942,"##3861":11943,"##98e":11944,"##9175":11945,"##b5a8":11946,"##ba44":11947,"##bbb8":11948,"##6288":11949,"39796":11950,"##8208":11951,"##0976":11952,"##2848":11953,"35038":11954,"35108":11955,"##6fc":11956,"##c466":11957,"##3d9":11958,"##f705":11959,"clientadapter_92":11960,"clientadapter_82":11961,"_8l":11962,"45238":11963,"##9128":11964,"lientadapter_116":11965,"_6n":11966,"46462":11967,"1690356963":11968,"1690370490":11969,"up_17":11970,"061":11971,"2d2":11972,"51e":11973,"55500":11974,"6e":11975,"6a8":11976,"787":11977,"773":11978,"800":11979,"861":11980,"868":11981,"878":11982,"901":11983,"94a":11984,"_70":11985,"e34":11986,"e9d":11987,"e7b":11988,"##db1":11989,"##30111":11990,"##fbf":11991,"##sc":11992,"##eda8":11993,"##eab2":11994,"1038":11995,"##ec7":11996,"##dee8":11997,"##243b":11998,"##24e8":11999,"##088a":12000,"##ebc8":12001,"##7526":12002,"##0196":12003,"22260":12004,"##9091":12005,"##fac6":12006,"##faa8":12007,"##6122":12008,"##9591":12009,"##957f":12010,"##9402":12011,"##9441":12012,"##3400":12013,"##343f":12014,"##3454":12015,"##0412":12016,"##04ba":12017,"##9290":12018,"##9298":12019,"##1548":12020,"##7694":12021,"##1842":12022,"##ca08":12023,"##97bf":12024,"##0225":12025,"##0385":12026,"##fdbc":12027,"##784a":12028,"##7836":12029,"##abe":12030,"##3894":12031,"##380b":12032,"##3822":12033,"##3813":12034,"##f19":12035,"##3054":12036,"##5604":12037,"##5642":12038,"##4d03":12039,"##af8a":12040,"##9962":12041,"##9644":12042,"##4894":12043,"##9816":12044,"##98752":12045,"##4acd":12046,"##b804":12047,"##b87a":12048,"##9146":12049,"##f438":12050,"##f46f":12051,"##f4ff":12052,"##7433":12053,"##b14b":12054,"##f2b5":12055,"##1b0b":12056,"##1b4a":12057,"##ba3a":12058,"##9c3a":12059,"1689566":12060,"1689531":12061,"##139a":12062,"##db61":12063,"##62ee":12064,"##e417":12065,"##65c":12066,"##6548":12067,"##146a":12068,"##7c4b":12069,"##c35a":12070,"##e5da":12071,"##71ec":12072,"##5e9a":12073,"43242":12074,"58304":12075,"##9fe":12076,"##cf4d":12077,"##cb46":12078,"##2443":12079,"##c8c":12080,"##c89f":12081,"##d864":12082,"##3715":12083,"57106":12084,"##7b4a":12085,"##c4ed":12086,"##c4e4":12087,"50922":12088,"##c59c":12089,"newsc":12090,"##d47":12091,"##d442":12092,"##c0ea":12093,"659ms":12094,"##b3fa":12095,"##dc94":12096,"##d6e":12097,"clientadapter_61":12098,"clientadapter_78":12099,"clientadapter_96":12100,"clientadapter_69":12101,"clientadapter_79":12102,"60444":12103,"gmd":12104,"lientadapter_125":12105,"##94208":12106,"39830":12107,"50260":12108,"37824":12109,"0875":12110,"000002bd":12111,"property":12112,"035":12113,"732":12114,"8c":12115,"866":12116,"926":12117,"cer":12118,"##540":12119,"##cl":12120,"##9152":12121,"##tific":12122,"1066":12123,"##0146":12124,"##9060":12125,"##fa97":12126,"##fa64":12127,"##fa5a":12128,"##6170":12129,"##8530":12130,"##3476":12131,"##0450":12132,"##9238":12133,"##1260":12134,"##974f":12135,"##974c":12136,"##0226":12137,"##0308":12138,"##7816":12139,"##5220":12140,"##99904":12141,"##579":12142,"##571b":12143,"##1e9":12144,"##1124":12145,"##1130":12146,"##7401":12147,"##9c7":12148,"##e4f5":12149,"##dd7":12150,"##e2ab":12151,"##7194":12152,"##246b":12153,"45952":12154,"##4395":12155,"44168":12156,"##c4bb":12157,"##0736":12158,"clientadapter_60":12159,"clientadapter_84":12160,"57372":12161,"39506":12162,"##97056":12163,"_7q":12164,"39228":12165,"00000153":12166,"0000015b":12167,"47660":12168,"49644":12169,"##72512":12170,"certific":12171,"01e":12172,"2ed":12173,"24b":12174,"36c":12175,"47a":12176,"4bf3":12177,"50b":12178,"6f1":12179,"6f5":12180,"792":12181,"7bf":12182,"784":12183,"833":12184,"882":12185,"983":12186,"_5m":12187,"cc":12188,"f77":12189,"f1b":12190,"##594":12191,"##d58":12192,"##db8":12193,"##30112":12194,"##b74":12195,"##tate":12196,"##edc4":12197,"##ea84":12198,"##esservice":12199,"##dsolrclient":12200,"##2422":12201,"##8815":12202,"##88b2":12203,"##cc4f":12204,"##cc1a":12205,"##da64":12206,"##dabb":12207,"##ebbf":12208,"##eb9a":12209,"##eba8":12210,"##eb5c":12211,"##75f1":12212,"##754d":12213,"##0150":12214,"##014f":12215,"##faeb":12216,"##fa48":12217,"##fa6b":12218,"##6190":12219,"##61ca":12220,"##95ed":12221,"##95bd":12222,"##9547":12223,"##95936":12224,"##943b":12225,"##9460":12226,"##3457":12227,"##34ba":12228,"##0402":12229,"##04fd":12230,"##049d":12231,"##04ac":12232,"##682a":12233,"##921e":12234,"##925a":12235,"##1528":12236,"##7677":12237,"##76e4":12238,"##3274":12239,"##3254":12240,"minutes_":12241,"##18fb":12242,"##1292":12243,"##ca46":12244,"##7740":12245,"##9722":12246,"##9714":12247,"##0232":12248,"##0223":12249,"##03b8":12250,"##4234":12251,"##4296":12252,"##bfec":12253,"##bf16":12254,"##7894":12255,"##7844":12256,"##0877":12257,"##087a":12258,"##5894":12259,"##58bb":12260,"##ab42":12261,"##ab44":12262,"##4400":12263,"##3896":12264,"##99bb":12265,"##99c6":12266,"##57c70":12267,"##98ab":12268,"##9870":12269,"##9893":12270,"##2a48":12271,"##4a30":12272,"##b82d":12273,"##9142":12274,"##910a":12275,"##f404":12276,"##f402":12277,"##f47c":12278,"##b598":12279,"##74b8":12280,"##743a":12281,"##b1b5":12282,"##b17a":12283,"##40e4":12284,"##722c":12285,"##9d4a":12286,"##05e":12287,"##0588":12288,"##0512":12289,"##49ab":12290,"##6404":12291,"##ba9a":12292,"##2290":12293,"##bbcc":12294,"##33ab":12295,"##33b8":12296,"##5548":12297,"##ee82":12298,"##23e":12299,"##e034":12300,"##e4ea":12301,"##6512":12302,"##140b":12303,"##146b":12304,"##7c42":12305,"##7c4a":12306,"##9bc":12307,"##9b9f":12308,"##f6b8":12309,"##4b71":12310,"##4f64":12311,"##e212":12312,"##0924":12313,"af06":12314,"55920":12315,"##3bee83":12316,"48480":12317,"##20c":12318,"##ad1":12319,"45346":12320,"##6d1":12321,"##7aca":12322,"38048":12323,"##e8c3":12324,"##e744":12325,"##a5c":12326,"##efb3":12327,"##e1da":12328,"39e91e":12329,"##c9eb":12330,"##c4ca":12331,"47086":12332,"##d377":12333,"##4132":12334,"##4166":12335,"##4108":12336,"##639":12337,"169024884":12338,"##f899":12339,"##b47":12340,"##b472":12341,"##79fd":12342,"##5304":12343,"##e6e":12344,"##e644":12345,"cloudsolrclient":12346,"169036325":12347,"##f51":12348,"##32b6":12349,"##5d1":12350,"889f":12351,"##b924":12352,"169035112":12353,"clientadapter_68":12354,"clientadapter_86":12355,"clientadapter_81":12356,"1689531283":12357,"_1z":12358,"5c48":12359,"5c1f":12360,"16895256":12361,"16895293":12362,"16895595":12363,"16895577":12364,"168955015":12365,"1689551730":12366,"1689540405":12367,"16895699":12368,"4225":12369,"42220":12370,"58414":12371,"47228":12372,"0000015c":12373,"41174":12374,"49080":12375,"168955896":12376,"_9p":12377,"1689561482":12378,"##e54b":12379,"1689547326":12380,"1689563684":12381,"1689555190":12382,"1689555505":12383,"168956588":12384,"168954418":12385,"1689520902":12386,"schedul":12387,"716ms":12388,"featuresservice":12389,"168957186":12390,"1689571233":12391,"722ms":12392,"2d657c70":12393,"1689572492":12394,"1689568402":12395,"39e91e3bee83":12396,"featuresserviceimpl":12397,"4f1":12398,"897":12399,"826":12400,"828":12401,"831":12402,"_48":12403,"##670":12404,"##ea5d":12405,"##embean":12406,"1046":12407,"##0016":12408,"##241e":12409,"##ebcb":12410,"##3433":12411,"##6846":12412,"##6860":12413,"##1553":12414,"##1848":12415,"##1254":12416,"##7724":12417,"##7761":12418,"##7770":12419,"##97a1":12420,"##0388":12421,"##fd47":12422,"##4236":12423,"##7803":12424,"##7830":12425,"##50345":12426,"##3890":12427,"##3060":12428,"##9c35":12429,"##7092":12430,"##0465":12431,"##269":12432,"##7398":12433,"##7112":12434,"##7102":12435,"48360":12436,"##6032":12437,"##c6e":12438,"58982":12439,"##cf54":12440,"##e89a":12441,"41740":12442,"##e7e":12443,"57344":12444,"51484":12445,"50562":12446,"##0353":12447,"##e3e":12448,"##f81":12449,"81920":12450,"00000371":12451,"clientadapter_76":12452,"clientadapter_98":12453,"clientadapter_70":12454,"##5168":12455,"lientadapter_124":12456,"lientadapter_102":12457,"59422":12458,"48638":12459,"53714":12460,"52836":12461,"42426":12462,"57670":12463,"0000015a":12464,"52596":12465,"35818":12466,"37414":12467,"45720":12468,"570ms":12469,"34850":12470,"1fa":12471,"52d":12472,"53b":12473,"776":12474,"757":12475,"7a3":12476,"81b":12477,"_8n":12478,"a2b":12479,"bc":12480,"bfa":12481,"ceb":12482,"e2c":12483,"##d40":12484,"##694":12485,"##6e4":12486,"##b6a":12487,"##f85":12488,"##f58":12489,"##ed97":12490,"##ed42":12491,"##ed48":12492,"##ed65":12493,"##ea97":12494,"##ea74":12495,"##ea6a":12496,"##ec43":12497,"##0030":12498,"##24ca":12499,"##2477":12500,"##244d":12501,"##24c4":12502,"##884a":12503,"##da2d":12504,"##daaa":12505,"##ebcf":12506,"##7532":12507,"##7518":12508,"##754a":12509,"##75bb":12510,"1105":12511,"##010b":12512,"##fa85":12513,"##fa92":12514,"##fa82":12515,"##6178":12516,"##9512":12517,"##9503":12518,"##954d":12519,"##8570":12520,"##853a":12521,"##85664":12522,"##9465":12523,"##94bc":12524,"##94fe":12525,"##34e8":12526,"##34ac":12527,"##0478":12528,"##0420":12529,"##04a3":12530,"##6890":12531,"##6835":12532,"##1550":12533,"##1538":12534,"##7690":12535,"##3203":12536,"##1844":12537,"##1871":12538,"##1201":12539,"##7726":12540,"##779a":12541,"##9788":12542,"##66cc":12543,"##6646":12544,"##03af":12545,"##03b1":12546,"##039b":12547,"##03dd":12548,"##bfcb":12549,"##7804":12550,"##abdd":12551,"##1628":12552,"##3f42":12553,"##3f48":12554,"##4443":12555,"##505a":12556,"##3877":12557,"##3802":12558,"##f14a":12559,"##f146":12560,"##4d0f":12561,"##afb4":12562,"##99b8":12563,"##99dd":12564,"##96af":12565,"##96ba":12566,"##960a":12567,"##2a4d":12568,"##4a9":12569,"##b0c8":12570,"##b848":12571,"##3604":12572,"##363a":12573,"##91ea":12574,"##914d":12575,"##f4ea":12576,"##f442":12577,"##f478":12578,"##f458":12579,"##f464":12580,"##f4fb":12581,"##119a":12582,"##11a8":12583,"##b5a4":12584,"##745a":12585,"##b1f4":12586,"##b172":12587,"##6c64":12588,"##4060":12589,"##f204":12590,"##7264":12591,"##7280":12592,"##9ded":12593,"##9d46":12594,"##9dcd":12595,"##9d5f":12596,"##4918":12597,"##49ba":12598,"##49c3":12599,"##493d":12600,"##1b48":12601,"##6488":12602,"##ba2d":12603,"##ba4b":12604,"##9c48":12605,"##bb15":12606,"##bb9d":12607,"##bb7e":12608,"##5515":12609,"##ee99":12610,"##ee13":12611,"##e0fa":12612,"##6297":12613,"##e466":12614,"##e464":12615,"##1490":12616,"##1402":12617,"##14b8":12618,"##9b7":12619,"##9b4d":12620,"##9be4":12621,"##4852":12622,"##ddde":12623,"##dd46":12624,"##93eb":12625,"##26e":12626,"##e284":12627,"##0624":12628,"##0990":12629,"##3a96":12630,"##9abf":12631,"43008":12632,"48920":12633,"##c648":12634,"0x10000046b0e036":12635,"45352":12636,"##9fbb":12637,"##cb44":12638,"##cb4b":12639,"##cb9a":12640,"##7aa8":12641,"23753":12642,"##a8e4":12643,"##9c0a":12644,"##1f98":12645,"##e704":12646,"##7d94":12647,"##7d3a":12648,"##7df8":12649,"##7b4d":12650,"36962":12651,"##c997":12652,"51610":12653,"51918":12654,"##c401":12655,"##c4ce":12656,"##c4af":12657,"##c496":12658,"##f28b":12659,"##c5f5":12660,"##bd9c":12661,"##fbba":12662,"##9e90":12663,"##9e44":12664,"##b4ab":12665,"##c0ab":12666,"##fc88":12667,"##fc44":12668,"##fc0a":12669,"##bcf4":12670,"262144":12671,"##b27":12672,"c438":12673,"##1444":12674,"##d64d":12675,"169035124":12676,"##4e04":12677,"clientadapter_95":12678,"clientadapter_74":12679,"clientadapter_89":12680,"##e915":12681,"##e9af":12682,"47784":12683,"00000112":12684,"5c24":12685,"##96096":12686,"60054":12687,"lientadapter_112":12688,"_6q":12689,"##99896":12690,"4125":12691,"59704":12692,"##85024":12693,"_7p":12694,"56668":12695,"##04288":12696,"57456":12697,"41400":12698,"47172":12699,"22410":12700,"##e820":12701,"sessionid_0x10000046b0e015e":12702,"2c6":12703,"6e2":12704,"67e":12705,"634e":12706,"6a9ce":12707,"72d":12708,"74f":12709,"824":12710,"802":12711,"913":12712,"_93":12713,"_2b":12714,"_1s":12715,"cm":12716,"c5c":12717,"e04":12718,"ja":12719,"ur":12720,"##7b0":12721,"##ge_":12722,"##0064":12723,"##00345":12724,"##de3b":12725,"##2473":12726,"##240d":12727,"##upmanager":12728,"##6194":12729,"##61120":12730,"##9575":12731,"##9420":12732,"##6878":12733,"##9250":12734,"##7634":12735,"##3284":12736,"##1800":12737,"##ca0a":12738,"##0200":12739,"##bfe":12740,"##78b80":12741,"##0803":12742,"##0826":12743,"##5890":12744,"##5896":12745,"##3fea":12746,"##527":12747,"##9803":12748,"##98c3":12749,"##4a0b":12750,"##3640":12751,"##3670":12752,"##b1ac":12753,"##9db4":12754,"##eanupmanager":12755,"##3352":12756,"##dbd3":12757,"##e415":12758,"##e41c":12759,"##6515":12760,"##1496":12761,"##93e8":12762,"##739":12763,"##73c7":12764,"##f9ec":12765,"##3596":12766,"##d21":12767,"53014":12768,"_mime":12769,"33160":12770,"datadir":12771,"registry":12772,"##1a9":12773,"##e79c":12774,"50742":12775,"_2v":12776,"0000039d":12777,"55174":12778,"##24896":12779,"##3930":12780,"clientadapter_72":12781,"clientadapter_63":12782,"lientadapter_117":12783,"55842":12784,"40354":12785,"47394":12786,"513be3a7":12787,"50824":12788,"45648":12789,"44050":12790,"56932":12791,"23878b80":12792,"sessionid_0x10000046b0e015d":12793,"sessionid_0x10000046b0e015f":12794,"purge_":12795,"b672c409ce2e_servicename":12796,"hawtio":12797,"##cleanupmanager":12798,"6a9ce128":12799,"jaas":12800,"datadircleanupmanager":12801,"purge_task":12802,"011":12803,"0_status":12804,"1c":12805,"20180":12806,"2dcb1":12807,"4de":12808,"5b8":12809,"55a":12810,"6b8":12811,"74a":12812,"799896":12813,"848":12814,"86c":12815,"864":12816,"855":12817,"9a8":12818,"_49":12819,"_aj":12820,"_3z":12821,"_1f":12822,"a4a":12823,"cus":12824,"c485":12825,"c7b":12826,"c528":12827,"d149143f":12828,"ma":12829,"map":12830,"mint":12831,"migr":12832,"sourcepollerrunner":12833,"uli":12834,"##adap":12835,"##ev":12836,"##1da":12837,"##512":12838,"##d32":12839,"##dclient":12840,"##fee":12841,"##sprivileged":12842,"##ified":12843,"##tom":12844,"##lou":12845,"##ring":12846,"constructor":12847,"##entho":12848,"##ec37":12849,"##izerm":12850,"##24ea":12851,"##2482":12852,"##8885":12853,"##cce4":12854,"##cca8":12855,"##olrexception":12856,"##forsource":12857,"refr":12858,"##dacc":12859,"##odified":12860,"##75520":12861,"##01ff":12862,"##9030":12863,"##904a":12864,"##9074":12865,"##9053":12866,"##90347":12867,"##fa4d":12868,"##faee":12869,"##ce48":12870,"##6198":12871,"##6135":12872,"##6153":12873,"##61440":12874,"##9593":12875,"##8584":12876,"##9442":12877,"##949c":12878,"##3416":12879,"##3465":12880,"##3463":12881,"##04eb":12882,"##0404":12883,"##1594":12884,"##1508":12885,"##7660":12886,"##3290":12887,"##326b":12888,"##cae6":12889,"##9782":12890,"##0234":12891,"##02f4":12892,"##fddb":12893,"##4278":12894,"##4273":12895,"##bf92":12896,"##bf15":12897,"##bf3f":12898,"##78db":12899,"##7825":12900,"##0824":12901,"##0890":12902,"##08db":12903,"##58ea":12904,"##5290":12905,"##3817":12906,"##f14d":12907,"##30ab":12908,"##5628":12909,"##af88":12910,"##af68":12911,"##af7b":12912,"##0b42":12913,"##0b48":12914,"##0b22":12915,"##0b55":12916,"##9966":12917,"##9695":12918,"##9638":12919,"##9629":12920,"##5794":12921,"000003b6":12922,"0000010f":12923,"##9836":12924,"##4a40":12925,"##b832":12926,"##b83b":12927,"##9103":12928,"##9199":12929,"##914f":12930,"##9145":12931,"##f416":12932,"##f4bc":12933,"##11d4":12934,"##b599":12935,"##74ed":12936,"getcurrent":12937,"getinstance":12938,"##b1ba":12939,"##7236":12940,"##9ddd":12941,"##0568":12942,"##0548":12943,"##1b4c":12944,"##bafa":12945,"##f3ab":12946,"##constructoraccessorimpl":12947,"##9cf1":12948,"##9c98":12949,"##9c22":12950,"##9cbd":12951,"##3338":12952,"##5552":12953,"16895728":12954,"20030":12955,"##e0ec":12956,"##6234":12957,"##e455":12958,"##e465":12959,"##1410":12960,"##8288":12961,"##c39":12962,"##c3b5":12963,"##f69":12964,"##f608":12965,"##f644":12966,"##93ab":12967,"##9355":12968,"##0691":12969,"##25c":12970,"18b":12971,"##719a":12972,"##29e2":12973,"##3585":12974,"##3aeb5":12975,"##9ad4":12976,"##5e9":12977,"##c652":12978,"##c6e4":12979,"##a872":12980,"##17bf":12981,"38342":12982,"##6ac":12983,"##e8e4":12984,"41320":12985,"57422":12986,"##ef88":12987,"##ef15":12988,"##ef44":12989,"39618":12990,"##cdb8":12991,"##7b44":12992,"##c934":12993,"##c4ec":12994,"37428":12995,"##c27":12996,"##aae":12997,"6300346":12998,"6330345":12999,"##d3e":13000,"##4177":13001,"##fb4a":13002,"delegatingconstructoraccessorimpl":13003,"##undle":13004,"##d400":13005,"##5665368":13006,"##f893":13007,"##b40b":13008,"##f0c":13009,"##7900":13010,"##21c":13011,"_4r":13012,"solrclou":13013,"0000027f":13014,"000003b5":13015,"000003b1":13016,"##1728":13017,"##5dc":13018,"73728":13019,"clientadapter_77":13020,"clientadapter_83":13021,"168953505":13022,"_1q":13023,"_8t":13024,"c163aeb5":13025,"##0481":13026,"16895558":13027,"##34400":13028,"1689549528":13029,"16895668":13030,"168956305":13031,"##9420606":13032,"##96416":13033,"##85824":13034,"##778d":13035,"52268":13036,"58202":13037,"58260":13038,"##96256":13039,"33492":13040,"38202":13041,"00000284":13042,"35400":13043,"44260":13044,"40890":13045,"39370":13046,"58732":13047,"49696":13048,"16119420606":13049,"6107568":13050,"4ac7":13051,"05_06":13052,"1689541035":13053,"1689534114":13054,"168952845":13055,"equinoxcontainer":13056,"168952436":13057,"##61d70":13058,"1689523733":13059,"1689525935":13060,"1689565886":13061,"168952090":13062,"1689546382":13063,"1689560853":13064,"168957406":13065,"1689554246":13066,"1689569346":13067,"1689550786":13068,"1689538203":13069,"8045665368":13070,"8114592":13071,"1689546697":13072,"1689539462":13073,"2d661d70":13074,"unavailablesolrclient":13075,"unavailablesolrexception":13076,"33e703582dfc_servicename":13077,"7493656":13078,"notifyhook":13079,"##valueforsource":13080,"10903952":13081,"2dcb1abc":13082,"7998962536":13083,"custom":13084,"maxt":13085,"ulid":13086,"##adaptor":13087,"##eventho":13088,"##dclientfactory":13089,"##izermodified":13090,"refrecipe":13091,"getcurrentvalueforsource":13092,"1689572806":13093,"solrcloudclientfactory":13094,"c163aeb5abdb":13095,"1611942060638":13096,"equinoxcontaineradaptor":13097,"customizermodified":13098,"##eventhook":13099,"23a":13100,"4c":13101,"4a8":13102,"47430":13103,"6ae":13104,"70b":13105,"793":13106,"886":13107,"c02":13108,"##21b":13109,"1043":13110,"##2458":13111,"##cc9":13112,"##0883":13113,"##eb6a":13114,"##0142":13115,"##9048":13116,"##9070":13117,"##9514":13118,"##8546":13119,"##681d":13120,"##ca7b":13121,"##9768":13122,"##fd9":13123,"##4232":13124,"##7847":13125,"##58c8":13126,"##52736":13127,"##389a":13128,"##_persistence":13129,"##5694":13130,"##afb1":13131,"##9993":13132,"##91ad":13133,"##b59":13134,"##b54b":13135,"##22c":13136,"##7060":13137,"##10347":13138,"46340":13139,"46938":13140,"##13be3a7":13141,"##e458":13142,"##d5e":13143,"52306":13144,"52194":13145,"##ddcf":13146,"##f6e":13147,"##87e":13148,"##9334":13149,"##4b7":13150,"##e5ab":13151,"##f9fa":13152,"##8660":13153,"##8fe":13154,"55948":13155,"43224":13156,"43362":13157,"53048":13158,"##459d":13159,"0x10000046b0e05d":13160,"45998":13161,"##7afd":13162,"54042":13163,"42528":13164,"42788":13165,"38326":13166,"35914":13167,"##e8d8":13168,"4075":13169,"##e79":13170,"50760":13171,"321":13172,"##e39":13173,"##e399":13174,"##53c":13175,"bundle_persistence":13176,"_513be3a7":13177,"##f7e":13178,"_2w":13179,"0000027b":13180,"000003b0":13181,"000003b8":13182,"##a0aa":13183,"60252":13184,"60158":13185,"lientadapter_122":13186,"38550":13187,"38802":13188,"54630":13189,"36152":13190,"33210":13191,"54094":13192,"33396":13193,"47358":13194,"245760":13195,"59102":13196,"45874":13197,"39392":13198,"34592":13199,"46598":13200,"50636":13201,"36398":13202,"637ms":13203,"644ms":13204,"258048":13205,"253952":13206,"_d149143f":13207,"1104bf4b":13208,"0da":13209,"015":13210,"02d":13211,"08f":13212,"29b":13213,"36c8":13214,"4425":13215,"5c0d":13216,"54858":13217,"6de":13218,"764":13219,"847":13220,"991":13221,"_71":13222,"_29":13223,"_6r":13224,"bf2":13225,"bef":13226,"c224":13227,"c96":13228,"d90":13229,"eb6":13230,"fed":13231,"##024":13232,"##db0":13233,"##3cb":13234,"##9328":13235,"##bca":13236,"##b58":13237,"##bd7":13238,"##f00":13239,"##f77":13240,"##f08":13241,"##f38":13242,"##ed94":13243,"##ea4d":13244,"##eaad":13245,"##chevent":13246,"##ec71":13247,"##de18":13248,"##de4b":13249,"##2410":13250,"##24e4":13251,"##2487":13252,"##ccec":13253,"##cc6f":13254,"##cc5d":13255,"##dafa":13256,"##da4d":13257,"##da48":13258,"##da1d":13259,"##daf6":13260,"##dafb":13261,"##eb00":13262,"##eb88":13263,"##ebba":13264,"##75cc":13265,"##7592":13266,"##7572":13267,"##7522":13268,"##7583":13269,
[...]
