{"version":"1.0","truncation":{"max_length":20,"strategy":"LongestFirst","stride":0},"padding":{"strategy":{"Fixed":20},"direction":"Right","pad_to_multiple_of":null,"pad_id":0,"pad_type_id":0,"pad_token":"[PAD]"},"added_tokens":[{"id":0,"special":true,"content":"[UNK]","single_word":false,"lstrip":false,"rstrip":false,"normalized":false},{"id":1,"special":true,"content":"[CLS]","single_word":false,"lstrip":false,"rstrip":false,"normalized":false},{"id":2,"special":true,"content":"[SEP]","single_word":false,"lstrip":false,"rstrip":false,"normalized":false},{"id":3,"special":true,"content":"[PAD]","single_word":false,"lstrip":false,"rstrip":false,"normalized":false},{"id":4,"special":true,"content":"[MASK]","single_word":false,"lstrip":false,"rstrip":false,"normalized":false}],"normalizer":{"type":"Sequence","normalizers":[{"type":"NFD"},{"type":"Lowercase"},{"type":"StripAccents"}]},"pre_tokenizer":{"type":"Whitespace"},"post_processor":{"type":"TemplateProcessing","single":[{"SpecialToken":{"id":"[CLS]","type_id":0}},{"Sequence":{"id":"A","type_id":0}},{"SpecialToken":{"id":"[SEP]","type_id":0}}],"pair":[{"SpecialToken":{"id":"[CLS]","type_id":0}},{"Sequence":{"id":"A","type_id":0}},{"SpecialToken":{"id":"[SEP]","type_id":0}},{"Sequence":{"id":"B","type_id":1}},{"SpecialToken":{"id":"[SEP]","type_id":1}}],"special_tokens":{"[CLS]":{"id":"[CLS]","ids":[1],"tokens":["[CLS]"]},"[SEP]":{"id":"[SEP]","ids":[2],"tokens":["[SEP]"]}}},"decoder":{"type":"WordPiece","prefix":"##","cleanup":true},"model":{"type":"WordPiece","unk_token":"[UNK]","continuing_subword_prefix":"##","max_input_chars_per_word":100,"vocab":{"[UNK]":0,"[CLS]":1,"[SEP]":2,"[PAD]":3,"[MASK]":4,"!":5,"\"":6,"#":7,"$":8,"%":9,"&":10,"'":11,"(":12,")":13,"*":14,"+":15,",":16,"-":17,".":18,"/":19,"0":20,"1":21,"2":22,"3":23,"4":24,"5":25,"6":26,"7":27,"8":28,"9":29,":":30,";":31,"<":32,"=":33,">":34,"?":35,"@":36,"[":37,"\\":38,"]":39,"_":40,"a":41,"b":42,"c":43,"d":44,"e":45,"f":46,"g":47,"h":48,"i":49,"j":50,"k":51,"l":52,"m":53,"n":54,"o":55,"p":56,"q":57,"r":58,"s":59,"t":60,"u":61,"v":62,"w":63,"x":64,"y":65,"z":66,"{":67,"|":68,"}":69,"~":70,"##6":71,"##5":72,"##0":73,"##d":74,"##8":75,"##2":76,"##1":77,"##c":78,"##4":79,"##e":80,"##7":81,"##f":82,"##9":83,"##b":84,"##3":85,"##a":86,"##*":87,"##]":88,"##)":89,"##+":90,"##_":91,"##w":92,"##h":93,"##i":94,"##x":95,"##m":96,"##n":97,"##g":98,"##p":99,"##l":100,"##o":101,"##s":102,"##r":103,"##v":104,"##t":105,"##u":106,"##y":107,"##z":108,"##k":109,"##j":110,"##q":111,"##{":112,"##?":113,"##:":114,"##,":115,"##<":116,"##}":117,"##&":118,"##-":119,"##(":120,"##\"":121,"##[":122,"##/":123,"##.":124,"##!":125,"##>":126,"##=":127,"##ta":128,"##er":129,"##on":130,"\":":131,"\":\"":132,"##in":133,"##ur":134,"##or":135,"##es":136,"##tat":137,"##{\"":138,"##us":139,"con":140,"stat":141,"status":142,"##,\"":143,"conta":144,"##iner":145,"container":146,"\",\"":147,"##our":148,"##,{\"":149,"##},{\"":150,"##ck":151,"hour":152,"\"},{\"":153,"##te":154,"##ea":155,"up":156,"hours":157,"##is":158,"##th":159,"##me":160,"10":161,"##ic":162,"##ion":163,"##en":164,"##ed":165,"ap":166,"##ch":167,"##ess":168,"##erv":169,"##ro":170,"##che":171,"##ms":172,"##tem":173,"##ol":174,"##_t":175,"or":176,"##ep":177,"##at":178,"ha":179,"##cc":180,"##ds":181,"##ag":182,"##eal":183,"##ck_":184,"##ut":185,"##ealth":186,"##tack_":187,"##ing":188,"##ec":189,"health":190,"ar":191,"##temis":192,"##mq":193,"artemis":194,"##ha":195,"##essag":196,"##00":197,"##et":198,"org":199,"##ore":200,"in":201,"##xt":202,"##ache":203,"app":204,"##om":205,"core":206,"##ame":207,"15":208,"dur":209,"\\-":210,"##sion":211,"##fo":212,"##ti":213,"pro":214,"ja":215,"serv":216,"##ke":217,"apache":218,"info":219,"##out":220,"##oa":221,"##pe":222,"##esb":223,"##_txt":224,"##il":225,"mms":226,"##serv":227,"##ock":228,"##id":229,"##24":230,"##tor":231,"##ice":232,":\"":233,"##oc":234,"##stack_":235,"##ror":236,"##og":237,"##oaesb":238,"##88":239,"##ve":240,"mock":241,"##rea":242,"ti":243,"server":244,"##ission":245,"##tal":246,"##ation":247,"han":248,"ac":249,"soaesb":250,"ex":251,"time":252,"##rd":253,"acc":254,"##service":255,"er":256,"error":257,"on":258,"accep":259,"##tive":260,"sec":261,"##ype":262,"active":263,"##va":264,"##urr":265,"wi":266,"with":267,"##toc":268,"##da":269,"\":{\"":270,"##check":271,"##240":272,"amq":273,"activemq":274,"amq2":275,"timeout":276,"##essage":277,"healthy":278,"secon":279,"seconds":280,"has":281,"##dsha":282,"handsha":283,"handshake":284,"protoc":285,"##24088":286,"protocol":287,"occ":288,"during":289,"acceptor":290,"##urred":291,"amq224088":292,"occurred":293,"##olr":294,"##le":295,"message":296,"##_to":297,"##ent":298,"java":299,"healthcheck":300,"##ted":301,"##_s":302,"##atal":303,"##atalog":304,"##li":305,"##iz":306,"##pl":307,"##od":308,"type":309,"solr":310,"re":311,"106":312,"healthcheckservice":313,"##--":314,"##go":315,"at":316,"exi":317,"##ken":318,"##_txt_to":319,"##ized":320,"##kenized":321,"##_txt_tokenized":322,"\"+":323,"mission":324,"fa":325,"##one":326,"exited":327,"##etr":328,"##e_":329,"ago":330,"id":331,"##ide":332,"##estack_":333,"##essagestack_":334,"##ter":335,"name":336,"##ics":337,"##se":338,"catalog":339,"##cess":340,"##end":341,"none":342,"##tp":343,"##an":344,"rom":345,"##lis":346,"##_ms":347,"##son":348,"fail":349,"##ure_":350,"failure_":351,"duration":352,"##reason":353,"failure_reason":354,"duration_ms":355,"##eb":356,"came":357,"camel":358,"##_n":359,",\"":360,"rom1":361,"22":362,"un":363,"metr":364,"metrics":365,"##hard":366,"##hard1":367,"##al":368,"me":369,"##fle":370,"##messagestack_":371,"##flex":372,"##ate":373,"jar":374,"##for":375,"##ver":376,"##lient":377,"pl":378,"##_r":379,"##ler":380,"##blis":381,"##blish":382,"##ps":383,"12":384,"##mpl":385,"##18":386,"ro":387,"##it":388,"##ue":389,"##cessor":390,"##re":391,"##12":392,"##oo":393,"##form":394,"zoo":395,"id_txt":396,"client":397,"##lic":398,"##atform":399,"rome":400,"platform":401,"##hard1_r":402,"##fa":403,"##read":404,"##ublish":405,"##ker":406,"##lica":407,"##ca":408,"14":409,"##eplica":410,"##eplica_n":411,"##eed":412,"##xf":413,"##ender":414,"##ect":415,"##nd":416,"ab":417,"##pr":418,"##50":419,"##pro":420,"##as":421,"##sw":422,"##29":423,"##lv":424,"##20":425,"##est":426,"##roker":427,")\"":428,"vide":429,"##vide":430,"videom":431,"##video":432,"reflex":433,"##eedq":434,"render":435,"##orn":436,"##icorn":437,"unicorn":438,"##eper":439,"##keeper":440,"zookeeper":441,"##xn":442,"##cn":443,"</":444,"##ttp":445,"##46":446,"##mission":447,"##un":448,"meta":449,"##77":450,"log":451,"about":452,"an":453,"##_c":454,"##ra":455,"##48":456,"http":457,"##_shard1_r":458,"##_shard1_replica_n":459,"##card":460,"##por":461,"##69":462,"##83":463,"##ode":464,"##vc":465,"000":466,"11":467,"##ty":468,"##----":469,"web":470,"##lea":471,"com":472,"##ork":473,"}}":474,"##pon":475,"##per":476,"##templ":477,"##40":478,"##date":479,"##el":480,"##ul":481,"~[":482,"##52":483,"##up":484,"metacard":485,"##02":486,"cxf":487,"##32":488,"00":489,"##b0":490,")\"},{\"":491,"ad":492,"##44":493,"##ession":494,"},\"":495,"op":496,"##000":497,"##ce":498,"##76":499,"##fi":500,"13":501,"relea":502,"##43":503,"##181":504,"##99":505,"to":506,"##pring":507,"##fd":508,"spring":509,"##mms":510,"##56":511,"##ss":512,"mmsstack_":513,"mmsstack_mms":514,"##hand":515,"ids":516,"##10":517,"##97":518,"##error":519,"##sr":520,"publish":521,"##fr":522,"##16":523,"##handler":524,"##processor":525,"##dap":526,"##server":527,"release":528,"##ection":529,"##cnxn":530,"##ex":531,"##ting":532,"##ab":533,"##tr":534,"##94":535,"##rch":536,"##earch":537,"##work":538,"##pel":539,"isr":540,"sc":541,"##version":542,"service":543,"##ts":544,"process":545,"##thread":546,"##11":547,"dd":548,"##utes":549,"##inutes":550,"##ys":551,"=/":552,"}},\"":553,"##ib":554,"##template":555,"##100":556,"##49":557,"##tory":558,"catalog_shard1_replica_n":559,"minutes":560,"##ener":561,"=\"":562,"session":563,"##53":564,"##70":565,"##os":566,"={":567,"update":568,"di":569,"open":570,"processor":571,"na":572,"##dat":573,"th":574,"te":575,"##eat":576,"##ules":577,"##b5":578,"25":579,"do":580,"##87":581,"##_cache":582,"metacard_cache":583,"##qu":584,"##catalog":585,"##iod":586,"##wg":587,"##nn":588,"##publish":589,"##_service":590,"##uleset":591,"##ie":592,"csw":593,"##ci":594,"retr":595,"retrie":596,"##rn":597,"clientcnxn":598,"##dater":599,"##broker":600,"##reener":601,"screener":602,"##iodic":603,"broker":604,"feedq":605,"klv":606,"mps":607,"##feedq":608,"##klv":609,"conversion":610,"##ecsw":611,"##essagecsw":612,"##stack_re":613,"##stack_video":614,"##stack_publish":615,"##stack_broker":616,"expor":617,"missionmessagestack_":618,"##essagestack_video":619,"##ana":620,"##messagestack_feedq":621,"##messagestack_klv":622,"videomessagecsw":623,"videomessagestack_video":624,"reflexstack_re":625,"publishstack_publish":626,"brokerstack_broker":627,"feedqmessagestack_feedq":628,"klvmessagestack_klv":629,"exporter":630,"missionmessagestack_mission":631,"videomessagecswstack_video":632,"reflexstack_reflex":633,"svc":634,"##mps":635,"##mps_service":636,"##ftp":637,"ddoc":638,"gw":639,"##mplate":640,"template":641,"##1u":642,"##8v":643,"##hg":644,"##pa":645,"##2d":646,"##86":647,"##5a":648,"##1e":649,"##cli":650,"##f3":651,"##ine":652,"pi":653,"##peline":654,"pipeline":655,"##03":656,"##13":657,"ext":658,"##errorhandler":659,"##23":660,"##26":661,"cl":662,"thread":663,"##espon":664,"):":665,"##pb":666,"##amework":667,"##ct":668,"##ctory":669,"##impl":670,"##75":671,"##ls":672,"##ba":673,"##vent":674,"mil":675,"##ueue":676,"pa":677,"12181":678,"##xy":679,"##vo":680,"run":681,"event":682,"##b9":683,"##inver":684,"##inverting":685,"core_n":686,"core_node":687,"##80":688,"##15":689,"jet":690,"jetty":691,"hand":692,"##nt":693,"##fl":694,"##4f":695,"##4a":696,"##of":697,"##ication":698,"##fication":699,"##mit":700,"##con":701,"##4d":702,"##i5":703,"##i8":704,"##l3":705,"##96":706,"##ean":707,"##stat":708,"##esponse":709,"ver":710,"version":711,"##meth":712,"##8o":713,"##gx":714,"##wv":715,"##ad":716,"##--------":717,"##io":718,"##mp":719,"##e0":720,"##data":721,"##sta":722,"##quest":723,"16":724,"##82":725,"397":726,"##fig":727,"##3f":728,"##8d":729,"ke":730,"##t0":731,"##nal":732,"tr":733,"##8a":734,"##xm":735,"##dapter":736,"##47":737,"##and":738,"net":739,"dep":740,"##42":741,"##enci":742,"##endenci":743,"dependenci":744,"dependencies":745,"##framework":746,"shard1":747,"##int":748,"no":749,"##89":750,"ch":751,"##x100":752,"##46b0":753,"##ternal":754,"##x100000":755,"config":756,"##x10000046b0":757,"##pp":758,"##b6":759,"springframework":760,"fil":761,"##f6":762,"aler":763,"##nection":764,"##199":765,"##queue":766,"##783":767,"##rom":768,"##ource":769,"00000":770,"##earcher":771,"##po":772,"##list":773,"##ponent":774,"rest":775,"##30":776,"##uq":777,"0x10000046b0":778,"##lr":779,":/":780,"://":781,"ms":782,"##7b":783,"ecli":784,"##pse":785,"eclipse":786,"##gz":787,"##w8":788,"##z3":789,"de":790,"##e3":791,"##utor":792,"##e9":793,"qtp":794,"##12783":795,"##19912783":796,"qtp19912783":797,"qtp1991278377":798,"from":799,"##ast":800,"##ebeat":801,"filebeat":802,"##1m":803,"##gd":804,"##w3":805,"##ih":806,"##zc":807,"##qw":808,"dis":809,"total":810,"##72":811,"bean":812,"##ity":813,"##c0":814,"##km":815,"##wa":816,"##oz":817,"ns":818,"us":819,"##pu":820,"_o":821,"##thod":822,"method":823,"##45":824,"##yb":825,"nio":826,"##time":827,"##b8":828,"169":829,"contact":830,"##fz":831,"##7l":832,"##exec":833,"add":834,"resttemplate":835,"##all":836,"##dt":837,"##tion":838,"##e5":839,"##1f":840,"##73":841,"component":842,"##90":843,"key":844,"##hel":845,":]":846,"my":847,"myid":848,"catalog_shard1_replica_n1":849,"nioserver":850,"##)+":851,"adfd":852,"get":853,"shard1_r":854,"0_":855,"##helper":856,"##ope":857,"02":858,"##ost":859,"##dc":860,"##e4":861,"for":862,"request":863,"##rt":864,"##93":865,"##oll":866,"##ush":867,"##8c":868,"ba":869,"##app":870,"##ned":871,"send":872,"che":873,"qu":874,"##+(":875,"##1d":876,"wt":877,"##bin":878,"javabin":879,"##rams":880,"##cks":881,"##executor":882,"ai":883,"uninverting":884,"##internal":885,"##lse":886,"##55":887,"##ew":888,"##rs":889,"##ns":890,"##wn":891,"##ir":892,"##vis":893,"##_ro":894,"metacard_cache_shard1_replica_n":895,"##raf":896,"##c4":897,"##ocket":898,"##6d":899,"node":900,"##lns":901,"##proxy":902,"per":903,"000c":904,"##factory":905,"##thread_":906,"##ollection":907,"val":908,"##uter":909,"##fe":910,"##fil":911,"##ia":912,"##qs":913,"##oap":914,"##p1":915,"##b3":916,"##8e":917,"##09":918,"el":919,"##07":920,"af":921,"connection":922,"ge":923,"##ory":924,"collection":925,"done":926,"##sh":927,"retriev":928,"ruleset":929,"##eallr":930,"##ulesets":931,"retrieveallr":932,"retrieveallrulesets":933,"##type":934,"noti":935,"rome_ro":936,"rome_router":937,"##ws":938,"cad":939,"##}]":940,"##updater":941,"##_mps_service":942,"screener_mps_service":943,"notification":944,"cda":945,"updater":946,"periodic":947,"##agn":948,"##ckup":949,"##catalogupdater":950,"periodiccatalogupdater":951,"diagn":952,"##ostic":953,"diagnostic":954,"##uration":955,"[{\"":956,"adapter":957,"gate":958,"gss":959,"graf":960,"kib":961,"mas":962,"push":963,"s3":964,"sftp":965,"sqs":966,"##eus":967,"##gss":968,"##ldap":969,"##soaesb":970,"##j7":971,"haproxy":972,"prometh":973,"##stack_per":974,"##stack_gss":975,"##stack_soaesb":976,"##icsearch":977,")\"}]":978,"logsta":979,"openldap":980,"dood":981,"gwe":982,"##asticsearch":983,"##way":984,"backup":985,"##visor":986,"elasticsearch":987,"cadvisor":988,"periodiccatalogupdaterstack_per":989,"gateway":990,"gssstack_gss":991,"grafana":992,"kibana":993,"master":994,"haproxystack_soaesb":995,"prometheus":996,"logstash":997,"periodiccatalogupdaterstack_periodic":998,"##ot":999,"##station":1000,"},":1001,"##vetemplate":1002,"retrievetemplate":1003,"##1c":1004,"##duration":1005,"##ck_duration":1006,"check_duration":1007,"getal":1008,"##ltempl":1009,"##ates":1010,"getalltempl":1011,"getalltemplates":1012,"##_sftp":1013,"ddoc_sftp":1014,"##e_mps_service":1015,"gwe_mps_service":1016,"_w":1017,"##ating":1018,"##14":1019,"##ans":1020,"##liver":1021,"##livery":1022,"##ule":1023,"quer":1024,"200":1025,"events":1026,"##min":1027,"##urity":1028,"##}}":1029,"{\"":1030,"ticks":1031,"##5e":1032,"catalog_shard1_replica_n2":1033,"##5p":1034,"##ede":1035,"##9b":1036,"##info":1037,"trans":1038,"##tes":1039,"##ytes":1040,"2181":1041,"##fs":1042,"##ations":1043,"##xb":1044,"##7g":1045,"##6g":1046,"##yg":1047,"##h6":1048,"##v3":1049,"##cw":1050,"##m8":1051,"##pw":1052,"##port":1053,"##ebapp":1054,"path":1055,"_webapp":1056,"del":1057,"##gen":1058,"delgen":1059,"sys":1060,"##dex":1061,"replica_n":1062,"##ri":1063,"res":1064,"##esponseerrorhandler":1065,"rede":1066,"camelinternal":1067,"methodinfo":1068,"##liveryerrorhandler":1069,"redeliveryerrorhandler":1070,"camelinternalprocessor":1071,"##58":1072,"st":1073,"04":1074,"##17":1075,"##tra":1076,"plan":1077,"##mb":1078,"53":1079,"##update":1080,"clos":1081,"##0b":1082,"17":1083,"0x10000046b0e0":1084,"##trib":1085,"xm":1086,"##_pa":1087,"uti":1088,"soap":1089,"2009":1090,"gd":1091,"system":1092,"closed":1093,"##du":1094,"19":1095,"work":1096,"core_node3":1097,"##tc":1098,"##ccess":1099,"##60":1100,"##1a":1101,"##22":1102,"##74":1103,"gdes":1104,"##enti":1105,"mmscatalog":1106,"mmscataloghelper":1107,"core_node4":1108,"invo":1109,"##95":1110,"##s_txt_tokenized":1111,"##v2":1112,"##c6":1113,"##212":1114,"##let":1115,"##b2":1116,"##ff":1117,"impl":1118,"##85":1119,"##)++":1120,"##sl":1121,"workqueue":1122,"searcher":1123,"##entimpl":1124,"##lu":1125,"invoke":1126,"02t":1127,"##stationdt":1128,"planned":1129,"0_212":1130,"60":1131,"##vm":1132,"false":1133,"##19":1134,"##perations":1135,"##ang":1136,"sm":1137,"dia":1138,"smil":1139,"##no":1140,"en":1141,"##2a":1142,"##xth":1143,"##epr":1144,"##luepr":1145,":--":1146,"<!":1147,":-->":1148,"<!--":1149,"##agg":1150,"##ated":1151,"43":1152,"wa":1153,"##9s":1154,"##_params":1155,"##----------------":1156,"##180":1157,"##44a":1158,"oa":1159,"soaesb_s":1160,"sendthread_":1161,"oaesb":1162,"soaesb_soaesb":1163,"mod":1164,"##kno":1165,"##_solr":1166,"handler":1167,"##faul":1168,"factory":1169,"##54":1170,"##830":1171,"##6a":1172,"security":1173,"##ort":1174,"sessionid":1175,"##cr":1176,"##em":1177,"##x0":1178,"##operations":1179,"##ead":1180,"##_session":1181,"##ued":1182,"##_socket":1183,"##429":1184,"resource":1185,"##244":1186,"defaul":1187,"##762":1188,"##c9":1189,"##cxn":1190,"nioservercxn":1191,"##health":1192,"unhealth":1193,"unhealthy":1194,"comm":1195,"##576":1196,"##tu":1197,"actu":1198,"##292":1199,"><":1200,"##*+":1201,"##ning":1202,"##68":1203,"commit":1204,"##8db":1205,"##434":1206,"valid":1207,"##mory":1208,"memory":1209,"##57":1210,"##cep":1211,"##5g":1212,"##20b":1213,"##2l":1214,"##pool":1215,"##bf":1216,"##fa9":1217,"##sk":1218,"##0y":1219,"##i0":1220,"##xd":1221,"##xj":1222,"##pf":1223,"##lq":1224,"##oh":1225,"##v5":1226,"##v1":1227,"##u1":1228,"##63":1229,"##ou":1230,"##aps":1231,"09":1232,"zer":1233,"zero":1234,"ta":1235,"rep":1236,"##point":1237,"ff":1238,"httpcon":1239,"20":1240,"##84":1241,"9b":1242,"52":1243,"##ass":1244,"class":1245,"##bd":1246,"##ification":1247,"classification":1248,"##tg":1249,"---":1250,"sn":1251,"##hot":1252,"##apshot":1253,"snapshot":1254,"cli":1255,"##7j":1256,"##92":1257,"##oj":1258,"##5i":1259,"##gg":1260,"##c41e":1261,"##2012":1262,"##69f3":1263,"##3x":1264,"##2375":1265,"##29c0":1266,"##50e3":1267,"##sa":1268,"##ww":1269,"##eak":1270,"##8n":1271,"##hol":1272,"##mw":1273,"##1h":1274,"##h5":1275,"##pv":1276,"##jy":1277,"##jx":1278,"1gd":1279,"2cw":1280,"6t0":1281,"bv3":1282,"b69f3":1283,"k52":1284,"nxj":1285,"p09":1286,"qx":1287,"r7":1288,"t94":1289,"tnn":1290,"u50":1291,"w7":1292,"wnn":1293,"wgd":1294,"wxd":1295,"xom":1296,"z44a":1297,"##61m":1298,"##5th":1299,"##5z3":1300,"##5agg":1301,"##dha":1302,"##2in":1303,"##2gg":1304,"##1wg":1305,"##1rt":1306,"##1pw":1307,"##4ol":1308,"##4gz":1309,"##7ol":1310,"##bnn":1311,"##3pb":1312,"##3zc":1313,"##av":1314,"##ahol":1315,"##ajx":1316,"##wx":1317,"##wk":1318,"##wrd":1319,"##w7l":1320,"##wbnn":1321,"##h2d":1322,"##h26":1323,"##h1wg":1324,"##x4":1325,"##xx0":1326,"##nj":1327,"##nhg":1328,"##nqw":1329,"##n2375":1330,"##n8n":1331,"##n4ol":1332,"##g8o":1333,"##g0b":1334,"##p8v":1335,"##pi5":1336,"##lhg":1337,"##lpb":1338,"##lgz":1339,"##lw3":1340,"##lm8":1341,"##lcr":1342,"##l5z3":1343,"##ob8":1344,"##oe4":1345,"##o429":1346,"##o292":1347,"##o8db":1348,"##rgx":1349,"##v1u":1350,"##vfz":1351,"##vpi5":1352,"##tue":1353,"##t5i":1354,"##tdha":1355,"##ux":1356,"##uy":1357,"##uys":1358,"##u7b":1359,"##u4gz":1360,"##uo292":1361,"##yz":1362,"##yvc":1363,"##y32":1364,"##y2in":1365,"##zxy":1366,"##zi5":1367,"##zfa9":1368,"##zpv":1369,"##zuo292":1370,"##kwv":1371,"##k6g":1372,"##jb5":1373,"##jew":1374,"##ju7b":1375,"##qic":1376,"##qan":1377,"##is82":1378,"##rozpv":1379,"##oln2375":1380,"##xttue":1381,"##omih":1382,"##pex":1383,"##id8a":1384,"##rdp8v":1385,"##ps5e":1386,"##fauq":1387,"##xf2l":1388,"##prih":1389,"##prnhg":1390,"##50kwv":1391,"##estlcr":1392,"##xnps5e":1393,"##cng8o":1394,"##cnlm8":1395,"##ty3pb":1396,"##40t5i":1397,"##52rs":1398,"##02w3":1399,"##frvo":1400,"##16xnps5e":1401,"##11id8a":1402,"##53x4":1403,"##70sl":1404,"##wg07":1405,"##wgh26":1406,"##1uahol":1407,"##1uwk":1408,"##8vyz":1409,"##hgju7b":1410,"##2dj7":1411,"##86c41e":1412,"##5aww":1413,"##b9lpb":1414,"##nt5aww":1415,"##fl8vyz":1416,"##4f5p":1417,"##4dw7l":1418,"##i8tdha":1419,"##i8pex":1420,"##l3l3":1421,"##gxxb":1422,"##wvd":1423,"##mpt0":1424,"##3fw8":1425,"##xmb9lpb":1426,"##b65g":1427,"##f6n4ol":1428,"##uq3zc":1429,"##w8nqw":1430,"##z3o429":1431,"##e92012":1432,"##1m2dj7":1433,"##qw50e3":1434,"##km8o":1435,"##ozav":1436,"##pujb5":1437,"##ybe5":1438,"##ope70sl":1439,"requests":1440,"##feuy":1441,"##p1zc":1442,"##fs1uwk":1443,"##7gajx":1444,"##ygi8tdha":1445,"##h6km8o":1446,"##xthv1u":1447,"##uedlhg":1448,"##244nj":1449,"##762vfz":1450,"##434u4gz":1451,"##20bzfa9":1452,"##skuys":1453,"##0yomih":1454,"##i0h6km8o":1455,"##lqdc":1456,"##ohwvd":1457,"##v5fauq":1458,"##v1ygi8tdha":1459,"##u1lw3":1460,"09oln2375":1461,"ff1m2dj7":1462,"9bqic":1463,"##7j8v":1464,"##oj52rs":1465,"##3xg0b":1466,"##29c0rgx":1467,"##sau1lw3":1468,"##eaknt5aww":1469,"##mwxttue":1470,"##1h244nj":1471,"##h5fl8vyz":1472,"##jyi8pex":1473,"1gdmwxttue":1474,"2cw434u4gz":1475,"6t0prih":1476,"bv3cng8o":1477,"b69f3uq3zc":1478,"k52jew":1479,"nxjh5fl8vyz":1480,"p09hgju7b":1481,"qxk6g":1482,"r7ybe5":1483,"t94rozpv":1484,"tnnfeuy":1485,"u50xthv1u":1486,"w7xf2l":1487,"wnn1pw":1488,"wgd61m":1489,"wxdope70sl":1490,"xomyvc":1491,"z44aozav":1492,"##5th40t5i":1493,"##5aggv5fauq":1494,"##2ggrdp8v":1495,"##1rtl5z3":1496,"##7ol3fw8":1497,"##wrde92012":1498,"##wbnnh1wg":1499,"##h2drn":1500,"##xx0o8db":1501,"##n8n20bzfa9":1502,"##lgzw8nqw":1503,"##ob8xx0o8db":1504,"##oe4wgh26":1505,"##vpi5x":1506,"##y32qan":1507,"##y2in4f5p":1508,"##zxy02w3":1509,"##zi5wx":1510,"##zuo292xmb9lpb":1511,"##is82l3l3":1512,"##prnhgwrde92012":1513,"##50kwv5th40t5i":1514,"##estlcr6":1515,"##ty3pbp1zc":1516,"##frvo2ggrdp8v":1517,"##16xnps5eoe4wgh26":1518,"##wg07zi5wx":1519,"##1uahol3xg0b":1520,"##86c41efs1uwk":1521,"##4dw7lpf":1522,"##gxxb1uahol3xg0b":1523,"##mpt0ty3pbp1zc":1524,"##f6n4olohwvd":1525,"##z3o429mpt0ty3pbp1zc":1526,"##qw50e3lqdc":1527,"##pujb5oj52rs":1528,"##7gajxqw50e3lqdc":1529,"##uedlhgy32qan":1530,"##762vfz7ol3fw8":1531,"##skuys4dw7lpf":1532,"##0yomihf6n4olohwvd":1533,"##v1ygi8tdha11id8a":1534,"09oln2375lgzw8nqw":1535,"ff1m2dj7uedlhgy32qan":1536,"9bqic1rtl5z3":1537,"##29c0rgx7j8v":1538,"##sau1lw3y2in4f5p":1539,"##eaknt5awwtc":1540,"##1h244njskuys4dw7lpf":1541,"1gdmwxttue7gajxqw50e3lqdc":1542,"2cw434u4gzn8n20bzfa9":1543,"6t0prihpujb5oj52rs":1544,"bv3cng8o5aggv5fauq":1545,"b69f3uq3zcgxxb1uahol3xg0b":1546,"k52jew1h244njskuys4dw7lpf":1547,"nxjh5fl8vyz86c41efs1uwk":1548,"p09hgju7bv1ygi8tdha11id8a":1549,"qxk6g50kwv5th40t5i":1550,"r7ybe5sau1lw3y2in4f5p":1551,"t94rozpvfrvo2ggrdp8v":1552,"tnnfeuyprnhgwrde92012":1553,"u50xthv1u16xnps5eoe4wgh26":1554,"w7xf2lz3o429mpt0ty3pbp1zc":1555,"wnn1pwob8xx0o8db":1556,"wgd61mis82l3l3":1557,"wxdope70sl762vfz7ol3fw8":1558,"xomyvcwbnnh1wg":1559,"z44aozav0yomihf6n4olohwvd":1560,"09oln2375lgzw8nqwi0h6km8o":1561,"ff1m2dj7uedlhgy32qanh2drn":1562,"9bqic1rtl5z3zuo292xmb9lpb":1563,"2cw434u4gzn8n20bzfa9cnlm8":1564,"6t0prihpujb5oj52rsjyi8pex":1565,"bv3cng8o5aggv5fauqzxy02w3":1566,"nxjh5fl8vyz86c41efs1uwkb5":1567,"qxk6g50kwv5th40t5iestlcr6":1568,"r7ybe5sau1lw3y2in4f5p53x4":1569,"t94rozpvfrvo2ggrdp8vvpi5x":1570,"tnnfeuyprnhgwrde92012b65g":1571,"wnn1pwob8xx0o8dbwg07zi5wx":1572,"wgd61mis82l3l329c0rgx7j8v":1573,"wxdope70sl762vfz7ol3fw8ux":1574,"xomyvcwbnnh1wgeaknt5awwtc":1575,"##cked":1576,"1048":1577,"##itor":1578,"v20":1579,"##180830":1580,"v20180830":1581,"##onitor":1582,"distrib":1583,"running":1584,"++(":1585,"acked":1586,"bytes":1587,"monitor":1588,"##},\"":1589,"}}},\"":1590,"1048576":1591,"monitoring":1592,"##urrent":1593,"##ute":1594,"##ment":1595,"##put":1596,"_un":1597,"_uninverting":1598,"##98":1599,"##66":1600,"handle":1601,"alerts":1602,"##op":1603,"##oad":1604,"##kv":1605,"##client":1606,"}{":1607,"logupdate":1608,"##processorfactory":1609,"logupdateprocessorfactory":1610,"16903":1611,"##poolexecutor":1612,"threadpoolexecutor":1613,"##ommit":1614,"./":1615,"catalogoperations":1616,"catalogoperationsimpl":1617,"##0t":1618,"crea":1619,"##state":1620,"##tresponseerrorhandler":1621,"defaultresponseerrorhandler":1622,"##c3":1623,"aut":1624,"##icwork":1625,"##aticwork":1626,"##omaticwork":1627,"##queueimpl":1628,"##duit":1629,"httpconduit":1630,"automaticwork":1631,"automaticworkqueueimpl":1632,"##filter":1633,"##7d":1634,"getmission":1635,"##04":1636,"metacard_cache_shard1_replica_n1":1637,"##4l":1638,"##3y":1639,"##cs":1640,"id_txt_tokenized":1641,"##ru":1642,"##vs":1643,"##vt":1644,"##anding":1645,"##ched":1646,"##7a":1647,"bluepr":1648,"##keof":1649,"##_for":1650,"##_stat":1651,"##name":1652,"##62":1653,"##35":1654,"util":1655,"##atch":1656,"##8b":1657,"ass":1658,"19000":1659,"##umb":1660,"##call":1661,"##searcher":1662,"validation":1663,"##l_":1664,"##f0":1665,"1_":1666,"##text":1667,"##stra":1668,"abstra":1669,"=[":1670,"##cd":1671,"##rocessor":1672,"##1b":1673,"##_x":1674,"metadata":1675,"##iti":1676,"zero_":1677,"warn":1678,"10000":1679,"##64":1680,"type_txt_tokenized":1681,"name_txt_tokenized":1682,"##ception":1683,"##ccessor":1684,"sof":1685,"##missiondata":1686,"##missiondataws":1687,"refl":1688,"true":1689,"query":1690,"##oda":1691,"##methoda":1692,"##methodaccessor":1693,"reflect":1694,"31":1695,")]":1696,")]}":1697,"18":1698,"user":1699,"xmlns":1700,"servlet":1701,"##enta":1702,"##ize":1703,"su":1704,"##xmlns":1705,"##ef":1706,"##xception":1707,"##rore":1708,"##errore":1709,"httpserver":1710,"actual":1711,"##errorexception":1712,"httpservererrorexception":1713,"##78":1714,"##entadapter":1715,"33":1716,"accept":1717,"##_con":1718,"##temp":1719,"##79":1720,"##itiating":1721,"##gis":1722,"ul":1723,"ult":1724,"##dir":1725,"zookeeper_":1726,"##umber":1727,"##inet":1728,"##plinet":1729,"##ciplinet":1730,"##ciplinetype":1731,"##clientimpl":1732,"eventthread":1733,"server_solr":1734,"esta":1735,"##blished":1736,"established":1737,"rout":1738,"romeclientimpl":1739,"router":1740,"##ego":1741,"##tiated":1742,"##egotiated":1743,"##_es":1744,"##tablish":1745,"##_establish":1746,"##_state":1747,"##mination":1748,"rt":1749,"##back":1750,"go":1751,"nioservercnxn":1752,"al":1753,"alert":1754,"report":1755,"##index":1756,"##aa":1757,"zookeeperserver":1758,"0x10000046b0e":1759,"v1":1760,"replica_n2":1761,"replica_n1":1762,"##4j":1763,"##bl":1764,"handleerror":1765,"admin":1766,"handleresponse":1767,"##callback":1768,"_0":1769,"##sched":1770,"metacard_cache_shard1_replica_n2":1771,"index":1772,"80":1773,"##val":1774,"transport":1775,"##e6":1776,"##5d":1777,"##able":1778,"##tend":1779,"source":1780,"spel":1781,"##wq":1782,"dele":1783,"##7c":1784,"##etur":1785,"0s":1786,"##1009s":1787,"0s1009s":1788,"0s1009s0":1789,"46":1790,"##38":1791,"##ime":1792,"##f2":1793,"unkno":1794,"unknown":1795,"##ports":1796,"transports":1797,"##3a":1798,"##59":1799,"42":1800,"##_0":1801,"li":1802,"negotiated":1803,"##_time":1804,"negotiated_time":1805,"negotiated_timeout":1806,"v2":1807,"##ten":1808,"40":1809,"48":1810,"##meta":1811,"searcherexecutor":1812,"urn":1813,"##dd":1814,"conte":1815,"_state":1816,"_xmlns":1817,"sta":1818,"529":1819,"##ain":1820,"##dl":1821,"##?]":1822,"##?:":1823,"##?:?]":1824,"code":1825,"##vel":1826,"abstract":1827,"50":1828,"and":1829,"tag":1830,"##andler":1831,"##cb":1832,"common":1833,"lang":1834,"##888":1835,"56":1836,"23":1837,"##_v2":1838,"envel":1839,"##_v2_0":1840,"envelope":1841,"##ifi":1842,"##ified":1843,"##_data":1844,"sel":1845,"select":1846,"##eco":1847,"modified":1848,"144":1849,"asset":1850,"##takeof":1851,"platformtype":1852,"##fdt":1853,"##base":1854,"##off":1855,"disciplinetype":1856,"##andingdt":1857,"##takeoffdt":1858,"option":1859,"optional":1860,"clic":1861,"clicls":1862,"##5b":1863,"##env":1864,"soapenv":1865,"sr":1866,"##vcls":1867,"srvcls":1868,"##cf":1869,"##ver_":1870,"_statever_":1871,"##8f":1872,")=":1873,"=<":1874,"##pn":1875,"##les":1876,"39":1877,"create":1878,"),":1879,"size":1880,"regis":1881,"pr":1882,"prep":1883,"##4b":1884,"##ill":1885,"##rect":1886,"~[?:?]":1887,"63":1888,"##icep":1889,"##566":1890,"cb":1891,"30":1892,"##vid":1893,"internal":1894,"##rome":1895,"548":1896,"##s_txt":1897,"new":1898,"##6n":1899,"##7f":1900,"##v9":1901,"##zq":1902,"##406":1903,"sun":1904,"##ateg":1905,"##9a":1906,"pax":1907,"##endpoint":1908,"down":1909,"##mt":1910,"##chang":1911,"##ectory":1912,":[":1913,"solrindex":1914,"##ition":1915,"##024":1916,"##methodaccessorimpl":1917,"##etition":1918,"##etitions":1919,"blueprin":1920,"##der":1921,"ep":1922,"cho":1923,"med":1924,"classification_txt_tokenized":1925,"code_txt_tokenized":1926,"cbrn":1927,"media":1928,"##ext":1929,"##tro":1930,"##files":1931,"##rit":1932,"##tex":1933,"##tender":1934,"_m":1935,"blueprintex":1936,"blueprintextender":1937,"+*":1938,":[*+":1939,"+*]":1940,"##*:":1941,"##*+-":1942,"++(*:":1943,"+*])++":1944,"++(*:*+-":1945,"##36":1946,"clientadapter":1947,"49":1948,"##db":1949,"##328":1950,"##e2":1951,"##eader":1952,"##_id":1953,"##9c":1954,"params":1955,"##--------------------------------":1956,"##ester":1957,"##rv":1958,"harv":1959,"harvester":1960,"##qtime":1961,"0_qtime":1962,"##tener":1963,"ca":1964,"##gating":1965,"delegating":1966,"55":1967,"202":1968,"end":1969,"##listener":1970,"##..":1971,"##vail":1972,"delegatingmethodaccessorimpl":1973,"169024":1974,"##enderlistener":1975,"##ysenderlistener":1976,"lib":1977,"##context":1978,"41":1979,"></":1980,"##2m":1981,"ns2":1982,"wh":1983,"##3s":1984,"59":1985,"cha":1986,"module":1987,"201":1988,"##3b":1989,"##br":1990,"##uler":1991,"##zy":1992,"##c2":1993,"##5ab":1994,"update_params":1995,"##jg":1996,"##dv9":1997,"##w6":1998,"##iy":1999,"##yw":2000,"##z9":2001,"##ko":2002,"##j3":2003,"##reader":2004,"##ectoryreader":2005,"##pped":2006,"##leth":2007,"57":2008,"##ome":2009,"missionid":2010,"_con":2011,"##ger":2012,"tags_txt_tokenized":2013,"##3ab":2014,"138":2015,"bu":2016,"26":2017,"##_b":2018,"load":2019,"##_30":2020,"in_":2021,"##scheduler":2022,"##metr":2023,"##metrics":2024,"/&":2025,"##leader":2026,"fromleader":2027,"read":2028,"fr":2029,"wri":2030,"write":2031,"last":2032,"queue":2033,"route":2034,"success":2035,"gc":2036,"beat":2037,"batch":2038,"cpu":2039,"current":2040,"non":2041,"nor":2042,"out":2043,"writ":2044,"##beat":2045,"##_all":2046,"##_files":2047,"##hem":2048,"##eral":2049,"##tats":2050,"states":2051,"uptime":2052,"##the":2053,"##mstats":2054,"hard":2055,"##_total":2056,"##_next":2057,"memstats":2058,"clients":2059,"}}}}":2060,"published":2061,"open_files":2062,"handles":2063,"added":2064,"value":2065,"##trar":2066,"memory_all":2067,"memory_total":2068,"zero_metrics":2069,"soft":2070,"limit":2071,"registrar":2072,"ephem":2073,"libbeat":2074,"##_30s":2075,"in_the":2076,"last_30s":2077,"gc_next":2078,"batches":2079,"norm":2080,"output":2081,"writes":2082,"##eral_id":2083,"}}}}}}":2084,"memory_alloc":2085,"ephemeral_id":2086,"##2h":2087,"##8cf":2088,"alpn":2089,"##current":2090,"##396":2091,"##c1e":2092,"##643":2093,"##d8":2094,"##421":2095,"concurrent":2096,"0000":2097,"eval":2098,"rule":2099,"##ep_state":2100,"##_rule":2101,"keep_state":2102,"alerting":2103,"##eturned":2104,"2021":2105,"evalcontext":2106,"##ator":2107,"##metacard":2108,"487":2109,"##nts":2110,"##ments":2111,"comments":2112,"##91f":2113,"##91c":2114,"##vider":2115,"content":2116,"##fd5":2117,"##jo":2118,"commitscheduler":2119,"##orker":2120,"##st":2121,"##inb":2122,"82":2123,"sizeinb":2124,"sizeinbytes":2125,"##8e1":2126,"utils":2127,"##06a":2128,"##tring":2129,"##ceed":2130,"##ream":2131,"##bean":2132,"##sab":2133,"releasab":2134,"##0ce":2135,"##6d2":2136,"##stream":2137,"responseerrorhandler":2138,"wra":2139,"##output":2140,"cataloghelper":2141,"cxfclient":2142,"beanprocessor":2143,"sendprocessor":2144,"clientimpl":2145,"abstractbean":2146,"##iceprocessor":2147,"choiceprocessor":2148,"##ppedoutput":2149,"wrappedoutput":2150,"cxfclientcallback":2151,"abstractbeanprocessor":2152,"wrappedoutputstream":2153,"##7ms":2154,"##5f":2155,"##0s":2156,"tail":2157,"##ress":2158,"36":2159,"address":2160,"58":2161,"##5w":2162,"ddf":2163,"##tm":2164,"##4c":2165,"##520":2166,"##4acc":2167,"da":2168,"##4q":2169,"##md":2170,"##2902":2171,"##ee":2172,"##87ec":2173,"of":2174,"po":2175,"direct":2176,"##mo":2177,"##4855":2178,"##1x":2179,"##1r":2180,"point":2181,"##2u":2182,"##pol":2183,"##6r":2184,"##1s":2185,"##5m":2186,"##8l":2187,"##ypa":2188,"##7r":2189,"##torome":2190,"##wsdl":2191,"##58406":2192,"##3ab6":2193,"routetorome":2194,"routetoromewsdl":2195,"##fq":2196,"servleth":2197,"##3285a":2198,"##b9b":2199,"categ":2200,"number":2201,"rfi":2202,"##x9":2203,"##jn":2204,"##eri":2205,"category":2206,"number_txt_tokenized":2207,"##5km":2208,"07l":2209,"1r":2210,"9s":2211,"boz":2212,"eq":2213,"iz":2214,"k1e":2215,"kc9":2216,"miy":2217,"p4j":2218,"r9":2219,"sl":2220,"sse":2221,"t421":2222,"uv":2223,"x1s":2224,"yp":2225,"z88":2226,"zh6":2227,"z2m":2228,"##6oz":2229,"##6cs":2230,"##6mt":2231,"##5ls":2232,"##5j7":2233,"##5xb":2234,"##0jn":2235,"##8mp":2236,"##8pol":2237,"##2w6":2238,"##1pb":2239,"##1kv":2240,"##cve":2241,"##4lse":2242,"##7mp":2243,"##7mo":2244,"##9o":2245,"##9i8":2246,"##bfz":2247,"##3ts":2248,"##ao":2249,"##hty":2250,"##hj3":2251,"##i93":2252,"##iyg":2253,"##mke":2254,"##mf3":2255,"##mv3":2256,"##m04":2257,"##m5j7":2258,"##nc6":2259,"##n9s":2260,"##n643":2261,"##n5m":2262,"##gj":2263,"##gb0":2264,"##g7g":2265,"##g68":2266,"##gypa":2267,"##pur":2268,"##peco":2269,"##pjo":2270,"##p2902":2271,"##p7mo":2272,"##lj":2273,"##l56":2274,"##lkm":2275,"##oyb":2276,"##o9b":2277,"##o58406":2278,"##spur":2279,"##r32":2280,"##vp1":2281,"##v6g":2282,"##tm8":2283,"##t3y":2284,"##t6mt":2285,"##tn5m":2286,"##yod":2287,"##z0t":2288,"##zdir":2289,"##z566":2290,"##z0s":2291,"##zx9":2292,"##kfr":2293,"##j8e1":2294,"##j9i8":2295,"##ji93":2296,"##q15":2297,"##q6r":2298,"##q3285a":2299,"##taq3285a":2300,"##erir":2301,"##er4l":2302,"##meys":2303,"##at8mp":2304,"##agkno":2305,"##xt1pb":2306,"##vejg":2307,"##tocfq":2308,"##alb2":2309,"##xf6cs":2310,"##xfnc6":2311,"##50yw":2312,"##as8cf":2313,"##un0ce":2314,"##vclkm":2315,"##b0lr":2316,"opoyb":2317,"##ce888":2318,"##fi3y":2319,"##fixfnc6":2320,"##ts74":2321,"##papu":2322,"##i5tm8":2323,"##l3as8cf":2324,"##8o2w6":2325,"##gx5xb":2326,"##wv2h":2327,"##iotm":2328,"##mp4q":2329,"##3ftaq3285a":2330,"##xm4acc":2331,"##47zx9":2332,"##89q6r":2333,"##wao":2334,"##fz91f":2335,"##7l5p":2336,"##1fg68":2337,"##iazq":2338,"##ia5km":2339,"##b3er4l":2340,"##8eg7g":2341,"##fsbr":2342,"##cwce888":2343,"##pwcwce888":2344,"##mbed":2345,"##v2n643":2346,"##vmru":2347,"##vmun0ce":2348,"##ouia5km":2349,"##tgn9s":2350,"##tgl3as8cf":2351,"##kv6":2352,"##0ttn5m":2353,"##4lmp4q":2354,"##cs5ls":2355,"##ru3":2356,"##vs06a":2357,"##vsyod":2358,"##vtj":2359,"##vto9b":2360,"##blfsbr":2361,"##wqt3y":2362,"##6nlj":2363,"##zy7l5p":2364,"##5abat8mp":2365,"##dv9peco":2366,"##z9m04":2367,"##koq15":2368,"##3966d2":2369,"##c1ez566":2370,"##91c4855":2371,"##fd5u":2372,"##7ms8o2w6":2373,"##mdru3":2374,"##87ecmdru3":2375,"##1xpapu":2376,"##1ralb2":2377,"##2umeys":2378,"##8lgypa":2379,"##7r7ms8o2w6":2380,"##3ab6wqt3y":2381,"07l6oz":2382,"1r9o":2383,"9sz9m04":2384,"bozouia5km":2385,"eqvsyod":2386,"izvejg":2387,"k1eerir":2388,"kc9ts74":2389,"miy1fg68":2390,"p4jfi3y":2391,"r9vmru":2392,"slfz91f":2393,"ssekfr":2394,"t421vto9b":2395,"uv7r7ms8o2w6":2396,"x1s4lmp4q":2397,"ypiotm":2398,"z88mv3":2399,"zh647zx9":2400,"z2mgj":2401,"##0jn7":2402,"##8pol89q6r":2403,"##1kv8pol89q6r":2404,"##cveb0lr":2405,"##4lse1kv8pol89q6r":2406,"##7mpfd5u":2407,"##bfzkv6":2408,"##3tsdv9peco":2409,"##ao91c4855":2410,"##htytgn9s":2411,"##hj3koq15":2412,"##mke87ecmdru3":2413,"##mf36nlj":2414,"##m5j7zdir":2415,"##gb0mf36nlj":2416,"##pjo3ab6wqt3y":2417,"##p2902j9i8":2418,"##p7mov6g":2419,"##l56spur":2420,"##o58406wv2h":2421,"##vp1wao":2422,"##t6mtbfzkv6":2423,"##z0s9":2424,"##j8e1v2n643":2425,"##ji93tocfq":2426,"##agkno0jn7":2427,"##xt1pbvclkm":2428,"##xf6csxt1pbvclkm":2429,"##50ywzy7l5p":2430,"opoyb4lse1kv8pol89q6r":2431,"##fixfnc6mke87ecmdru3":2432,"##i5tm850ywzy7l5p":2433,"##gx5xbi":2434,"##3ftaq3285a5abat8mp":2435,"##xm4accem":2436,"##iazqcveb0lr":2437,"##b3er4lo58406wv2h":2438,"##8eg7g1xpapu":2439,"##pwcwce888z0s9":2440,"##0ttn5m3s":2441,"##cs5ls7mpfd5u":2442,"##vs06a8eg7g1xpapu":2443,"##blfsbrc1ez566":2444,"##3966d2p2902j9i8":2445,"##1ralb2cs5ls7mpfd5u":2446,"##2umeysji93tocfq":2447,"##8lgypaao91c4855":2448,"07l6ozfixfnc6mke87ecmdru3":2449,"1r9o8lgypaao91c4855":2450,"9sz9m04m5j7zdir":2451,"bozouia5km2umeysji93tocfq":2452,"eqvsyodpjo3ab6wqt3y":2453,"izvejgiazqcveb0lr":2454,"k1eerir1ralb2cs5ls7mpfd5u":2455,"kc9ts74i5tm850ywzy7l5p":2456,"miy1fg68xf6csxt1pbvclkm":2457,"p4jfi3y3966d2p2902j9i8":2458,"r9vmruvs06a8eg7g1xpapu":2459,"slfz91fhj3koq15":2460,"ssekfrj8e1v2n643":2461,"t421vto9bl56spur":2462,"uv7r7ms8o2w6pwcwce888z0s9":2463,"x1s4lmp4qhtytgn9s":2464,"ypiotm3ftaq3285a5abat8mp":2465,"z88mv3b3er4lo58406wv2h":2466,"zh647zx9gb0mf36nlj":2467,"z2mgjp7mov6g":2468,"opoyb4lse1kv8pol89q6rmbed":2469,"1r9o8lgypaao91c4855vp1wao":2470,"9sz9m04m5j7zdir3tsdv9peco":2471,"eqvsyodpjo3ab6wqt3ygx5xbi":2472,"izvejgiazqcveb0lr0ttn5m3s":2473,"kc9ts74i5tm850ywzy7l5piyg":2474,"miy1fg68xf6csxt1pbvclkm5w":2475,"p4jfi3y3966d2p2902j9i8r32":2476,"r9vmruvs06a8eg7g1xpapuz0t":2477,"slfz91fhj3koq15t6mtbfzkv6":2478,"ssekfrj8e1v2n643tgl3as8cf":2479,"t421vto9bl56spuragkno0jn7":2480,"x1s4lmp4qhtytgn9sxm4accem":2481,"ypiotm3ftaq3285a5abat8mp9":2482,"z88mv3b3er4lo58406wv2hvtj":2483,"zh647zx9gb0mf36nljvmun0ce":2484,"z2mgjp7mov6gblfsbrc1ez566":2485,"metacard_cache_s":2486,"02t15":2487,"client_":2488,"##get":2489,"##bb":2490,"45":2491,"##41":2492,"access":2493,"logger":2494,"##9d":2495,"##_d":2496,"##_msg":2497,"framework":2498,"lv":2499,"info_msg":2500,"##_returned":2501,"no_data":2502,"rule_returned":2503,"##_ruleid":2504,"evalcontext_ruleid":2505,"lvl":2506,"05":2507,"##request":2508,"01":2509,"_in":2510,"##zk":2511,"##877":2512,"start":2513,"##28":2514,"spell_":2515,"_rome":2516,"_romemissiondataws":2517,"command":2518,"37":2519,"##25":2520,"##ig":2521,"##ndle":2522,"##441":2523,"177":2524,"##ar":2525,"##_m":2526,"##handler2":2527,"##updatehandler2":2528,"directupdatehandler2":2529,"##bj":2530,"##com":2531,"warning":2532,"47":2533,"##req":2534,"ns5":2535,"##uth":2536,"romes":2537,"##a9":2538,"##tempt":2539,"auth":2540,"##687":2541,"bod":2542,"##ename":2543,"##lement":2544,"##endpoint_v2_0":2545,"body":2546,"74":2547,"##_st":2548,"##ocation":2549,"servlethandler":2550,"bundle":2551,"##c7":2552,"framework_st":2553,"framework_stop":2554,"\">":2555,"##riter":2556,"/>":2557,"usa":2558,"##49f":2559,"##+(+":2560,"##servic":2561,"comp":2562,"components":2563,"##vailable":2564,"##33":2565,"##faa":2566,"102":2567,"##ids":2568,"##249":2569,"off":2570,"##nect":2571,"##ility":2572,"clou":2573,"##hut":2574,"##_connection":2575,"socket":2576,"##4e":2577,"##load":2578,"##_client":2579,"##5c":2580,"solrzk":2581,"solrzkclient":2582,"##atcher":2583,"cloud":2584,"sendthread_877":2585,"established_to":2586,"socket_connection":2587,"comple":2588,"_initiating":2589,"##fb":2590,"##1302":2591,"initiating":2592,"##string":2593,"sessiontime":2594,"zookeeper_441":2595,"_connect":2596,"initiating_client":2597,"sessiontimeout":2598,"_connectstring":2599,"own":2600,"owner":2601,"romemissiondataws":2602,"##_ag":2603,"105":2604,"##7e":2605,"##ved":2606,"##_ago":2607,"complete":2608,"##_not":2609,"location":2610,"session_establish":2611,"sendthread_1302":2612,"sessionid_":2613,"session_establishment":2614,"222":2615,"##1035":2616,"##_shut":2617,"authent":2618,"processing":2619,"##_solr_x":2620,"19000_solr_x":2621,"##icate":2622,"will":2623,"zookeeper_687":2624,"will_not":2625,"eventthread_":2626,"eventthread_shut":2627,"down_for":2628,"eventthread_520":2629,"##a0":2630,"##ail":2631,"0008":2632,"##ques":2633,"0_c":2634,"sid":2635,"ter":2636,"##ed_session":2637,"##tprocessor":2638,"##reques":2639,"processthread":2640,"processed_session":2641,")::":2642,"##mination_for":2643,"prepreques":2644,"0_cport":2645,"termination_for":2646,"preprequestprocessor":2647,"##3d":2648,"sas":2649,"##_us":2650,"##ing_socket":2651,"attempt":2652,"opening_socket":2653,"sendthread_1035":2654,"authenticate":2655,"sasl_":2656,"##_using":2657,"attempt_to":2658,"authenticate_using":2659,"##nc":2660,"io":2661,"35":2662,"accepted":2663,"nioservercnxnfactory":2664,"accepted_socket":2665,"##ync":2666,"##ecurity":2667,"xml":2668,"1056":2669,"em":2670,"email":2671,"694":2672,"ph":2673,"contrib":2674,"contro":2675,"orig":2676,"##one_txt_tokenized":2677,"##semination":2678,"publisher":2679,"##ls_txt_tokenized":2680,"dissemination":2681,"creator":2682,"address_txt_tokenized":2683,"category_txt_tokenized":2684,"email_txt_tokenized":2685,"phone_txt_tokenized":2686,"contributor":2687,"controls_txt_tokenized":2688,"origin":2689,"sync":2690,"established_session":2691,"syncthread":2692,"closed_socket":2693,"##ich":2694,"949":2695,"##_fl":2696,"##urn":2697,"##attemp":2698,"to_establish":2699,"new_session":2700,"client_attemp":2701,"client_attempting":2702,"##c8":2703,"##_ha":2704,"catalog_s":2705,"which":2706,"##_had":2707,"which_had":2708,"querysenderlistener":2709,"54":2710,"21":2711,"blueprint":2712,"rom2":2713,"38":2714,"im":2715,"0x10000046b0e03":2716,"action":2717,"##2b":2718,"51":2719,"##ies":2720,"exec":2721,"##tim":2722,"##2a0":2723,"29":2724,"##c5":2725,"aries":2726,"##by":2727,"alerts_shard1_replica_n":2728,"_3":2729,"_5":2730,"more":2731,"##65":2732,"##gh":2733,"getmissions":2734,"##ght":2735,"117":2736,"180":2737,"++(+":2738,"errors_txt":2739,"##provider":2740,"##f7":2741,"##322":2742,"##epetitions":2743,"##_repetitions":2744,"zero_or":2745,"more_repetitions":2746,"##34":2747,"##_source":2748,"100":2749,"101":2750,"44":2751,"##39":2752,"##bject":2753,"rea":2754,"data":2755,"used":2756,"##1d4a":2757,"##ged":2758,"b9b":2759,"##9549f":2760,"27":2761,"bfaa":2762,"wait":2763,"##tcommit":2764,"softcommit":2765,"waitsearcher":2766,"42a0":2767,"6d8":2768,"##32b9b":2769,"82da":2770,"##1d4a9549f":2771,"b9b32b9b":2772,"6d81d4a9549f":2773,"##yfilter":2774,"##ybyfilter":2775,"querybyfilter":2776,"##172":2777,"##espons":2778,"##change":2779,"##21":2780,"##af":2781,"##d0":2782,"idreq":2783,"idreqlist":2784,"nul":2785,"null":2786,"##e8":2787,"##_1":2788,"romesecurity":2789,"romesecuritytype":2790,"unknown_source":2791,"##ng":2792,"000002":2793,"getmissionids":2794,"##tainer":2795,"##6b":2796,"##invo":2797,"##edhandler":2798,"scop":2799,"dofilter":2800,"##invoker":2801,"scopedhandler":2802,"##10000":2803,"##element":2804,"##flag":2805,"##ord":2806,"landing":2807,"##cer":2808,"fli":2809,"hda":2810,"##dts":2811,"##fbase":2812,"##ick":2813,"##number":2814,"##nflag":2815,"##nick":2816,"##landingdt":2817,"##tanflag":2818,"##onstationdt":2819,"##onoff":2820,"##eater":2821,"titanflag":2822,"onstationdt":2823,"missionlist":2824,"missiontype":2825,"missionstate":2826,"missionrequest":2827,"missionnick":2828,"##unit":2829,"theater":2830,"##allandingdt":2831,"##stationdts":2832,"02t23":2833,"02t22":2834,"plannedoff":2835,"plannedtakeoffdt":2836,"plannedlandingdt":2837,"plannedonstationdt":2838,"actuallandingdt":2839,"takeof":2840,"actualtakeoffdt":2841,"actualonoff":2842,"modifieddate":2843,"modifiedby":2844,"assetversion":2845,"disciplinetypelist":2846,"tailnumber":2847,"offstationdt":2848,"##ghtunit":2849,"reason":2850,"landingbase":2851,"flightunit":2852,"hdam":2853,"missionrequesttype":2854,"missionnickname":2855,"theaterid":2856,"##stationdtslist":2857,"plannedoffstationdt":2858,"takeoffbase":2859,"actualonoffstationdtslist":2860,"346":2861,"_10000":2862,"idlist":2863,"os":2864,"##writer":2865,"solrindexwriter":2866,"errors_txt_tokenized":2867,"+*])++)++":2868,"warnings_txt_tokenized":2869,"560":2870,"cod":2871,"codice":2872,"endpoint":2873,"##9f":2874,"498":2875,"##ducer":2876,"exp":2877,"not":2878,"##6f":2879,"81":2880,"port":2881,"_romemissiondatawsendpoint_v2_0":2882,"##_end":2883,"##message":2884,"72":2885,"24":2886,"000003":2887,"188":2888,"##etes":2889,"##unged":2890,"##eletes":2891,"opensearcher":2892,"expunged":2893,"expungedeletes":2894,"0x10000046b0e02":2895,"300":2896,"##age":2897,"##available":2898,"##um":2899,"##inter":2900,"c5":2901,"qt":2902,"160":2903,"tas":2904,"task":2905,"##rget":2906,"top":2907,"target":2908,"topic":2909,"uri":2910,"##_commit":2911,"deri":2912,"##iations":2913,"status_txt_tokenized":2914,"##tity":2915,"##ociations":2916,"system_txt_tokenized":2917,"entity":2918,"associations":2919,"releasability":2920,"uri_txt_tokenized":2921,"derived":2922,"releasability_txt_tokenized":2923,"sen":2924,"##sor":2925,"sensor":2926,"##a3":2927,"1690245":2928,"##checker":2929,"##e1":2930,"748":2931,"##e7":2932,"##6bf":2933,"main":2934,"\"+)++":2935,"108":2936,"##f4":2937,"##component":2938,"##_in":2939,"watcher":2940,"##ying":2941,"##roying":2942,"##estroying":2943,"##e02":2944,"3_":2945,"destroying":2946,"421":2947,"r_":2948,"##_catalog":2949,"##f96":2950,"##ild":2951,"dopro":2952,"##lcheck":2953,"spellcheck":2954,"spell_checker":2955,"##ilding":2956,"spellcheckcomponent":2957,"##504":2958,"nt":2959,"for_b":2960,"##lueprint":2961,"##_container":2962,"3_322":2963,"destroying_container":2964,"for_blueprint":2965,"onmessage":2966,"##152":2967,"125":2968,"624":2969,"481":2970,"##_op":2971,"##ening":2972,"##searcher_op":2973,"solrindexsearcher_op":2974,"solrindexsearcher_opening":2975,"##services":2976,"##edir":2977,"\":-":2978,"##platform":2979,"romemission":2980,"##idlist":2981,"romeidlist":2982,"0s1009s011":2983,"262":2984,"c2":2985,"ops":2986,"ops4j":2987,"gener":2988,"))":2989,"##)}":2990,"##tabl":2991,"exitabl":2992,"uninvertingdir":2993,"##edirectoryreader":2994,")))}":2995,"exitabledirectoryreader":2996,"uninvertingdirectoryreader":2997,"##servlet":2998,"##catalogprovider":2999,"chang":3000,"##atedmethodaccessor":3001,"generatedmethodaccessor":3002,"79":3003,"##ert":3004,"157":3005,"##ing_state":3006,"##alert":3007,"changing_state":3008,"##266":3009,"##06":3010,"webapp":3011,"solrcatalogprovider":3012,"_r":3013,"##bc":3014,"=+(+":3015,"rows":3016,"##)+&":3017,"pan":3018,"panel":3019,"##fc":3020,"fre":3021,"header":3022,"free":3023,"0014":3024,"273":3025,"##a6":3026,"ns11":3027,"##oding":3028,"##d3":3029,"##changeid":3030,"##89a":3031,"677":3032,"785":3033,"hour_ago":3034,"1149":3035,"runw":3036,"743":3037,"worker":3038,"runworker":3039,"##f49":3040,"_chang":3041,"is":3042,"##e_to":3043,"state_to":3044,"_changing":3045,"857":3046,"execute":3047,"##f9":3048,"solr_":3049,"1194":3050,"##f5":3051,"doexec":3052,"1695":3053,"doexecute":3054,"awq":3055,"proceed":3056,"##threadfactory":3057,"handleresponseinternal":3058,"internalcallback":3059,"doproceed":3060,"awqthreadfactory":3061,"##d5":3062,"##140":3063,"ssl":3064,"clientadapter_":3065,"jvm":3066,"##coding":3067,"encoding":3068,"169035":3069,"34":3070,"##4fb":3071,"core_node3_x":3072,":(":3073,"##*)":3074,":(*)":3075,":(*))+":3076,"##518":3077,"##53d":3078,"se":3079,"##theader":3080,"##----------------------------------------------------------------":3081,"setheader":3082,"p3a":3083,"##ipb":3084,"##n0":3085,"p3aipb":3086,"p3aipbn0":3087,"c8":3088,"##71":3089,"_c":3090,"##ce_":3091,"##_path":3092,"28":3093,"core_node4_x":3094,"spa":3095,"##isk":3096,"solr_path":3097,"abstrac":3098,"##_disk":3099,"used_disk":3100,"##ce_alert":3101,"space_alert":3102,"65":3103,"##d6":3104,"32":3105,"##_f":3106,"##d9":3107,"##430":3108,"##typ":3109,"##29c":3110,"##be":3111,"##_tit":3112,"panel_tit":3113,"panel_title":3114,"##583":3115,"or_m":3116,"repetitions":3117,"or_more":3118,"##unavailable":3119,"##13f":3120,"##b4":3121,"##_sta":3122,"000000":3123,"0010":3124,"get_params":3125,"0s1009s012":3126,"0006":3127,"96":3128,"##8bb":3129,"##ac":3130,"0s1009s013":3131,"149":3132,"##quer":3133,"##81":3134,"##thttp":3135,"##d2":3136,"...":3137,"##http":3138,"##servererror":3139,"internalservererror":3140,"05t":3141,"##a2":3142,"73":3143,"directupdatehandler2_end":3144,"##_flush":3145,"##_commit_flush":3146,"directupdatehandler2_end_commit_flush":3147,"##de":3148,"##fail":3149,"##321":3150,"##chem":3151,"##wh":3152,"##ecommit":3153,"optim":3154,"prepar":3155,"directupdatehandler2_sta":3156,"optimize":3157,"preparecommit":3158,"directupdatehandler2_start":3159,"generatedmethodaccessor172":3160,"pas":3161,"##sword":3162,"username":3163,"password":3164,"##valid":3165,"##_out":3166,"##nv2":3167,"##msnv2":3168,"##its":3169,"romemsnv2":3170,"romemsnv2services":3171,"##ceptor":3172,"schem":3173,"##568":3174,"missionidlist":3175,"8080":3176,"##5z":3177,"/\"":3178,"_text":3179,"ic":3180,"##yload":3181,"##chain":3182,"##lsoap":3183,"xmlsoap":3184,"gov":3185,"ism":3186,"##typename":3187,"schemas":3188,"##connection":3189,"##f8":3190,"##ccd":3191,"eat":3192,"##xrs":3193,"##you":3194,"##kill":3195,"##atyou":3196,"jaxrs":3197,"abstracthttp":3198,"##whatyou":3199,"eatwhatyou":3200,"eatwhatyoukill":3201,"##failed":3202,"c10":3203,"##erc":3204,"211":3205,"_urn":3206,"##producer":3207,"##leto":3208,"releasableto":3209,"ownerproducer":3210,"retur":3211,"ut":3212,"##p_in":3213,"##esponseelement":3214,"##rset":3215,"return":3216,"utf":3217,"qua":3218,"##67":3219,"warn_1":3220,"upda":3221,"##temission":3222,"updatemission":3223,"updatemissionmetacard":3224,"aa":3225,"##peration":3226,"64":3227,"##ourc":3228,"##rl":3229,"0x10000046b0e06":3230,"cor":3231,"##*,":3232,"##120":3233,"4b":3234,"178":3235,"##9446":3236,"##246d":3237,"##b7":3238,"hits":3239,"##b840":3240,"##da77":3241,"validator":3242,"##man":3243,"##112":3244,"##77f0":3245,"##73fa":3246,"##pace":3247,"##13a9":3248,"161":3249,"failed":3250,"116":3251,"logupdateprocessorfactory_":3252,"##a4":3253,"##bf3":3254,"##8c29c":3255,"##9c246d":3256,"##3b77f0":3257,"##6bf9c246d":3258,"##5838c29c":3259,"##73fa6bf9c246d":3260,"##3b77f05838c29c":3261,"##73fa6bf9c246d3b77f05838c29c":3262,"##73fa6bf9c246d3b77f05838c29c321":3263,"##9089a":3264,"##08":3265,"_4":3266,"608":3267,"qtime":3268,"62":3269,"##di":3270,"##eb13a9":3271,"checks":3272,"##266b840":3273,"##13f9089a":3274,"##8bb13f9089a":3275,"##da77f49":3276,"##eb13a9266b840":3277,"##8bb13f9089ada77f49":3278,"##eb13a9266b8408bb13f9089ada77f49":3279,"##df":3280,"##c1":3281,"checksum":3282,"##b010":3283,"##_minutes":3284,"##522":3285,"crs":3286,"des":3287,"seri":3288,"tdl":3289,"url":3290,"##mat":3291,"##y_txt_tokenized":3292,"station":3293,"##ms_txt_tokenized":3294,"##lity":3295,"score":3296,"version_txt_tokenized":3297,"format":3298,"download":3299,"end_txt_tokenized":3300,"comments_txt_tokenized":3301,"start_txt_tokenized":3302,"originator":3303,"action_txt_tokenized":3304,"quality":3305,"validators":3306,"desc":3307,"serial":3308,"url_txt_tokenized":3309,"station_txt_tokenized":3310,"alerts_shard1_replica_n1":3311,"71":3312,"time_txt_tokenized":3313,"##dd3":3314,"##ller":3315,"##contro":3316,"169036":3317,"##controller":3318,"##84fb":3319,"##a7":3320,"##37":3321,"##106":3322,"##1012":3323,"##87f96":3324,"##7bb010":3325,"##6de02":3326,"##6d9446":3327,"##3853d":3328,"##84fb7bb010":3329,"##87f9684fb7bb010":3330,"##6de0287f9684fb7bb010":3331,"##3853d6d9446":3332,"##6de0287f9684fb7bb0103853d6d9446":3333,"##d4":3334,"##tered":3335,"##fy":3336,"servic":3337,"##ked":3338,"##2f":3339,"##7cfa":3340,"##102":3341,"##getmission":3342,"##148":3343,"161249":3344,"##518dd3":3345,"aa7cfa":3346,"##1012504":3347,"1612491012504":3348,"aa7cfa518dd3":3349,"##6e":3350,"nat":3351,"153":3352,"##921":3353,"operation":3354,"##_bu":3355,"##ip":3356,"respons":3357,"ns10":3358,"spell_index":3359,"spellcheckcomponent_bu":3360,"spellcheckcomponent_building":3361,"##160":3362,"_l":3363,"##ae":3364,"318":3365,"66":3366,"##_quer":3367,"querysenderlistener_quer":3368,"querysenderlistener_querysenderlistener":3369,"##27":3370,"52972":3371,"##a8":3372,"52920":3373,"##regis":3374,"cached":3375,"##51":3376,"52956":3377,"##b1":3378,"lientadapter":3379,"172":3380,"##xthandler":3381,"contexthandler":3382,"67":3383,"##61":3384,"##eci":3385,"p3aipbn011":3386,"##object":3387,"##ow":3388,"603":3389,"##480":3390,"##d7":3391,"##try":3392,"unable":3393,"unable_to":3394,"##3c":3395,"##_status":3396,"alerts_shard1_replica_n2":3397,"##rds":3398,"##cards":3399,"##metacards":3400,"65a":3401,".<":3402,"##solr":3403,"##forobject":3404,"getforobject":3405,"catalogoperationsimpl_":3406,"query_catalog":3407,"##_urn":3408,"charset":3409,"##a5":3410,"##jz":3411,"##52aa":3412,"##ils":3413,"##1d5b":3414,"75":3415,"httpsolr":3416,"to_s":3417,"##ble":3418,"httpsolrcall":3419,")..":3420,")...":3421,"metrics_params":3422,"##2c":3423,"2921":3424,"a249":3425,"##648":3426,"##95bf3":3427,"461d5b":3428,"4bcc":3429,"65a95bf3":3430,"##52aa17":3431,"461d5b52aa17":3432,"90":3433,"88":3434,"##6c":3435,"85":3436,"=+(++(+":3437,"##fccd":3438,"_http":3439,"##dis":3440,"romedis":3441,"##lean":3442,"romedisciplinetype":3443,"##pt":3444,"70":3445,"##ecode":3446,"##9e":3447,"##f1":3448,"##serviceimpl":3449,"catalogserviceimpl":3450,"##upport":3451,"fill":3452,"servletcontroller":3453,"createoperations":3454,"##interceptor":3455,"sslconnection":3456,"abstracthttpservlet":3457,"cachedchain":3458,"iw":3459,"##commit":3460,"##lin":3461,"##_from":3462,"c3":3463,"##165":3464,"103":3465,"afr":3466,"hyb":3467,"herc":3468,"jfccd":3469,"reco":3470,"sro":3471,"vess":3472,"vip":3473,"##iver":3474,"##rid":3475,"##t12":3476,"##ulean":3477,"##tails":3478,"##icom":3479,"applica":3480,"##oct0":3481,"mission_d":3482,"##ure_of":3483,"##vered":3484,"##nding":3485,"##missionlist":3486,"13t12":3487,"details":3488,"us_fl":3489,"02152":3490,"bard":3491,"02t16":3492,"##agged":3493,"##emo":3494,"standing":3495,"capt":3496,"imint":3497,"##5zoct0":3498,"##kedmissionlist":3499,".</":3500,"to_support":3501,"##linkedmissionlist":3502,"africom":3503,"hybrid":3504,"herculean":3505,"jfccdemo":3506,"recovered":3507,"vessel":3508,"##iverted":3509,"applicable":3510,"mission_diverted":3511,"us_flagged":3512,"021525zoct0":3513,"capture_of":3514,"hybridlinkedmissionlist":3515,"021525zoct09":3516,"##mand":3517,"ping":3518,"##etcommit":3519,"##alling":3520,"##command":3521,"##etcommitdata":3522,"##commandversion":3523,"##_h":3524,"mission_data":3525,"##2e":3526,"server_":3527,"provider":3528,"##144":3529,"##method":3530,"602":3531,"93":3532,"118":3533,"87":3534,"##72a":3535,"##503":3536,"##773":3537,"573":3538,"##_xmlns":3539,"_romemissiondataws_v2_0":3540,"portname":3541,"porttypename":3542,"headers":3543,"servicename":3544,"##gi":3545,"osgi":3546,"##0c":3547,"##943":3548,"exchangeid":3549,"missions":3550,"_500":3551,"server_error":3552,"minutes_ago":3553,"##am":3554,"##rometim":3555,"##rometimer":3556,"463":3557,"c12":3558,"c16":3559,"##880":3560,"_version":3561,"_version_":3562,"277":3563,"ping_params":3564,"83":3565,"##560":3566,"##ure":3567,"##_name":3568,"##ece":3569,"2173fa6bf9c246d3b77f05838c29c321":3570,"##157":3571,"wor":3572,"##reak":3573,"##dbreak":3574,"wordbreak":3575,"##146":3576,"##0a":3577,"c6":3578,"500":3579,"4eb13a9266b8408bb13f9089ada77f49":3580,"##tent":3581,"##ealtime":3582,"##bas":3583,"indexbas":3584,"indexbased":3585,"##3e":3586,"solrc":3587,"402":3588,"+*])++)+&":3589,"\"+)++)++":3590,"##f88":3591,"missionlist_urn":3592,"68":3593,"##post":3594,"b6de0287f9684fb7bb0103853d6d9446":3595,"1642":3596,"##vailab":3597,"##doc":3598,"##cope":3599,"##ument":3600,"##handle":3601,"dohandle":3602,"adddoc":3603,"adddocument":3604,"76":3605,"##89b":3606,"solrcore":3607,"wire":3608,"wireta":3609,"##91":3610,"setcommitdata":3611,"##_calling":3612,"solrindexwriter_calling":3613,"452":3614,"##0d":3615,"000006":3616,"##b7d":3617,"503":3618,"61":3619,"92":3620,"##exten":3621,"commandexten":3622,"commandextension":3623,"##e_check":3624,"lientadapter_":3625,"_0x10000046b0":3626,"tags_txt":3627,"select_params":3628,"##poll":3629,"##ly":3630,"91":3631,"_30":3632,"##_port":3633,"_content":3634,"romemissiondatawsendpoint_v2_0":3635,"##tle":3636,"##460":3637,"05t0":3638,"c5522":3639,"##ured":3640,"89":3641,"##_w":3642,"10000_w":3643,"10000_watcher":3644,"##242":3645,"130":3646,"updateplatform":3647,"updateplatformmetacard":3648,"available":3649,"##c13":3650,"_ver":3651,"availab":3652,"##_and":3653,"##_165":3654,"##ify":3655,"##ping":3656,"##ile_check":3657,"##e_failed":3658,"##figured":3659,"##_configured":3660,"##rectly":3661,"while_check":3662,"solrcatalogprovider_165":3663,"solr_is":3664,"solr_ping":3665,"correctly":3666,"response_failed":3667,"available_and":3668,"_verify":3669,"availability":3670,"while_checking":3671,"correctly_configured":3672,"_6":3673,"##425":3674,"title":3675,"##vision":3676,"##1c3":3677,"533":3678,"+(":3679,"fq":3680,"revision":3681,"++(+(":3682,"deleted":3683,"warnings_txt":3684,"=+(++(++":3685,"##mer":3686,"timer":3687,"_main":3688,"=}":3689,"111":3690,"0x10000046b0e08":3691,"##73f":3692,"payload":3693,"540":3694,"600":3695,"tra":3696,"##stan":3697,"##pper":3698,"##ing_":3699,"0x10000046b0e07":3700,"c18":3701,"##org":3702,"546":3703,"##wra":3704,"##wrapper":3705,"##ae6":3706,"##stance":3707,"##05":3708,"##perty":3709,"##495":3710,"##ann":3711,"##169":3712,"220":3713,"##104":3714,"4f2":3715,"##gc":3716,"##validating":3717,"229":3718,"##_20":3719,"text":3720,"##ived":3721,"_rece":3722,"_received":3723,"##ik":3724,"543":3725,"##d1":3726,"##equest":3727,"##ction":3728,"69":3729,"##346":3730,"feat":3731,"##nm":3732,"##py":3733,"##uuq":3734,"##zz":3735,"from_ro":3736,"from_rome":3737,"ka":3738,"karaf":3739,"##444":3740,"bundle_":3741,"import":3742,"##760":3743,"##808":3744,"556":3745,"track":3746,"##trateg":3747,"##trategy":3748,"486":3749,"544":3750,"550":3751,"539":3752,"req":3753,"##8d773":3754,"16902454":3755,"##ry":3756,"argc":3757,"##selement":3758,"getmissionselement":3759,"##riteria":3760,"argcriteria":3761,"##econ":3762,"##su":3763,"bundle_catalog":3764,"##ults":3765,"4f28d773":3766,"##a1":3767,"\",":3768,"=*":3769,"_req":3770,"_post":3771,"fir":3772,"gmt":3773,"soa":3774,"##peci":3775,"##/*,":3776,"##><":3777,"##edtime":3778,"faults":3779,"##almission":3780,"##readcr":3781,"httpmethod":3782,"##paction":3783,"ns6":3784,"ns8":3785,"ns4":3786,"ns7":3787,"ns9":3788,"ns3":3789,"##umbid":3790,"romespeci":3791,"\"><":3792,"romemissionsched":3793,"romeidlistrequest":3794,"/\"><":3795,"##_2021":3796,"req_out":3797,"=*/*,":3798,"_req_out":3799,"firedtime":3800,"gmt_2021":3801,"soapaction":3802,"##almissionsched":3803,"##readcrumbid":3804,"romespecialmissionsched":3805,"##ueued":3806,"##437":3807,"##tendpoint":3808,"##ocator":3809,"##dating":3810,"552":3811,"equest":3812,"getmissionidselement":3813,"equestrometimer":3814,"##subject":3815,"strategy":3816,"##168":3817,"##eng":3818,"##ava":3819,"##java":3820,"securityjava":3821,"##subjectfilter":3822,"securityjavasubjectfilter":3823,"queued":3824,"##socket":3825,"websocket":3826,"serviceinvoker":3827,"##threadpool":3828,"sessionhandler":3829,"restendpoint":3830,"handlerwrapper":3831,"abstractinvoker":3832,"##interest":3833,"jaxrsinvoker":3834,"fillinterest":3835,"queuedthreadpool":3836,"serviceinvokerinterceptor":3837,"##oun":3838,"##_ex":3839,"##sourc":3840,"##roperty":3841,"##servicep":3842,"##elocator":3843,"serviceunavailable":3844,"configservicep":3845,"##sourcelocator":3846,"##ropertysourcelocator":3847,"configservicepropertysourcelocator":3848,"p3aipbn0111":3849,"553":3850,"##p2":3851,"##sresponseelement":3852,"aip2":3853,"getmissionsresponseelement":3854,"8_r":3855,"leng":3856,"##esp_in":3857,"200_ex":3858,"resp_in":3859,"##esponsecode":3860,"_resp_in":3861,"8_responsecode":3862,"length":3863,"200_exchangeid":3864,"##responseelement":3865,"getmissionidsresponseelement":3866,"coun":3867,"##7580":3868,"##464":3869,"##getmissionsr":3870,"##formation":3871,"537":3872,"##690":3873,"up_":3874,"##884":3875,"##7430":3876,"##31":3877,"1690364":3878,"##flow":3879,"workflow":3880,"ler":3881,"lerpoll":3882,"##248":3883,"##490":3884,"542":3885,"##ption":3886,"##536":3887,"##008":3888,"##486":3889,"##186":3890,"##ources":3891,"##1ms":3892,"##136":3893,"95":3894,"##242a":3895,"##472":3896,"_al":3897,"##82102":3898,"##890":3899,"_alpn":3900,"##493":3901,"##f672a":3902,"##54568":3903,"##db157":3904,"##ae682102":3905,"##7430db157":3906,"##f672a54568":3907,"##ae6821027430db157":3908,"##f672a54568e4":3909,"##ae6821027430db157f672a54568e4":3910,"##635":3911,"98":3912,"3_status":3913,"inc":3914,"{,":3915,"##290":3916,"##_unavailable":3917,"##466":3918,"##ied":3919,"##_spel":3920,"index_for":3921,"building":3922,"image":3923,"##_spell":3924,"building_spell":3925,"mission_":3926,"realtime":3927,"##ith":3928,"412":3929,"##itat":3930,"##oitat":3931,"expl":3932,"##ization":3933,"##oitation":3934,"exploitation":3935,"pri":3936,"##ority":3937,"priority":3938,"##orting":3939,"reporting":3940,"##c818":3941,"country":3942,"##_type":3943,"##9049":3944,"feature":3945,"599":3946,"##696":3947,"##0f":3948,"sub":3949,"99":3950,"##128":3951,"545":3952,"11eb":3953,"##150":3954,"##403":3955,"##528":3956,"##1d20":3957,"\")+":3958,"350":3959,"=*,":3960,"ali":3961,"by_txt_tokenized":3962,"date":3963,"edi":3964,"fl":3965,"gro":3966,"jc3":3967,"mode":3968,"oth":3969,"rid":3970,"rating":3971,"sit":3972,"sort":3973,"string":3974,"voc":3975,"##wor":3976,"##word":3977,"##mes":3978,"##m_txt_tokenized":3979,"##gor":3980,"##lated":3981,"##uation":3982,"##ual":3983,"##ups":3984,"##uage":3985,"##ernal":3986,"##tatype":3987,"##tems_txt_tokenized":3988,"##atfor":3989,"##ds_txt_tokenized":3990,"##ective":3991,"organ":3992,"indi":3993,"information":3994,"producer":3995,"##ident":3996,"related":3997,"##anning":3998,"unit":3999,"platfor":4000,"##pression":4001,"##as_txt_tokenized":4002,"compression":4003,"##ular":4004,"metacard_type":4005,"##abular":4006,"scanning":4007,"names":4008,"external":4009,"contact_txt_tokenized":4010,"keyword":4011,"##+(+(":4012,"systems_txt_tokenized":4013,"##ription":4014,"metadata_txt_tokenized":4015,"subj":4016,"alar":4017,"algor":4018,"source_txt_tokenized":4019,"codewor":4020,"language":4021,"size_txt_tokenized":4022,"##vidual":4023,"tail_txt_tokenized":4024,"datatype":4025,"owner_txt_tokenized":4026,"location_txt_tokenized":4027,"origin_txt_tokenized":4028,"original":4029,"+*])++)++)+&":4030,"derived_txt_tokenized":4031,"=+(++(+(":4032,"encoding_txt_tokenized":4033,"##pace_txt_tokenized":4034,"checksum_txt_tokenized":4035,"format_txt_tokenized":4036,"quality_txt_tokenized":4037,"description":4038,"nato":4039,"##_name_txt_tokenized":4040,"title_txt_tokenized":4041,"##stance_txt_tokenized":4042,"incident":4043,"##iedm":4044,"##ithm_txt_tokenized":4045,"##izational":4046,"priority_txt_tokenized":4047,"substance_txt_tokenized":4048,"alias_txt_tokenized":4049,"datetime":4050,"edited":4051,"groups":4052,"jc3iedm":4053,"mode_txt_tokenized":4054,"other":4055,"rid_txt_tokenized":4056,"rating_txt_tokenized":4057,"situation":4058,"string_txt_tokenized":4059,"vocabular":4060,"organizational":4061,"individual":4062,"information_txt_tokenized":4063,"producer_txt_tokenized":4064,"related_txt_tokenized":4065,"unit_txt_tokenized":4066,"platforms_txt_tokenized":4067,"compression_txt_tokenized":4068,"metacard_type_name_txt_tokenized":4069,"namespace_txt_tokenized":4070,"external_txt_tokenized":4071,"keyword_txt_tokenized":4072,"subjective":4073,"alarm":4074,"algorithm_txt_tokenized":4075,"codewords_txt_tokenized":4076,"language_txt_tokenized":4077,"datatype_txt_tokenized":4078,"description_txt_tokenized":4079,"groups_txt_tokenized":4080,"vocabulary_txt_tokenized":4081,"individuals_txt_tokenized":4082,"jo":4083,"exit":4084,"sensors_txt_tokenized":4085,"join":4086,"_pa":4087,"envelope_xmlns":4088,"_payload":4089,"##496":4090,"0242a":4091,"##lear":4092,"0242ac13":4093,"530":4094,"##b0b2":4095,"0x10000046b0e00":4096,"77":4097,"##770":4098,"response":4099,"##833":4100,"##124":4101,"536":4102,"##130":4103,"_2":4104,"##482":4105,"##1e1b":4106,"breadcrumbid":4107,"##ec73f":4108,"##17a":4109,"##7089b":4110,"##704":4111,"250":4112,"597":4113,"##b9b140":4114,"##106b9b140":4115,"##f881d20":4116,"##7580f881d20":4117,"##9049106b9b140":4118,"##ec73feb":4119,"##7580f881d20ec73feb":4120,"##9049106b9b1407580f881d20ec73feb":4121,"##9437089b":4122,"##b7d9437089b":4123,"##1c31e1b":4124,"##c81853":4125,"##b0b2b7d9437089b":4126,"##1c31e1bc81853":4127,"##b0b2b7d9437089b1c31e1bc81853":4128,"473":4129,"wiretap":4130,"##872":4131,"596":4132,"##1a4":4133,"86":4134,"##208":4135,"593":4136,"586":4137,"##442":4138,"##176":4139,"##108":4140,"132":4141,"399":4142,"bundle_s":4143,"538":4144,"rss":4145,"commitcommandversion":4146,"##145":4147,"588":4148,"##408":4149,"0242ac13000":4150,"##188":4151,"##184":4152,"555":4153,"84":4154,"94":4155,"576":4156,"526":4157,"##530":4158,"getplatform":4159,"getplatformmetacards":4160,"403":4161,"_n":4162,"##107":4163,"##170":4164,"##296":4165,"396":4166,"##c8c":4167,"400":4168,"##servicecon":4169,"##servicecontext":4170,"##eca":4171,"##_new":4172,"1690369":4173,"registered":4174,"solrcore_":4175,"registered_new":4176,"##246":4177,"583":4178,"##768":4179,"##ing_r":4180,"##970":4181,"sending_r":4182,"##equests":4183,"sending_requests":4184,"415":4185,"##402":4186,"##860":4187,"388":4188,"513":4189,"##428":4190,"##122":4191,"0000015":4192,"##306":4193,"##404":4194,"549":4195,"##c12":4196,"##194":4197,"120":4198,"##484":4199,"329":4200,"##347":4201,"##192":4202,"nati":4203,"##644":4204,"366":4205,"##164":4206,"569":4207,"##c90":4208,"actionprovider":4209,"547":4210,"##reating":4211,"_creating":4212,"##14a":4213,"##e52":4214,"524":4215,"##294":4216,"##ables":4217,"78":4218,"##436":4219,"metacard_":4220,"##validate":4221,"##126":4222,"##oot":4223,"##verage":4224,"##loa":4225,"##loada":4226,"##clientadapter":4227,"532":4228,"##462":4229,"##_server":4230,"fs":4231,"hea":4232,"##cp":4233,"##eroot":4234,"##uload":4235,"processcp":4236,"usables":4237,"systemloada":4238,"coreroot":4239,"heap":4240,"processcpuload":4241,"usablespace":4242,"systemloadaverage":4243,"##c8d":4244,"_up":4245,"timeout_":4246,"_negotiated":4247,"_updating":4248,"javax":4249,"operations":4250,"##edthread":4251,"post":4252,"##142":4253,"##gest":4254,"ingest":4255,"114":4256,"default":4257,"587":4258,"##_point":4259,"commit_end":4260,"commit_end_point":4261,"##260":4262,"##780":4263,"577":4264,"##8ae":4265,"getmissionmetacards":4266,"##864":4267,"-----------------------------------------------------------------":4268,"523":4269,"romegetmission":4270,"##------":4271,"delivery":4272,"choice":4273,"##----------------------------------------------------------------------":4274,"operationname":4275,"---------------------------------------------------------------------------------------------------------------------------------------":4276,"dos":4277,"pha":4278,"##lable":4279,"##ination":4280,"##ervedthread":4281,"onfil":4282,"##forenti":4283,"##estination":4284,"reservedthread":4285,"postforenti":4286,"ingestmetacard":4287,"doscope":4288,"phase":4289,"onfillable":4290,"postforentity":4291,"##904":4292,"_loc":4293,"##975":4294,"##196":4295,"##110":4296,"##acc":4297,"##502":4298,"##538":4299,"##e66":4300,"609":4301,"590":4302,"##474":4303,"000007":4304,"535":4305,"557":4306,"558":4307,"##178":4308,"native":4309,"##564":4310,"##776":4311,"##694":4312,"##990":4313,"1690370":4314,"333":4315,"fri":4316,"##972":4317,"##c06":4318,"##3f9":4319,"393":4320,"559":4321,"##24a":4322,"##580":4323,"##118":4324,"000008":4325,"589":4326,"##162":4327,"##960":4328,"606":4329,"##443":4330,"541":4331,"##190":4332,"##143":4333,"##703":4334,"06":4335,"500_server":4336,"607":4337,"563":4338,"##125":4339,"411":4340,"##e36":4341,"##_feb":4342,"fri_feb":4343,"594":4344,"109":4345,"##114":4346,"##706":4347,"##4aa":4348,"387":4349,"469":4350,"##cf6":4351,"##174":4352,"605":4353,"b0":4354,"580":4355,"##413":4356,"##202":4357,"##_com":4358,"##registered":4359,"##243":4360,"570":4361,"##166":4362,"##325":4363,"573ae6821027430db157f672a54568e4":4364,"150":4365,"##886":4366,"_503":4367,"service_unavailable":4368,"exchange":4369,"##204":4370,"##238":4371,"_org":4372,"##508":4373,"390":4374,"##a80":4375,"330":4376,"##506":4377,"##526":4378,"##478":4379,"353":4380,"477":4381,"126":4382,"369":4383,"##744":4384,"##182":4385,"##546":4386,"##116":4387,"305":4388,"9a":4389,"499":4390,"595":4391,"##045":4392,"598":4393,"173":4394,"377":4395,"554":4396,"566":4397,"##498":4398,"_55":4399,"shel":4400,"##483":4401,"shell":4402,"##14d":4403,"##5287":4404,"##998":4405,"585":4406,"##8eb":4407,"##825":4408,"151":4409,"##76e":4410,"##487":4411,"##544":4412,"[{":4413,"534":4414,"_56":4415,"##882":4416,"##_commitcommandversion":4417,"520":4418,"##438":4419,"p3aipbn0113":4420,"_54":4421,"##24b":4422,"##947":4423,"p3aipbn0112":4424,"##2b0b2b7d9437089b1c31e1bc81853":4425,"##936":4426,"4022b0b2b7d9437089b1c31e1bc81853":4427,"488":4428,"##156":4429,"446":4430,"##mands":4431,"_3h":4432,"##778":4433,"##433":4434,"##942":4435,"[?:?]":4436,"##149":4437,"389":4438,"356":4439,"##198":4440,"##728":4441,"97":4442,"##ecipe":4443,"79049106b9b1407580f881d20ec73feb":4444,"##cb7":4445,"_53":4446,"413":4447,"}]":4448,"##48b":4449,"0x10000046b0e015":4450,"##772":4451,"##764":4452,"##875":4453,"proxy":4454,"],":4455,"mpl":4456,"##_146":4457,"commandextension_146":4458,"##_commands":4459,"_1":4460,"528":4461,"##992":4462,"##832":4463,"416":4464,"_52":4465,"e9":4466,"##46a":4467,"##409":4468,"##022":4469,"##422":4470,"383":4471,"##7x":4472,"##562":4473,"_0x10000046b0e0":4474,"_0x10000046b0e02":4475,"429":4476,"422":4477,"##247":4478,"810":4479,"_3f":4480,"_2m":4481,"##206":4482,"##766":4483,"55a":4484,"##_v2_0_port":4485,"##eaders":4486,"##servicename":4487,"romemissiondataws_v2_0_port":4488,"##_headers":4489,"##_porttypename":4490,"romemissiondatawsendpoint_v2_0_headers":4491,"romemissiondatawsendpoint_v2_0_porttypename":4492,"romemissiondataws_v2_0_portname":4493,"##590":4494,"104":4495,"##692":4496,"385":4497,"424":4498,"512":4499,"##reate":4500,"c5425":4501,"_2l":4502,"c35":4503,"##e4a":4504,"##117":4505,"386":4506,"440":4507,"##46d":4508,"453":4509,"##892":4510,"c5437":4511,"483":4512,"##874":4513,"343":4514,"##c4a":4515,"##158":4516,"##534":4517,"c35287":4518,"##458":4519,"470":4520,"##468":4521,"476":4522,"##49d":4523,"##42a":4524,"##0346":4525,"c35495":4526,"cann":4527,"##454":4528,"cannot":4529,"527":4530,"lerpollthread_":4531,"579":4532,"bundle_security":4533,"##40a":4534,"##103":4535,"##134":4536,"16902455":4537,"426":4538,"575":4539,"001a":4540,"##44f":4541,"376":4542,"363":4543,"##8i":4544,"##774":4545,"373":4546,"175":4547,"516":4548,"443":4549,"##lo":4550,"##203":4551,"##974":4552,"##230":4553,"##44b":4554,"##7i":4555,"##7k":4556,"456":4557,"444":4558,"423":4559,"##1511":4560,"##ef11":4561,"##14f":4562,"##gr":4563,"##006":4564,"##996":4565,"##968":4566,"230":4567,"##220":4568,"##43a":4569,"215":4570,"c48":4571,"##004":4572,"110":4573,"##47d":4574,"380":4575,"##132":4576,"##c4d":4577,"355":4578,"##8k":4579,"##ok":4580,"001c":4581,"##88d":4582,"0018":4583,"##c8c2":4584,"##109":4585,"##49a":4586,"##459":4587,"121":4588,"##d575":4589,"364":4590,"450":4591,"496":4592,"##736":4593,"##l_mission":4594,"all_mission":4595,"_invalidating":4596,"##80c5":4597,"##6bf0":4598,"##_servicename":4599,"##40b":4600,"##138":4601,"604":4602,"490":4603,"##ching":4604,"##445":4605,"251":4606,"##584":4607,"420":4608,"584":4609,"lu":4610,"##264":4611,"370":4612,"##5aa":4613,"##former":4614,"cff":4615,"##r2":4616,"inter":4617,"##fdc90":4618,"##7de1":4619,"##c12b":4620,"interceptor":4621,"##4eb13a9266b8408bb13f9089ada77f49":4622,"##wf2":4623,"##j1":4624,"001e":4625,"gdes4eb13a9266b8408bb13f9089ada77f49":4626,"348":4627,"rclientadapter":4628,"invalidating":4629,"##tale":4630,"##_searcher":4631,"##_stale":4632,"##030":4633,"invalidating_stale":4634,"493":4635,"##j5":4636,"##qx":4637,"##exs":4638,"##113":4639,"subject":4640,"##m0":4641,"572":4642,"c39":4643,"##initi":4644,"##ogger":4645,"##326":4646,"44b2":4647,"0i8":4648,"582":4649,"7lu":4650,"hen":4651,"j9":4652,"kn":4653,"lg":4654,"nvm":4655,"niy":4656,"nnm":4657,"oh":4658,"o6n":4659,"ux":4660,"uty":4661,"vq":4662,"xn":4663,"xk":4664,"yu":4665,"##6m":4666,"##5h":4667,"##5dt":4668,"##dx":4669,"##drs":4670,"##dnm":4671,"##8qx":4672,"##1n":4673,"##1zy":4674,"##4m":4675,"##4p":4676,"##4o":4677,"##4z":4678,"##724":4679,"##fx":4680,"##9t":4681,"##9lq":4682,"##bx":4683,"##bn":4684,"##bmp":4685,"##bgz":4686,"##3n":4687,"##3r":4688,"##3q":4689,"##aq":4690,"##wo":4691,"##wct":4692,"##w72":4693,"##wtg":4694,"##w1n":4695,"##hx":4696,"##hw8":4697,"##hrt":4698,"##h0c":4699,"##h9lq":4700,"##ii":4701,"##iqu":4702,"##ixj":4703,"##i7x":4704,"##i3r":4705,"##xvo":4706,"##xoh":4707,"##xixj":4708,"##mtr":4709,"##m28":4710,"##nv1":4711,"##gt":4712,"##gpb":4713,"##gl3":4714,"##gbr":4715,"##gc7":4716,"##g2b":4717,"##pyw":4718,"##p648":4719,"##p4z":4720,"##pgl3":4721,"##llr":4722,"##l04":4723,"##lbmp":4724,"##o22":4725,"##sjg":4726,"##r78":4727,"##rw72":4728,"##vu":4729,"##vin":4730,"##v0b":4731,"##vzq":4732,"##vfy":4733,"##vwct":4734,"##tpe":4735,"##t833":4736,"##u6n":4737,"##ua0":4738,"##u6bf0":4739,"##u9t":4740,"##yva":4741,"##ynd":4742,"##y14":4743,"##yef11":4744,"##zjz":4745,"##zdnm":4746,"##kj7":4747,"##k0y":4748,"##kpgl3":4749,"##jit":4750,"##joz":4751,"##jhrt":4752,"##q45":4753,"##qc8c2":4754,"##qm0":4755,"##q5h":4756,"##ql04":4757,"##qvzq":4758,"##usog":4759,"##mqbgz":4760,"##fof7":4761,"##iz8":4762,"##izaq":4763,"##izvu":4764,"##plqc8c2":4765,"##ebzz":4766,"##ebk0y":4767,"##ueq45":4768,"##prc12b":4769,"##cnh9lq":4770,"##ty5g":4771,"##02u9t":4772,"##ys3q":4773,"##wgig":4774,"##pazjz":4775,"##ofgpb":4776,"##i5tg":4777,"##adprc12b":4778,"##ioys3q":4779,"##xmmtr":4780,"##30qs":4781,"##lrz3":4782,"##km6m":4783,"##45v0b":4784,"##nsj3":4785,"##17kv":4786,"##dudrs":4787,"##x0mqbgz":4788,"##x0fof7":4789,"##i0py":4790,"##xdok":4791,"##pf7de1":4792,"##v5ebk0y":4793,"##u1kj7":4794,"##35y14":4795,"##efyef11":4796,"##cbm28":4797,"##v9e52":4798,"##zq3s":4799,"ep8i":4800,"##dv9gt":4801,"##w6ii":4802,"##z9fx":4803,"##ko4p":4804,"##zkwf2":4805,"##5cvin":4806,"##2bw":4807,"##ngp4z":4808,"##umu6bf0":4809,"##f96wgig":4810,"##5zebzz":4811,"##jzam":4812,"##648x0mqbgz":4813,"##am80c5":4814,"##ikzz":4815,"##ikdx":4816,"##pyam80c5":4817,"##uuqiqu":4818,"##uuqxmmtr":4819,"##ryikzz":4820,"##635v5ebk0y":4821,"##1a4r78":4822,"##644vwct":4823,"##8aekpgl3":4824,"##e66w1n":4825,"##3f9lrz3":4826,"##045j5":4827,"55apyw":4828,"##lo02u9t":4829,"##7iuuqxmmtr":4830,"##7k1511":4831,"##gr2bw":4832,"##8kgbr":4833,"##d575jhrt":4834,"luhx":4835,"cffplqc8c2":4836,"##r2xvo":4837,"##fdc90648x0mqbgz":4838,"##j1iz8":4839,"0i8wo":4840,"7lu7iuuqxmmtr":4841,"hen5dt":4842,"j9jzam":4843,"kn635v5ebk0y":4844,"lg3f9lrz3":4845,"nvmjit":4846,"niyjoz":4847,"nnmrw72":4848,"oh3n":4849,"o6nefyef11":4850,"ux644vwct":4851,"utyngp4z":4852,"vqi0py":4853,"xnbn":4854,"xkadprc12b":4855,"yufdc90648x0mqbgz":4856,"##1zyv9e52":4857,"##4mdudrs":4858,"##4o25":4859,"##bx1zyv9e52":4860,"##wtg4o25":4861,"##h0cizvu":4862,"##i7xuuqiqu":4863,"##i3rko4p":4864,"##xohynd":4865,"##xixjt":4866,"##nv1r2xvo":4867,"##gc7p648":4868,"##g2bxixjt":4869,"##lbmp17kv":4870,"##sjge66w1n":4871,"##vfycbm28":4872,"##tpeua0":4873,"##t833lo02u9t":4874,"##u6ngr2bw":4875,"##yva6":4876,"##zdnmh0cizvu":4877,"##qm0i5tg":4878,"##q5hpf7de1":4879,"##ql04qvzq":4880,"##usogzdnmh0cizvu":4881,"##izaqryikzz":4882,"##ueq45g2bxixjt":4883,"##cnh9lq7k1511":4884,"##ty5gjz":4885,"##pazjzty5gjz":4886,"##ofgpbioys3q":4887,"##30qs8kgbr":4888,"##km6mzkwf2":4889,"##45v0bpazjzty5gjz":4890,"##nsj3llr":4891,"##x0fof7yva6":4892,"##xdokt833lo02u9t":4893,"##u1kj7pyam80c5":4894,"##35y14z":4895,"##zq3svfycbm28":4896,"ep8iqm0i5tg":4897,"##dv9gtq":4898,"##w6iiofgpbioys3q":4899,"##z9fxu1kj7pyam80c5":4900,"##5cvinizaqryikzz":4901,"##umu6bf0nsj3llr":4902,"##f96wgig045j5":4903,"##5zebzzueq45g2bxixjt":4904,"##ikdxsjge66w1n":4905,"##1a4r78exs":4906,"##8aekpgl38qx":4907,"55apyw30qs8kgbr":4908,"##d575jhrto22":4909,"luhx5cvinizaqryikzz":4910,"cffplqc8c2ql04qvzq":4911,"0i8wow6iiofgpbioys3q":4912,"7lu7iuuqxmmtrf96wgig045j5":4913,"hen5dtnv1r2xvo":4914,"j9jzami3rko4p":4915,"kn635v5ebk0yzq3svfycbm28":4916,"lg3f9lrz345v0bpazjzty5gjz":4917,"nvmjitbx1zyv9e52":4918,"niyjozikdxsjge66w1n":4919,"nnmrw72gc7p648":4920,"oh3nkm6mzkwf2":4921,"o6nefyef11usogzdnmh0cizvu":4922,"ux644vwctq5hpf7de1":4923,"utyngp4zz9fxu1kj7pyam80c5":4924,"vqi0py5zebzzueq45g2bxixjt":4925,"xnbnlbmp17kv":4926,"xkadprc12bxdokt833lo02u9t":4927,"yufdc90648x0mqbgzu6ngr2bw":4928,"##4mdudrsdv9gtq":4929,"##i7xuuqiquhw8":4930,"##xohyndq":4931,"ep8iqm0i5tgumu6bf0nsj3llr":4932,"55apyw30qs8kgbrx0fof7yva6":4933,"luhx5cvinizaqryikzztpeua0":4934,"cffplqc8c2ql04qvzqxohyndq":4935,"0i8wow6iiofgpbioys3qj1iz8":4936,"hen5dtnv1r2xvo8aekpgl38qx":4937,"j9jzami3rko4pcnh9lq7k1511":4938,"kn635v5ebk0yzq3svfycbm28w":4939,"nvmjitbx1zyv9e521a4r78exs":4940,"niyjozikdxsjge66w1n35y14z":4941,"nnmrw72gc7p648d575jhrto22":4942,"oh3nkm6mzkwf2i7xuuqiquhw8":4943,"ux644vwctq5hpf7de1wtg4o25":4944,"xnbnlbmp17kv4mdudrsdv9gtq":4945,"##f4a":4946,"##836":4947,"497":4948,"510":4949,"ins":4950,"237":4951,"4f":4952,"_acc":4953,"##ept":4954,"mission_ids":4955,"_accept":4956,"##b9a":4957,"gdes21":4958,"gdes2173fa6bf9c246d3b77f05838c29c321":4959,"612":4960,"##964":4961,"##554":4962,"##236":4963,"_f":4964,"##754":4965,"_server":4966,"responsecode":4967,"_200":4968,"##ons":4969,"##962":4970,"##registry":4971,"actionproviderregistry":4972,"actionproviderregistryproxy":4973,"##594":4974,"clientinfo":4975,"##45d":4976,"502":4977,"##task":4978,"592":4979,"##48d":4980,"##40d":4981,"##492":4982,"140":4983,"1302":4984,"8753":4985,"_mms":4986,"ids_from":4987,"requesting_":4988,"requesting_mission":4989,"107":4990,"##esb6de0287f9684fb7bb0103853d6d9446":4991,"##14b":4992,"gdesb6de0287f9684fb7bb0103853d6d9446":4993,"##48a":4994,"httpservicecontext":4995,"##44d":4996,"insec":4997,"8888":4998,"csr":4999,"nex":5000,"next":5001,"##destination":5002,"##collection":5003,"##ffilter":5004,"##bserver":5005,"##nons":5006,"##gra":5007,"##observer":5008,"##scope":5009,"##ontend":5010,"##ints":5011,"##ininiti":5012,"##thand":5013,"##chann":5014,"##ervleth":5015,"##older":5016,"##cceed":5017,"##etching":5018,"##ationobserver":5019,"catalogframework":5020,"##48f":5021,"httpservices":5022,"httpservlet":5023,"httpchann":5024,"##elendpoint":5025,"##upgra":5026,"cxfnons":5027,"##pringservlet":5028,"##handlercollection":5029,"##serverhandlercollection":5030,"##nnelendpoint":5031,"jettyserverhandlercollection":5032,"config_from":5033,"##points":5034,"##duce":5035,"invoker":5036,"securityhandler":5037,"httpconnection":5038,"succeed":5039,"abstractconnection":5040,"endpoints":5041,"chaininiti":5042,"channelendpoint":5043,"frontend":5044,"servletholder":5045,"##defilter":5046,"abstracthttpdestination":5047,"fillable":5048,"##interceptorchain":5049,"1301":5050,"websocketupgra":5051,"responsefilter":5052,"reservedthreadexecutor":5053,"phaseinterceptorchain":5054,"_fetching":5055,"clientinfofilter":5056,"csrffilter":5057,"nexthand":5058,"nextscope":5059,"##ervlethandler":5060,"catalogframeworkimpl":5061,"httpserviceservlethandler":5062,"httpchannel":5063,"cxfnonspringservlet":5064,"succeeded":5065,"chaininitiationobserver":5066,"websocketupgradefilter":5067,"nexthandle":5068,"tman":5069,"515":5070,"_name":5071,"c50":5072,"##vir":5073,"##onment":5074,"profiles":5075,"##abel":5076,"##533":5077,"envir":5078,"_label":5079,"_located":5080,"environment":5081,"##994":5082,"340":5083,"##804":5084,"aip1":5085,"##ercules":5086,"##_hercules":5087,"130_hercules":5088,"##026":5089,"##978":5090,"410":5091,"395":5092,"31t":5093,"##002":5094,"##878":5095,"##b9d":5096,"##47a":5097,"##573":5098,"##1ed":5099,"143":5100,"##698":5101,"##822":5102,"_ro":5103,"dom":5104,"low":5105,"##eeb":5106,"##fer":5107,"##_dir":5108,"##_getmissionsr":5109,"##ross":5110,"##etot":5111,"##_side":5112,"rome_getmissionsr":5113,"##_cross":5114,"for_cross":5115,"##uterome":5116,"_writ":5117,"transfer":5118,"xml_to":5119,"##esponsetot":5120,"##getmissionsresponsetot":5121,"tman_dir":5122,"_routerome":5123,"domain":5124,"low_side":5125,"rome_getmissionsresponse":5126,"_writing":5127,"##getmissionsresponsetotman":5128,"tman_directory":5129,"_routeromegetmissionsresponsetotman":5130,"##1ca":5131,"##463":5132,"##447":5133,"##14c":5134,"375":5135,"448":5136,"##0e":5137,"447":5138,"##17b":5139,"##550":5140,"##489":5141,"203":5142,"##866":5143,"_0x10000046b0e015":5144,"332":5145,"349":5146,"228":5147,"##806":5148,"4a":5149,"522":5150,"c38":5151,"##525":5152,"##0238":5153,"##154":5154,"##89d":5155,"##898":5156,"##89f":5157,"03":5158,"##105":5159,"for_":5160,"433":5161,"##94a":5162,"##708":5163,"##473":5164,"##838":5165,"255":5166,"##298":5167,"##449":5168,"07":5169,"_client":5170,"c57":5171,"##003":5172,"resources":5173,"31t0":5174,"##_done":5175,"querysenderlistener_done":5176,"##_res":5177,"##40f":5178,"##10a":5179,"##304":5180,"455":5181,"612ms":5182,"##828":5183,"392":5184,"##used":5185,"##7353":5186,"430":5187,"574":5188,"##b4d":5189,"msg":5190,"449":5191,"##e24":5192,"##1aa":5193,"##323":5194,"567":5195,"347":5196,"345":5197,"##55a":5198,"##862":5199,"##934":5200,"_k":5201,"##15a":5202,"##cba":5203,"unregis":5204,"##94d":5205,"unregister":5206,"##18a":5207,"##44e":5208,"##43d":5209,"##baa":5210,"##993":5211,"##588":5212,"##_send":5213,"requests_to":5214,"querysenderlistener_send":5215,"querysenderlistener_sending":5216,"##16a":5217,"##query":5218,"c9":5219,"##758":5220,"##4af":5221,"##9c23":5222,"216":5223,"360":5224,"489":5225,"578":5226,"delete":5227,"193":5228,"##ai":5229,"##43f":5230,"##966":5231,"##19a":5232,"0242ac130003":5233,"##aims":5234,"##268":5235,"clear":5236,"##_failed":5237,"##24e":5238,"amq2220":5239,"##262":5240,"connection_failed":5241,"##1a0":5242,"##ing_up":5243,"resources_for":5244,"clearing_up":5245,"amq222061":5246,"##4a0":5247,"391":5248,"##88a":5249,"##407":5250,"lientadapter_1":5251,"472":5252,"up_res":5253,"amq222":5254,"##b3a":5255,"_clear":5256,"up_resources":5257,"amq222107":5258,"_cleared":5259,"518":5260,"##99a":5261,"##10d":5262,"deleteby":5263,"382":5264,"480":5265,"##469":5266,"##722":5267,"(-":5268,")}":5269,"##485":5270,"deletebyquery":5271,"8493":5272,"8e36":5273,"d7353":5274,"##00a":5275,"600ms":5276,"##17a9c23":5277,"e917a9c23":5278,"d7353cb7":5279,"e917a9c23c06":5280,"##b5a":5281,"445":5282,"##245":5283,"##123":5284,"##1ad":5285,"##e4d":5286,"##8e8":5287,"466":5288,"##69d":5289,"##14e":5290,"##ug":5291,"##_no":5292,"##479":5293,"519":5294,"##event":5295,"##b4f":5296,"##87a":5297,"##47f":5298,"##c7a":5299,"_46":5300,"##80a":5301,"475":5302,"460":5303,"##99d":5304,"30t":5305,"##854":5306,"##b46":5307,"##734":5308,"##19d":5309,"##1ba":5310,"adds":5311,"08":5312,"##175":5313,"##24f":5314,"##973":5315,"##b59":5316,"##f30":5317,"##234":5318,"_registered":5319,"##use":5320,"new_searcher":5321,"562":5322,"returned":5323,"##_lv":5324,"##24d":5325,"alert_rule":5326,"0000_lv":5327,"ruleid":5328,"_logger":5329,"returned_no":5330,"0000_lvl":5331,"394":5332,"_57":5333,"##_method":5334,"0x10000046b0e06a":5335,"native_method":5336,"##763":5337,"##868":5338,"169036419":5339,"##cons":5340,"##b6f":5341,"506":5342,"418":5343,"##834":5344,"##1e9":5345,"c13":5346,"##ook":5347,"##e9a":5348,"la":5349,"##840":5350,"##1ab":5351,"##746":5352,"223":5353,"##fad":5354,"336":5355,"##788":5356,"##4369":5357,"##c4f":5358,"0_8":5359,"##ecause":5360,"##ebb":5361,"##cad":5362,"##695":5363,"##13a":5364,"##4ad":5365,"_1d":5366,"##c44":5367,"##_at":5368,"##239":5369,"##aimshandler":5370,"##fa0":5371,"_no":5372,"to_in":5373,"to_invalidate":5374,"287":5375,"##4a6":5376,"##8aa":5377,"507":5378,"##da9":5379,"##119":5380,"##17d":5381,"##759":5382,"##b9f":5383,"16120":5384,"##938":5385,"406":5386,"568":5387,"c45":5388,"##e9d":5389,"caused":5390,"344":5391,"##ed_":5392,"##ting_":5393,"##558":5394,"432":5395,"517":5396,"##69a":5397,"##42f":5398,"##906":5399,"185":5400,"_ch":5401,"##1bd":5402,"##arset":5403,"##439":5404,"##b6a":5405,"_charset":5406,"##b48":5407,"##446":5408,"##eaf":5409,"##daa":5410,"##183":5411,"372":5412,"000c_from":5413,"525":5414,"288":5415,"rome_id":5416,"##293":5417,"##4dd":5418,"##1698":5419,"mission_metacard":5420,"b05c":5421,"exis":5422,"##fa6":5423,"##163":5424,"##49c":5425,"##2d3":5426,"##720":5427,"##1040":5428,"##b5d":5429,"179":5430,"352":5431,"457":5432,"##77a":5433,"##e5a":5434,"##bab":5435,"##539":5436,"##4d6":5437,"112":5438,"335":5439,"407":5440,"##e46":5441,"##710":5442,"##69f":5443,"##b96":5444,"##e5d":5445,"##ting_mission":5446,"existing_mission":5447,"##_platform":5448,"##c9d":5449,"1690357":5450,"new_platform":5451,"0242ac13000a":5452,"##dad":5453,"##133":5454,"176":5455,"511":5456,"##4df":5457,"##740":5458,"lerpollthread":5459,"##147":5460,"##794":5461,"##fdd":5462,"##97d":5463,"##f6d":5464,"531":5465,"d783":5466,"##4ff":5467,"##9bcf6":5468,"##a809bcf6":5469,"##43691698":5470,"1612043691698":5471,"d783a809bcf6":5472,"564":5473,"##1eb":5474,"362":5475,"##eged":5476,"##iv":5477,"##ileged":5478,"##priv":5479,"##privileged":5480,"equ":5481,"##ino":5482,"##ea0":5483,"##eda":5484,"##b0d":5485,"equino":5486,"##5ba":5487,"##4bd":5488,"##eab":5489,"##88b":5490,"##74b":5491,"276":5492,"##b43":5493,"##eb0":5494,"##8a6":5495,"1ca":5496,"##8610":5497,"##13d":5498,"request_":5499,"565":5500,"1690364199":5501,"##745":5502,"##ec3":5503,"##29f":5504,"##b5b":5505,"##1e0":5506,"609ms":5507,").":5508,"495":5509,"##1ff":5510,"608ms":5511,"##e43":5512,"##e45":5513,"##29d":5514,"##44c":5515,"##b93":5516,"##4f6":5517,"[]":5518,"_failed":5519,"l2h":5520,"##712":5521,"##_processor":5522,"##_af":5523,"##sendpoint":5524,"##ught":5525,"##usted":5526,"##cktra":5527,"##istory":5528,"##hausted":5529,"##id_processor":5530,"##rorhandler":5531,"exhausted":5532,"##da0":5533,"messageid":5534,"message_h":5535,"##terrorhandler":5536,"##caught":5537,"to2":5538,"to1":5539,"processorid_processor":5540,"bean2":5541,"bean4":5542,"bean3":5543,"period":5544,"elaps":5545,"soaprequest":5546,"defaulterrorhandler":5547,"1_caught":5548,"when":5549,"routeid":5550,"##idsendpoint":5551,"300000":5552,"setheader2":5553,"setheader1":5554,"setheader3":5555,"wiretap1":5556,"romegetmissionsendpoint":5557,"romegetmissionidsendpoint":5558,"delivery_at":5559,"choice1":5560,"##_after":5561,"##cktrace":5562,"exhausted_after":5563,"message_history":5564,"elapsed_":5565,"soaprequestrometimer":5566,"delivery_attempt":5567,"].":5568,"##c2a":5569,"##_pro":5570,"##er_":5571,"##883":5572,"error_pro":5573,"##cessing":5574,"##87d":5575,"##ba6":5576,"##e93":5577,"##e2f":5578,"##_by":5579,"##umer_":5580,"timercons":5581,"caused_by":5582,"error_processing":5583,"timerconsumer_":5584,"##_metacard":5585,"invalidate":5586,"platform_metacard":5587,"##missions":5588,"##028":5589,"##allmissions":5590,"##8c6":5591,"##928":5592,"##664":5593,"invalidateallmissions":5594,"##12a":5595,"##29a":5596,"##738":5597,"_3e":5598,"##786":5599,"##bbd":5600,"##eaa":5601,"##693":5602,"601ms":5603,"183":5604,"a2":5605,"##193":5606,"##c43":5607,"##97a":5608,"_realtime":5609,"##88c":5610,"##53a":5611,"##e3d":5612,"509":5613,"##608":5614,"##56a":5615,"##5ad":5616,"##19f":5617,"208":5618,"0x10000046b0e09":5619,"##1b0":5620,"##ca0":5621,"##4f9":5622,"##ea6":5623,"##8af":5624,"##_3":5625,"##cc6":5626,"##ec0":5627,"##eba":5628,"##42b":5629,"##893":5630,"##ca6":5631,"_4p":5632,"610":5633,"##ea3":5634,"##c0a":5635,"##88f":5636,"607ms":5637,"##1fa":5638,"##e10":5639,"##e49":5640,"##74a":5641,"##ing_commands":5642,"##94f":5643,"##11f":5644,"##70a":5645,"_3p":5646,"unregistering_commands":5647,"##038":5648,"##79a":5649,"2976e":5650,"_3o":5651,"##8eb64":5652,"##ugin":5653,"2976e808":5654,"##16d":5655,"##26a":5656,"##8d4":5657,"##23a":5658,"##e09":5659,"265":5660,"603ms":5661,"459":5662,"##ebc":5663,"##50d":5664,"339":5665,"##54a":5666,"##b0f":5667,"ad_":5668,"##99c":5669,"##563":5670,"##75f":5671,"000003a":5672,"##b36":5673,"sto":5674,"05_":5675,"##195":5676,"##e6a":5677,"136":5678,"##11a":5679,"05t15":5680,"404":5681,"##4f8":5682,"##add":5683,"##8d0":5684,"##b66":5685,"##908":5686,"1ca8eb64":5687,"##c40":5688,"##da6":5689,"##11b":5690,"##b2a":5691,"##636":5692,"##1bc":5693,"equinox":5694,"##1cc":5695,"##949":5696,"##8a3":5697,"##84b":5698,"05t17":5699,"598ms":5700,"0c8d":5701,"419":5702,"##48c":5703,"##b34":5704,"##8ef":5705,"05t12":5706,"##413306":5707,"30t23":5708,"0c8d413306":5709,"##7a3":5710,"_3v":5711,"##b90":5712,"##47b":5713,"##45b":5714,"409":5715,"##1b6":5716,"##743":5717,"##bu":5718,"##b0a":5719,"##13b":5720,"##26f":5721,"##8c3":5722,"bundle_org":5723,"379":5724,"##19b":5725,"##24c":5726,"146":5727,"##115":5728,"##32a":5729,"##45f":5730,"159":5731,"##49b":5732,"359":5733,"##577":5734,"##586":5735,"##1ce":5736,"##699":5737,"##16f":5738,"##11d":5739,"436":5740,"_40":5741,"##e44":5742,"##702":5743,"##caa":5744,"##76a":5745,"##aba":5746,"##87c":5747,"##e0d":5748,"##e90":5749,"181":5750,"2a":5751,"494":5752,"c23":5753,"ty":5754,"##750":5755,"##ands":5756,"##eb4":5757,"##ba3":5758,"commands":5759,"8d":5760,"c148":5761,"##ce2":5762,"##15c":5763,"##4a2":5764,"##4d9":5765,"485":5766,"b6":5767,"sts":5768,"##e03":5769,"##e2a":5770,"##_j":5771,"602ms":5772,"_7":5773,"##12d":5774,"##50a":5775,"##active":5776,"605ms":5777,"378":5778,"##exception":5779,"##f3d":5780,"##15d":5781,"##mbda":5782,"lambda":5783,"##e7a":5784,"597ms":5785,"c46":5786,"##979":5787,"##4d0":5788,"482":5789,"442":5790,"##e23":5791,"##748":5792,"##ccf":5793,"##52d":5794,"##22a":5795,"##c3a":5796,"_4k":5797,"##593":5798,"##fa4":5799,"##523":5800,"##8a0":5801,"##1a6":5802,"417":5803,"8f":5804,"##189":5805,"##70f":5806,"468":5807,"c40":5808,"e0":5809,"##ecd":5810,"225":5811,"##5af":5812,"##e0b":5813,"##8cd":5814,"getmissionselement_xmlns":5815,"613":5816,"##e99":5817,"0016":5818,"##fd0":5819,"##54b":5820,"stopped":5821,"##1ea":5822,"##177":5823,"##153":5824,"##ec6":5825,"##889":5826,"##46b":5827,"##4f0":5828,"##96d":5829,"##b8f":5830,"c23580":5831,"##_jan":5832,"357":5833,"611":5834,"##700":5835,"##f33":5836,"c3948":5837,"342":5838,"##e7b":5839,"unavailable":5840,"##faf":5841,"##025":5842,"##b60":5843,"##8bc":5844,"503_service":5845,"##465":5846,"##46f":5847,"##b8b":5848,"405":5849,"_4a":5850,"##fd4":5851,"##034":5852,"168":5853,"439":5854,"234":5855,"c16347":5856,"_45":5857,"##127":5858,"##76d":5859,"##76f":5860,"##70d":5861,"##4a3":5862,"##1c6":5863,"##1a3":5864,"9aff":5865,"479":5866,"##fa8":5867,"##15f":5868,"##82a":5869,"##b63":5870,"##1db":5871,"##606":5872,"##ffb":5873,"c7":5874,"##e83":5875,"##56d":5876,"##8d6":5877,"##f6f":5878,"1690363":5879,"41230":5880,"_50":5881,"##e47":5882,"##80d":5883,"##e06":5884,"##1cd":5885,"310":5886,"##52a":5887,"##94b":5888,"##93d":5889,"##179":5890,"169024543":5891,"358":5892,"156":5893,"##18d":5894,"##295":5895,"##20a":5896,"##b6d":5897,"##e9f":5898,"httpcontext":5899,"551":5900,"##_http":5901,"##_1040":5902,"##ea7":5903,"##697":5904,"##99b":5905,"##53b":5906,"##7aa":5907,"05t03":5908,"contexthandler_1040":5909,"stopped_http":5910,"stopped_httpservicecontext":5911,"solrclient":5912,"##fac":5913,"##ca3":5914,"##69b":5915,"##79d":5916,"05t08":5917,"186":5918,"247":5919,"_4f":5920,"##cca":5921,"158610":5922,"##fdb":5923,"##56b":5924,"##954":5925,"169024550":5926,"_4u":5927,"05t06":5928,"c44":5929,"260":5930,"##00d":5931,"##ebf":5932,"##abf":5933,"##5a6":5934,"##8dd":5935,"##8cb":5936,"##1dd":5937,"##9bd":5938,"##bdd":5939,"0000028c":5940,"462":5941,"c41":5942,"##ed0":5943,"##eb9":5944,"##eb3":5945,"##308":5946,"##e4c":5947,"0000028a":5948,"0000028b":5949,"##87b":5950,"##ba9":5951,"2440":5952,"##e77":5953,"##ed3":5954,"##12f":5955,"##b5f":5956,"##e48":5957,"##onam":5958,"##bad":5959,"##baf":5960,"##4ac":5961,"##c3d":5962,"_4z":5963,"##onames":5964,"c58":5965,"##4ce":5966,"##885":5967,"##684":5968,"nativemethodaccessorimpl":5969,"##publisher":5970,"##59a":5971,"428":5972,"##eventpublisher":5973,"equinoxeventpublisher":5974,"8a":5975,"##e94":5976,"##405":5977,"##16b":5978,"##4f2":5979,"##fef":5980,"##b33":5981,"missionidlist_urn":5982,"696":5983,"745":5984,"##8ce":5985,"##197":5986,"##ee3":5987,"##790":5988,"##18b":5989,"16903572":5990,"596ms":5991,"##eea":5992,"##42c":5993,"_5v":5994,"5d":5995,"##1c0":5996,"##ab3":5997,"##873":5998,"##8d3":5999,"##730":6000,"##cc0":6001,"##caf":6002,"##97f":6003,"##139":6004,"##96a":6005,"##1bb":6006,"##8ea":6007,"133":6008,"##f3a":6009,"##e0a":6010,"##f6a":6011,"000006a":6012,"##dcf":6013,"0x10000046b0e07d":6014,"492":6015,"##69c":6016,"##b03":6017,"##4d3":6018,"##89c":6019,"##e95":6020,"##638":6021,"##7af":6022,"425":6023,"_4x":6024,"##pat":6025,"##263":6026,"##75d":6027,"##bd0":6028,"41598":6029,"##b2f":6030,"_51":6031,"169035790":6032,"##e8a":6033,"hour_":6034,"##18f":6035,"##8d2":6036,"##b3d":6037,"441":6038,"c0":6039,"##1b9":6040,"##e88":6041,"##50f":6042,"257":6043,"doprivileged":6044,"##87f":6045,"##75b":6046,"##dcd":6047,"##c2b":6048,"accesscontroller":6049,"610ms":6050,"458":6051,"6d":6052,"##ea9":6053,"##77d":6054,"##4f5":6055,"##73d":6056,"##c4b":6057,"3d":6058,"354":6059,"##efd":6060,"##7ab":6061,"##source":6062,"##bac":6063,"##1d0":6064,"##bf4":6065,"##daf":6066,"##233":6067,"##4d2":6068,"##8d9":6069,"##1a9":6070,"##666":6071,"json":6072,"##e70":6073,"##ecf":6074,"##733":6075,"611ms":6076,"6a":6077,"683":6078,"707":6079,"##eec":6080,"##edf":6081,"##ebd":6082,"##4416":6083,"##8912":6084,"##8c8":6085,"##8476":6086,"454":6087,"765":6088,"bd":6089,"##fa3":6090,"##52f":6091,"##863":6092,"##036":6093,"##895":6094,"##457":6095,"606ms":6096,"##84a":6097,"##896":6098,"##f6b":6099,"##c6f":6100,"604ms":6101,"doc":6102,"##7bd":6103,"##bf0":6104,"398":6105,"##784":6106,"##467":6107,"##fd9":6108,"##879":6109,"##26d":6110,"##8df":6111,"transformer":6112,"119":6113,"##fdf":6114,"##b54":6115,"##137":6116,"##237":6117,"##4a8":6118,"##4dc":6119,"##1a2":6120,"##85d":6121,"##5cd":6122,"##e69":6123,"##ector":6124,"##_rus":6125,"##299":6126,"##999":6127,"##b55":6128,"##b5c":6129,"##30d":6130,"##1d2":6131,"##8304":6132,"##c9f":6133,"##bf2":6134,"##f0d":6135,"ca_rus":6136,"##ecc":6137,"122":6138,"##e4b":6139,"##604":6140,"##bf9":6141,"##185":6142,"##8c9":6143,"##1d9":6144,"##ed9":6145,"##b04":6146,"##86a":6147,"##0345":6148,"##30a":6149,"##4022":6150,"##b0b":6151,"##10f":6152,"##b84":6153,"##b2b":6154,"301":6155,"##129":6156,"##16c":6157,"##1e6":6158,"##4fc":6159,"594ms":6160,"##fab":6161,"##435":6162,"267":6163,"384":6164,"ed":6165,"##752":6166,"##f3f":6167,"##963":6168,"162":6169,"000009":6170,"##e9b":6171,"##1b4":6172,"465":6173,"328":6174,"7a":6175,"##c2d":6176,"123":6177,"##509":6178,"##9bb":6179,"586ms":6180,"2d":6181,"##1ec":6182,"##dab":6183,"##10b":6184,"##1d3":6185,"195":6186,"##e2b":6187,"293":6188,"fd":6189,"##c46":6190,"##e40":6191,"##e8c":6192,"115":6193,"##5a3":6194,"##4db":6195,"##1d4":6196,"613ms":6197,"##cab":6198,"##709":6199,"##e3a":6200,"##c0d":6201,"stacktrace":6202,"##cbd":6203,"##718":6204,"##edd":6205,"##b92":6206,"##3083":6207,"308":6208,"1a":6209,"##29b":6210,"##705":6211,"##23f":6212,"##4a5":6213,"##725":6214,"##c4c":6215,"##844":6216,"##173":6217,"##ocal":6218,"##32d":6219,"##5a2":6220,"##4f4":6221,"##1f4":6222,"1925":6223,"##c64":6224,"2612":6225,"}=":6226,"##ca2":6227,"##16e":6228,"scope":6229,"##155":6230,"##859":6231,"bundleid":6232,"}={":6233,"_service":6234,"##urede":6235,"##ed6":6236,"##da4":6237,"##fa2":6238,"##fd3":6239,"##abb":6240,"##82f":6241,"##8a4":6242,"##4bb":6243,"##uredefaul":6244,"dock":6245,"var":6246,"containers":6247,"##205":6248,"##86d":6249,"##ba5":6250,"##82b":6251,"##8ac":6252,"##1a5":6253,"##7a0":6254,"##7a9":6255,"docker":6256,"##1af":6257,"##bd9":6258,"ea":6259,"##70b":6260,"##427":6261,"##7bb":6262,"##1fb":6263,"865":6264,"##20d":6265,"113":6266,"##5a0":6267,"##13c":6268,"servicer":6269,"##732":6270,"##hook":6271,"##laimshandler":6272,"##cc4":6273,"##ecb":6274,"##83a":6275,"##02a":6276,"1340":6277,"##2db":6278,"##8e6":6279,"245":6280,"##e56":6281,"##operation":6282,"1564":6283,"##da3":6284,"##fd6":6285,"##ba4":6286,"_3i":6287,"##_is":6288,"api":6289,"1595":6290,"##b06":6291,"##ab4":6292,"##53c":6293,"##b98":6294,"##container":6295,"1655":6296,"##mbean":6297,"##64b":6298,"615":6299,"f0":6300,"##1da":6301,"0020":6302,"##99f":6303,"##94c":6304,"##2d0":6305,"##852":6306,"##1f3":6307,"##809":6308,"##e34":6309,"##455":6310,"##e5b":6311,"##17c":6312,"##cd7":6313,"##824":6314,"##997":6315,"##8a8":6316,"##7b4":6317,"gdes573":6318,"##efb":6319,"gdes573ae6821027430db157f672a54568e4":6320,"374":6321,"c4":6322,"dec":6323,"##79049106b9b1407580f881d20ec73feb":6324,"##ial":6325,"##ce3":6326,"##e33":6327,"gdes79049106b9b1407580f881d20ec73feb":6328,"43_minutes":6329,"599ms":6330,"##patial":6331,"1242":6332,"368":6333,"_69":6334,"tion":6335,"##cc2":6336,"##86b":6337,"##5a9":6338,"##f62":6339,"##e5c":6340,"##8c4":6341,"##1cb":6342,"##222":6343,"1690356":6344,"actionproviderregistryproxy_":6345,"insecuredefaul":6346,"31t01":6347,"insecuredefaults":6348,"##97c":6349,"0x10000046b0e090":6350,"##e6b":6351,"_5z":6352,"##887":6353,"##eb6":6354,"##c33":6355,"1d":6356,"7f":6357,"##e3f":6358,"##50b":6359,"##46c":6360,"##fd2":6361,"##b58":6362,"##8a9":6363,"##dcb":6364,"invoked":6365,"##634":6366,"9d":6367,"a3":6368,"doa":6369,"##7ba":6370,"##_available":6371,"##ccb":6372,"##da5":6373,"##da2":6374,"##23b":6375,"##e3b":6376,"##1f9":6377,"##1d6":6378,"##9d0":6379,"_5l":6380,"583ms":6381,"doas":6382,"341":6383,"618":6384,"host":6385,"##ca9":6386,"##291":6387,"##565":6388,"##4a9":6389,"##17f":6390,"##c9a":6391,"##f0a":6392,"4d":6393,"620":6394,"because":6395,"f6":6396,"##84d":6397,"##_ent":6398,"##_per":6399,"##_780":6400,"##_operation":6401,"##pted":6402,"##local":6403,"##vocation":6404,"##ypro":6405,"##invocation":6406,"##ec4":6407,"catalog_ent":6408,"##atelocal":6409,"##forminvocation":6410,"##_create":6411,"##83d":6412,"##ce0":6413,"##ab9":6414,"dointer":6415,"dopost":6416,"runjo":6417,"runtask":6418,"trypro":6419,"##45c":6420,"##allback":6421,"##e5f":6422,"##dcallback":6423,"performinvocation":6424,"handlerequest":6425,"validatelocal":6426,"##cept":6427,"##925":6428,"handlemessage":6429,"##79f":6430,"sourceunavailable":6431,"create_operation":6432,"readcallback":6433,"not_available":6434,"doproduce":6435,"is_unavailable":6436,"16903629":6437,"catalogserviceimpl_780":6438,"provider_is":6439,"##rypted":6440,"_local":6441,"cannot_per":6442,"cannot_create":6443,"docreate":6444,"decrypted":6445,"invokedestination":6446,"because_source":6447,"catalog_entry":6448,"dointercept":6449,"runjob":6450,"tryproduce":6451,"validatelocalsource":6452,"sourceunavailableexception":6453,"cannot_perform":6454,"decryptedendpoint":6455,"##e8d":6456,"##e7d":6457,"##32b":6458,"##76b":6459,"##1e2":6460,"##admin":6461,"##c63":6462,"##8b4":6463,"595ms":6464,"##797":6465,"##e54":6466,"##cbb":6467,"279":6468,"478":6469,"614":6470,"##839":6471,"##f35":6472,"##c0b":6473,"##1df":6474,"##b2c":6475,"defaults":6476,"05t16":6477,"504":6478,"##e26":6479,"##83f":6480,"##dc5":6481,"593ms":6482,"590ms":6483,"616":6484,"##coll":6485,"status_txt":6486,"updating":6487,"##ed4":6488,"\"+)+&":6489,"##779":6490,"##name_txt":6491,"source_txt":6492,"##4bc":6493,"584ms":6494,"insecure":6495,"insecuredefaultscoll":6496,"hostname_txt":6497,"updating_commands":6498,"insecuredefaultscollector":6499,"##ee9":6500,"##eef":6501,"##dac":6502,"##4d8":6503,"##b6b":6504,"##ff0":6505,"##85f":6506,"3_name":6507,"##e50":6508,"##_alert":6509,"solrclientadapter":6510,"0015":6511,"##2d6":6512,"##5a4":6513,"##039":6514,"##1f5":6515,"##rtz":6516,"##1cf":6517,"##98f":6518,"##8b7":6519,"title_alert":6520,"1f":6521,"514":6522,"##7b3":6523,"##1f0":6524,"##b39":6525,"gdes4022":6526,"##c6a":6527,"##578":6528,"##cfb":6529,"gdes4022b0b2b7d9437089b1c31e1bc81853":6530,"##cker":6531,"##29e":6532,"##02d":6533,"##945":6534,"##f3c":6535,"##8a2":6536,"bundle_spatial":6537,"414":6538,"474":6539,"##1fd":6540,"##2d2":6541,"##f63":6542,"##57a":6543,"_5p":6544,"plugin":6545,"##12b":6546,"##abd":6547,"_3m":6548,"##00f":6549,"##eb8":6550,"##cac":6551,"##adb":6552,"##cf4":6553,"7d":6554,"calling":6555,"##009":6556,"##_setcommitdata":6557,"##86f":6558,"##96b":6559,"365":6560,"27_minutes":6561,"calling_setcommitdata":6562,"235":6563,"464":6564,"617":6565,"##e1e":6566,"##eb7":6567,"##b0c":6568,"##e04":6569,"##b3b":6570,"##ansformer":6571,"##22b":6572,"c3145":6573,"c3083":6574,"##43c":6575,"##8a5":6576,"##f0f":6577,"bb":6578,"##327":6579,"##53f":6580,"##4a4":6581,"##b65":6582,"##b64":6583,"##f64":6584,"##5529":6585,"##7d0":6586,"224":6587,"##e42":6588,"##726":6589,"##20f":6590,"##56f":6591,"##2dd":6592,"##ba2":6593,"##4d4":6594,"##e3c":6595,"##8c2":6596,"##7a2":6597,"16903512":6598,"##e18":6599,"##e89":6600,"##b62":6601,"3175":6602,"##e6f":6603,"##5db":6604,"##8f4":6605,"3a":6606,"##1b3":6607,"##1650":6608,"##805":6609,"##559":6610,"##1c8":6611,"##58b":6612,"##95d":6613,"alerts_s":6614,"_3l":6615,"##742":6616,"##209":6617,"##02f":6618,"##43b":6619,"##11c":6620,"##f39":6621,"##82c":6622,"##bfb":6623,"##ge":6624,"##edc":6625,"##cc9":6626,"##3f4":6627,"##c08":6628,"##e58":6629,"##735":6630,"##b28":6631,"205":6632,"##78f":6633,"##ddf":6634,"5a":6635,"b3":6636,"cd":6637,"##792":6638,"##mx":6639,"##ea2":6640,"##1ef":6641,"##1e3":6642,"##f60":6643,"##7b2":6644,"##c04":6645,"05t05":6646,"c112":6647,"##_un":6648,"##10c":6649,"##535":6650,"##9bf":6651,"285":6652,"ller":6653,"##ed2":6654,"##f3b":6655,"##e0f":6656,"##8d7":6657,"##dc9":6658,"16903635":6659,"591ms":6660,"05t07":6661,"588ms":6662,"589ms":6663,"585ms":6664,"31t03":6665,"llerpoll":6666,"0d":6667,"d0":6668,"##e6d":6669,"##995":6670,"##3ff":6671,"##e39":6672,"##90a":6673,"##228":6674,"703":6675,"e2":6676,"##edb":6677,"##ccc":6678,"##00b":6679,"##da8":6680,"##c0f":6681,"##1c2":6682,"##c92":6683,"##63a":6684,"2025":6685,"_0x10000046b0e028b":6686,"0a":6687,"##86f0":6688,"##23d":6689,"##80b":6690,"##159":6691,"##47c":6692,"##fe6":6693,"##58f":6694,"##cdf":6695,"webapphttp":6696,"587ms":6697,"_0x10000046b0e028c":6698,"webapphttpcontext":6699,"##e86":6700,"##796":6701,"##52b":6702,"##2d7":6703,"##5a5":6704,"##b6c":6705,"435":6706,"##98b":6707,"334":6708,"##manag":6709,"5f":6710,"8b":6711,"=-":6712,"##74f":6713,"##ec5":6714,"##1d7":6715,"##225":6716,"##ef2":6717,"55_minutes":6718,"0c8d413306ad":6719,"619":6720,"##cc3":6721,"##eb5":6722,"##f66":6723,"##72c":6724,"##6aa":6725,"##ef9":6726,"0x10000046b0e028c":6727,"0x10000046b0e028b":6728,"##e00":6729,"##ef3":6730,"##acker":6731,"##letr":6732,"##recipe":6733,"##ea5":6734,"##ndletr":6735,"##trecipe":6736,"##2d5":6737,"##80f":6738,"##8d5":6739,"##8dc":6740,"beanrecipe":6741,"##55f":6742,"##5ef":6743,"##84c":6744,"408":6745,"bundlehook":6746,"abstractrecipe":6747,"##bundletr":6748,"bundlehookbundletr":6749,"bundlehookbundletracker":6750,"a0":6751,"##537":6752,"##135":6753,"##55b":6754,"##cdd":6755,"##1b5":6756,"##755":6757,"##b3c":6758,"##ff4":6759,"c3904":6760,"jmx":6761,"##ee0":6762,"1052":6763,"##ca5":6764,"##abc":6765,"##2d4":6766,"##1e4":6767,"##b95":6768,"##4d5":6769,"##8d8":6770,"##b8c":6771,"##e59":6772,"124":6773,"##e20":6774,"##ed8":6775,"##4d7":6776,"##e9e":6777,"##73a":6778,"##1d8":6779,"##7a4":6780,"##4c7":6781,"615ms":6782,"3f":6783,"##ec8":6784,"##f3ad":6785,"1690354":6786,"##7dd":6787,"##f06":6788,"505":6789,"1975":6790,"3c":6791,"e6":6792,"##e4f":6793,"##12c":6794,"##ce6":6795,"##765":6796,"##7bf":6797,"##fe8":6798,"##1c9":6799,"##6a0":6800,"580ms":6801,"31t04":6802,"1b":6803,"6c":6804,"d3":6805,"rus":6806,"##_ca":6807,"##2d9":6808,"##6dd":6809,"##59f":6810,"##8f9":6811,"usa_ca":6812,"2976e808_commitcommandversion":6813,"616ms":6814,"0f":6815,"a3d":6816,"##02b":6817,"##90b":6818,"##8e2":6819,"##ff9":6820,"##bdb":6821,"##ef4":6822,"266":6823,"##ef6":6824,"##1ac":6825,"##bf7":6826,"##5dd":6827,"16903705529":6828,"##84764416":6829,"1690370552984764416":6830,"c117":6831,"##e96":6832,"##7ad":6833,"##70cc":6834,"##26b":6835,"000002a":6836,"##e9c":6837,"##1f7":6838,"592ms":6839,"863":6840,"fc":6841,"##ourcep":6842,"##9bc":6843,"##cd0":6844,"581ms":6845,"614ms":6846,"194":6847,"##e63":6848,"##c37e":6849,"##cd3":6850,"##59d":6851,"##4c5":6852,"5b":6853,"_stat":6854,"##713":6855,"##oller":6856,"##0347":6857,"##7bc":6858,"##739":6859,"##6d0":6860,"##bf8":6861,"582ms":6862,"_status":6863,"##1c4":6864,"##cc19":6865,"##2df":6866,"##1fc":6867,"##55d":6868,"##5e6":6869,"##68b":6870,"##9a3":6871,"##rted":6872,"##005":6873,"##777":6874,"##f65":6875,"434":6876,"##bd3":6877,"##3b4":6878,"##c2c":6879,"1c":6880,"3947":6881,"6b":6882,"135":6883,"##03a":6884,"##e92":6885,"##cf5":6886,"sun_jan":6887,"_8":6888,"##32c":6889,"##707":6890,"##f38":6891,"##cf8":6892,"lientadapter_110":6893,"ef":6894,"##1bf":6895,"##cc8":6896,"##505":6897,"##32f":6898,"##939":6899,"##bd6":6900,"##c3b":6901,"##8fb":6902,"##7f9":6903,"618ms":6904,"190":6905,"1875":6906,"275":6907,"##e87":6908,"##e79":6909,"##835":6910,"##0239":6911,"##b9c":6912,"##e08":6913,"##933":6914,"##85b":6915,"##54c":6916,"##bd2":6917,"##c2f":6918,"0000015e":6919,"cf":6920,"##1b2":6921,"##eac":6922,"##ea4":6923,"127":6924,"filtered":6925,"617ms":6926,"1825":6927,"##ec9":6928,"##eb2":6929,"##50c":6930,"##837":6931,"##49fd":6932,"##2dc":6933,"##c09":6934,"##93b":6935,"##8e7":6936,"##74c":6937,"##aaa":6938,"1775":6939,"169036986":6940,"_62":6941,"##e29":6942,"##756":6943,"##log":6944,"##76c":6945,"##167":6946,"##865":6947,"##b68":6948,"2075":6949,"##7df":6950,"##f2f":6951,"16903511":6952,"bundle_admin":6953,"579ms":6954,"##ourcepoller":6955,"d6":6956,"##241":6957,"##ca8":6958,"##f37":6959,"##b38":6960,"##fff":6961,"##57d":6962,"0000015f":6963,"620ms":6964,"6f":6965,"e3":6966,"##ef0":6967,"##97b":6968,"##96c":6969,"##e38":6970,"##72f":6971,"##c66":6972,"1690355":6973,"4fc37e":6974,"solrclientproxy":6975,"4fc37e69":6976,"2f":6977,"2325":6978,"_id":6979,"##e1a":6980,"##77f":6981,"##77b":6982,"##15b":6983,"##22f":6984,"##1b7":6985,"508":6986,"bf":6987,"##80c":6988,"##ad3":6989,"##1f2":6990,"##8f8":6991,"##7fb":6992,"a3d86f0":6993,"##775":6994,"##cef":6995,"##03b":6996,"##26c":6997,"##7a6":6998,"##cdb":6999,"8c":7000,"ce":7001,"##567":7002,"##101":7003,"##transformer":7004,"minutes_":7005,"##235":7006,"##4a7":7007,"##1c5":7008,"##2a6":7009,"##cd6":7010,"##ef8":7011,"##5df":7012,"getmissionidselement_xmlns":7013,"9f":7014,"##b09":7015,"##3f0":7016,"##dc4":7017,"##60a":7018,"##5b4":7019,"##bbb":7020,"##fb4":7021,"05t14":7022,"##ce9":7023,"##ab6":7024,"##1e8":7025,"##efc":7026,"0000015d":7027,"1_status":7028,"wab":7029,"##cae":7030,"##f36":7031,"00000160":7032,"##909":7033,"##e6c":7034,"54220":7035,"625":7036,"##e14":7037,"155":7038,"129":7039,"137":7040,"165":7041,"##e98":7042,"##8c5":7043,"##ff5":7044,"##7a8":7045,"619ms":7046,"f5":7047,"##_a":7048,"##essaging":7049,"##20c":7050,"##1603":7051,"##ad2":7052,"##e05":7053,"##3f6":7054,"##662":7055,"##628":7056,"##claimshandler":7057,"##e1b":7058,"##e64":7059,"##c6c":7060,"##857":7061,"##2af":7062,"##7d6":7063,"##5d4":7064,"##7c8":7065,"52976":7066,"##cfc":7067,"##7f4":7068,"##9a9":7069,"7c":7070,"##b05":7071,"##1f8":7072,"##2a3":7073,"576ms":7074,"5c":7075,"621":7076,"eb":7077,"##ea8":7078,"145":7079,"##3fb":7080,"##1d5":7081,"##579":7082,"##c3c":7083,"##4b7":7084,"##5fb":7085,"##bbc":7086,"##339":7087,"##e80":7088,"##ed7":7089,"##7520":7090,"##ba0":7091,"##f6c":7092,"##e55":7093,"##dc7":7094,"##5e2":7095,"##95f":7096,"##57c":7097,"##66f":7098,"##c34":7099,"quartz":7100,"53912":7101,"c1":7102,"##e16":7103,"##e2d":7104,"226":7105,"##023":7106,"##5ac":7107,"##96f":7108,"##adc4":7109,"##309":7110,"##30b":7111,"##93a":7112,"##c38":7113,"48ed":7114,"##5bb":7115,"##7fc":7116,"32_minutes":7117,"##efa":7118,"opt":7119,"##265":7120,"##827":7121,"##bdf":7122,"##f28":7123,"##f2b":7124,"##36b":7125,"generatedmethodaccessor178":7126,"623":7127,"9c":7128,"b9":7129,"sched":7130,"##e11":7131,"##fd7":7132,"##2d8":7133,"##1e5":7134,"##ad9":7135,"##73b":7136,"60428":7137,"##7d4":7138,"##cd9":7139,"##5d3":7140,"##59c":7141,"bundle_m":7142,"1_name":7143,"##k_s":7144,"##4f7":7145,"disk_s":7146,"##7c7":7147,"561":7148,"60312":7149,"31t02":7150,"disk_space":7151,"##ca7":7152,"##ce4":7153,"60172":7154,"60120":7155,"##c36":7156,"##35b":7157,"##79c":7158,"##ee8":7159,"16903569":7160,"207":7161,"b2":7162,"##1f6":7163,"##18c":7164,"438":7165,"338":7166,"##5d9":7167,"##6b4":7168,"48db":7169,"88e8":7170,"_65":7171,"aadc4":7172,"##e84":7173,"##ee2":7174,"##instance":7175,"##uture":7176,"##da7":7177,"##40c":7178,"##56c":7179,"##90c":7180,"##1a7":7181,"##c39":7182,"29t":7183,"a21a":7184,"##70cccc19":7185,"48ed70cccc19":7186,"aadc4291":7187,"##uturetask":7188,"196":7189,"d9":7190,"##_of":7191,"##4020":7192,"##fdc":7193,"##86c":7194,"##9b4":7195,"##92f":7196,"169036388":7197,"a6":7198,"db":7199,"##297":7200,"##90d":7201,"##bd8":7202,"##cd2":7203,"##5f4":7204,"##7e8":7205,"f3":7206,"##fa5":7207,"##ca4":7208,"##ab5":7209,"##ab2":7210,"##2a4":7211,"##2aa":7212,"##bf5":7213,"7b":7214,"##e12":7215,"##e53":7216,"##ec7":7217,"##507":7218,"##f34":7219,"##3f5":7220,"##c05":7221,"##1a8":7222,"##95b":7223,"##19c":7224,"##7d3":7225,"##cd4":7226,"##8f5":7227,"er_":7228,"##5a7":7229,"##ad0":7230,"##555":7231,"##cbc":7232,"##9a0":7233,"futuretask":7234,"##ging":7235,"##83b":7236,"##267":7237,"##7b7":7238,"##5d0":7239,"60222":7240,"212":7241,"626":7242,"##az":7243,"##007":7244,"##72b":7245,"##aa0":7246,"633":7247,"2475":7248,"2125":7249,"4c":7250,"_h":7251,"_6f":7252,"##0348":7253,"##dc6":7254,"##7d5":7255,"##9a6":7256,"169024540":7257,"16903641988":7258,"llerpollthread":7259,"_hits":7260,"0b":7261,"199":7262,"df":7263,"f8":7264,"##e7c":7265,"##e8f":7266,"##6d3":7267,"##8f7":7268,"16903641986":7269,"182":7270,"##ab7":7271,"##75c":7272,"##5d2":7273,"ec":7274,"##e1f":7275,"##03ea":7276,"##6df":7277,"##8ee":7278,"##605":7279,"##c98":7280,"60380":7281,"60378":7282,"gaz":7283,"##teer":7284,"##etteer":7285,"##207":7286,"##f67":7287,"000003d":7288,"60170":7289,"##bd4":7290,"##7d2":7291,"60266":7292,"_6p":7293,"gazetteer":7294,"219":7295,"484":7296,"5m":7297,"a5":7298,"##e32":7299,"##e13":7300,"##e1d":7301,"##e74":7302,"##_rea":7303,"##inactive":7304,"##ing_b":7305,"##ec2":7306,"inactive":7307,"##e_is":7308,"##e_inactive":7309,"##03d":7310,"##965":7311,"##89e":7312,"file_is":7313,"closing_b":7314,"close_inactive":7315,"##6a6":7316,"##63b":7317,"##7ac":7318,"##0s_rea":7319,"16903575":7320,"60268":7321,"_6j":7322,"5m0s_rea":7323,"closing_because":7324,"close_inactive_of":7325,"5m0s_reached":7326,"213":7327,"##187":7328,"##121":7329,"##ce8":7330,"##f68":7331,"##8c7":7332,"geonames":7333,"##6a9":7334,"##63d":7335,"##c35":7336,"##9ac":7337,"60220":7338,"##mbeanserver":7339,"2425":7340,"3b":7341,"60430":7342,"##7cb":7343,"##8fc":7344,"##4c8":7345,"60314":7346,"1690369546":7347,"2487":7348,"##ay":7349,"##23c":7350,"##e37":7351,"##90f":7352,"##57f":7353,"##66b":7354,"##7cf":7355,"##f2ce":7356,"##50346":7357,"169035633":7358,"dc":7359,"##43a9":7360,"##4aa3":7361,"##737":7362,"##dd0":7363,"2175":7364,"_6t":7365,"189":7366,"zip":7367,"##eff":7368,"##fd8":7369,"##ad6":7370,"1675":7371,"##85c":7372,"60122":7373,"##7d9":7374,"##5bc":7375,"72240":7376,"281650":7377,"##94336":7378,"18399":7379,"7038912":7380,"10528304":7381,"86370":7382,"24870238":7383,"28165094336":7384,"##e82":7385,"##b57":7386,"##92c":7387,"622":7388,"ldap":7389,"##e76":7390,"##e68":7391,"##cc5":7392,"##ce5":7393,"000002b":7394,"##227":7395,"##f2c":7396,"##c28":7397,"##d0a":7398,"1725":7399,"ldapclaimshandler":7400,"##ed5":7401,"##ad5":7402,"##6d8":7403,"0x10000046b0e05":7404,"##7d8":7405,"##7ae":7406,"##aa2":7407,"##7c5":7408,"##ctor":7409,"##uctor":7410,"139":7411,"##tructor":7412,"##03c":7413,"##807":7414,"##8a7":7415,"##b35":7416,"##09a":7417,"##60d":7418,"##b25":7419,"##c9c":7420,"##_06":7421,"##dd6":7422,"##4b4":7423,"##fa7":7424,"##527":7425,"##e61f":7426,"_6z":7427,"##1dc":7428,"##e15":7429,"##ee6":7430,"##e7f":7431,"##122a":7432,"##ab8":7433,"254":7434,"##033":7435,"##967":7436,"0000036":7437,"##c0c":7438,"##935":7439,"##5e7":7440,"##c65":7441,"##cb4":7442,"blueprintcontainer":7443,"169024549":7444,"blueprintcontainerimpl":7445,"_73":7446,"##8848":7447,"##77c":7448,"##70c":7449,"##e0c":7450,"##e57":7451,"##0bf":7452,"187":7453,"c71":7454,"##minutes":7455,"##run":7456,"##_tdt":7457,"128":7458,"##757":7459,"##80minutes":7460,"##c07":7461,"##b85":7462,"##851":7463,"16903566":7464,"##aaf":7465,":[*":7466,"##9d6":7467,"10080minutes":7468,"cached_tdt":7469,"##runn":7470,"_b":7471,"##00c":7472,"##959":7473,"##c25":7474,"clientadapter_26":7475,"_0x10000046b0e028a":7476,"a8":7477,"##e19":7478,"claimshandler":7479,"##c6b":7480,"##63c":7481,"1690367":7482,"##ef5":7483,"##7903":7484,"##3b7":7485,"169024548":7486,"##geonames":7487,"_79":7488,"ui":7489,"##289":7490,"##e97":7491,"##4800":7492,"##b37":7493,"##60f":7494,"##2a2":7495,"##bfc":7496,"##bd65":7497,"##f08":7498,"##cd5":7499,"##5f9":7500,"##4e7":7501,"184":7502,"2525":7503,"##e62":7504,"##_geonames":7505,":\"/":7506,"##5a8":7507,"##5a89":7508,"##2ac":7509,"##2a2a":7510,"##7f8":7511,"location_txt":7512,"##6b7":7513,"##51ce":7514,"bundle_platform":7515,"default_geonames":7516,"577ms":7517,"default_geonames_data":7518,"##egis":7519,"2375":7520,"##2549fd":7521,"##6bc":7522,"16903632":7523,"featur":7524,"##egistry":7525,"b4":7526,"f7":7527,"##b08":7528,"##73c":7529,"##07a":7530,"##ff2":7531,"##ef7":7532,"##c210":7533,"621ms":7534,"0c":7535,"f4":7536,"fb":7537,"##00346":7538,"1575":7539,"##e07":7540,"##fe7":7541,"##e2c":7542,"##bb4":7543,"##a0f":7544,"##nda":7545,"##ba8":7546,"##3f2":7547,"##e35":7548,"##9b2":7549,"##9b7":7550,"##3af":7551,"standa":7552,"##9c8":7553,"581":7554,"##33d":7555,"##9f9":7556,"_breadcrumbid":7557,"standard":7558,"sing":7559,"tp1":7560,"##_9d0":7561,"##_43a9":7562,"##_4aa3":7563,"##_bd65":7564,"##_2549fd":7565,"##cc4020":7566,"##52c":7567,"##10b59":7568,"##1c7":7569,"##c68":7570,"##leton":7571,"##bd5":7572,"##_0972":7573,"##bb7":7574,"##d0d":7575,"##e1_0972":7576,"##d903ea":7577,"##1641603":7578,"##294_2549fd":7579,"proxy10b59":7580,"proxyd903ea":7581,"##2d330":7582,"##e2f_3":7583,"##99c_43a9":7584,"##_a294_2549fd":7585,"##e61f2d330":7586,"singleton":7587,"tp11641603":7588,"##_9d0e61f2d330":7589,"##_4aa3_bd65":7590,"##e1_0972_4aa3_bd65":7591,"proxy10b59e2f_3":7592,"proxyd903eae1_0972_4aa3_bd65":7593,"##99c_43a9_a294_2549fd":7594,"tp1164160313":7595,"proxy10b59e2f_399c_43a9_a294_2549fd":7596,"proxyd903eae1_0972_4aa3_bd65_9d0e61f2d330":7597,"proxy10b59e2f_399c_43a9_a294_2549fdcc4020":7598,"232":7599,"c52":7600,"##676":7601,"##83c":7602,"##ulecon":7603,"##b67":7604,"##dc2":7605,"modulecon":7606,"##04e":7607,"##35d":7608,"624ms":7609,"modulecontainer":7610,"d2":7611,"##e30":7612,"000004":7613,"##3d2":7614,"crl":7615,"##play":7616,"2575":7617,"##30f":7618,"##074":7619,"1690353":7620,"##62c":7621,"##359":7622,"##5f5":7623,"##a0d":7624,"clientadapter_88":7625,"05t13":7626,"170":7627,"c49":7628,"##e1c":7629,"##e17":7630,"haw":7631,"##0080":7632,"##02c":7633,"##ce7":7634,"##111":7635,"##dc1":7636,"##9af":7637,"##e25":7638,"##a0a":7639,"0x10000046b0e015d":7640,"##ee4":7641,"2275":7642,"##037":7643,"163":7644,"##6a5":7645,"1690365":7646,"##fb7":7647,"##3d4":7648,"169024545":7649,"_mission":7650,"a4":7651,"##52e8":7652,"##10346":7653,"1625":7654,"##557":7655,"56_minutes":7656,"##9d9":7657,"data_in":7658,"##validated":7659,"0x10000046b0e015e":7660,"bundle_messaging":7661,"data_invalidated":7662,"5576":7663,"cc":7664,"d_":7665,"le":7666,"##own":7667,"##2372a":7668,"##3f7":7669,"##fe2":7670,"##60c":7671,"##667":7672,"##cf7":7673,"##81bf":7674,"_0x10000046b0e015d":7675,"1690363569":7676,"level":7677,"217":7678,"b7":7679,"##1e7":7680,"##adc":7681,"##ad7":7682,"##dc3":7683,"##0bb":7684,"##7db":7685,"##04b":7686,"##5d6":7687,"##5d5":7688,"##9d3":7689,"578ms":7690,"2c":7691,"218":7692,"630":7693,"e5":7694,"##cc7":7695,"##ad4":7696,"##098":7697,"##c67":7698,"##bd7":7699,"##38f":7700,"##5b7":7701,"newinstance":7702,"1690370490":7703,"0x10000046b0e015f":7704,"servicerecipe":7705,"serviceregistry":7706,"##ourcepollerrunn":7707,"scheduler":7708,"##ourcepollerrunner":7709,"256":7710,"##eb20":7711,"##18e":7712,"##092":7713,"##09b":7714,"##927":7715,"##3a0":7716,"_0x10000046b0e015f":7717,"1ca8eb64_commitcommandversion":7718,"622ms":7719,"2975":7720,"a9":7721,"##88e":7722,"2225":7723,"##867":7724,"##03f":7725,"##95c":7726,"##639":7727,"##3a4":7728,"##dd9":7729,"##9a7":7730,"169036199":7731,"_0x10000046b0e015e":7732,"_5e":7733,"##_ddf":7734,"unregistered":7735,"198":7736,"##5d8":7737,"_5j":7738,"actionproviderregistryproxy_105":7739,"unregistered_ddf":7740,"d5":7741,"metacardtransformer":7742,"service_un":7743,"##75160":7744,"##7b8":7745,"##7b8ce":7746,"display":7747,"##09d":7748,"transform":7749,"##ff8":7750,"##ffb3":7751,"##e65":7752,"##f255a":7753,"##5f8":7754,"##80a75160":7755,"##e5d7b8ce":7756,"##e0980a75160":7757,"##add2372a":7758,"0c8d413306add2372a":7759,"actionproviderregistryproxy_99":7760,"##122a7903":7761,"##2a2a16":7762,"##51cef255a":7763,"##c210e5d7b8ce":7764,"service_unregistered":7765,"displayname":7766,"##e0980a7516051cef255a":7767,"0c8d413306add2372ac210e5d7b8ce":7768,"##122a7903e0980a7516051cef255a":7769,"0c8d413306add2372ac210e5d7b8ce122a7903e0980a7516051cef255a":7770,"0c8d413306add2372ac210e5d7b8ce122a7903e0980a7516051cef255a2a2a16":7771,"197":7772,"4000":7773,"665":7774,"b87c":7775,"##1b8":7776,"##77e":7777,"##761":7778,"##10e":7779,"##b5e":7780,"##93c":7781,"16903560":7782,"##7a7":7783,"##ddd":7784,"##bundle":7785,"1690362940":7786,"629":7787,"e4":7788,"f9":7789,"##ffc":7790,"##92b":7791,"##665":7792,"##04c":7793,"##e28":7794,"##9d4":7795,"_5x":7796,"0022":7797,"210":7798,"635":7799,"d4":7800,"##1200":7801,"##2a5":7802,"##633":7803,"##62f":7804,"##79e":7805,"58_minutes":7806,"##agement":7807,"16903623":7808,"169036923":7809,"1manag":7810,"75d":7811,"91f":7812,"##e7e":7813,"##xlog":7814,"##edpa":7815,"##service_3":7816,"##_now":7817,"to_now":7818,"##907":7819,"##2a7":7820,"##9a4":7821,"169024553":7822,"33052":7823,"ceimpl":7824,"1690356963":7825,"29t18":7826,"##gingservice_3":7827,"1managedpa":7828,"##xloggingservice_3":7829,"1managedpaxloggingservice_3":7830,"1managedpaxloggingservice_393":7831,"649":7832,"142":7833,"233c":7834,"##5c5":7835,"##9f5":7836,"lerpollthread_25":7837,"233c52e8":7838,"_7d":7839,"d8":7840,"##c0_commitcommandversion":7841,"##8e32":7842,"##078":7843,"##c62":7844,"##cd8":7845,"##scheduler_":7846,"##49f4":7847,"4af3ad":7848,"4af3adc0_commitcommandversion":7849,"##307":7850,"##e4e":7851,"##aa5":7852,"##7c2":7853,"##39f":7854,"##af8":7855,"##6f9":7856,"generatedmethodaccessor289":7857,"clientadapter_87":7858,"tracker":7859,"623ms":7860,"##eed9a":7861,"##40e":7862,"##b07":7863,"##11e":7864,"##e046":7865,"166":7866,"##305":7867,"##dc8":7868,"##3bb":7869,"##5fc":7870,"##a06":7871,"##3d0":7872,"##plugin":7873,"##b27":7874,"##f05":7875,"##6f4":7876,"1690370175":7877,"c43":7878,"152":7879,"##ff7":7880,"##62b":7881,"##8f86":7882,"##7f5":7883,"##4c15":7884,"##1ed9":7885,"169035570":7886,"209":7887,"rol":7888,"##adf":7889,"##6db":7890,"##7d7":7891,"##9d5":7892,"627ms":7893,"573ms":7894,"253":7895,"bc":7896,"man":7897,"##e73":7898,"context":7899,"154":7900,"##eed7":7901,"##8288":7902,"##42_":7903,"##0b4":7904,"##6af":7905,"##66c":7906,"##aa3":7907,"##3ac":7908,"3075":7909,"626ms":7910,"_5w":7911,"##e60":7912,"##to":7913,"##4640":7914,"##7544":7915,"##4288":7916,"##6d4":7917,"##079":7918,"33104":7919,"##dd4":7920,"##ee7":7921,"a08":7922,"ev":7923,"##22c":7924,"##2a9":7925,"##68f":7926,"##c37":7927,"33150":7928,"636":7929,"16902475":7930,"##20346":7931,"##021":7932,"134":7933,"##8720":7934,"##b6e":7935,"##c64b":7936,"206":7937,"##7e7":7938,"16903692":7939,"656":7940,"##level":7941,"##ad8":7942,"##start":7943,"##30c":7944,"##6a4":7945,"##625":7946,"##aa4":7947,"##3a3":7948,"6355":7949,"571":7950,"169024544":7951,"33056":7952,"##startlevel":7953,"240":7954,"2875":7955,"b8":7956,"call":7957,"d7":7958,"uu":7959,"##767":7960,"##7648":7961,"##095":7962,"##141":7963,"639":7964,"##9a2":7965,"##3bc":7966,"up_32":7967,"169037049":7968,"1690357278":7969,"uuid":7970,"hook":7971,"##9690":7972,"##31e9":7973,"##accessor":7974,"##_62":7975,"##_8ea":7976,"##_8e32":7977,"##structor":7978,"##e_49f4":7979,"qtp9690":7980,"##582d":7981,"42590":7982,"##_b1e0":7983,"##_d568":7984,"##333":7985,"generatedmethodaccessor676":7986,"##43354":7987,"proxy5a89":7988,"proxy31e9":7989,"##b36e9e":7990,"##_0642_":7991,"##81bf_0642_":7992,"##eb20b36e9e":7993,"##ffb3_8ea":7994,"##eed9a04e":7995,"##4c15_b1e0":7996,"##accessorimpl":7997,"##_62eb20b36e9e":7998,"##_8e32_d568":7999,"##e_49f4_8e32_d568":8000,"qtp969043354":8001,"proxy5a8981bf_0642_":8002,"proxy31e9ffb3_8ea":8003,"##4c15_b1e0_62eb20b36e9e":8004,"##e_49f4_8e32_d568eed9a04e":8005,"proxy5a8981bf_0642_4c15_b1e0_62eb20b36e9e":8006,"proxy31e9ffb3_8eae_49f4_8e32_d568eed9a04e":8007,"a7":8008,"e7":8009,"##2446":8010,"##1824":8011,"##2048":8012,"##70346":8013,"000005":8014,"##1be":8015,"33100":8016,"33202":8017,"##791":8018,"##9a8":8019,"169035759":8020,"##_started":8021,"16903689":8022,"169036325":8023,"3025":8024,"]}":8025,"ma":8026,"##2de":8027,"##801":8028,"##b3e":8029,"##585":8030,"##b2e":8031,"33146":8032,"##dbb":8033,"169024552":8034,"##e22":8035,"##1065":8036,"##8752":8037,"##8544":8038,"searcher_searcher":8039,"233":8040,"compname":8041,"628":8042,"set":8043,"##logger":8044,"##43e":8045,"##4936":8046,"geoc":8047,"##5d7":8048,"2625":8049,"##4ce6b":8050,"665ms":8051,"75d4ce6b":8052,"91feed7":8053,"2725":8054,"##e703":8055,"##2448":8056,"##161":8057,"##5344":8058,"192":8059,"##64c":8060,"##a2c":8061,"811":8062,"shut":8063,"solrj":8064,"solrmetacard":8065,"##40346":8066,"##ba7":8067,"##1529":8068,"##6a3":8069,"##f25":8070,"##f27":8071,"##fbc":8072,"solrmetacardclientimpl":8073,"295":8074,"5429":8075,"_sta":8076,"221":8077,"1425":8078,"##4340":8079,"##5390":8080,"##e3e":8081,"##937":8082,"##55c":8083,"invoke0":8084,"##6ac":8085,"management":8086,"_stacktrace":8087,"643":8088,"##1648":8089,"##iew":8090,"##23e":8091,"##3f6e":8092,"##727":8093,"##8c1":8094,"##19e":8095,"##1952":8096,"##6a8":8097,"##6a2":8098,"##7a5":8099,"##f0c":8100,"##9c76":8101,"##3d6":8102,"##af9":8103,"2825":8104,"2925":8105,"311":8106,"c54":8107,"ts":8108,"##2947":8109,"##4899":8110,"##6960":8111,"##1664":8112,"##6d6":8113,"##c27":8114,"_5h":8115,"_to":8116,"b5":8117,"e8":8118,"##4424":8119,"##536b":8120,"##1320":8121,"##3fc":8122,"##07d":8123,"##fff3":8124,"##e67":8125,"##e27":8126,"##9c5":8127,"169024852":8128,"##9f8":8129,"unregistering_":8130,"630ms":8131,"##dmin":8132,"##e75":8133,"##2406":8134,"##4080":8135,"##26e":8136,"##3f8":8137,"##47e":8138,"##file":8139,"##5ee":8140,"harvester_started":8141,"r_55":8142,"r_31":8143,"##143f":8144,"for_file":8145,"##manager":8146,"2703":8147,">(":8148,"deb":8149,"init":8150,"##12e":8151,"##1152":8152,"##70e":8153,"##c0e":8154,"##2a8":8155,"##8be":8156,"236":8157,"634":8158,"##9df":8159,"1083":8160,"1525":8161,"##521":8162,"1690359":8163,"##entadmin":8164,"##25c":8165,"##d0f":8166,"eventadmin":8167,"2b":8168,"244":8169,"263":8170,"729":8171,"_7j":8172,"##2444":8173,"##dae":8174,"##4896":8175,"##027":8176,"##abe":8177,"##87e":8178,"##1e4bd":8179,"##4d577":8180,"164":8181,"##82e":8182,"##1990":8183,"19f2ce":8184,"##957":8185,"##aa6":8186,"started":8187,"##33c":8188,"##3d3":8189,"##48b402":8190,"##1a096d":8191,"##e939c76":8192,"##88c3f6e":8193,"##e3d48b402":8194,"##16e1a096d":8195,"##cd7e939c76":8196,"625ms":8197,"##7520cd7e939c76":8198,"##e0461065":8199,"##1ed988c3f6e":8200,"a084d577":8201,"##1e4bd7520cd7e939c76":8202,"19f2ce96":8203,"##16e1a096d1e4bd7520cd7e939c76":8204,"##e0461065e3d48b402":8205,"##1ed988c3f6ee0461065e3d48b402":8206,"a084d57716e1a096d1e4bd7520cd7e939c76":8207,"a084d57716e1a096d1e4bd7520cd7e939c761ed988c3f6ee0461065e3d48b402":8208,"716":8209,"##cce":8210,"##8880":8211,"##3200":8212,"##9420":8213,"##7040":8214,"##c4e":8215,"##1450":8216,"defaulthttp":8217,"##2928":8218,"55808":8219,"2675":8220,"##af5":8221,"geocoding":8222,"defaulthttpcontext":8223,"243":8224,"3dc":8225,"##8800":8226,"##fac7":8227,"1475":8228,"##2960":8229,"##9473":8230,"##b54f":8231,"##905":8232,"##09f":8233,"##5e8":8234,"##35f":8235,"##ddb":8236,"##a37":8237,"contextid":8238,"270336":8239,"sat":8240,"##00e":8241,"##0032":8242,"##5360":8243,"##4720":8244,"##4272":8245,"##6d9":8246,"##351":8247,"42290":8248,"##dd5":8249,"##a9f":8250,"575ms":8251,"sat_jan":8252,"_5g":8253,"##nail":8254,"##olrclient":8255,"##50e":8256,"##6944":8257,"##4088":8258,"##4448":8259,"##7830":8260,"##e3a7":8261,"##0b2":8262,"##57e":8263,"##umbnail":8264,"16903686":8265,"60062":8266,"55546":8267,"55400":8268,"05_03":8269,"640":8270,"##ali":8271,"##0000":8272,"##2490":8273,"##5072":8274,"##871":8275,"##8de":8276,"##1de":8277,"##17e":8278,"##1920":8279,"471":8280,"##391":8281,"16903626":8282,"55764":8283,"246":8284,"278":8285,"238":8286,"wfs":8287,"##52e":8288,"##9740":8289,"##8640":8290,"##ba4d":8291,"##4790":8292,"##4512":8293,"##0bc":8294,"##36f":8295,"##dbc":8296,"##334":8297,"##4e8":8298,"0x10000046b0e028a":8299,"574ms":8300,"3125":8301,"666":8302,"720":8303,"##sis":8304,"##ervice":8305,"##8844":8306,"148":8307,"##3056":8308,"##8410":8309,"##3a5":8310,"##365":8311,"59694":8312,"##ee83":8313,"_5u":8314,"##6fc":8315,"05t04":8316,"59390":8317,"standardframework":8318,"629ms":8319,"252":8320,"46dd":8321,"##create":8322,"##availab":8323,"##itory":8324,"##essourcepollerrunner":8325,"##epos":8326,"##utils":8327,"unavailab":8328,"##2080":8329,"##4847":8330,"##ectionutils":8331,"##trepos":8332,"##1008":8333,"##bae":8334,"##b96b":8335,"##4ae":8336,"##content":8337,"##b6eb":8338,"getcontent":8339,"##factoryimpl":8340,"reflectionutils":8341,"##3a6":8342,"56022":8343,"231":8344,"internalcreate":8345,"blueprintrepos":8346,"1690246":8347,"16902469":8348,"169024884":8349,"contenttyp":8350,"##types":8351,"lerpollthread_26":8352,"8d93":8353,"b672c":8354,"solrclientfactoryimpl":8355,"fd8a":8356,"628ms":8357,"##sisten":8358,"unavailables":8359,"getcontenttypes":8360,"blueprintrepository":8361,"contenttypessourcepollerrunner":8362,"b672c409":8363,"899":8364,"9dc1":8365,"_12":8366,"b851":8367,"1089":8368,"##2992":8369,"##4688":8370,"##771":8371,"session_":8372,"##4576":8373,"##7440":8374,"##f0e":8375,"33e703":8376,"##7f7":8377,"##9d2":8378,"##a08":8379,"##d06":8380,"55610":8381,"55756":8382,"55876":8383,"55450":8384,"lerpollthread_19":8385,"31t00":8386,"##582dfc":8387,"33e703582dfc":8388,"296":8389,"##4630":8390,"##691":8391,"##5616":8392,"##534a":8393,"##9624":8394,"##7344":8395,"##fee":8396,"##aa7":8397,"##9a5":8398,"##337":8399,"##a0c":8400,"55918":8401,"_0x10000046b0e015c":8402,"_5d":8403,"##5088":8404,"##2944":8405,"##69e":8406,"##3216":8407,"##5640":8408,"##0349":8409,"##1552":8410,"##e5e":8411,"##7413":8412,"##bf4b":8413,"1690360":8414,"##35c":8415,"##cf9":8416,"##8f1":8417,"631ms":8418,"55444":8419,"55706":8420,"##5c8":8421,"05t11":8422,"55394":8423,"lerpollthread_27":8424,"1690357907":8425,"2dc":8426,"214":8427,"632":8428,"_64":8429,"##tate":8430,"141":8431,"##5040":8432,"##4646":8433,"##44ea":8434,"##9448":8435,"##b924":8436,"##b948":8437,"##471":8438,"##c4ab":8439,"##1a94":8440,"##74e":8441,"55498":8442,"44_minutes":8443,"##af4":8444,"##9f4":8445,"169024542":8446,"16903550":8447,"2775":8448,"248":8449,"mime":8450,"idp":8451,"##6976":8452,"##4016":8453,"##1675":8454,"##b5b0":8455,"##1343":8456,"167":8457,"##aa9":8458,"1690368288":8459,"55550":8460,"55712":8461,"572ms":8462,"_17":8463,"##505c":8464,"##4440":8465,"131":8466,"##458f86":8467,"##731":8468,"##1488":8469,"##1712":8470,"191":8471,"##637":8472,"##8400":8473,"##84da":8474,"##627":8475,"##3a8":8476,"427":8477,"##db4":8478,"##tml":8479,"05_0":8480,"55924":8481,"1690363255":8482,"639ms":8483,"shutd":8484,"##aliz":8485,"##_mbeanserver":8486,"##sv":8487,"##2496":8488,"##46e":8489,"##7712":8490,"##7792":8491,"##4412":8492,"to_mbeanserver":8493,"##4fe":8494,"##821":8495,"##4787":8496,"##9024":8497,"55970":8498,"_5y":8499,"##1408":8500,"55812":8501,"##mbeanserverwrapper":8502,"unregistering_org":8503,"eventadminmbeanserverwrapper":8504,"270":8505,"646":8506,"_63":8507,"_7a":8508,"f2":8509,"nit":8510,"##view":8511,"##8352":8512,"##4447":8513,"thumbnail":8514,"##1324":8515,"##3fe":8516,"##8a4d":8517,"##42e":8518,"##f61":8519,"##9040":8520,"##1424":8521,"##14b3":8522,"174":8523,"##1ae":8524,"##7840":8525,"55872":8526,"##d0c":8527,"56018":8528,"169024547":8529,"##a67":8530,"16903510":8531,"##a2f":8532,"55614":8533,"30t22":8534,"169035476":8535,"nitf":8536,"642":8537,"##4096":8538,"##fd47":8539,"##1600":8540,"##53e":8541,"##131":8542,"##1440":8543,"##1744":8544,"169035539":8545,"55656":8546,"633ms":8547,"0x":8548,"_ex":8549,"##570":8550,"##mode":8551,"##urem":8552,"##tep":8553,"##eclaimshandler":8554,"158":8555,"##_step":8556,"failure_mode":8557,"##1296":8558,"147":8559,"##4645":8560,"##9488":8561,"##94e3":8562,"##531":8563,"##03008":8564,"##b9e":8565,"##9632":8566,"##4211":8567,"##1fe":8568,"##6d5":8569,"##8e99":8570,"##07f":8571,"collection_step":8572,"##1910":8573,"##1804":8574,"521":8575,"##9200":8576,"##3a9":8577,"##dd2":8578,"executor":8579,"##d05":8580,"##failurem":8581,"3625":8582,"roleclaimshandler":8583,"_exchange":8584,"249":8585,"315":8586,"pk":8587,"##da4a":8588,"##3288":8589,"##4944":8590,"##7024":8591,"##b953":8592,"1611":8593,"##4577":8594,"##4599":8595,"55502":8596,"55974":8597,"55662":8598,"count":8599,"pki":8600,"##1888":8601,"##ed99":8602,"##2493":8603,"##8850":8604,"##ebe":8605,"##83e":8606,"##7620":8607,"##431":8608,"##4310":8609,"##fd48":8610,"##5688":8611,"##94e":8612,"##94c3":8613,"##4920":8614,"##1808":8615,"16902478":8616,"##3d5":8617,"##2bc":8618,"9387":8619,"_6s":8620,"##203008":8621,"1690356649":8622,"##sistence":8623,"269":8624,"242":8625,"638":8626,"793":8627,"pur":8628,"##mod":8629,"##yer":8630,"##001":8631,"##0048":8632,"##1891":8633,"##56e":8634,"##5664":8635,"##9456":8636,"##2688":8637,"##5824":8638,"##66e":8639,"##9d7":8640,"76c64b":8641,"##15c18":8642,"_7n":8643,"42515c18":8644,"76c64be7":8645,"##_log":8646,"##eref":8647,"##eae":8648,"##ore_un":8649,"##4624":8650,"##7790":8651,"##b0a9":8652,"##7680":8653,"to_server":8654,"##fd4d":8655,"##1632":8656,"theref":8657,"##0352":8658,"##42b6":8659,"##8944":8660,"##1420":8661,"##7456":8662,"##ortname":8663,"##ojson":8664,"##_connect":8665,"##aac":8666,"##7f801":8667,"more_in":8668,"to_set":8669,"39080":8670,"cannot_connect":8671,"##ug_for":8672,"ststhread":8673,"level_for":8674,"set_log":8675,"debug_for":8676,"3dc7f801":8677,"##ore_unable":8678,"therefore_unable":8679,"more_information":8680,"283":8681,"325":8682,"653":8683,"730":8684,"1085":8685,"##ed46":8686,"##aging":8687,"##ce2e":8688,"##1682":8689,"##86e":8690,"##8d1":8691,"##981":8692,"##8b1":8693,"]:":8694,"_7x":8695,"html":8696,"##da49":8697,"rem":8698,"##fa46":8699,"##5024":8700,"##4870":8701,"##5220":8702,"##5646":8703,"##7046":8704,"##5a46":8705,"##ba99":8706,"##8048":8707,"##8a1":8708,"##8976":8709,"##45e":8710,"##e4ea":8711,"##9320":8712,"##1c96":8713,"##1b43":8714,"##5f7":8715,"##65c3":8716,"##d08":8717,"##a3c":8718,"##a6c":8719,"up_56":8720,"40352":8721,"5701":8722,"169024663":8723,"718":8724,"_5i":8725,"_7c":8726,"##_2":8727,"##8890":8728,"##5288":8729,"##1024":8730,"##1043":8731,"##1329":8732,"##b647":8733,"##4592":8734,"##84e":8735,"_66":8736,"c60":8737,"containerstartlevel":8738,"##8840":8739,"##dae95":8740,"##fae":8741,"##4840":8742,"##4832":8743,"##48aa":8744,"##6943":8745,"##4040":8746,"##02e":8747,"##4432":8748,"##4496":8749,"##0351":8750,"##75e":8751,"##4a30":8752,"##4a4b":8753,"##7be8":8754,"##14ab":8755,"##60e":8756,"##1a40":8757,"##6a7":8758,"##bf49":8759,"##1b43f":8760,"##7f1":8761,"49152":8762,"##ee1ad":8763,"##25dcd":8764,"_3r":8765,"##4f8dae95":8766,"##03c1b43f":8767,"1690369232":8768,"##536b4f8dae95":8769,"##fff365c3":8770,"##94737be8":8771,"##505c03c1b43f":8772,"##458f8625dcd":8773,"9387536b4f8dae95":8774,"##ee1ad94737be8":8775,"##fff365c3ee1ad94737be8":8776,"##505c03c1b43f458f8625dcd":8777,"9387536b4f8dae95fff365c3ee1ad94737be8":8778,"##505c03c1b43f458f8625dcdfac7":8779,"9387536b4f8dae95fff365c3ee1ad94737be8505c03c1b43f458f8625dcdfac7":8780,"67ae":8781,"_87":8782,"##_23":8783,"##2400":8784,"##5030":8785,"##4830":8786,"##4046":8787,"##fde":8788,"##9799":8789,"##1616":8790,"##4976":8791,"##5368":8792,"##70ca":8793,"##8784":8794,"##878b":8795,"##1344":8796,"##2656":8797,"171":8798,"39860":8799,"30_23":8800,"57_minutes":8801,"##5f4f":8802,"r_44":8803,"lientadapter_108":8804,"39902":8805,"hawti":8806,"634ms":8807,"3225":8808,"4520":8809,"644":8810,"762":8811,"##0026":8812,"##2413":8813,"##fac6":8814,"##4050":8815,"##3280":8816,"1375":8817,"##1004":8818,"##7030":8819,"##b546":8820,"##035":8821,"##4783":8822,"##8920":8823,"##451":8824,"##0bd":8825,"##ffeb":8826,"##8448":8827,"##841f":8828,"##1b24":8829,"##7976":8830,"##aa8":8831,"39172":8832,"##3be":8833,"##afc":8834,"##d37":8835,"40050":8836,"38856":8837,"05_15":8838,"hawt":8839,"648":8840,"723":8841,"_7b":8842,"##0002":8843,"##4802":8844,"##4740":8845,"##f6e":8846,"##7be":8847,"##b856":8848,"##c4bd":8849,"##09c":8850,"##1412":8851,"##5840":8852,"##5803":8853,"##741":8854,"##8599":8855,"##9824":8856,"239":8857,"##4176":8858,"3475":8859,"##50345":8860,"2c6":8861,"645":8862,"pre":8863,"sourcepoller":8864,"##vecon":8865,"##ea4d":8866,"##2450":8867,"##2411":8868,"##1849":8869,"##486a":8870,"##69bd":8871,"##b04a":8872,"##7659":8873,"##1810":8874,"##1080":8875,"publishbundle":8876,"##9455":8877,"##1124":8878,"##4943":8879,"##4917":8880,"##b5ca":8881,"##b599":8882,"##5a48":8883,"##5a94":8884,"##f38c":8885,"##751":8886,"##ba4a":8887,"##ba96":8888,"##1557":8889,"##9650":8890,"##7832":8891,"##7834":8892,"##e91":8893,"##e5ca":8894,"##1f4f":8895,"notify":8896,"##14fa":8897,"##14e3":8898,"##8306":8899,"##681":8900,"204":8901,"##ggest":8902,"suggest":8903,"##value":8904,"##f2b5":8905,"##3a2":8906,"createcontainer":8907,"newclient":8908,"##e2e":8909,"##9c2":8910,"40250":8911,"lientadapter_109":8912,"tracked":8913,"up_43":8914,"nativecon":8915,"_7t":8916,"1690367973":8917,"##structoraccessorimpl":8918,"preview":8919,"publishbundleevent":8920,"nativeconstructoraccessorimpl":8921,"5212":8922,"792":8923,"804":8924,"##lus":8925,"##eab5":8926,"1088":8927,"##2430":8928,"##fa97":8929,"##77ca":8930,"##4049":8931,"##b0e":8932,"##9960":8933,"##5648":8934,"##5632":8935,"##9743":8936,"##9424":8937,"##9499":8938,"##9493":8939,"##4256":8940,"##e446":8941,"##1a48":8942,"##7de":8943,"##641":8944,"##ee7a":8945,"clientadapter_64":8946,"169036168":8947,"1690370176":8948,"38792":8949,"39060":8950,"0x100000":8951,"700":8952,"_60":8953,"_61":8954,"c29":8955,"##a1529":8956,"##24ea":8957,"##244f":8958,"##daad":8959,"##eb4a":8960,"##50fb":8961,"##6900":8962,"##ce46":8963,"##7616":8964,"##f340":8965,"##13e":8966,"3975":8967,"##8a12":8968,"##8a7b":8969,"##e340":8970,"##e4b3":8971,"##07c":8972,"##14b9":8973,"##20bb":8974,"1690352":8975,"##8b94":8976,"##781":8977,"##7944":8978,"rtf":8979,"6352":8980,"##e2b9":8981,"##ee99":8982,"##4170":8983,"##3df":8984,"##3d9":8985,"_5k":8986,"lientadapter_105":8987,"_6y":8988,"_2y":8989,"05_17":8990,"crlchecker":8991,"0x100000a1529":8992,"268":8993,"3877":8994,"717":8995,"_5a":8996,"_8d":8997,"_78":8998,"##0024":8999,"##2440":9000,"##88aa":9001,"##2402":9002,"227":9003,"##1823":9004,"##4420":9005,"##0006":9006,"##9980":9007,"##9744":9008,"##7029":9009,"##8656":9010,"##8d24":9011,"##4746":9012,"##8983":9013,"##4544":9014,"##1456":9015,"##1948":9016,"##8470":9017,"39692":9018,"clientadapter_97":9019,"##d6c":9020,"3275":9021,"##d27":9022,"services":9023,"lientadapter_106":9024,"up_28":9025,"features":9026,"309":9027,"_83":9028,"d50":9029,"##im":9030,"##cc46":9031,"##2416":9032,"##24c9":9033,"##1856":9034,"##5080":9035,"##2088":9036,"##7749":9037,"##4897":9038,"##48f3":9039,"##404d":9040,"0012":9041,"##44ab":9042,"##444f":9043,"##4473":9044,"##1053":9045,"##49ca":9046,"##b595":9047,"##1576":9048,"##8d2d":9049,"##e39d":9050,"##72e":9051,"##dc24":9052,"##1499":9053,"##9be":9054,"##7429":9055,"##1924":9056,"##44af":9057,"##5448":9058,"##1b99":9059,"000002c0":9060,"r_88":9061,"r_87":9062,"r_26":9063,"clientadapter_94":9064,"##d2f":9065,"40268":9066,"lientadapter_107":9067,"bundle_im":9068,"40314":9069,"1690363884":9070,"643ms":9071,"bundle_imaging":9072,"685":9073,"711":9074,"713":9075,"763":9076,"##efaul":9077,"##artz":9078,"##tqu":9079,"##on_c":9080,"##0029":9081,"##2483":9082,"##2480":9083,"##8896":9084,"##ebd9":9085,"1275":9086,"##1840":9087,"##1864":9088,"##4443":9089,"##8646":9090,"##4730":9091,"##7232":9092,"##901":9093,"##931":9094,"##1429":9095,"##22e":9096,"##5400":9097,"##5413":9098,"##db7":9099,"##9c7":9100,"##c2e":9101,"##_defaul":9102,"##f71":9103,"000002c1":9104,"clientadapter_66":9105,"lientadapter_127":9106,"40304":9107,"_non_c":9108,"##19870":9109,"quartzscheduler":9110,"quartzscheduler_":9111,"scheduler_defaul":9112,"635ms":9113,"05_08":9114,"##lustered":9115,"##artzscheduler_":9116,"##tquartzscheduler_":9117,"_non_clustered":9118,"scheduler_defaultquartzscheduler_":9119,"%,":9120,"0x100":9121,"272":9122,"650":9123,"67af":9124,"7ce":9125,"755":9126,"_executor":9127,"c89":9128,"##esolr":9129,"##da96":9130,"##daaa":9131,"##aller":9132,"##fafa":9133,"##ca4d":9134,"##292a":9135,"##467e":9136,"##48cc":9137,"##48bd":9138,"##489a":9139,"##4070":9140,"##b099":9141,"##444a":9142,"##44e0":9143,"##436d":9144,"##99e":9145,"##fd43":9146,"##9747":9147,"##1643":9148,"##1159":9149,"##498a":9150,"##5392":9151,"##f3e":9152,"##f343":9153,"##f31f":9154,"##baeb":9155,"##ba69":9156,"##b900":9157,"##4a7d":9158,"##4d53":9159,"##e044":9160,"##e07a":9161,"##47ab":9162,"configuration":9163,"##e91e":9164,"##1f40":9165,"##e452":9166,"##e4ab":9167,"##e41f":9168,"##8c4d":9169,"##1d1":9170,"##1d6d":9171,"##c446":9172,"##fe1":9173,"##fe24":9174,"##otesolr":9175,"##1411":9176,"##141e":9177,"##14ba":9178,"53_minutes":9179,"##c6e":9180,"##54e":9181,"##244b":9182,"##7628":9183,"##8494":9184,"52_minutes":9185,"##982d":9186,"##c347":9187,"##8b47":9188,"##cd1":9189,"##1b69":9190,"##6416":9191,"31_0":9192,"##78b0":9193,"##59ad":9194,"##5be":9195,"39838":9196,"49_minutes":9197,"##e21":9198,"45_minutes":9199,"##2b4":9200,"##6be":9201,"clientadapter_99":9202,"##d2c":9203,"38744":9204,"44144":9205,"4fc37e69_commitcommandversion":9206,"tsdb":9207,"##b96b000":9208,"remotesolr":9209,"##0002b96b000":9210,"0x1000002b96b000":9211,"31_01":9212,"remotesolrcatalogprovider":9213,"1125":9214,"5f3":9215,"66d":9216,"641":9217,"726":9218,"csv":9219,"object":9220,"##ebcb":9221,"##2976":9222,"##6932":9223,"##7600":9224,"##1048":9225,"##9496":9226,"##4960":9227,"##861":9228,"##2624":9229,"##b6ea":9230,"##e51":9231,"##thread_8":9232,"##1497":9233,"##1929":9234,"##1984":9235,"##5760":9236,"##cb1":9237,"_5q":9238,"clientadapter_62":9239,"lientadapter_126":9240,"lientadapter_111":9241,"_6u":9242,"38812":9243,"40512":9244,"llerpollthread_8":9245,"636ms":9246,"638ms":9247,"0x100000a1529000":9248,"##_8":9249,"##ea9b":9250,"##ec1":9251,"input":9252,"##24c0":9253,"##201":9254,"##48ca":9255,"##4848":9256,"##484b":9257,"##4094":9258,"##40b3":9259,"##5280":9260,"##5264":9261,"##0224":9262,"##445a":9263,"##4413":9264,"##4439":9265,"##99c6":9266,"##1669":9267,"##ab3f":9268,"##947c":9269,"##4950":9270,"##4948":9271,"##49ab":9272,"##2d4d":9273,"##b9b0":9274,"##1548":9275,"##4fb0":9276,"##4f09":9277,"##8a1c":9278,"##4797":9279,"##4250":9280,"##42a0":9281,"##8943":9282,"##89cd":9283,"##b64a":9284,"##7838":9285,"##e986":9286,"##b8da":9287,"##e57a":9288,"##e448":9289,"##1d48":9290,"##b346":9291,"##b3ba":9292,"##7410":9293,"##8582":9294,"##5488":9295,"##bfec":9296,"##8b40":9297,"##1b4a":9298,"##1bb6":9299,"337":9300,"##798d":9301,"40462":9302,"3675":9303,"##e847":9304,"##d3c":9305,"lientadapter_103":9306,"up_27":9307,"38904":9308,"lerpollthread_18":9309,"169035727":9310,"40008":9311,"029":9312,"6a9":9313,"888":9314,"903":9315,"##ourcer":9316,"##ene":9317,"##2486":9318,"##2460":9319,"##8832":9320,"##1876":9321,"##20238":9322,"##4866":9323,"##8384":9324,"##991":9325,"##9700":9326,"##114a":9327,"##496d":9328,"##534f":9329,"##8688":9330,"##035d":9331,"##1520":9332,"##15e9":9333,"##e5ab":9334,"##1d70":9335,"##c494":9336,"##1432":9337,"##1806":9338,"##5785":9339,"467":9340,"40474":9341,"48966":9342,"##_down":9343,"##f78a":9344,"clientadapter_85":9345,"1690355390":9346,"lientadapter_100":9347,"_6w":9348,"38906":9349,"39224":9350,"39272":9351,"33944":9352,"1eb":9353,"725":9354,"872":9355,"##fed":9356,"##icy":9357,"##cc44":9358,"##2436":9359,"##eb10":9360,"##faad":9361,"##2999":9362,"##4619":9363,"##4864":9364,"##0264":9365,"##b0b0":9366,"##b0ab":9367,"##43f3":9368,"##fd69":9369,"##10ab":9370,"##9440":9371,"##94dd":9372,"##49e":9373,"##4912":9374,"##4919":9375,"##5383":9376,"##7010":9377,"##0350":9378,"##2344":9379,"eventmanager":9380,"##4a97":9381,"##8223":9382,"##8a4a":9383,"##4283":9384,"##8940":9385,"##b66a":9386,"##f642":9387,"##c01":9388,"##b84a":9389,"##b84d":9390,"##b842":9391,"##e54a":9392,"##73e":9393,"##e4ca":9394,"##c45a":9395,"##b347":9396,"##601":9397,"##c9fd":9398,"##661":9399,"##cd8b":9400,"##ef4f":9401,"##e6e":9402,"39008":9403,"39126":9404,"39174":9405,"##367":9406,"1690247":9407,"367":9408,"##3440":9409,"clientadapter_67":9410,"169035113":9411,"32768":9412,"lientadapter_113":9413,"rclientadapter_8":9414,"16903641993":9415,"40416":9416,"shutdown":9417,"4e":9418,"663":9419,"826":9420,"_3s":9421,"##d_session":9422,"##_wh":9423,"had_session":9424,"##cc88":9425,"##1843":9426,"##1872":9427,"##509a":9428,"##2032":9429,"##2070":9430,"##4813":9431,"##6912":9432,"##8348":9433,"##52db":9434,"##97e":9435,"##1672":9436,"##5324":9437,"##13b6":9438,"##ba44":9439,"##4270":9440,"##4222":9441,"##891":9442,"##4595":9443,"##7360":9444,"##9344":9445,"##c488":9446,"##14e9":9447,"##9b99":9448,"##171":9449,"##1a4f":9450,"##7424":9451,"##8497":9452,"##itializ":9453,"31_":9454,"##7847":9455,"##e60b":9456,"##3392":9457,"##c516":9458,"_3c":9459,"_3q":9460,"000002c3":9461,"000002c2":9462,"clientadapter_93":9463,"05t02":9464,"##validator":9465,"lientadapter_104":9466,"lientadapter_101":9467,"##1696":9468,"169036419870":9469,"40098":9470,"16903695":9471,"38858":9472,"0x10000046b0e015c":9473,"05_12":9474,"##_which":9475,"had_sessionid":9476,"2d6":9477,"4429":9478,"788":9479,"9dd":9480,"_10":9481,"_16":9482,"_4q":9483,"a69":9484,"fe":9485,"gu":9486,"##269":9487,"##7ea":9488,"##7e9":9489,"##undle":9490,"1086":9491,"1090":9492,"##eda8":9493,"##cc20":9494,"##00347":9495,"##24b6":9496,"##884a":9497,"##da19":9498,"##ansion":9499,"##eb40":9500,"##eb9a":9501,"##ebb4":9502,"##18d0":9503,"##fa94":9504,"##faba":9505,"##fa7f":9506,"##ca46":9507,"##468d":9508,"##774a":9509,"logout":9510,"##48ad":9511,"##69ac":9512,"##838f":9513,"##b04b":9514,"##4411":9515,"##441f":9516,"##43b9":9517,"##434a":9518,"##9900":9519,"##9426":9520,"##49b5":9521,"##498d":9522,"##b529":9523,"##b594":9524,"##5ae":9525,"##f312":9526,"##231":9527,"##7543":9528,"##ba47":9529,"##baaa":9530,"##b916":9531,"##b9b3":9532,"##80af":9533,"##1550":9534,"##1546":9535,"##157a":9536,"##154c":9537,"##4de":9538,"##4dc3":9539,"##3f1":9540,"##8d49":9541,"##4756":9542,"##473b":9543,"##4229":9544,"##f688":9545,"##7b4a":9546,"##e394":9547,"##e34f":9548,"##e347":9549,"##e3c4":9550,"##e9b0":9551,"##b82d":9552,"##e58e":9553,"##e4fa":9554,"##e497":9555,"##1d75":9556,"##1d90":9557,"##c4ba":9558,"##fe30":9559,"##1c46":9560,"##0b7":9561,"##1a88":9562,"##1a4d":9563,"##8576":9564,"##1969":9565,"##44aa":9566,"##841d":9567,"##bd4a":9568,"##8b44":9569,"##1bda":9570,"##efb3":9571,"##5d40":9572,"##59e":9573,"star":9574,"##bbe":9575,"##c869":9576,"38962":9577,"##c5b5":9578,"expansion":9579,"clientadapter_65":9580,"##a440":9581,"1325":9582,"39602":9583,"38748":9584,"169036419900":9585,"1690368917":9586,"632ms":9587,"guest":9588,"313":9589,"783":9590,"_8e":9591,"##_54":9592,"##rdlogger":9593,"##da00":9594,"##e_servicename":9595,"##5043":9596,"##4048":9597,"##404f":9598,"##b01":9599,"##4494":9600,"##56a2":9601,"##1030":9602,"##8747":9603,"##8016":9604,"##4a4a":9605,"##f64d":9606,"dev":9607,"##7224":9608,"##459d":9609,"##1f1":9610,"##e412":9611,"##b38a":9612,"##1700":9613,"##1746":9614,"##6080":9615,"##c946":9616,"20_minutes":9617,"##bde":9618,"40566":9619,"40960":9620,"##5bab":9621,"6354":9622,"dardlogger":9623,"##2816":9624,"##4e8d":9625,"##7e1":9626,"##6f5":9627,"##6f8":9628,"clientadapter_80":9629,"clientadapter_71":9630,"lientadapter_114":9631,"lientadapter_123":9632,"lientadapter_115":9633,"39956":9634,"39390":9635,"gdes4eb13a9266b8408bb13f9089ada77f49_":9636,"lientadapter_118":9637,"266240":9638,"1690357592":9639,"standardlogger":9640,"5701_":9641,"dardloggerfactory":9642,"standardlogger_54":9643,"095":9644,"322":9645,"750":9646,"777":9647,"797":9648,"753":9649,"_sh":9650,"_3b":9651,"_67":9652,"a_":9653,"f97":9654,"##auth":9655,"##monitor":9656,"##yption":9657,"##erauth":9658,"##userauth":9659,"##ea23":9660,"##ea8c":9661,"##ed9d":9662,"##cc4b":9663,"applic":9664,"serveruserauth":9665,"##da43":9666,"##da23":9667,"##fa5a":9668,"##fa7b":9669,"##fa0d":9670,"##29ce":9671,"##481":9672,"##6907":9673,"##40b5":9674,"##40ac":9675,"##321408":9676,"##b083":9677,"##44cc":9678,"##4488":9679,"##ce06":9680,"##99a0":9681,"##99c63":9682,"##1088":9683,"##9432":9684,"##9492":9685,"##1143":9686,"##4929":9687,"##4928":9688,"##492c":9689,"##8794":9690,"##2d24":9691,"##034a":9692,"##23da":9693,"##234d":9694,"##261":9695,"##bac0":9696,"##b943":9697,"##b92a":9698,"##15e":9699,"##4f03":9700,"##4d93":9701,"##9680":9702,"##e01":9703,"##e0ce":9704,"39792":9705,"##4718":9706,"##8900":9707,"##b64f":9708,"##b6e3":9709,"##b6e5":9710,"filter":9711,"from_":9712,"##c0ca":9713,"##c094":9714,"##4549":9715,"##454f":9716,"##e54d":9717,"##e4eb":9718,"##9312":9719,"##1ddb":9720,"##5520":9721,"##5599":9722,"##c4b0":9723,"##c4fd":9724,"##c456":9725,"##b34d":9726,"##b31c":9727,"##b366":9728,"##minute":9729,"##5899":9730,"##5823":9731,"##2120":9732,"##1989":9733,"encr":9734,"##54c4":9735,"##c9f2":9736,"##6346":9737,"##8416":9738,"##84b3":9739,"##1b8a":9740,"##1be3":9741,"##1bbd":9742,"##f277":9743,"40166":9744,"##cb48":9745,"##cb1a":9746,"##5b70":9747,"##5bb9":9748,"39322":9749,"##c7e":9750,"##c740":9751,"##9fc":9752,"##f4b5":9753,"_4n":9754,"##880f":9755,"69dc5":9756,"##890321408":9757,"0242ac130026":9758,"39906":9759,"38958":9760,"##00345":9761,"1690364199890321408":9762,"1690363570":9763,"29t19":9764,"_shortname":9765,"a_minute":9766,"application":9767,"serveruserauthservice":9768,"##99c63ce":9769,"encryption":9770,"69dc599c63ce":9771,"3520":9772,"746":9773,"_72":9774,"_59":9775,"head":9776,"search":9777,"##1232":9778,"##1230":9779,"##4609":9780,"##4820":9781,"##4986":9782,"##4903":9783,"##5312":9784,"##5340":9785,"##7016":9786,"##2640":9787,"##421a":9788,"##4584":9789,"##e424":9790,"##1475":9791,"##9552":9792,"##c61":9793,"##5456":9794,"##5497":9795,"##1b44":9796,"##3a7":9797,"40576":9798,"39538":9799,"##2b7":9800,"44770":9801,"clientadapter_82":9802,"clientadapter_92":9803,"_4o":9804,"up_42":9805,"##40345":9806,"39644":9807,"40056":9808,"44452":9809,"39580":9810,"39280":9811,"lientadapter_116":9812,"3425":9813,"712":9814,"876":9815,"890":9816,"9e":9817,"900":9818,"_5f":9819,"_7e":9820,"gmd":9821,"ssh":9822,"##599":9823,"##348":9824,"##sc":9825,"##eab0":9826,"##ed43":9827,"##ec29":9828,"##0044":9829,"property":9830,"##243a":9831,"##881":9832,"##ebb6":9833,"##1828":9834,"##2994":9835,"##4643":9836,"##778d":9837,"##4895":9838,"##6930":9839,"##4032":9840,"##40238":9841,"##5200":9842,"##028d":9843,"##32b6":9844,"##b044":9845,"##44b3":9846,"##76ca":9847,"##765d":9848,"##4347":9849,"##9910":9850,"##1056":9851,"##9728":9852,"##94eb":9853,"##941a":9854,"##94d1":9855,"##49c6":9856,"##5300":9857,"##5329":9858,"##5304":9859,"##701":9860,"##f31":9861,"##b946":9862,"##4f90":9863,"##4a1a":9864,"39744":9865,"##b65a":9866,"##3024":9867,"##7b43":9868,"##7386":9869,"##dc83":9870,"##e4cd":9871,"##9346":9872,"##c41":9873,"##c4ee":9874,"##1448":9875,"##5870":9876,"19_minutes":9877,"##1a9a":9878,"##1aa0":9879,"##ff4f":9880,"##5440":9881,"##8426":9882,"##6624":9883,"##6640":9884,"##7946":9885,"##aa49":9886,"40528":9887,"##cb4a":9888,"##cf46":9889,"39438":9890,"39534":9891,"newsc":9892,"##3b1":9893,"##4177":9894,"##249f":9895,"##4e88":9896,"##c54f":9897,"_3g":9898,"_5n":9899,"##1722":9900,"##6b1":9901,"c51":9902,"##e195":9903,"clientadapter_69":9904,"clientadapter_96":9905,"clientadapter_78":9906,"clientadapter_79":9907,"clientadapter_61":9908,"##a2ed":9909,"##ae4f":9910,"lientadapter_125":9911,"39648":9912,"39016":9913,"38074":9914,"##56320":9915,"##getask":9916,"40004":9917,"purgetask":9918,"680":9919,"647":9920,"667":9921,"736":9922,"916":9923,"990":9924,"99d":9925,"_68":9926,"cer":9927,"##600":9928,"##1240":9929,"##ficate":9930,"up_20":9931,"1025":9932,"##enth":9933,"##ed2d":9934,"##ccf0":9935,"##0020":9936,"##tificate":9937,"##243c":9938,"##ode_":9939,"##486d":9940,"1175":9941,"1104":9942,"##5236":9943,"##7632":9944,"##4346":9945,"##4330":9946,"##9950":9947,"##5647":9948,"##9472":9949,"##49cc":9950,"##4913":9951,"##5a4b":9952,"##f313":9953,"##b910":9954,"##3020":9955,"##e54b":9956,"##73c7":9957,"##071":9958,"##9b1":9959,"##7416":9960,"##c64a":9961,"##7984":9962,"40162":9963,"39434":9964,"39486":9965,"39124":9966,"##36e":9967,"01ex":9968,"##e81":9969,"000002bf":9970,"clientadapter_60":9971,"clientadapter_84":9972,"##7144":9973,"##d149":9974,"39952":9975,"40362":9976,"39344":9977,"certificate":9978,"0b3":9979,"085":9980,"299":9981,"286":9982,"274":9983,"302":9984,"316":9985,"6e5":9986,"889f":9987,"db3":9988,"e99":9989,"##de0":9990,"##78a":9991,"##f92":9992,"##ui":9993,"##ea88":9994,"##ea49":9995,"##eae0":9996,"##ea3f":9997,"##ea2a":9998,"1087":9999,"##edba":10000,"##ed4f":10001,"##esservice":10002,"##dsolrclient":10003,"##ec30":10004,"##8843":10005,"##88e9":10006,"##88d2":10007,"##da07":10008,"##da9b":10009,"##da54":10010,"fac":10011,"22260":10012,"##186d":10013,"##18aa":10014,"##12da":10015,"##1210":10016,"##12d0":10017,"##fa4a":10018,"##fa0a":10019,"##ca86":10020,"##ca4a":10021,"##29e6":10022,"##46ca":10023,"##4676":10024,"##46fd":10025,"##7744":10026,"##77e6":10027,"##4846":10028,"##484f":10029,"##69f0":10030,"##5232":10031,"##02dd":10032,"##3289":10033,"##44ca":10034,"##4455":10035,"##761a":10036,"##1819":10037,"##9918":10038,"##9946":10039,"##99ab":10040,"##fd4a":10041,"##5686":10042,"##10eb":10043,"##1034":10044,"##9780":10045,"##97ad":10046,"##1680":10047,"##94ab":10048,"##942d":10049,"##94fe":10050,"##942a":10051,"##1146":10052,"##114f":10053,"##1130":10054,"##11aa":10055,"##4982":10056,"##5388":10057,"##7089":10058,"##70dc":10059,"##b58c":10060,"##8799":10061,"##f34d":10062,"##f395":10063,"##f36a":10064,"##1303":10065,"##134a":10066,"##139a":10067,"##2360":10068,"##7588":10069,"##754a":10070,"##ba9a":10071,"##b950":10072,"##b989":10073,"##b96d":10074,"##b96c":10075,"##80b3":10076,"##1584":10077,"##4f1c":10078,"##4a99":10079,"##4a4d":10080,"##96dd":10081,"##e048":10082,"##e063":10083,"39748":10084,"##8d03":10085,"##8d4d":10086,"##8afa":10087,"##8a49":10088,"##8a03":10089,"##47bf":10090,"##8902":10091,"##8933":10092,"##b688":10093,"##f6b8":10094,"##c024":10095,"##457b":10096,"##45e9":10097,"##b848":10098,"##b8ba":10099,"##b845":10100,"##e57e":10101,"##1f94":10102,"##1f4a":10103,"##1fb6":10104,"##7310":10105,"##e440":10106,"##e4b9":10107,"##1d7f":10108,"##c4ca":10109,"##c477":10110,"##c448":10111,"##c4bf":10112,"##fe44":10113,"af06":10114,"##14b8":10115,"##14bd":10116,"##9bce":10117,"##9b70":10118,"##tributes":10119,"##1a89":10120,"##74b3":10121,"##74e2":10122,"##954b":10123,"##c610":10124,"##b27b":10125,"##ff44":10126,"##ffc9":10127,"##19e2":10128,"##5477":10129,"##54cd":10130,"##bf80":10131,"##bf4a":10132,"##f04f":10133,"##cd40":10134,"##1b48":10135,"##1b52":10136,"##1bfd":10137,"##1be6":10138,"##6477":10139,"##5de":10140,"##7cda":10141,"40120":10142,"##8f4a":10143,"39e91e":10144,"##4be":10145,"##36c":10146,"##3bee83":10147,"##4c77":10148,"##4132":10149,"##c7eb":10150,"cloudsolrclient":10151,"##7e20":10152,"##3d7":10153,"##c845":10154,"##2177":10155,"##d04d":10156,"##e811":10157,"000002bd":10158,"##f9e":10159,"clientadapter_86":10160,"clientadapter_68":10161,"clientadapter_81":10162,"169035112":10163,"##f84a":10164,"4bf3":10165,"##b746":10166,"server_ui":10167,"##88448":10168,"##142f":10169,"##20345":10170,"##57c70":10171,"schedul":10172,"000002be":10173,"featuresservice":10174,"169035350":10175,"1690247583":10176,"2d657c70":10177,"39e91e3bee83":10178,"featuresserviceimpl":10179,"264":10180,"3dd":10181,"6b0":10182,"657":10183,"889":10184,"a1a":10185,"a85":10186,"c90":10187,"d60":10188,"##eac9":10189,"##0096":10190,"##2417":10191,"1225":10192,"##ca0a":10193,"##2983":10194,"##4608":10195,"##4819":10196,"##4047":10197,"##5269":10198,"##32e":10199,"##4320":10200,"##4363":10201,"##5680":10202,"##4984":10203,"##5333":10204,"##5305":10205,"##7012":10206,"##f39f":10207,"##bac3":10208,"##80e":10209,"##8093":10210,"##4f6b":10211,"39796":10212,"##4224":10213,"##c093":10214,"##4569":10215,"##4590":10216,"##455d":10217,"##7387":10218,"##e4b6":10219,"##e4bd":10220,"##fef6":10221,"##1477":10222,"##6040":10223,"##bf09":10224,"##1b29":10225,"##6400":10226,"##3856":10227,"39228":10228,"_3j":10229,"##651":10230,"clientadapter_76":10231,"clientadapter_70":10232,"clientadapter_98":10233,"##d67":10234,"##be1a":10235,"570ms":10236,"lerpollthread_29":10237,"lientadapter_124":10238,"lientadapter_102":10239,"layer":10240,"43982":10241,"0e":10242,"01c":10243,"3525":10244,"58304":10245,"776":10246,"709":10247,"8e":10248,"94a":10249,"9aa":10250,"be":10251,"##723":10252,"##ea1":10253,"##ea0b":10254,"##ea9d":10255,"##ed24":10256,"##ec99":10257,"##ec4a":10258,"##ec8a":10259,"##885e":10260,"##da16":10261,"##da94":10262,"##eb70":10263,"##eb45":10264,"1230":10265,"##18fa":10266,"##1260":10267,"##fa80":10268,"##fa2b":10269,"##29b9":10270,"##774f":10271,"##48b0":10272,"##48fd":10273,"##4862":10274,"##6946":10275,"##6947":10276,"##696e":10277,"##8345":10278,"##43ab":10279,"##437f":10280,"##9985":10281,"##5600":10282,"##5623":10283,"##567b":10284,"##568b":10285,"##1020":10286,"##1060":10287,"##971":10288,"##9736":10289,"##abe3":10290,"##94ed":10291,"##94ec":10292,"##9412":10293,"##94aa":10294,"##94e6":10295,"##94bc":10296,"##49cb":10297,"##49a9":10298,"##5310":10299,"##70b6":10300,"##8756":10301,"##8792":10302,"##2dbe":10303,"##8630":10304,"##5a12":10305,"##5af3":10306,"##5a4e":10307,"##f37d":10308,"##236a":10309,"##2646":10310,"##2654":10311,"##7569":10312,"##baca":10313,"##ba60":10314,"##ba9d":10315,"##baaf":10316,"##b91":10317,"##b9ed":10318,"##b9f9":10319,"##15cd":10320,"##4fbf":10321,"##4a24":10322,"##4acd":10323,"##4af5":10324,"##9620":10325,"##82aa":10326,"##8d54":10327,"##4212":10328,"##427b":10329,"##8924":10330,"##892a":10331,"##f643":10332,"##f67d":10333,"##1992":10334,"##199a":10335,"##e9ad":10336,"##e98c":10337,"##e93a":10338,"##7216":10339,"##c0f4":10340,"##45dc":10341,"##b899":10342,"##b8c0":10343,"##e55d":10344,"##e59a":10345,"##7340":10346,"##90ad":10347,"##e476":10348,"##8c94":10349,"##8c64":10350,"##1d7a":10351,"##5500":10352,"##5584":10353,"##c450":10354,"##c440":10355,"##c4b6":10356,"##c4c6":10357,"##b38c":10358,"##8e4a":10359,"##5e89":10360,"##1780":10361,"##171a":10362,"##1aeb":10363,"##1a27":10364,"##74ab":10365,"##7426":10366,"##9524":10367,"##95dc":10368,"##fffe":10369,"43208":10370,"##54fd":10371,"##5410":10372,"##c9a0":10373,"##bf7a":10374,"##841":10375,"##84be":10376,"##bd9c":10377,"##c343":10378,"##f01":10379,"##f0b5":10380,"##1bb9":10381,"##1b4d":10382,"##7824":10383,"##7ced":10384,"##7c2d":10385,"##591":10386,"##cb18":10387,"##9ae":10388,"##e280":10389,"16902488":10390,"##bb4d":10391,"completed":10392,"##7e22":10393,"clientadapter_89":10394,"clientadapter_74":10395,"clientadapter_95":10396,"##a27":10397,"##f899":10398,"##c145":10399,"##37fd":10400,"##2752":10401,"##b110":10402,"40214":10403,"up_36":10404,"up_33":10405,"up_39":10406,"##1439":10407,"23753":10408,"lientadapter_112":10409,"39490":10410,"40426":10411,"1690357593":10412,"000002bc":10413,"1690362626":10414,"280":10415,"770":10416,"790":10417,"800":10418,"_74":10419,"ae":10420,"cm":10421,"ur":10422,"##be3a7":10423,"1075":10424,"##ecord":10425,"jaas":10426,"##8872":10427,"##2403":10428,"##fa8c":10429,"##2050":10430,"##5253":10431,"##0200":10432,"##3211":10433,"##0003":10434,"##ce128":10435,"##941":10436,"##949b":10437,"##8740":10438,"##0376":10439,"##8046":10440,"##80c6":10441,"##1580":10442,"##961":10443,"##8287":10444,"##47e3":10445,"##7836":10446,"##458c":10447,"##1410":10448,"##1756":10449,"##1723":10450,"##1a17":10451,"##954f":10452,"##5470":10453,"##5744":10454,"16903563":10455,"3375":10456,"##5920":10457,"23878b":10458,"##cf70":10459,"registry":10460,"634e":10461,"_mime":10462,"##281":10463,"3575":10464,"clientadapter_72":10465,"clientadapter_63":10466,"##d448":10467,"##1480":10468,"lientadapter_117":10469,"##18656":10470,"##70400":10471,"513be3a7":10472,"48072":10473,"45952":10474,"##ce2e_servicename":10475,"b672c409ce2e_servicename":10476,"hawtio":10477,"6a9ce128":10478,"23878b80":10479,"01e":10480,"669":10481,"6107":10482,"715":10483,"70b":10484,"7998":10485,"74936":10486,"8b5":10487,"_76":10488,"_99":10489,"_75":10490,"aac":10491,"cus":10492,"c76":10493,"d149":10494,"f93":10495,"f7a":10496,"mig":10497,"sourcepollerrunner":10498,"##510":10499,"##ev":10500,"##adap":10501,"##lou":10502,"##sprivileged":10503,"##tom":10504,"##ermod":10505,"constructor":10506,"##ea4f":10507,"##cc16":10508,"##0016":10509,"##0070":10510,"##004d":10511,"##00c3":10512,"##ties":10513,"##242d":10514,"##2437":10515,"##8856":10516,"##88b9":10517,"##olrexception":10518,"##izermod":10519,"refr":10520,"##eb5ab":10521,"##forsource":10522,"##lientfactory":10523,"##186a":10524,"##5094":10525,"##4660":10526,"##483c":10527,"##6920":10528,"##8340":10529,"##perties":10530,"##b01c":10531,"##4393":10532,"##9984":10533,"##99bd":10534,"##fdfa":10535,"##5683":10536,"##568f":10537,"##1029":10538,"##1097":10539,"##1683":10540,"##9490":10541,"##4902":10542,"##4935":10543,"##491b":10544,"##b51":10545,"##8750":10546,"##1ee":10547,"##2340":10548,"##7584":10549,"##8047":10550,"##1583":10551,"##1510":10552,"##4d26":10553,"##e0e":10554,"##4736":10555,"##4273":10556,"##42bf":10557,"##8977":10558,"##8928":10559,"##b600":10560,"##1996":10561,"##e3b9":10562,"##e9da":10563,"##e9fa":10564,"##4596":10565,"getcurrent":10566,"getinstance":10567,"##dclientfactory":10568,"##e41":10569,"##551":10570,"##5543":10571,"##c429":10572,"##8ee3":10573,"20030":10574,"##5820":10575,"##6089":10576,"##60638":10577,"##1a54":10578,"##7488":10579,"##c647":10580,"##19a0":10581,"43242":10582,"##5450":10583,"##5420":10584,"##54c3":10585,"##8308":10586,"20180":10587,"204800":10588,"##bd4b":10589,"##661d70":10590,"##c34f":10591,"##7a1":10592,"##7a07":10593,"##62e":10594,"##ef44":10595,"##5d1":10596,"46b":10597,"##381":10598,"##3aeb5ab":10599,"##595a":10600,"42734":10601,"##cbe":10602,"39696":10603,"6300346":10604,"##5665368":10605,"##7f24":10606,"delegatingcons":10607,"169024695":10608,"##4c1a":10609,"05_06":10610,"##c796":10611,"##331":10612,"##7e43":10613,"_3u":10614,"clientadapter_77":10615,"clientadapter_83":10616,"1690354447":10617,"##b1abc":10618,"c163aeb5ab":10619,"solrclou":10620,"up_35":10621,"##14a9":10622,"39386":10623,"54156":10624,"41174":10625,"109039":10626,"51256":10627,"##f4ad":10628,"##962536":10629,"47500":10630,"50922":10631,"equinoxcontainer":10632,"2d661d70":10633,"22410":10634,"6330345":10635,"##tructoraccessorimpl":10636,"16903692318":10637,"8114592":10638,"##942060638":10639,"unavailablesolrclient":10640,"unavailablesolrexception":10641,"33e703582dfc_servicename":10642,"2dcb1abc":10643,"1611942060638":10644,"notifyhook":10645,"##valueforsource":10646,"8045665368":10647,"##enthook":10648,"6107568":10649,"7998962536":10650,"7493656":10651,"custom":10652,"d149143f":10653,"##eventhook":10654,"##adaptor":10655,"##izermodified":10656,"refrecipe":10657,"getcurrentvalueforsource":10658,"delegatingconstructoraccessorimpl":10659,"c163aeb5abdb":10660,"solrcloudclientfactory":10661,"10903952":10662,"equinoxcontaineradaptor":10663,"customizermodified":10664,"1c6":10665,"241":10666,"320":10667,"303":10668,"6cc":10669,"655":10670,"69d":10671,"77b":10672,"773":10673,"977":10674,"_18":10675,"_13":10676,"_d149":10677,"d38":10678,"##fec":10679,"1050":10680,"##ec87":10681,"##8897":10682,"##eb48":10683,"##eb47":10684,"##18ed":10685,"##2910":10686,"##2904":10687,"##2906":10688,"##489e":10689,"##persistence":10690,"##4024":10691,"##40f2":10692,"##5229":10693,"##3250":10694,"##b043":10695,"##1813":10696,"##5652":10697,"##5675":10698,"##1090":10699,"##8650":10700,"##1330":10701,"##ba90":10702,"##1500":10703,"##8270":10704,"##4769":10705,"##47b5":10706,"##42c5":10707,"##e3e0":10708,"##72b6":10709,"##b81f":10710,"##c400":10711,"##b3fa":10712,"##0730":10713,"##1446":10714,"##5896":10715,"##1785":10716,"##2250":10717,"##5415":10718,"##571":10719,"##5786":10720,"46462":10721,"50562":10722,"637ms":10723,"47196":10724,"35248":10725,"35108":10726,"_3t":10727,"_513b":10728,"44168":10729,"1690361682":10730,"##1486":10731,"##4805":10732,"lientadapter_122":10733,"bundle_persistence":10734,"35038":10735,"##85440":10736,"b672c409ce2e":10737,"1690355076":10738,"644ms":10739,"1104bf4b":10740,"_d149143f":10741,"_513be3a7":10742,"0fe":10743,"3ea":10744,"35d":10745,"4c35":10746,"676":10747,"6f0":10748,"6cb":10749,"787":10750,"768":10751,"7bf":10752,"886":10753,"9e3":10754,"9b3":10755,"_43":10756,"_14":10757,"_7f":10758,"a7b":10759,"a55":10760,"c02":10761,"dce":10762,"dad":10763,"ee":10764,"fed":10765,"f77":10766,"f99":10767,"f5e":10768,"##549":10769,"##f87":10770,"##f7a":10771,"##ea53":10772,"##ea7a":10773,"##ea0a":10774,"##edb9":10775,"##ed65":10776,"##chevent":10777,"##ccb6":10778,"##cc09":10779,"##cc0f":10780,"##ec03":10781,"##ecf6":10782,"##ec93":10783,"##2470":10784,"##24b5":10785,"##2423":10786,"##241c":10787,"##88f6":10788,"##8863":10789,"##884c":10790,"##8833":10791,"##dafa":10792,"##da86":10793,"##da1e":10794,"##da7d":10795,"##eb86":10796,"##eb4b":10797,"##eba4":10798,"##1800":10799,"##18ba":10800,"##18db":10801,"##184e":10802,"##126d":10803,"##fa39":10804,"##cab5":10805,"##ca1a":10806,"##50aa":10807,"##2997":10808,"##298d":10809,"##29f2":10810,"##299d":10811,"##2046":10812,"##20cf":10813,"##46eb":10814,"##46ab":10815,"##77ea":10816,"##7742":10817,"##48ed":10818,"##48b3":10819,"##4868":10820,"##69ca":10821,"##6980":10822,"##6928":10823,"##6934":10824,"##69d3":10825,"##83fa":10826,"##8310":10827,"##83a4":10828,"##83d4":10829,"##40ab":10830,"##4060":10831,"##409e":10832,"##52ba":10833,"##527a":10834,"##32ab":10835,"##b076":10836,"##b0dc":10837,"##b0a3":10838,"##4415":10839,"##44f2":10840,"##449d":10841,"##443d":10842,"##7664":10843,"##4352":10844,"##438c":10845,"##fdc6":10846,"##56ac":10847,"##10ba":10848,"##109d":10849,"##972a":10850,"##97b4":10851,"##16b6":10852,"##16d5":10853,"##abb3":10854,"##9413":10855,"##94ba":10856,"##94b9":10857,"##947b":10858,"##94b3":10859,"##94a2":10860,"##117f":10861,"##4969":10862,"##49f3":10863,"##49e6":10864,"##53da":10865,"##53ba":10866,"##5393":10867,"##53bd":10868,"##53a6":10869,"##70ba":10870,"##70bd":10871,"##86c0":10872,"##86bf":10873,"##86dd":10874,"##86db":10875,"##5a93":10876,"##5a9a":10877,"##1e99":10878,"##1e4d":10879,"##1ef4":10880,"##f3eb":10881,"##f37b":10882,"##f3aa":10883,"##f33a":10884,"##0310":10885,"##1393":10886,"##234b":10887,"##239a":10888,"##2602":10889,"##7547":10890,"##ba49":10891,"##ba92":10892,"##ba4b":10893,"##badb":10894,"##badc9":10895,"##b919":10896,"##b96a":10897,"##80c0":10898,"##4f86":10899,"##4f45":10900,"##4fbc":10901,"##4a3f":10902,"##4af4":10903,"##4d40":10904,"##4d13":10905,"##4d1f":10906,"##9644":10907,"##e0a3":10908,"##825a":10909,"##8dcf":10910,"##8a53":10911,"##8af3":10912,"##8af0":10913,"##8aaf":10914,"##4752":10915,"##4786":10916,"##47ad":10917,"##47e5":10918,"##422d":10919,"##8926":10920,"##895f":10921,"##89a0":10922,"##b6fd":10923,"##b6ab":10924,"##b6b9":10925,"##b68b":10926,"##f6e3":10927,"##f68c":10928,"##f607":10929,"##7b46":10930,"##7b45":10931,"##e9a0":10932,"##e9a3":10933,"##e92e":10934,"dispat":10935,"##c01c":10936,"##45ca":10937,"##45b3":10938,"##b894":10939,"##b8c3":10940,"##b8bb":10941,"##e575":10942,"##e5b8":10943,"##90ab":10944,"##dc57":10945,"##e477":10946,"##e416":10947,"##e4ba":10948,"##e4c6":10949,"##8cba":10950,"##1dea":10951,"##1d46":10952,"##1d5d":10953,"##c41a":10954,"##c4e8":10955,"##fecc":10956,"##b3e9":10957,"##b37d":10958,"##8e8a":10959,"geojson":10960,"##1418":10961,"##1470":10962,"##5e6f":10963,"##9b4f":10964,"##584a":10965,"##17e5":10966,"##1793":10967,"##1a00":10968,"##1a79":10969,"##1a59":10970,"##1aa6":10971,"##95ed":10972,"##b224":10973,"##b2ab":10974,"##ff49":10975,"##8540":10976,"##854d":10977,"##191f":10978,"##19f4":10979,"##44a3":10980,"##54e2":10981,"##6ae":10982,"##c9e":10983,"##c9ab":10984,"##29280":10985,"##574a":10986,"##bf2a":10987,"##bf9a":10988,"##8432":10989,"##842d":10990,"##84ef":10991,"##9847":10992,"169035287":10993,"##c377":10994,"##c3aa":10995,"##7aff":10996,"##6224":10997,"##8b8a":10998,"##cd2c":10999,"##1b18":11000,"##1b1a":11001,"##ef49":11002,"##ef96":11003,"##7988":11004,"##79b0":11005,"##aae":11006,"##7c4a":11007,"##7c8b":11008,"##f280":11009,"##59aa":11010,"##cbda":11011,"##cff6d":11012,"##4b86":11013,"##7fe0":11014,"##7f5d":11015,"59e811":11016,"##c28b":11017,"##metacardtransformer":11018,"##5f17b":11019,"36c8":11020,"##4c24":11021,"##4c8a":11022,"##bbe9":11023,"##c780":11024,"##4e23":11025,"##fb76":11026,"##7e46":11027,"##3de":11028,"##c843":11029,"##1728":11030,"##e843":11031,"##f4b0":11032,"##f4ab":11033,"clientadapter_91":11034,"169035124":11035,"169035116":11036,"169035123":11037,"##b453":11038,"##8110":11039,"##880d":11040,"55374":11041,"59926":11042,"##14a0":11043,"41300":11044,"##4595a":11045,"starting":11046,"4c351d7":11047,"dispatchevent":11048,"59e811f9":11049,"36c8f31f":11050,"035":11051,"652":11052,"6000":11053,"69a":11054,"975":11055,"906":11056,"_z":11057,"_8f":11058,"caller":11059,"lis":11060,"##552":11061,"##424":11062,"##ec9d":11063,"##8816":11064,"##1803":11065,"##2040":11066,"##201c":11067,"##20a9":11068,"##468a":11069,"##46d3":11070,"##4637":11071,"##46c4a":11072,"##6952":11073,"##6978":11074,"##6959":11075,"##8343":11076,"##8368":11077,"##0237":11078,"##b0d9":11079,"##76ac":11080,"##5643":11081,"##56fd":11082,"##1072":11083,"##11ca":11084,"##7072":11085,"##b5ce":11086,"##8780":11087,"##5ac9":11088,"##f3bd":11089,"##f38f":11090,"##0311":11091,"##1556":11092,"##8220":11093,"##8904":11094,"##1999":11095,"00000153":11096,"##7b1":11097,"##e5d3":11098,"##90e":11099,"##e45a":11100,"##1d42a":11101,"##5576":11102,"##b383":11103,"##14e5":11104,"##14bc":11105,"##5e96":11106,"##b283":11107,"##8592":11108,"##bd1c":11109,"##9232":11110,"55484":11111,"##6f1":11112,"##a3e":11113,"##1525":11114,"0x10000046b0e06b3":11115,"16903660":11116,"##3712":11117,"##1442":11118,"4025":11119,"45238":11120,"lientadapter_121":11121,"up_19":11122,"up_38":11123,"##40350":11124,"57670":11125,"40354":11126,"0000015b":11127,"52306":11128,"46938":11129,"##_component":11130,"##10345":11131,"45540":11132,"3925":11133,"41740":11134,"c01d42a":11135,"_8g":11136,"16903698613":11137,"1690355705":11138,"169036797":11139,"16903692320":11140,"011":11141,"0aa":11142,"3cc":11143,"3ad":11144,"304":11145,"52d":11146,"57f":11147,"803":11148,"960":11149,"91b":11150,"_8i":11151,"a7d":11152,"b77":11153,"e7b":11154,"e8f":11155,"##500":11156,"##c10":11157,"##4ca":11158,"##4ef":11159,"##eaee":11160,"##ed8f":11161,"##ec48":11162,"##2487":11163,"##244d":11164,"##246a":11165,"##2484":11166,"##2467":11167,"##883a":11168,"##da44":11169,"##da2d":11170,"##da7b":11171,"##eb7a":11172,"##1850":11173,"##18be":11174,"##1277":11175,"##fa48":11176,"##fae3":11177,"##fa85":11178,"##505a":11179,"##504b":11180,"##2912":11181,"##2993":11182,"##203f":11183,"##20347":11184,"##464b":11185,"##7745":11186,"##7793":11187,"##77c3":11188,"##772e":11189,"##4815":11190,"##484d":11191,"##6940":11192,"##6990":11193,"##6955":11194,"##694b":11195,"##695f":11196,"##6906":11197,"##4029":11198,"##409a":11199,"##40fc":11200,"##52ec":11201,"##5223":11202,"##0280":11203,"##b0f3":11204,"##b089":11205,"##b05f":11206,"##4446":11207,"##44d7":11208,"##ce8a":11209,"13d":11210,"##43bc":11211,"##99cc":11212,"##9988":11213,"##fd6d":11214,"##fdf0":11215,"##10ad":11216,"##107d":11217,"##109a":11218,"##9783":11219,"##974a":11220,"##978b":11221,"##16bd":11222,"##ab2a":11223,"##abdd":11224,"##94e2":11225,"##945f":11226,"##94144":11227,"##1196":11228,"##4932":11229,"##490b":11230,"##49c3":11231,"##49cd":11232,"##5342":11233,"##7079":11234,"##b58b":11235,"25f":11236,"##87ac":11237,"##86fa":11238,"##8635":11239,"##8664":11240,"##5a49":11241,"##5a90":11242,"##5aee":11243,"##5aa4":11244,"##1e04":11245,"##f38d":11246,"##13dd":11247,"##2320":11248,"##23bb":11249,"##26b0":11250,"##262d":11251,"##263b":11252,"##ba89":11253,"##b9da":11254,"##b9ad":11255,"##b9bd":11256,"##b93c":11257,"##4fcc":11258,"##4a5f":11259,"##4a67":11260,"##4d1":11261,"##4d74":11262,"##4dbd":11263,"##e043":11264,"##e04b":11265,"##e0fb":11266,"##8224":11267,"##82ab":11268,"##82ba":11269,"##3f48":11270,"##8db3":11271,"##8d57":11272,"##8a99":11273,"##8a11":11274,"##8a90":11275,"##8a2a":11276,"##8a2f":11277,"##422a":11278,"##42e6":11279,"##425f":11280,"##89dd":11281,"##89b4":11282,"##f64a":11283,"##1998":11284,"##7b49":11285,"##e343":11286,"##e9ed":11287,"##c0ea":11288,"##4511":11289,"##4580":11290,"##4581":11291,"##e5ec":11292,"##e5da":11293,"##1f44":11294,"##7352":11295,"##dc46":11296,"##e418":11297,"##e41c":11298,"##e4c5":11299,"##8c88":11300,"##1d94":11301,"##1dbf":11302,"##1d0f":11303,"##c4ea":11304,"##b319":11305,"##0780":11306,"##1c1":11307,"##1cb0":11308,"##1c4a":11309,"##1416":11310,"##142d":11311,"##141a":11312,"##14e6":11313,"##581":11314,"##58b6":11315,"##1792":11316,"##1a8f":11317,"##1a6b":11318,"##22ba":11319,"##74ea":11320,"##9590":11321,"##957f":11322,"##c660":11323,"##2128":11324,"##8570":11325,"##1940":11326,"##19b9":11327,"##19c3":11328,"437":11329,"##bf45":11330,"##631":11331,"##84ed":11332,"##84bb":11333,"##bd47":11334,"##9840":11335,"##c3e":11336,"##7dd0":11337,"##62ab":11338,"##f044":11339,"##cde":11340,"##1b70":11341,"##7894":11342,"##7849":11343,"##793f":11344,"##5d97":11345,"##5de2":11346,"##7c48":11347,"##cb4d":11348,"##5bbf":11349,"##4b43":11350,"##7f43":11351,"##7f99":11352,"##7f4f":11353,"##9aca":11354,"##36ca":11355,"26c":11356,"##4c90":11357,"##ee1e":11358,"##4193":11359,"##9d4d":11360,"##c71":11361,"##4e4a":11362,"##7e6a":11363,"_3w":11364,"_3k":11365,"##39e":11366,"##e820":11367,"##e8ad":11368,"1690245406":11369,"1690245402":11370,"##f4b8":11371,"r_28":11372,"##a6c3":11373,"clientadapter_90":11374,"##b4ea":11375,"0x10000046b0e068e":11376,"##a4b5":11377,"##df46":11378,"##160d":11379,"##1690":11380,"1690245400":11381,"1690245415":11382,"up_34":11383,"up_37":11384,"_2x":11385,"0000015c":11386,"54918":11387,"##14a6":11388,"41320":11389,"38048":11390,"##1ccb":11391,"_8h":11392,"16903632553":11393,"##failuremode":11394,"1690247899":11395,"693":11396,"662":11397,"796":11398,"926":11399,"_9":11400,"_s":11401,"_19":11402,"##cl":11403,"##f02":11404,"##950":11405,"##_check":11406,"1038":11407,"##cc8f":11408,"##00238":11409,"##24eb":11410,"##2497":11411,"##247b":11412,"##2472":11413,"##882a":11414,"er_0":11415,"##2408":11416,"##e_cl":11417,"##fa8a":11418,"##ca7b":11419,"##20e":11420,"##2057":11421,"##6992":11422,"##6904":11423,"compa":11424,"##4033":11425,"##5210":11426,"##44c0":11427,"##44dc":11428,"##766d":11429,"##9947":11430,"##9992":11431,"##16203008":11432,"##1006":11433,"##534b":11434,"##2d00":11435,"##5a2d":11436,"##1e1a":11437,"##f3e9":11438,"##1386":11439,"##23ab":11440,"##2632":11441,"##bac8":11442,"##b91c":11443,"##8083":11444,"##1515":11445,"##1542":11446,"##4d4d":11447,"##e016":11448,"##8a594":11449,"##f6a3":11450,"0000015a":11451,"##30f9":11452,"##7bd0":11453,"##4559":11454,"##dcdd":11455,"##e426":11456,"##e415":11457,"##e4e9":11458,"##9b49":11459,"##8594":11460,"##5499":11461,"##68ab":11462,"##6368":11463,"##84cb":11464,"52836":11465,"##6663":11466,"##7d1":11467,"##7afd":11468,"##8b1b":11469,"##1b88":11470,"##5d64":11471,"##4b30":11472,"51484":11473,"2750":11474,"00000371":11475,"##50347":11476,"lientadapter_120":11477,"lientadapter_119":11478,"_6l":11479,"up_17":11480,"16903641891":11481,"##40347":11482,"36660":11483,"41656":11484,"34850":11485,"3725":11486,"45720":11487,"##_332":11488,"40926":11489,"_7h":11490,"1690356020":11491,"role_cl":11492,"16903575926":11493,"0x7":11494,"roleclaimshandler_332":11495,"compact":11496,"1690364189116203008":11497,"role_claims":11498,"0975":11499,"1e6":11500,"3eb":11501,"3f6":11502,"3576":11503,"321":11504,"4ad":11505,"47a":11506,"6ad":11507,"7e":11508,"74a":11509,"7fb":11510,"734":11511,"7c8d":11512,"829":11513,"887":11514,"983":11515,"952":11516,"_88":11517,"_3x":11518,"d36":11519,"d5f":11520,"edc":11521,"##8526":11522,"##814e":11523,"##426":11524,"##753":11525,"##1848":11526,"##fa43":11527,"##fa4d":11528,"##fadd":11529,"##cad6":11530,"##50238":11531,"##2923":11532,"##46d9":11533,"##missionadmin":11534,"##4824":11535,"##4890":11536,"##4865":11537,"##69aa":11538,"##8350":11539,"##8330":11540,"##40e3":11541,"##328b":11542,"##fd10":11543,"##fdd4":11544,"##5603":11545,"##1087":11546,"##10347":11547,"##166e":11548,"##ab4a":11549,"##abaf":11550,"##94ac":11551,"##11ba":11552,"##11cb":11553,"##4963":11554,"##49c8":11555,"##49be":11556,"##53d0":11557,"##70347":11558,"##b5ec":11559,"##b59b":11560,"##1e20":11561,"##f34a":11562,"##1376":11563,"##2390":11564,"##2653":11565,"##ba20":11566,"##b92e":11567,"##1587":11568,"##4d03":11569,"##4d45":11570,"##e0b8":11571,"##82c6":11572,"##8ada":11573,"##4232":11574,"##4210":11575,"##425d":11576,"##8980":11577,"00000112":11578,"##e303":11579,"##e9c3":11580,"##4543":11581,"##454a":11582,"##1f86":11583,"##733e":11584,"028":11585,"##e4e2":11586,"##9360":11587,"##1dec":11588,"##1d8a":11589,"permissionadmin":11590,"##8ee5":11591,"##1426":11592,"##14e2":11593,"##14c7":11594,"##5e80":11595,"##5810":11596,"##1753":11597,"##178a":11598,"0x10000046b0e0698":11599,"0x10000046b0e069c":11600,"##1a56":11601,"##74e6":11602,"##b2cc":11603,"##b229":11604,"##85c6":11605,"60444":11606,"##5476":11607,"##5795":11608,"##6336":11609,"##84e24":11610,"##c3b5":11611,"##7a8c":11612,"##3552":11613,"##cd44":11614,"##cd47":11615,"##64ab":11616,"33492":11617,"##5db9":11618,"##cf1":11619,"39830":11620,"57862":11621,"##4c50":11622,"##4188":11623,"##4e24":11624,"##fb4a":11625,"0x10000046b0e0374":11626,"291":11627,"271":11628,"##f5ed":11629,"clientadapter_75":11630,"##d229":11631,"0x10000046b0e068c":11632,"##617b":11633,"##d726":11634,"bundle_broker":11635,"55636":11636,"39618":11637,"3875":11638,"38342":11639,"47086":11640,"lerpollthread_24":11641,"57456":11642,"51918":11643,"37824":11644,"gdes573ae6821027430db157f672a54568e4_":11645,"640ms":11646,"##failuremode_":11647,"123060":11648,"7c8d814e":11649,"##failuremode_object":11650,"050":11651,"290":11652,"3a6":11653,"6e":11654,"65d":11655,"775":11656,"766":11657,"706":11658,"7d3":11659,"7a7":11660,"875":11661,"817":11662,"868":11663,"911":11664,"a56":11665,"c5d":11666,"c36":11667,"##540":11668,"##c89":11669,"##717":11670,"##from":11671,"##349":11672,"##ea5d":11673,"1097":11674,"1082":11675,"1092":11676,"##ec6d":11677,"##eca8":11678,"##2412":11679,"##241e":11680,"##1868":11681,"##fa63":11682,"##2020":11683,"##4863":11684,"##48df":11685,"##6969":11686,"##6919":11687,"##4028":11688,"##3220":11689,"##b084":11690,"##cee":11691,"##764b":11692,"##9990":11693,"##1050":11694,"##1110":11695,"##4911":11696,"##4930":11697,"##5320":11698,"##5376":11699,"##5343":11700,"##5389":11701,"##8745":11702,"##2ddb":11703,"##1e48":11704,"##1380":11705,"##1396":11706,"##2346":11707,"##2310":11708,"##2304":11709,"##8259":11710,"##4784":11711,"##4286":11712,"##4585":11713,"##7384":11714,"##1d4d":11715,"##b396":11716,"##8e6a":11717,"##0923":11718,"##1c03":11719,"##5856":11720,"##1769":11721,"##1710":11722,"0x10000046b0e08d8":11723,"##221":11724,"##9540":11725,"##b27c":11726,"##8556":11727,"##19c0":11728,"43664":11729,"##c943":11730,"##8456":11731,"52194":11732,"##bdf6":11733,"##5d44":11734,"46160":11735,"##3870":11736,"##f2ab":11737,"##cf97":11738,"59102":11739,"##ee2a":11740,"45874":11741,"##4112":11742,"0x10000046b0e03b3":11743,"_3n":11744,"0000039d":11745,"60252":11746,"up_18":11747,"##1243":11748,"55554":11749,"40000":11750,"56932":11751,"##99040":11752,"59422":11753,"47660":11754,"45648":11755,"44794":11756,"16903572780":11757,"06f":11758,"1bf":11759,"1d3":11760,"3825":11761,"4ca":11762,"4de":11763,"5a0":11764,"6d6":11765,"7a3":11766,"751":11767,"877":11768,"83a":11769,"833":11770,"9ce":11771,"]-":11772,"_check":11773,"_reason":11774,"_89":11775,"_info":11776,"a30":11777,"a8d3":11778,"b8b":11779,"b5f":11780,"b9f":11781,"c93":11782,"c6c":11783,"d11":11784,"d90":11785,"df7":11786,"eba":11787,"e4f":11788,"e73":11789,"e9d":11790,"ed2":11791,"##58a":11792,"##545":11793,"##80346":11794,"##c32":11795,"##c59":11796,"##4_connection":11797,"##fused":11798,"##erations":11799,"##ea86":11800,"##eab9":11801,"##ea58":11802,"##eaff":11803,"##ea04":11804,"##eacb":11805,"##ea65":11806,"##eaa7":11807,"1040":11808,"##ed29":11809,"##ed4a":11810,"##ed9b":11811,"##ccec":11812,"##ccca":11813,"##cc50":11814,"##ccab":11815,"##cc4f":11816,"##cc8d":11817,"##ccfb":11818,"##cca3":11819,"##cc0d":11820,"##eced":11821,"##ec46":11822,"##ec43":11823,"##ecf3":11824,"##ec63":11825,"##ecd8":11826,"##ecf4":11827,"##0010":11828,"##004f":11829,"##00ad":11830,"##0045":11831,"##00239":11832,"proble":11833,"properties":11834,"##2476":11835,"##247d":11836,"##24aa":11837,"##245d":11838,"##249a":11839,"##24fc":11840,"##24a1":11841,"##88ab":11842,"##885a":11843,"##88b6":11844,"##88b8":11845,"##880b":11846,"##da4f":11847,"##da6d":11848,"##da0b":11849,"##240b":11850,"refused":11851,"##eb88":11852,"##ebba":11853,"##eb4f":11854,"##eb8d":11855,"##ebc7":11856,"##eb5c":11857,"##eb39":11858,"##eba8":11859,"##eba5":11860,"##18ca":11861,"##184f":11862,"##1893":11863,"##1860":11864,"##182c":11865,"##125a":11866,"##1293":11867,"##12cf":11868,"##fa44":11869,"##fa8d":11870,"##fa47":11871,"##fab3":11872,"##fa66":11873,"##fa1b":11874,"##fa4b":11875,"##fa4e":11876,"##fa6b":11877,"##fa6f":11878,"##fa37":11879,"##caed":11880,"##ca4f":11881,"##cab6":11882,"##cab8":11883,"##ca6a":11884,"##eed2":11885,"##50ba":11886,"##50e9":11887,"##2969":11888,"##2979":11889,"##29f5":11890,")\",":11891,"##4690":11892,"##464e":11893,"##46a3":11894,"##460a":11895,"##77da":11896,"##77e5":11897,"##77178":11898,"##4873":11899,"##4858":11900,"##48e6":11901,"##48d3":11902,"##695a":11903,"##694d":11904,"##69c0":11905,"##691a":11906,"##694c":11907,"##83f7":11908,"##8327":11909,"##4044":11910,"##404a":11911,"##407b":11912,"##402a":11913,"##40a7":11914,"##0210":11915,"##02b6":11916,"##3260":11917,"##323d":11918,"##b012":11919,"##b048":11920,"##b080":11921,"##b0c6":11922,"##b0ef":11923,"##b0aa":11924,"##b0bb":11925,"##4449":11926,"##442a":11927,"##4478":11928,"##44d2":11929,"##ce24":11930,"##ce76":11931,"##76ea":11932,"##764a":11933,"##76a9":11934,"##43b6":11935,"##43c3":11936,"##437c":11937,"##43d2":11938,"##992d":11939,"##9986":11940,"##991a":11941,"##99cb":11942,"##fdfd":11943,"##fd80":11944,"##fd82":11945,"##fd8a":11946,"##fd93":11947,"##fdbf":11948,"##fd98":11949,"##fd8b":11950,"##5677":11951,"##56ab":11952,"##5611":11953,"##56f3":11954,"##56b6":11955,"##103f":11956,"##10f6":11957,"##106d":11958,"##105e":11959,"##104c":11960,"##9712":11961,"##9787":11962,"##9730":11963,"##97fe":11964,"##979a":11965,"##ab8f":11966,"##abbb":11967,"##9450":11968,"##94b6":11969,"##94f6":11970,"##94c0":11971,"##94d5":11972,"##1145":11973,"##111f":11974,"##4918":11975,"##4926":11976,"##49b6":11977,"##49e5":11978,"##492f":11979,"##535c":11980,"##53af":11981,"##539e":11982,"##7088":11983,"##b5ed":11984,"##b524":11985,"##b58d":11986,"##b598":11987,"##872d":11988,"##874f":11989,"##87cd":11990,"##87e2":11991,"##874e":11992,"##86b3":11993,"##864b":11994,"##5a96":11995,"##5a33":11996,"##5a6f":11997,"##1e46":11998,"##1e90":11999,"##1efc":12000,"##f37f":12001,"##f33d":12002,"##13da":12003,"##13ab":12004,"##1398":12005,"##237b":12006,"##23c3":12007,"##23dd":12008,"##2600":12009,"##2610":12010,"##2687":12011,"##268d":12012,"##ba2d":12013,"##ba07":12014,"##bacf":12015,"##baf5":12016,"##b969":12017,"##b9ba":12018,"##808a":12019,"##80cf":12020,"##809c":12021,"##15f3":12022,"##1596":12023,"##158c":12024,"##4f4a":12025,"##4f96":12026,"##4f7b":12027,"##4d87":12028,"##4dc6":12029,"##964d":12030,"##9639":12031,"##96efb":12032,"##adfb":12033,"##e083":12034,"##e0ef":12035,"##e05d":12036,"##e09c":12037,"##82f3":12038,"##82e3":12039,"##82a7":12040,"##3ff6":12041,"##8d44":12042,"##8d0a":12043,"##8ac3":12044,"deplo":12045,"##42e9":12046,"##421c":12047,"##42e2":12048,"##42a6":12049,"##89ca":12050,"##89f6":12051,"##89e3":12052,"##89bf":12053,"##b6ad":12054,"##b6c3":12055,"##b6aa":12056,"##b6a4":12057,"##f640":12058,"##f6b5":12059,"##f659":12060,"##199d":12061,"0000010f":12062,"000003b1":12063,"##3050":12064,"##30ef":12065,"##7b50":12066,"##7b48":12067,"##7b8f":12068,"##7b4b":12069,"##e3ed":12070,"##e3ca":12071,"##e3ad":12072,"##e39b":12073,"##e374":12074,"##e39a":12075,"##e9fd":12076,"##e92a":12077,"##e935":12078,"##e9dd":12079,"##e9af":12080,"##e9b4":12081,"##72b3":12082,"##727e":12083,"##c080":12084,"##c06d":12085,"##4518":12086,"##4542":12087,"##457d":12088,"##457a":12089,"nio2":12090,"##b844":12091,"##b847":12092,"##b855":12093,"##b8c6":12094,"##b8f0":12095,"##e599":12096,"##e556":12097,"##e595":12098,"##e554":12099,"##1f93":12100,"##1fbd":12101,"##1fef":12102,"##1f8f":12103,"##7312":12104,"##e41d":12105,"##e417":12106,"##e4c9":12107,"##8c82":12108,"##8cb4":12109,"##1d29":12110,"##1d49":12111,"##1de0":12112,"##1d1a":12113,"##1d6a":12114,"##55e":12115,"##5594":12116,"##5515":12117,"##55dc":12118,"##c4b9":12119,"##c4c9":12120,"##c4cb":12121,"##c4cf":12122,"##c4b1":12123,"##6dcc":12124,"##6d90":12125,"##fe7b":12126,"##fe1c":12127,"##b343":12128,"##b33f":12129,"##b33d":12130,"##b3bc":12131,"##b3d6":12132,"##8e00":12133,"##8e4f":12134,"##1ceb":12135,"##1c8e":12136,"##1c9a":12137,"##1c9d":12138,"##1c3d":12139,"##1c70f":12140,"##14ea":12141,"##14f3":12142,"##1415":12143,"##5e77":12144,"##5e48":12145,"##5e43":12146,"##9bed":12147,"##9bc2":12148,"##9bd9":12149,"##58ba":12150,"##5857":12151,"##58f9":12152,"##174d":12153,"##1796":12154,"##17e6":12155,"##17568":12156,"##0b444":12157,"0x10000046b0e08b4":12158,"0x10000046b0e08c5":12159,"0x10000046b0e06b7":12160,"##6046":12161,"##1a1":12162,"##1ae9":12163,"##1ac0":12164,"##1a2a":12165,"##1aaa":12166,"##1a5b":12167,"##1ae8":12168,"##74b0":12169,"##745a":12170,"##9544":12171,"##9582":12172,"##c6ce":12173,"##c643":12174,"##b2ec":12175,"##b277":12176,"##b279":12177,"##ff80":12178,"##ff04":12179,"##ff5d":12180,"##ff9d":12181,"##ffbe":12182,"##85ec":12183,"##85ab":12184,"##858a":12185,"##857a":12186,"##1912":12187,"##19b6":12188,"##19ee":12189,"##19a6":12190,"##19d2":12191,"##19f1":12192,"##2a4d":12193,"##2acd":12194,"##54ec":12195,"##5426":12196,"##54e6":12197,"##c976":12198,"##c930":12199,"##c9c3":12200,"##c9af":12201,"##c9d6":12202,"##6840":12203,"##5710":12204,"##578f":12205,"##bf83":12206,"##bdfa":12207,"##bd46":12208,"##bdb5":12209,"16903667":12210,"##7dbb":12211,"##7a82":12212,"##7aa0":12213,"##7a2f":12214,"##7aa8":12215,"##8b99":12216,"##cd96":12217,"##cd6a":12218,"##cd9a":12219,"##1b20":12220,"##1b40":12221,"##1bba":12222,"##1bc9":12223,"##ef48":12224,"##ef56":12225,"##efbb":12226,"##7829":12227,"##78ab":12228,"##781f":12229,"_0ms":12230,"##7c47":12231,"##7cb8":12232,"##f270":12233,"##3af6":12234,"##5940":12235,"##cbeb":12236,"##cb69":12237,"##cb44":12238,"##cb70":12239,"##cbba":12240,"##5bce":12241,"##cf77":12242,"##cf76":12243,"##cf1a":12244,"##4b20":12245,"6353":12246,"54858":12247,"##9ac3":12248,"##3616":12249,"##e2b5":12250,"##9c29":12251,"caching":12252,"55704":12253,"##c27d":12254,"57134":12255,"##5f40":12256,"##5f45":12257,"58260":12258,"##bbff":12259,"##41eb":12260,"##414d":12261,"##41bf":12262,"##a902":12263,"##c74d":12264,"##334d":12265,"##faa2":12266,"##4e99":12267,"##4e87":12268,"##4e6a":12269,"##fbca":12270,"##c896":12271,"0x10000046b0e037a":12272,"0x10000046b0e0378":12273,"##af40":12274,"##e8b6":12275,"00000284":12276,"0000027f":12277,"000003b5":12278,"000003b6":12279,"1690245472":12280,"1690245409":12281,"1690245525":12282,"##e146":12283,"##e74d":12284,"##f4cc":12285,"##f4ca":12286,"##f423":12287,"##067":12288,"##fc88":12289,"##f592":12290,"##d5942":12291,"##1404":12292,"##140f":12293,"169035118":12294,"28_minutes":12295,"##d64d":12296,"##430d":12297,"##b446":12298,"##b494":12299,"0x10000046b0e06ab":12300,"##df77":12301,"##d424":12302,"##6e80":12303,"##a824":12304,"##a845":12305,"##2e46":12306,"87fe":12307,"0x10000046b0e08bd":12308,"53950":12309,"##0fc347":12310,"##194f":12311,"58732":12312,"##744b":12313,"59824":12314,"##544b":12315,"52090":12316,"41674":12317,"16902455152":12318,"58414":12319,"34898":12320,"##89fcff6d":12321,"47228":12322,"##b4f5":12323,"0x10000046b0e06af":12324,"##e233":12325,"##9451c70f":12326,"##11c89fcff6d":12327,"##53596efb":12328,"169036577":12329,"##tatembean":12330,"##42115f17b":12331,"##489a0fc347":12332,"##federations":12333,"layer4_connection":12334,"##badc9489a0fc347":12335,"a8d377178":12336,"problem":12337,"cachingfederations":12338,"##9451c70f53596efb":12339,"##11c89fcff6d42115f17b":12340,"##badc9489a0fc34711c89fcff6d42115f17b":12341,"a8d3771789451c70f53596efb":12342,"cachingfederationstrategy":12343,"##badc9489a0fc34711c89fcff6d42115f17b473b":12344,"a8d3771789451c70f53596efbbadc9489a0fc34711c89fcff6d42115f17b473b":12345,"2ca":12346,"282":12347,"292":12348,"298":12349,"4d6":12350,"5e":12351,"67a":12352,"786":12353,"728":12354,"824":12355,"8b3":12356,"809":12357,"836":12358,"9ab":12359,"921":12360,"_38":12361,"a88":12362,"cf3":12363,"etc":12364,"##cb6":12365,"##984":12366,"##_182":12367,"##ipp":12368,"##ea83":12369,"##2494":12370,"##8899":12371,"##eb1":12372,"##eb07":12373,"##verter":12374,"##1846":12375,"##1870":12376,"##1896":12377,"##1290":12378,"##fa52":12379,"##2044":12380,"##2010":12381,"##7750":12382,"##4030":12383,"##ce50":12384,"##7604":12385,"##9924":12386,"##9993":12387,"##fd63":12388,"##561":12389,"##56dd":12390,"##1094":12391,"##1645":12392,"##9410":12393,"##b5af":12394,"##8672":12395,"##2376":12396,"##7512":12397,"##7592":12398,"##b940":12399,"##b91e":12400,"##b9cd":12401,"##15f5":12402,"##8a32":12403,"##8982":12404,"##7bb3":12405,"##4555":12406,"##1fbf":12407,"##93fd":12408,"##1d76":12409,"##1d87":12410,"##5540":12411,"##fe4a":12412,"##feef":12413,"##5e4f":12414,"##581f":12415,"0x10000046b0e069f":12416,"0x10000046b0e08d0":12417,"0x10000046b0e08cb":12418,"##8546":12419,"60158":12420,"##191":12421,"43240":12422,"##ead6":12423,"##4290":12424,"##4294":12425,"##6896":12426,"##5712":12427,"##84e5":12428,"##9856":12429,"##7a57":12430,"user_at":12431,"33160":12432,"33904":12433,"##aa4a":12434,"806":12435,"46558":12436,"##5984":12437,"42528":12438,"39506":12439,"306":12440,"##40672":12441,"##9a70":12442,"571ms":12443,"48788":12444,"58120":12445,"##bb89d":12446,"##4152":12447,"##41ab":12448,"##33e":12449,"35462":12450,"0x10000046b0e0376":12451,"0x10000046b0e0370":12452,"0x10000046b0e0375":12453,"0x10000046b0e03b6":12454,"0x10000046b0e038f":12455,"_39":12456,"##e84a":12457,"0000027b":12458,"000003b0":12459,"000003b8":12460,"r_99":12461,"clientadapter_73":12462,"16903553":12463,"##4308":12464,"##1028":12465,"##3c42":12466,"##14400":12467,"46340":12468,"##14653":12469,"50374":12470,"0x10000046b0e08ca":12471,"48638":12472,"55932":12473,"42446":12474,"44050":12475,"49080":12476,"44782":12477,"50682":12478,"52596":12479,"##fa626":12480,"38448":12481,"37414":12482,"ldapclaimshandler_182":12483,"##ipping":12484,"user_attributes":12485,"0da":12486,"297":12487,"28a":12488,"3e0":12489,"687":12490,"702":12491,"74d":12492,"733":12493,"7a2":12494,"708":12495,"86d":12496,"807":12497,"862":12498,"8db":12499,"98b":12500,"_36":12501,"a4a":12502,"b4d":12503,"c6d":12504,"d43":12505,"d33":12506,"d6e":12507,"d9e":12508,"ebd":12509,"e59":12510,"f80":12511,"f9b":12512,"f2b":12513,"pol":12514,"##5da":12515,"##515":12516,"##dcc":12517,"##dda":12518,"##7da":12519,"##f99":12520,"##b02":12521,"##370":12522,"##eaad":12523,"##ea3d":12524,"10f":12525,"1093":12526,"##edce":12527,"##ed13":12528,"##ed85":12529,"##cc4a":12530,"##ccef":12531,"##cc5d":12532,"##ec40":12533,"##005c":12534,"##0037":12535,"##24ca":12536,"##2452":12537,"##2445":12538,"##8820":12539,"##889a":12540,"##88fc":12541,"##da5a":12542,"##da73":12543,"##240f":12544,"##etransformer":12545,"##ebb3":12546,"##ebe6":12547,"##184d":12548,"##18e5":12549,"##189d":12550,"##18a5":12551,"##128a":12552,"##fa1":12553,"##fa13":12554,"##fa09":12555,"##caeb":12556,"##50fa":12557,"##5090":12558,"##2935":12559,"##2094":12560,"##208a":12561,"##20b8":12562,"##46da":12563,"##469b":12564,"##463a":12565,"##4812":12566,"##487b":12567,"##48e3":12568,"##48e5":12569,"##48c6":12570,"##48a4":12571,"##6926":12572,"##694f":12573,"##690b":12574,"##69a7":12575,"##83ce":12576,"##8386":12577,"000e":12578,"##4017":12579,"##5260":12580,"##52d9":12581,"##02d3":12582,"##32e6":12583,"##32a6":12584,"##b024":12585,"##b040":12586,"##b04d":12587,"##b017":12588,"##b09c":12589,"##44ec":12590,"##4429":12591,"##44ad":12592,"##4495":12593,"##44bf":12594,"##44b7":12595,"##0005":12596,"##76f6":12597,"##766e":12598,"##4387":12599,"##433f":12600,"##9994":12601,"##fddb":12602,"##fde7":12603,"##fdd9":12604,"##fd27":12605,"##56c6":12606,"##1047":12607,"##1063":12608,"##9796":12609,"##9782":12610,"##97f7":12611,"##97a7":12612,"##165a":12613,"##166d":12614,"##16c9":12615,"##167c":12616,"##16fb":12617,"##9400":12618,"##1100":12619,"##1199":12620,"##1113":12621,"##11c9":12622,"##119a":12623,"##11fb":12624,"##4956":12625,"##5350":12626,"##5377":12627,"##536d":12628,"##538b":12629,"##53aa":12630,"##5334":12631,"##7013":12632,"##70e9":12633,"##7092":12634,"##70e6":12635,"##b5b6":12636,"##b5c5":12637,"258":12638,"##87cc":12639,"##8744":12640,"##8715":12641,"##2dca":12642,"##5afa":12643,"##5a20":12644,"##5ae9":12645,"##5a59":12646,"##1e4a":12647,"##f320":12648,"##f302":12649,"##f353":12650,"##f31d":12651,"##03af":12652,"##13fa":12653,"##1377":12654,"##2352":12655,"##7553":12656,"##757b":12657,"##7579":12658,"##754b":12659,"##757e":12660,"##bace":12661,"##ba10":12662,"##ba74":12663,"##ba4e":12664,"pack":12665,"##b903":12666,"##80b0":12667,"##1590":12668,"##1593":12669,"##4f6f":12670,"##4add":12671,"##4ad5":12672,"##4aac":12673,"##4d6a":12674,"##4dbf":12675,"##e090":12676,"##e08b":12677,"##82a0":12678,"##8d50":12679,"##8acd":12680,"##8a4c":12681,"##47ec":12682,"##42f7":12683,"##89ea":12684,"##89d0":12685,"##89a3":12686,"##b622":12687,"##7831":12688,"0000014f":12689,"##7b2d":12690,"##e350":12691,"##e34a":12692,"##e319":12693,"##e9c7":12694,"##72aa":12695,"##458a":12696,"##45d3":12697,"##45d6":12698,"##b812":12699,"##b81a":12700,"##e5eb":12701,"##e586":12702,"##e5bc":12703,"##7346":12704,"##7383":12705,"##dc42":12706,"##e42d":12707,"##e4e5":12708,"##e4c2":12709,"##e4c7":12710,"##93af":12711,"##8c02":12712,"##8c26":12713,"##8c35":12714,"##1d24":12715,"##1d5c":12716,"##55ef":12717,"##55df":12718,"##c4b3":12719,"##c4c5":12720,"##6d5d":12721,"##fe94":12722,"##b3da":12723,"##b35b":12724,"##0740":12725,"##1c87":12726,"##1c8f":12727,"##5e1":12728,"##9b87":12729,"##5859":12730,"##17ca":12731,"53026":12732,"17_minutes":12733,"0x10000046b0e0693":12734,"0x10000046b0e08c9":12735,"0x10000046b0e08d7":12736,"0x10000046b0e08fc":12737,"0x10000046b0e069e":12738,"##1aad":12739,"##1a8a":12740,"##1aa8":12741,"##225b":12742,"##74eb":12743,"##74e3":12744,"##ff1":12745,"##8520":12746,"##8510":12747,"##1944":12748,"##1976":12749,"##198c":12750,"43994":12751,"##541":12752,"##c9ce":12753,"##c9b9":12754,"##c98f":12755,"##5726":12756,"##57b9":12757,"##20bf":12758,"##bfce":12759,"##63b9":12760,"##638f":12761,"##8452":12762,"##8499":12763,"##84ab":12764,"##84c9":12765,"##bde5":12766,"##bd36":12767,"##9216":12768,"##9823":12769,"##c33e":12770,"##7d7d":12771,"##7d3a":12772,"##7aaa":12773,"##62ba":12774,"##8b43":12775,"##f04a":12776,"##f0ae":12777,"##1bbc":12778,"##efda":12779,"##ef02":12780,"##7856":12781,"##79ab":12782,"##7980":12783,"##7c44":12784,"##f288":12785,"40d":12786,"##dd7":12787,"##dd8d":12788,"##dd9a":12789,"##cb88":12790,"##cb46":12791,"56242":12792,"##5bfa":12793,"##5b40":12794,"##5bbb":12795,"##4b29":12796,"##4bc6":12797,"##7f44":12798,"49696":12799,"58692":12800,"##4c4a":12801,"##ee82":12802,"45728":12803,"##2843":12804,"##4e7a":12805,"##7e4f":12806,"0x10000046b0e0399":12807,"0x10000046b0e0380":12808,"0x10000046b0e0379":12809,"0x10000046b0e03ac":12810,"0x10000046b0e0391":12811,"0x10000046b0e03a1":12812,"##3446":12813,"##3477":12814,"##39b8":12815,"##e84d":12816,"00000288":12817,"##e1ca":12818,"##f4e5":12819,"r_52":12820,"##a6e":12821,"is_not":12822,"##4fb7":12823,"##b4fd":12824,"##b45a":12825,"...}]":12826,"0x10000046b0e068d":12827,"##1483":12828,"##b15a":12829,"##1444":12830,"##144f":12831,"57354":12832,"0x10000046b0e08f2":12833,"60054":12834,"##10432":12835,"##48256":12836,"39992":12837,"##145d":12838,"58900":12839,"36962":12840,"##14d7":12841,"42980":12842,"51610":12843,"41062":12844,"##55072":12845,"43096":12846,"##b4dd":12847,"##e24d":12848,"0x10000046b0e06a6":12849,"0x10000046b0e06a8":12850,"40670":12851,"##22a8f":12852,"16903572786":12853,"32848":12854,"0x10000046b0e090e":12855,"bundle_mime":12856,"featuretransformer":12857,"map":12858,"642ms":12859,"policy":12860,"075":12861,"0021":12862,"2fc":12863,"2ae":12864,"3325":12865,"4825":12866,"42406":12867,"5d2":12868,"67e":12869,"67a8":12870,"7ed":12871,"795":12872,"759":12873,"79a":12874,"767":12875,"873":12876,"860":12877,"839":12878,"912":12879,"bee":12880,"c75":12881,"eec":12882,"fin":12883,"##670":12884,"##01":12885,"##940":12886,"##ium":12887,"##esourcer":12888,"##ea06":12889,"##ish":12890,"1099":12891,"1096":12892,"initializ":12893,"##2435":12894,"##8873":12895,"er_1":12896,"##ebb5":12897,"##2952":12898,"##293f":12899,"##4635":12900,"##4639":12901,"##773d":12902,"##4811":12903,"##4893":12904,"##4809":12905,"##6989":12906,"##52ad":12907,"##b07f":12908,"##76b9":12909,"##4312":12910,"##5650":12911,"##56a7":12912,"##562816":12913,"##9703":12914,"##9792":12915,"##94a0":12916,"##1140":12917,"##1170":12918,"##5306":12919,"##b5ba":12920,"##87c0":12921,"##8667":12922,"##f317":12923,"##0384":12924,"##1370":12925,"##7524":12926,"##80de":12927,"##151":12928,"##4adb":12929,"##e088":12930,"##4780":12931,"##4274":12932,"##c08a":12933,"##4500":12934,"##4582":12935,"##b850":12936,"##735d":12937,"##dc77":12938,"##1dca":12939,"##c4cc":12940,"##6d7":12941,"persistence":12942,"##1c49":12943,"##1423":12944,"##9b4d":12945,"##1786":12946,"##1730":12947,"##1784":12948,"53638":12949,"0x10000046b0e08b7":12950,"##8500":12951,"##1917":12952,"##44a4":12953,"##ead7":12954,"##6848":12955,"16903604":12956,"##7d47":12957,"##1b1":12958,"##7813":12959,"##e61":12960,"##5985":12961,"42788":12962,"56194":12963,"##cf23":12964,"49172":12965,"authentication":12966,"35880":12967,"0x10000046b0e03b8":12968,"0x10000046b0e0366":12969,"0x10000046b0e037f":12970,"0x10000046b0e03a4":12971,"0x10000046b0e03a5":12972,"51168":12973,"##f748":12974,"44994":12975,"##d0e":12976,"00000286":12977,"00000282":12978,"##f4e0":12979,"r_67":12980,"169035444":12981,"0x10000046b0e068a":12982,"0x10000046b0e06b8":12983,"0x10000046b0e06c1":12984,"16903682":12985,"70d":12986,"57372":12987,"##9175":12988,"##24224":12989,"54094":12990,"4125":12991,"_2o":12992,"47394":12993,"47358":12994,"58684":12995,"58360":12996,"48802":12997,"44092":12998,"48360":12999,"47070":13000,"36398":13001,"51042":13002,"44786":13003,"33210":13004,"56742":13005,"48910":13006,"46046":13007,"0x10000046b0e06a2":13008,"50742":13009,"46800":13010,"a3d86f0_commitcommandversion":13011,"er_6":13012,"1690362311":13013,"shutdown_com":13014,"1690369547":13015,"listener":13016,"finish":13017,"##esourcereader":13018,"05d":13019,"307":13020,"3cf":13021,"54f":13022,"72d":13023,"72a":13024,"71b":13025,"9cc":13026,"970":13027,"913":13028,"973":13029,"919":13030,"_3d":13031,"_cer":13032,"_7i":13033,"_7k":13034,"ag":13035,"a8f":13036,"by":13037,"b20":13038,"b2a":13039,"b25":13040,"be_check":13041,"cr":13042,"c8a":13043,"d1e":13044,"dc6":13045,"e83":13046,"lchecker":13047,"r_30":13048,"sources":13049,"ws":13050,"##850":13051,"##930":13052,"##_172":13053,"##h_172":13054,"##ml":13055,"##ration":13056,"##ers":13057,"##esh_172":13058,"##ea60":13059,"##eaf7":13060,"##ea2f":13061,"1049":13062,"##ccf3":13063,"##ec88":13064,"##24a4":13065,"ac5":13066,"##ebf3":13067,"##ebff":13068,"##refr":13069,"##facc":13070,"##fa6a":13071,"abd":13072,"##50a2":13073,"##property":13074,"##2900":13075,"##2949":13076,"##20773":13077,"##463d":13078,"##7760":13079,"##7785":13080,"##4818":13081,"##4850":13082,"##4869":13083,"##6986":13084,"##408b":13085,"##40239":13086,"##3270":13087,"##4400":13088,"##ce84":13089,"##ceee":13090,"##7689":13091,"##7645":13092,"##1816":13093,"##9917":13094,"##9793":13095,"##168a":13096,"##1673":13097,"##1633":13098,"##ab24":13099,"##abb2":13100,"##ab9a":13101,"##9411":13102,"##9422":13103,"##94a6":13104,"##1002":13105,"##4900":13106,"##7063":13107,"##87eb":13108,"##8769":13109,"##8713":13110,"##879f":13111,"##8633":13112,"##5a8a":13113,"##5a09":13114,"##1348":13115,"##1375":13116,"##1355":13117,"##13a3":13118,"##2368":13119,"##b926":13120,"##b9f6":13121,"##1549":13122,"##1595":13123,"##4f7c":13124,"##9600":13125,"##8216":13126,"##3f83":13127,"##8de0":13128,"##8a02":13129,"##8a75":13130,"##8a04":13131,"##89da":13132,"##89eb":13133,"##b61c":13134,"00000396":13135,"0000017d":13136,"000003b7":13137,"##e363":13138,"##c075":13139,"##45d5":13140,"##b843":13141,"##e55c":13142,"##1f83":13143,"##8c6b":13144,"##c4f3":13145,"##c4b7":13146,"##6d1":13147,"##thread_0":13148,"##b3ab":13149,"##8e8c":13150,"##1c2d":13151,"##1c6b":13152,"##14ed":13153,"##9b8a":13154,"##9b4b":13155,"##xbundle":13156,"##5894":13157,"##58f6":13158,"##1742":13159,"0x10000046b0e0695":13160,"0x10000046b0e08c8":13161,"0x10000046b0e08dc":13162,"0x10000046b0e08ee":13163,"##6050":13164,"##6010":13165,"##7470":13166,"##95b2":13167,"##b28d":13168,"##ff41":13169,"##1950":13170,"##1913":13171,"##1930":13172,"##2ae":13173,"##5432":13174,"##542d":13175,"##c920":13176,"##c312":13177,"##7a39":13178,"##l_property":13179,"##f0a7":13180,"##64e":13181,"##efc6":13182,"##79af":13183,"##5d13":13184,"46724":13185,"##3840":13186,"##3816":13187,"4275":13188,"48998":13189,"##ainst":13190,"50116":13191,"andler":13192,"##4b7b":13193,"##5665":13194,"55506":13195,"1690248526":13196,"59100":13197,"59308":13198,"57106":13199,"57186":13200,"36238":13201,"36550":13202,"58202":13203,"##4c2a":13204,"##bbef":13205,"47172":13206,"47430":13207,"##5c29":13208,"0x10000046b0e0388":13209,"0x10000046b0e0383":13210,"0x10000046b0e0372":13211,"0x10000046b0e039b":13212,"00000283":13213,"00000287":13214,"00000285":13215,"34688":13216,"00000388":13217,"000003b3":13218,"0000036a":13219,"1690245421":13220,"1690245480":13221,"1690245460":13222,"1690245495":13223,"1690245478":13224,"1690245422":13225,"1690245459":13226,"##f412":13227,"r_48":13228,"r_54":13229,"r_68":13230,"r_38":13231,"r_65":13232,"##bc97":13233,"##1409":13234,"##7176":13235,"##8144":13236,"##a28d":13237,"0x10000046b0e06b0":13238,"##10238":13239,"##5146":13240,"##5190":13241,"##6150":13242,"##2c4d":13243,"53348":13244,"bundle_ge":13245,"48660":13246,"1690245446":13247,"1690245470":13248,"16902454503":13249,"16902454323":13250,"16902454193":13251,"53798":13252,"59704":13253,"fri_jan":13254,"46918":13255,"47784":13256,"59870":13257,"3775":13258,"56668":13259,"##88288":13260,"35670":13261,"52810":13262,"45346":13263,"47078":13264,"42614":13265,"44312":13266,"##20348":13267,"42096":13268,"gdesb6de0287f9684fb7bb0103853d6d9446_":13269,"52252":13270,"##24512":13271,"51940":13272,"40656":13273,"56446":13274,"equinoxbundle":13275,"000003a1":13276,"46818":13277,"_8j":13278,"crlrefr":13279,"233c52e8_commitcommandversion":13280,"##94d15a":13281,"_certs":13282,"against":13283,"be_checked":13284,"crl_property":13285,"lcheckerthread_0":13286,"bundle_geojson":13287,"crlrefresh_172":13288,"against_a":13289,"289":13290,"323":13291,"3e2":13292,"4e0":13293,"5000":13294,"664":13295,"6d5":13296,"756":13297,"7ad":13298,"722":13299,"_77":13300,"_6a":13301,"a8b":13302,"d49":13303,"e0d":13304,"##913":13305,"1042":13306,"##ed19":13307,"##cc30":13308,"##0030":13309,"##00d0":13310,"1556":13311,"##8830":13312,"##eb4d":13313,"##183b":13314,"##1297":13315,"##1280":13316,"##1264":13317,"##fa75":13318,"##50239":13319,"##2099":13320,"##2045":13321,"##7748":13322,"##7722":13323,"##48e":13324,"##4833":13325,"##4064":13326,"##3232":13327,"##ceec":13328,"##4380":13329,"##1814":13330,"##fdb0":13331,"##5644":13332,"##568c":13333,"##5607":13334,"##104d":13335,"##94bd":13336,"##87a5":13337,"##2d20":13338,"##8639":13339,"##f34f":13340,"##f339":13341,"##0353":13342,"##0375":13343,"##0360":13344,"##75f6":13345,"##759d":13346,"##75968":13347,"##ba87":13348,"##baa6":13349,"##9640":13350,"##9616":13351,"##8272":13352,"##8d20":13353,"##8d9f":13354,"##4710":13355,"##b64d":13356,"##1995":13357,"0000026d":13358,"00000111":13359,"0000010e":13360,"0000039f":13361,"00000281":13362,"##7272":13363,"##4513":13364,"##1f0a":13365,"##1dba":13366,"##1d8d":13367,"##fef3":13368,"##8e1a":13369,"##5816":13370,"##58bb":13371,"##0b3f":13372,"0x10000046b0e0690":13373,"0x10000046b0e069a":13374,"0x10000046b0e08d2":13375,"0x10000046b0e0691":13376,"##tribute":13377,"##6096":13378,"##6064":13379,"##1a83":13380,"##8552":13381,
[...]
