{"version":"1.0","truncation":{"max_length":20,"strategy":"LongestFirst","stride":0},"padding":{"strategy":{"Fixed":20},"direction":"Right","pad_to_multiple_of":null,"pad_id":0,"pad_type_id":0,"pad_token":"[PAD]"},"added_tokens":[{"id":0,"special":true,"content":"[UNK]","single_word":false,"lstrip":false,"rstrip":false,"normalized":false},{"id":1,"special":true,"content":"[CLS]","single_word":false,"lstrip":false,"rstrip":false,"normalized":false},{"id":2,"special":true,"content":"[SEP]","single_word":false,"lstrip":false,"rstrip":false,"normalized":false},{"id":3,"special":true,"content":"[PAD]","single_word":false,"lstrip":false,"rstrip":false,"normalized":false},{"id":4,"special":true,"content":"[MASK]","single_word":false,"lstrip":false,"rstrip":false,"normalized":false}],"normalizer":{"type":"Sequence","normalizers":[{"type":"NFD"},{"type":"Lowercase"},{"type":"StripAccents"}]},"pre_tokenizer":{"type":"Whitespace"},"post_processor":{"type":"TemplateProcessing","single":[{"SpecialToken":{"id":"[CLS]","type_id":0}},{"Sequence":{"id":"A","type_id":0}},{"SpecialToken":{"id":"[SEP]","type_id":0}}],"pair":[{"SpecialToken":{"id":"[CLS]","type_id":0}},{"Sequence":{"id":"A","type_id":0}},{"SpecialToken":{"id":"[SEP]","type_id":0}},{"Sequence":{"id":"B","type_id":1}},{"SpecialToken":{"id":"[SEP]","type_id":1}}],"special_tokens":{"[CLS]":{"id":"[CLS]","ids":[1],"tokens":["[CLS]"]},"[SEP]":{"id":"[SEP]","ids":[2],"tokens":["[SEP]"]}}},"decoder":{"type":"WordPiece","prefix":"##","cleanup":true},"model":{"type":"WordPiece","unk_token":"[UNK]","continuing_subword_prefix":"##","max_input_chars_per_word":100,"vocab":{"[UNK]":0,"[CLS]":1,"[SEP]":2,"[PAD]":3,"[MASK]":4,"!":5,"\"":6,"#":7,"$":8,"%":9,"&":10,"'":11,"(":12,")":13,"*":14,"+":15,",":16,"-":17,".":18,"/":19,"0":20,"1":21,"2":22,"3":23,"4":24,"5":25,"6":26,"7":27,"8":28,"9":29,":":30,";":31,"<":32,"=":33,">":34,"?":35,"@":36,"[":37,"\\":38,"]":39,"_":40,"a":41,"b":42,"c":43,"d":44,"e":45,"f":46,"g":47,"h":48,"i":49,"j":50,"k":51,"l":52,"m":53,"n":54,"o":55,"p":56,"q":57,"r":58,"s":59,"t":60,"u":61,"v":62,"w":63,"x":64,"y":65,"z":66,"{":67,"|":68,"}":69,"~":70,"##0":71,"##6":72,"##7":73,"##5":74,"##8":75,"##2":76,"##1":77,"##4":78,"##3":79,"##9":80,"##a":81,"##c":82,"##b":83,"##d":84,"##e":85,"##f":86,"##l":87,"##i":88,"##n":89,"##t":90,"##p":91,"##r":92,"##h":93,"##m":94,"##x":95,"##s":96,"##y":97,"##v":98,"##k":99,"##u":100,"##q":101,"##z":102,"##g":103,"##j":104,"##}":105,"##o":106,"##_":107,"##w":108,"##(":109,"##/":110,"##\"":111,"##,":112,"##*":113,"##:":114,"##<":115,"##>":116,"##-":117,"##[":118,"##+":119,"##=":120,"##]":121,"##)":122,"##.":123,"##&":124,"##?":125,"##{":126,"##!":127,"##ta":128,"##er":129,"##on":130,"\":":131,"\":\"":132,"##in":133,"##ur":134,"##or":135,"##es":136,"##tat":137,"##{\"":138,"##us":139,"con":140,"stat":141,"status":142,"##,\"":143,"conta":144,"##iner":145,"container":146,"\",\"":147,"##our":148,"##},":149,"##},{\"":150,"##ck":151,"hour":152,"\"},{\"":153,"##te":154,"##ea":155,"up":156,"hours":157,"##is":158,"##th":159,"##me":160,"10":161,"##ic":162,"##ion":163,"##en":164,"##ed":165,"ap":166,"##ess":167,"##ch":168,"##erv":169,"##che":170,"##ro":171,"##ms":172,"##tem":173,"##ol":174,"or":175,"##ep":176,"ha":177,"##cc":178,"##at":179,"##ds":180,"##_t":181,"##ag":182,"##eal":183,"##ut":184,"##ealth":185,"##tack":186,"##tack_":187,"##ing":188,"##ec":189,"health":190,"ar":191,"##temis":192,"##mq":193,"artemis":194,"##ha":195,"##essag":196,"##et":197,"##00":198,"org":199,"in":200,"##ore":201,"dur":202,"##xt":203,"##ache":204,"app":205,"##om":206,"core":207,"##ame":208,"15":209,"\\-":210,"##sion":211,"##fo":212,"##out":213,"##ti":214,"pro":215,"serv":216,"ja":217,"##ke":218,"apache":219,"info":220,"##oa":221,"##pe":222,"##esb":223,"##_txt":224,"##il":225,"mms":226,"##ock":227,"##de":228,"##serv":229,"##24":230,"##tor":231,"##ice":232,":\"":233,"##oc":234,"##stack_":235,"##ror":236,"##og":237,"##oaesb":238,"##88":239,"ti":240,"##ve":241,"mock":242,"##rea":243,"server":244,"##ission":245,"##tal":246,"##ation":247,"han":248,"ac":249,"time":250,"soaesb":251,"ex":252,"acc":253,"er":254,"error":255,"##service":256,"accep":257,"sec":258,"on":259,"##tive":260,"##ype":261,"active":262,"##va":263,"##urr":264,"timeout":265,"##rd":266,"wi":267,"##li":268,"with":269,"##toc":270,"\":{\"":271,"##240":272,"amq":273,"activemq":274,"amq2":275,"##essage":276,"healthy":277,"secon":278,"seconds":279,"has":280,"##dsha":281,"handsha":282,"handshake":283,"protoc":284,"##24088":285,"protocol":286,"occ":287,"during":288,"acceptor":289,"##urred":290,"amq224088":291,"occurred":292,"##da":293,"##olr":294,"##check":295,"##le":296,"message":297,"##ent":298,"java":299,"healthcheck":300,"##ted":301,"##atal":302,"##atalog":303,"solr":304,"##iz":305,"##pl":306,"type":307,"re":308,"##_to":309,"at":310,"##go":311,"106":312,"healthcheckservice":313,"mission":314,"##--":315,"fa":316,"exi":317,"##ken":318,"##_txt_to":319,"##ized":320,"##kenized":321,"##_txt_tokenized":322,"\"+":323,"##etr":324,"##one":325,"ago":326,"exited":327,"id":328,"##ide":329,"##e_":330,"##estack_":331,"##essagestack_":332,"duration":333,"name":334,"##ter":335,"catalog":336,"##ics":337,"##se":338,"##cess":339,"none":340,"##end":341,"##tp":342,"rom":343,"##lis":344,"fail":345,"##son":346,"un":347,"##an":348,"failur":349,"failure_":350,"##_ms":351,"##reason":352,"duration_ms":353,"failure_reason":354,"came":355,"camel":356,",\"":357,"##eb":358,"metr":359,"metrics":360,"rom1":361,"22":362,"##_n":363,"##hard":364,"##hard1":365,"##od":366,"me":367,"##fle":368,"##messagestack_":369,"##flex":370,"##ate":371,"jar":372,"cli":373,"##ler":374,"##ver":375,"pl":376,"ro":377,"##blis":378,"##blish":379,"##ps":380,"12":381,"##orm":382,"##mpl":383,"##18":384,"client":385,"rome":386,"##ue":387,"##cessor":388,"##id":389,"##al":390,"##re":391,"##oo":392,"##it":393,"##form":394,"##12":395,"zoo":396,"id_txt":397,"##lic":398,"##atform":399,"##_s":400,"platform":401,"##ublish":402,"##read":403,"##ker":404,"##lica":405,"##fa":406,"##nd":407,"14":408,"##eplica":409,"##eplica_n":410,"##ca":411,"##eed":412,"##xf":413,"##ender":414,"##ect":415,"web":416,"ab":417,"##pr":418,"##as":419,"##50":420,"##sw":421,"##29":422,"##pro":423,"##est":424,"##roker":425,")\"":426,"vide":427,"videom":428,"##lv":429,"##vide":430,"reflex":431,"##eedq":432,"##video":433,"render":434,"##orn":435,"##icorn":436,"unicorn":437,"##eper":438,"##keeper":439,"zookeeper":440,"##20":441,"##xn":442,"##cn":443,"</":444,"##ttp":445,"##46":446,"meta":447,"http":448,"log":449,"##77":450,"##mission":451,"about":452,"an":453,"to":454,"##ra":455,"##48":456,"##replica_n":457,"##_replica_n":458,"##hard1_replica_n":459,"##_shard1_replica_n":460,"##000":461,"##card":462,"ru":463,"com":464,"##69":465,"##ode":466,"11":467,"##83":468,"##vc":469,"##por":470,"##ty":471,"##----":472,"##lea":473,"##ork":474,"op":475,"}}":476,"##date":477,"##02":478,"##pon":479,"##he":480,"##templ":481,"metacard":482,"~[":483,"13":484,"##52":485,"##ce":486,"##40":487,"cxf":488,"00":489,"##up":490,"##per":491,"##b0":492,"##43":493,"000":494,"ad":495,")\"},{\"":496,"##ession":497,"},\"":498,"session":499,"##76":500,"##fi":501,"relea":502,"##181":503,"##99":504,"##pring":505,"pa":506,"spring":507,"##32":508,"##nn":509,"shard1":510,"is":511,"##fd":512,"##ss":513,"##56":514,"##mms":515,"mmsstack_":516,"mmsstack_mms":517,"ids":518,"##hand":519,"##4a":520,"##49":521,"publish":522,"##fr":523,"##handler":524,"##dap":525,"##cli":526,"##processor":527,"release":528,"##11":529,"##ection":530,"##error":531,"##cnxn":532,"##97":533,"##ting":534,"##les":535,"##rch":536,"##earch":537,"##server":538,"##work":539,"service":540,"##pel":541,"isr":542,"sc":543,"##41":544,"##version":545,"process":546,"##ts":547,"##5a":548,"dd":549,"de":550,"##thread":551,"##utes":552,"##inutes":553,"minutes":554,"##st":555,"##ys":556,"=/":557,"}},\"":558,"##dat":559,"open":560,"##ib":561,"##template":562,"##rn":563,"##03":564,"di":565,"##16":566,"##94":567,"te":568,"##tory":569,"catalog_shard1_replica_n":570,"##_c":571,"##ener":572,"=\"":573,"##53":574,"processor":575,"={":576,"##87":577,"update":578,"do":579,"na":580,"##sta":581,"th":582,"##eat":583,"25":584,"metacard_c":585,"metacard_cache":586,"##100":587,"##catalog":588,"##iod":589,"##wg":590,"##b5":591,"##publish":592,"##leset":593,"##ie":594,"csw":595,"##ci":596,"retr":597,"retrie":598,"broker":599,"clientcnxn":600,"##dater":601,"##reener":602,"screener":603,"##iodic":604,"feedq":605,"klv":606,"mps":607,"##broker":608,"##feedq":609,"##klv":610,"conversion":611,"##ecsw":612,"##essagecsw":613,"##stack_re":614,"##stack_video":615,"##stack_publish":616,"##stack_broker":617,"expor":618,"missionmessagestack_":619,"##essagestack_video":620,"##ana":621,"##messagestack_feedq":622,"##messagestack_klv":623,"videomessagecsw":624,"videomessagestack_video":625,"reflexstack_re":626,"publishstack_publish":627,"brokerstack_broker":628,"feedqmessagestack_feedq":629,"klvmessagestack_klv":630,"exporter":631,"missionmessagestack_mission":632,"videomessagecswstack_video":633,"reflexstack_reflex":634,"svc":635,"##mps":636,"##_service":637,"##mps_service":638,"sf":639,"ddoc":640,"sftp":641,"gw":642,"##mplate":643,"template":644,"##1u":645,"##8v":646,"##hg":647,"##lg":648,"##lo":649,"##70":650,"##ab":651,"##86":652,"##2d":653,"##qu":654,"##f3":655,"##10":656,"##ine":657,"pi":658,"##peline":659,"pipeline":660,"ext":661,"##errorhandler":662,"##23":663,"##tr":664,"thread":665,"##espon":666,"##26":667,"):":668,"no":669,"##pb":670,"##4f":671,"##amework":672,"##ct":673,"##ctory":674,"##impl":675,"##ba":676,"##no":677,"##ls":678,"##75":679,"##vent":680,"mil":681,"##ueue":682,"12181":683,"##b9":684,"##xy":685,"##vo":686,"event":687,"##inver":688,"uninver":689,"uninverting":690,"core_n":691,"core_node":692,"##80":693,"##nt":694,"jet":695,"jetty":696,"hand":697,"##esponse":698,"ver":699,"##3f":700,"##ru":701,"##4d":702,"##fic":703,"##fication":704,"##las":705,"##mit":706,"ms":707,"16":708,"##l3":709,"##i5":710,"##i8":711,"##15":712,"##io":713,"##ean":714,"##96":715,"version":716,"##8o":717,"##gx":718,"##wv":719,"for":720,"##47":721,"aler":722,"##--------":723,"##e0":724,"##mp":725,"##meth":726,"##42":727,"##stat":728,"##quest":729,"##8a":730,"##82":731,"##ff":732,"397":733,"##fig":734,"config":735,"us":736,"##fl":737,"ke":738,"conn":739,"##t0":740,"##nal":741,"##pu":742,"rout":743,"router":744,"tr":745,"##ad":746,"##dapter":747,"net":748,"dep":749,"##8d":750,"##enci":751,"##endenci":752,"dependenci":753,"dependencies":754,"##framework":755,"##ource":756,"##int":757,"##89":758,"0x":759,"##100000":760,"0x100000":761,"##46b0":762,"dis":763,"##ternal":764,"0x10000046b0":765,"##b6":766,"fil":767,"##pp":768,"springframework":769,"##queue":770,"##po":771,"##783":772,"##rom":773,"from":774,"00000":775,"xm":776,"##earcher":777,"##fau":778,"##199":779,"##list":780,"##ponent":781,"rest":782,"##f6":783,"##e3":784,"che":785,"check":786,":/":787,"://":788,"##7b":789,"ecli":790,"##pse":791,"eclipse":792,"##w3":793,"##z3":794,"##w8":795,"##45":796,"##13":797,"##and":798,"##utor":799,"qtp":800,"##12783":801,"##19912783":802,"qtp19912783":803,"qtp1991278377":804,"##con":805,"##ebeat":806,"filebeat":807,"##1m":808,"##ih":809,"##qw":810,"##zc":811,"##gd":812,"##ex":813,"total":814,"##thod":815,"method":816,"bean":817,"##72":818,"##ity":819,"##c0":820,"##ef":821,"##km":822,"##oz":823,"##wa":824,"ns":825,"##73":826,"xml":827,"connection":828,"##yb":829,"##b8":830,"nio":831,"##time":832,"169":833,"contact":834,"##fz":835,"##7l":836,"add":837,"resttemplate":838,"##all":839,"##dt":840,"##90":841,"##93":842,"##tion":843,"##91":844,"component":845,"qu":846,"##e5":847,"##exec":848,"get":849,"key":850,"##hel":851,":]":852,"my":853,"myid":854,"catalog_shard1_replica_n1":855,"nioserver":856,"request":857,"st":858,"##data":859,"##)+":860,"adfd":861,"clo":862,"##helper":863,"##ede":864,"02":865,"##e4":866,"send":867,"##rt":868,"##dc":869,"##oll":870,"##ush":871,"##8c":872,"ba":873,"##app":874,"webapp":875,"##ned":876,"##+(":877,"wt":878,"##bin":879,"javabin":880,"path":881,"##rams":882,"params":883,"##oap":884,"ai":885,"quer":886,"##internal":887,"run":888,"##lse":889,"##ew":890,"##rs":891,"##ns":892,"##wn":893,"##vis":894,"##55":895,"##b3":896,"metacard_cache_shard1_replica_n":897,"##raf":898,"per":899,"##44":900,"##executor":901,"##dex":902,"##1e":903,"##ocket":904,"node":905,"xmlns":906,"##07":907,"000c":908,"##ir":909,"##proxy":910,"af":911,"##factory":912,"##09":913,"res":914,"##ollection":915,"done":916,"##ia":917,"##qs":918,"##8e":919,"##ho":920,"##let":921,"##p1":922,"##un":923,"200":924,"ge":925,"##fe":926,"##ory":927,"##22":928,"collection":929,"retriev":930,"noti":931,"##9b":932,"##lru":933,"##eallru":934,"ruleset":935,"##lesets":936,"retrieveallru":937,"retrieveallrulesets":938,"##type":939,"##ws":940,"##sh":941,"##}]":942,"notification":943,"cda":944,"cad":945,"##updater":946,"##_mps_service":947,"screener_mps_service":948,"updater":949,"periodic":950,"##ckup":951,"##catalogupdater":952,"backup":953,"periodiccatalogupdater":954,"##agno":955,"##stic":956,"diagno":957,"diagnostic":958,"[{\"":959,"adapter":960,"elas":961,"gate":962,"gss":963,"graf":964,"kib":965,"mas":966,"push":967,"s3":968,"sqs":969,"##eus":970,"##ldap":971,"##tics":972,"##xm":973,"##soaesb":974,"##gss":975,"##j7":976,"haproxy":977,"prometh":978,"##stack_per":979,"##stack_soaesb":980,"##stack_gss":981,")\"}]":982,"logsta":983,"openldap":984,"dood":985,"gwe":986,"##way":987,"##visor":988,"cadvisor":989,"periodiccatalogupdaterstack_per":990,"elastics":991,"gateway":992,"gssstack_gss":993,"grafana":994,"kibana":995,"master":996,"haproxystack_soaesb":997,"prometheus":998,"logstash":999,"periodiccatalogupdaterstack_periodic":1000,"elasticsearch":1001,"##station":1002,"},":1003,"##vetemplate":1004,"retrievetemplate":1005,"##fil":1006,"getal":1007,"##ltempl":1008,"##ates":1009,"getalltempl":1010,"getalltemplates":1011,"##e_mps_service":1012,"gwe_mps_service":1013,"##81":1014,"##ans":1015,"##5e":1016,"##liver":1017,"##livery":1018,"socket":1019,"esta":1020,"establish":1021,"events":1022,"##urity":1023,"##}}":1024,"{\"":1025,"##cks":1026,"ticks":1027,"catalog_shard1_replica_n2":1028,"##min":1029,"##5p":1030,"53":1031,"##tes":1032,"trans":1033,"##info":1034,"##ytes":1035,"2181":1036,"soap":1037,"##xb":1038,"##7g":1039,"##ations":1040,"##6g":1041,"##yg":1042,"##h6":1043,"##v3":1044,"##cw":1045,"##pw":1046,"##m8":1047,"delg":1048,"delgen":1049,"sys":1050,"0x10000046b0e0":1051,"replica_n":1052,"##ri":1053,"##06":1054,"##of":1055,"##0b":1056,"##esponseerrorhandler":1057,"rede":1058,"camelinternal":1059,"methodinfo":1060,"##liveryerrorhandler":1061,"redeliveryerrorhandler":1062,"camelinternalprocessor":1063,"##c6":1064,"##aa":1065,"04":1066,"17":1067,"##ating":1068,"plan":1069,"##95":1070,"##update":1071,"clos":1072,"transpor":1073,"##mb":1074,"rep":1075,"##trib":1076,"uti":1077,"2009":1078,"gd":1079,"system":1080,"closed":1081,"##du":1082,"##6d":1083,"##85":1084,"work":1085,"core_node3":1086,"##tc":1087,"##74":1088,"##ccess":1089,"19":1090,"gdes":1091,"##enti":1092,"mmscatalog":1093,"mmscataloghelper":1094,"core_node4":1095,"searcher":1096,"invo":1097,"##s_txt_tokenized":1098,"##v2":1099,"##ali":1100,"##212":1101,"##b2":1102,"impl":1103,"##14":1104,"##)++":1105,"##sl":1106,"##ort":1107,"workqueue":1108,"##entimpl":1109,"##lu":1110,"invoke":1111,"43":1112,"02t":1113,"##stationdt":1114,"planned":1115,"##58":1116,"0_":1117,"0_212":1118,"en":1119,"##vm":1120,"false":1121,"##92":1122,"56":1123,"sm":1124,"dia":1125,"smil":1126,"security":1127,"blu":1128,"##xth":1129,"##epr":1130,"bluepr":1131,"##el":1132,":--":1133,"<!":1134,":-->":1135,"<!--":1136,"##ope":1137,"##agg":1138,"##1f":1139,"comm":1140,"wa":1141,"commit":1142,"##9s":1143,"##----------------":1144,"##429":1145,"##ated":1146,"oa":1147,"soaesb_s":1148,"sendthread":1149,"oaesb":1150,"soaesb_soaesb":1151,"mod":1152,"##kno":1153,"handler":1154,"##180":1155,"##faul":1156,"##c3":1157,"factory":1158,"10000":1159,"eventthread":1160,"##44a":1161,"60":1162,"##1d":1163,"##920":1164,"sessionid":1165,"##830":1166,"30":1167,"##x0":1168,"##uq":1169,"##oper":1170,"##operations":1171,"##ead":1172,"resource":1173,"##ued":1174,"defaul":1175,"##762":1176,"##244":1177,"##cxn":1178,"nioservercxn":1179,"##health":1180,"unhealth":1181,"unhealthy":1182,"##292":1183,"##tu":1184,"actu":1185,"><":1186,"##576":1187,"##*+":1188,"requests":1189,"##17":1190,"##8db":1191,"vali":1192,"##mory":1193,"memory":1194,"##98":1195,"##434":1196,"##cep":1197,"romemission":1198,"##c41":1199,"##bf":1200,"##2a":1201,"##5g":1202,"##2l":1203,"##pool":1204,"crea":1205,"##57":1206,"##20b":1207,"da":1208,"##0y":1209,"##gz":1210,"##lq":1211,"##i0":1212,"##pf":1213,"##xd":1214,"##xj":1215,"##v5":1216,"##v1":1217,"##u1":1218,"##oh":1219,"##aps":1220,"##sk":1221,"zer":1222,"zero":1223,"ta":1224,"09":1225,"##fa9":1226,"##66":1227,"##c9":1228,"##point":1229,"ff":1230,"##si":1231,"source":1232,"httpcon":1233,"52":1234,"9b":1235,"20":1236,"##35":1237,"clas":1238,"##sification":1239,"classification":1240,"##tg":1241,"---":1242,"sn":1243,"##hot":1244,"##apshot":1245,"snapshot":1246,"##1a":1247,"##7j":1248,"urn":1249,"##oj":1250,"##5i":1251,"##gg":1252,"##69f3":1253,"##cr":1254,"##3x":1255,"##2375":1256,"##29c0":1257,"##12b6":1258,"##50e3":1259,"##sa":1260,"##ww":1261,"##eak":1262,"##8n":1263,"##hol":1264,"##86c41":1265,"##mw":1266,"##1h":1267,"##pv":1268,"##h5":1269,"##jy":1270,"##jx":1271,"##qz":1272,"1gd":1273,"2cw":1274,"6t0":1275,"bv3":1276,"b69f3":1277,"k52":1278,"nxj":1279,"p09":1280,"qx":1281,"r7":1282,"tnn":1283,"t94":1284,"u50":1285,"w7":1286,"wnn":1287,"wgd":1288,"wxd":1289,"xom":1290,"z44a":1291,"##61m":1292,"##7ol":1293,"##5th":1294,"##5z3":1295,"##5agg":1296,"##2in":1297,"##2gg":1298,"##1wg":1299,"##1rt":1300,"##1pw":1301,"##4ol":1302,"##4gz":1303,"##3pb":1304,"##3zc":1305,"##av":1306,"##ahol":1307,"##ajx":1308,"##bnn":1309,"##dha":1310,"##lhg":1311,"##lpb":1312,"##lw3":1313,"##lm8":1314,"##lcr":1315,"##l5z3":1316,"##nj":1317,"##nhg":1318,"##nqw":1319,"##n2375":1320,"##n8n":1321,"##n4ol":1322,"##tue":1323,"##t5i":1324,"##tdha":1325,"##p8v":1326,"##pi5":1327,"##rde":1328,"##rgx":1329,"##h2d":1330,"##h26":1331,"##h1wg":1332,"##x4":1333,"##xx0":1334,"##s1u":1335,"##yz":1336,"##ypr":1337,"##yvc":1338,"##y32":1339,"##y2in":1340,"##v1u":1341,"##vfz":1342,"##vpi5":1343,"##kb5":1344,"##kwv":1345,"##k6g":1346,"##ux":1347,"##uo":1348,"##uys":1349,"##u7b":1350,"##u4gz":1351,"##uypr":1352,"##qic":1353,"##qan":1354,"##zi5":1355,"##zw8":1356,"##zfa9":1357,"##zpv":1358,"##zuo":1359,"##g8o":1360,"##g0b":1361,"##jb5":1362,"##jew":1363,"##ju7b":1364,"##ob8":1365,"##oe4":1366,"##o429":1367,"##o8db":1368,"##wx":1369,"##w7l":1370,"##wbnn":1371,"##wrde":1372,"##wkb5":1373,"##is82":1374,"##rozpv":1375,"##oln2375":1376,"##xttue":1377,"##omih":1378,"##pex":1379,"##rdp8v":1380,"##ps5e":1381,"##id8a":1382,"##xf2l":1383,"##prih":1384,"##50kwv":1385,"##estlcr":1386,"##xnps5e":1387,"##cnlm8":1388,"##cng8o":1389,"##ty3pb":1390,"##02w3":1391,"##52rs":1392,"##40t5i":1393,"##frvo":1394,"##11id8a":1395,"##5aww":1396,"##16xnps5e":1397,"##53x4":1398,"##wg07":1399,"##wgh26":1400,"##1uahol":1401,"##8vyz":1402,"##hgju7b":1403,"##lgzw8":1404,"##70sl":1405,"##2dj7":1406,"##4f5p":1407,"##b9lpb":1408,"##xy02w3":1409,"##nt5aww":1410,"##3fw8":1411,"##4dw7l":1412,"##l3l3":1413,"##i8tdha":1414,"##i8pex":1415,"##gxxb":1416,"##wvd":1417,"##mpt0":1418,"##fl8vyz":1419,"##pujb5":1420,"##fauqz":1421,"##f6n4ol":1422,"##z3o429":1423,"##1m2dj7":1424,"##qw50e3":1425,"##efs1u":1426,"##km8o":1427,"##ozav":1428,"##ybe5":1429,"##p1zc":1430,"##feuypr":1431,"##xmb9lpb":1432,"##7gajx":1433,"##ygi8tdha":1434,"##h6km8o":1435,"##xthv1u":1436,"##ope70sl":1437,"##92012b6":1438,"##uq3zc":1439,"##uedlhg":1440,"##762vfz":1441,"##244nj":1442,"##292xmb9lpb":1443,"##434u4gz":1444,"##20bzfa9":1445,"##0yomih":1446,"##lqdc":1447,"##i0h6km8o":1448,"##v5fauqz":1449,"##v1ygi8tdha":1450,"##u1lw3":1451,"##ohwvd":1452,"##skuys":1453,"09oln2375":1454,"ff1m2dj7":1455,"9bqic":1456,"##7j8v":1457,"##oj52rs":1458,"##3xg0b":1459,"##29c0rgx":1460,"##sau1lw3":1461,"##eaknt5aww":1462,"##86c41efs1u":1463,"##mwxttue":1464,"##1h244nj":1465,"##h5fl8vyz":1466,"##jyi8pex":1467,"1gdmwxttue":1468,"2cw434u4gz":1469,"6t0prih":1470,"bv3cng8o":1471,"b69f3uq3zc":1472,"k52jew":1473,"nxjh5fl8vyz":1474,"p09hgju7b":1475,"qxk6g":1476,"r7ybe5":1477,"tnnfeuypr":1478,"t94rozpv":1479,"u50xthv1u":1480,"w7xf2l":1481,"wnn1pw":1482,"wgd61m":1483,"wxdope70sl":1484,"xomyvc":1485,"z44aozav":1486,"##7ol3fw8":1487,"##5th40t5i":1488,"##5aggv5fauqz":1489,"##2ggrdp8v":1490,"##1rtl5z3":1491,"##nhgwrde":1492,"##nqwi0h6km8o":1493,"##n8n20bzfa9":1494,"##h2drn":1495,"##h1wgeaknt5aww":1496,"##xx0o8db":1497,"##y32qan":1498,"##y2in4f5p":1499,"##vpi5x":1500,"##zi5wx":1501,"##zuo292xmb9lpb":1502,"##ob8xx0o8db":1503,"##oe4wgh26":1504,"##wbnnh1wgeaknt5aww":1505,"##is82l3l3":1506,"##50kwv5th40t5i":1507,"##estlcr6":1508,"##ty3pbp1zc":1509,"##frvo2ggrdp8v":1510,"##16xnps5eoe4wgh26":1511,"##wg07zi5wx":1512,"##1uahol3xg0b":1513,"##lgzw8nqwi0h6km8o":1514,"##4dw7lpf":1515,"##gxxb1uahol3xg0b":1516,"##mpt0ty3pbp1zc":1517,"##pujb5oj52rs":1518,"##f6n4olohwvd":1519,"##z3o429mpt0ty3pbp1zc":1520,"##qw50e3lqdc":1521,"##7gajxqw50e3lqdc":1522,"##92012b65g":1523,"##uedlhgy32qan":1524,"##762vfz7ol3fw8":1525,"##0yomihf6n4olohwvd":1526,"##v1ygi8tdha11id8a":1527,"##skuys4dw7lpf":1528,"09oln2375lgzw8nqwi0h6km8o":1529,"ff1m2dj7uedlhgy32qan":1530,"9bqic1rtl5z3":1531,"##29c0rgx7j8v":1532,"##sau1lw3y2in4f5p":1533,"##86c41efs1uwkb5":1534,"##1h244njskuys4dw7lpf":1535,"1gdmwxttue7gajxqw50e3lqdc":1536,"2cw434u4gzn8n20bzfa9":1537,"6t0prihpujb5oj52rs":1538,"bv3cng8o5aggv5fauqz":1539,"b69f3uq3zcgxxb1uahol3xg0b":1540,"k52jew1h244njskuys4dw7lpf":1541,"nxjh5fl8vyz86c41efs1uwkb5":1542,"p09hgju7bv1ygi8tdha11id8a":1543,"qxk6g50kwv5th40t5i":1544,"r7ybe5sau1lw3y2in4f5p":1545,"tnnfeuyprnhgwrde":1546,"t94rozpvfrvo2ggrdp8v":1547,"u50xthv1u16xnps5eoe4wgh26":1548,"w7xf2lz3o429mpt0ty3pbp1zc":1549,"wnn1pwob8xx0o8db":1550,"wgd61mis82l3l3":1551,"wxdope70sl762vfz7ol3fw8":1552,"xomyvcwbnnh1wgeaknt5aww":1553,"z44aozav0yomihf6n4olohwvd":1554,"ff1m2dj7uedlhgy32qanh2drn":1555,"9bqic1rtl5z3zuo292xmb9lpb":1556,"2cw434u4gzn8n20bzfa9cnlm8":1557,"6t0prihpujb5oj52rsjyi8pex":1558,"bv3cng8o5aggv5fauqzxy02w3":1559,"qxk6g50kwv5th40t5iestlcr6":1560,"r7ybe5sau1lw3y2in4f5p53x4":1561,"tnnfeuyprnhgwrde92012b65g":1562,"t94rozpvfrvo2ggrdp8vvpi5x":1563,"wnn1pwob8xx0o8dbwg07zi5wx":1564,"wgd61mis82l3l329c0rgx7j8v":1565,"wxdope70sl762vfz7ol3fw8ux":1566,"xomyvcwbnnh1wgeaknt5awwtc":1567,"##cked":1568,"1048":1569,"##itor":1570,"v20":1571,"##180830":1572,"v20180830":1573,"##onitor":1574,"distrib":1575,"runn":1576,"running":1577,"++(":1578,"acked":1579,"bytes":1580,"monitor":1581,"##},\"":1582,"}}},\"":1583,"1048576":1584,"monitoring":1585,"##urrent":1586,"##04":1587,"alert":1588,"##ute":1589,"##bd":1590,"rule":1591,"##ment":1592,"##68":1593,"##put":1594,"getmission":1595,"##54":1596,"handle":1597,"alerts":1598,"##oad":1599,"##kv":1600,"}{":1601,"logupdate":1602,"##processorfactory":1603,"logupdateprocessorfactory":1604,"16903":1605,"##poolexecutor":1606,"threadpoolexecutor":1607,"./":1608,"catalogoperations":1609,"catalogoperationsimpl":1610,"##tresponseerrorhandler":1611,"defaultresponseerrorhandler":1612,"aut":1613,"##icwork":1614,"##aticwork":1615,"##omaticwork":1616,"##queueimpl":1617,"##duit":1618,"httpconduit":1619,"automaticwork":1620,"automaticworkqueueimpl":1621,"##ang":1622,"##pa":1623,"46":1624,"data":1625,"##client":1626,"metacard_cache_shard1_replica_n1":1627,"##3y":1628,"##cs":1629,"id_txt_tokenized":1630,"##z0":1631,"##vt":1632,"##vs":1633,"##anding":1634,"##ched":1635,"##off":1636,"##84":1637,"##state":1638,"##7a":1639,"util":1640,"##ommit":1641,"##30":1642,"##bb":1643,"##ng":1644,"##atch":1645,"##filter":1646,"ass":1647,"19000":1648,"index":1649,"##call":1650,"##dation":1651,"##searcher":1652,"validation":1653,"##cd":1654,"abst":1655,"abstra":1656,"=[":1657,"##e6":1658,"##name":1659,"##rocessor":1660,"26":1661,"##7d":1662,"accept":1663,"sta":1664,"metadata":1665,"##iti":1666,"warn":1667,"31":1668,"type_txt_tokenized":1669,"name_txt_tokenized":1670,"##ception":1671,"##ccessor":1672,"sof":1673,"##dataws":1674,"romemissiondataws":1675,"refl":1676,"true":1677,"query":1678,"##9a":1679,"##oda":1680,"##methoda":1681,"##methodaccessor":1682,"reflect":1683,")]":1684,")]}":1685,"33":1686,"user":1687,"servlet":1688,"cha":1689,"ne":1690,"##enta":1691,"##ize":1692,"##f0":1693,"su":1694,"spel":1695,"spell":1696,"##mer":1697,"##xception":1698,"##rore":1699,"##errore":1700,"httpserver":1701,"actual":1702,"##errorexception":1703,"httpservererrorexception":1704,"0x10000046b0e":1705,"##entadapter":1706,"conte":1707,"initi":1708,"18":1709,"##temp":1710,"attemp":1711,"initiating":1712,"##gis":1713,"nu":1714,"ul":1715,"ult":1716,"##bc":1717,"##mber":1718,"##78":1719,"##inet":1720,"##plinet":1721,"##ciplinet":1722,"##ciplinetype":1723,"##clientimpl":1724,"established":1725,"romeclientimpl":1726,"and":1727,"##tiated":1728,"##gotiated":1729,"negotiated":1730,"end":1731,"##mination":1732,"al":1733,"rt":1734,"##back":1735,"go":1736,"nioservercnxn":1737,"##36":1738,"report":1739,"admin":1740,"##9c":1741,"zookeeperserver":1742,"v1":1743,"qtime":1744,"replica_n2":1745,"replica_n1":1746,"##7c":1747,"##4j":1748,"##dir":1749,"handleerror":1750,"##bl":1751,"handleresponse":1752,"##op":1753,"##callback":1754,"80":1755,"##sched":1756,"metacard_cache_shard1_replica_n2":1757,"transport":1758,"##3a":1759,"##able":1760,"##tend":1761,"##4c":1762,"##wq":1763,"##9d":1764,"dele":1765,"ret":1766,"retur":1767,"0s":1768,"##1009s":1769,"0s1009s":1770,"0s1009s0":1771,"##25":1772,"unkno":1773,"unknown":1774,"transports":1775,"36":1776,"bu":1777,"not":1778,"##b1":1779,"##ou":1780,"li":1781,"v2":1782,"##ten":1783,"searcherexecutor":1784,"new":1785,"##8f":1786,"529":1787,"start":1788,"##ain":1789,"##text":1790,"po":1791,"##dl":1792,"##:?":1793,"##?:?":1794,"##?:?]":1795,"code":1796,"55":1797,"##021":1798,"##port":1799,"opening":1800,"##_0":1801,"abstract":1802,"regis":1803,"of":1804,"tag":1805,"##60":1806,"23":1807,"##21":1808,"##5d":1809,"##andler":1810,"common":1811,"lang":1812,"40":1813,"blueprint":1814,"##mo":1815,"##_v2":1816,"##velo":1817,"envelo":1818,"##_v2_0":1819,"envelope":1820,"create":1821,"##566":1822,"##ifi":1823,"##ified":1824,"sel":1825,"select":1826,"##eco":1827,"modified":1828,"##888":1829,"asset":1830,"##take":1831,"platformtype":1832,"##fdt":1833,"##base":1834,"disciplinetype":1835,"##offdt":1836,"##andingdt":1837,"##takeoffdt":1838,"option":1839,"optional":1840,"content":1841,"clic":1842,"##9f":1843,"clicls":1844,"##env":1845,"soapenv":1846,"##7f":1847,"144":1848,"sr":1849,"##vcls":1850,"srvcls":1851,"_state":1852,"##ver_":1853,"_statever_":1854,"2021":1855,"ca":1856,")=":1857,"=<":1858,"##pn":1859,"alpn":1860,"##1c":1861,"),":1862,"size":1863,"pr":1864,"prep":1865,"##ill":1866,"##4e":1867,"##406":1868,"##rect":1869,"~[?:?]":1870,"57":1871,"##dd":1872,"63":1873,"##icep":1874,"##vid":1875,"50":1876,"internal":1877,"548":1878,"##s_txt":1879,"##meta":1880,"cb":1881,"##024":1882,"##lr":1883,"41":1884,"down":1885,"##v9":1886,"##zq":1887,"more":1888,"sun":1889,"##ateg":1890,"pax":1891,"##endpoint":1892,"##index":1893,"##mt":1894,"##ectory":1895,":[":1896,"solrindex":1897,"##ition":1898,"##methodaccessorimpl":1899,"##4b":1900,"##etition":1901,"repetition":1902,"repetitions":1903,"blueprin":1904,"##der":1905,"ep":1906,"cho":1907,"med":1908,"classification_txt_tokenized":1909,"code_txt_tokenized":1910,"cbrn":1911,"media":1912,"##tro":1913,"##files":1914,"wr":1915,"writ":1916,"##tex":1917,"##tender":1918,"##8b":1919,"blueprintex":1920,"blueprintextender":1921,"+*":1922,":[*+":1923,"+*]":1924,"##*:":1925,"##*+-":1926,"++(*:":1927,"+*])++":1928,"++(*:*+-":1929,"state":1930,"clientadapter":1931,"##tra":1932,"##eader":1933,"##--------------------------------":1934,"##ester":1935,"##rv":1936,"harv":1937,"harvester":1938,"##tener":1939,"modu":1940,"##gating":1941,"delegating":1942,"##328":1943,"##listener":1944,"##..":1945,"##f2":1946,"##vail":1947,"##c48":1948,"delegatingmethodaccessorimpl":1949,"169024":1950,"##enderlistener":1951,"##ysenderlistener":1952,"querysenderlistener":1953,"lib":1954,"##context":1955,"wh":1956,"></":1957,"##2m":1958,"ns2":1959,"201":1960,"##3s":1961,"module":1962,"##tm":1963,"##uler":1964,"##br":1965,"45":1966,"##zy":1967,"##6n":1968,"##jg":1969,"##n6":1970,"##dv9":1971,"##iy":1972,"##ko":1973,"##j3":1974,"##w6":1975,"##reader":1976,"##ectoryreader":1977,"##pped":1978,"##leth":1979,"##ome":1980,"missionid":1981,"##5ab":1982,"##ger":1983,"##421":1984,"tags_txt_tokenized":1985,"138":1986,"##396":1987,"load":1988,"##scheduler":1989,"fr":1990,"/&":1991,"##leader":1992,"fromleader":1993,"read":1994,"##7e":1995,"gc":1996,"wri":1997,"write":1998,"las":1999,"##tate":2000,"last":2001,"queue":2002,"39":2003,"##5b":2004,"##8cf":2005,"route":2006,"success":2007,"49":2008,"beat":2009,"batch":2010,"cpu":2011,"current":2012,"non":2013,"norm":2014,"out":2015,"the":2016,"val":2017,"##beat":2018,"##ext":2019,"##_id":2020,"##_all":2021,"##_files":2022,"##tats":2023,"states":2024,"uptime":2025,"##mstats":2026,"hard":2027,"##_total":2028,"##_next":2029,"memstats":2030,"clients":2031,"##al_id":2032,"}}}}":2033,"##hemer":2034,"published":2035,"open_files":2036,"handles":2037,"added":2038,"30s":2039,"memory_all":2040,"memory_total":2041,"soft":2042,"limit":2043,"registra":2044,"ephemer":2045,"writes":2046,"libbeat":2047,"gc_next":2048,"batches":2049,"output":2050,"value":2051,"}}}}}}":2052,"memory_alloc":2053,"registrar":2054,"ephemeral_id":2055,"##2h":2056,"##val":2057,"##3ab":2058,"msg":2059,"##current":2060,"##cf":2061,"487":2062,"##cce":2063,"chang":2064,"logger":2065,"getmissions":2066,"concurrent":2067,"##yp":2068,"##91f":2069,"0000":2070,"eval":2071,"lv":2072,"##ep_s":2073,"alerting":2074,"keep_s":2075,"ruleid":2076,"returned":2077,"changing":2078,"evalcontext":2079,"lvl":2080,"keep_state":2081,"##fd5":2082,"##8e1":2083,"##bean":2084,"37":2085,"##nts":2086,"##ments":2087,"comments":2088,"##06a":2089,"##vider":2090,"##jo":2091,"commitscheduler":2092,"ddf":2093,"##orker":2094,"##inb":2095,"##0ce":2096,"sizeinb":2097,"sizeinbytes":2098,"##3b":2099,"utils":2100,"##c1e":2101,"##6a":2102,"##ceed":2103,"##ream":2104,"##sab":2105,"releasab":2106,"82":2107,"##stream":2108,"responseerrorhandler":2109,"wra":2110,"##output":2111,"cataloghelper":2112,"clientimpl":2113,"cxfclient":2114,"beanprocessor":2115,"sendprocessor":2116,"abstractbean":2117,"##iceprocessor":2118,"choiceprocessor":2119,"##ppedoutput":2120,"wrappedoutput":2121,"cxfclientcallback":2122,"abstractbeanprocessor":2123,"wrappedoutputstream":2124,"##7ms":2125,"##6d2":2126,"##38":2127,"##19":2128,"tail":2129,"##ress":2130,"address":2131,"##28":2132,"##5w":2133,"##load":2134,"##fs":2135,"##4q":2136,"##md":2137,"59":2138,"##2902":2139,"01":2140,"##er4":2141,"##87ec":2142,"direct":2143,"##5c":2144,"loc":2145,"##db":2146,"##4l":2147,"##1r":2148,"##1x":2149,"point":2150,"##2u":2151,"##pol":2152,"##6r":2153,"##1s":2154,"##5m":2155,"##7r":2156,"##torome":2157,"##wsdl":2158,"##58406":2159,"routetorome":2160,"routetoromewsdl":2161,"47":2162,"##fq":2163,"servleth":2164,"##91c48":2165,"##3285a":2166,"##3ab6":2167,"categ":2168,"rfi":2169,"##x9":2170,"##eri":2171,"number":2172,"category":2173,"number_txt_tokenized":2174,"##5km":2175,"07l":2176,"1r":2177,"9s":2178,"boz":2179,"eq":2180,"iz":2181,"k1e":2182,"kc9":2183,"miy":2184,"p4j":2185,"r9":2186,"sl":2187,"sse":2188,"t421":2189,"uv":2190,"x1s":2191,"yp":2192,"z88":2193,"zh6":2194,"z2m":2195,"##0t":2196,"##0j":2197,"##6oz":2198,"##6cs":2199,"##6mt":2200,"##7mp":2201,"##7mo":2202,"##5ls":2203,"##5j7":2204,"##5xb":2205,"##8lg":2206,"##8mp":2207,"##8pol":2208,"##2w6":2209,"##1pb":2210,"##1kv":2211,"##4lse":2212,"##3ts":2213,"##9m":2214,"##9o":2215,"##9i8":2216,"##cve":2217,"##bfz":2218,"##lj":2219,"##l56":2220,"##lkm":2221,"##i93":2222,"##iyg":2223,"##n7":2224,"##nc6":2225,"##n9s":2226,"##n5m":2227,"##tm8":2228,"##t3y":2229,"##t6mt":2230,"##tn5m":2231,"##pur":2232,"##peco":2233,"##pjo":2234,"##p2902":2235,"##p7mo":2236,"##r32":2237,"##hty":2238,"##hj3":2239,"##mke":2240,"##mf3":2241,"##mv3":2242,"##m5j7":2243,"##s9":2244,"##spur":2245,"##yw":2246,"##yod":2247,"##vp1":2248,"##v6g":2249,"##kfr":2250,"##q15":2251,"##q6r":2252,"##q3285a":2253,"##zdir":2254,"##z566":2255,"##zx9":2256,"##z9m":2257,"##gj":2258,"##gb0":2259,"##g7g":2260,"##g68":2261,"##j8e1":2262,"##j9i8":2263,"##ji93":2264,"##oyb":2265,"##o9b":2266,"##o91c48":2267,"##taq3285a":2268,"##erir":2269,"##meys":2270,"##at8mp":2271,"##agkno":2272,"##xt1pb":2273,"##vejg":2274,"##tocfq":2275,"##alb2":2276,"##xf6cs":2277,"##xfnc6":2278,"##as8cf":2279,"##50yw":2280,"##vclkm":2281,"opoyb":2282,"##ce888":2283,"##b0lr":2284,"##43tg":2285,"##fi3y":2286,"##fixfnc6":2287,"##4acce":2288,"##ts74":2289,"##lo58406":2290,"##3ftaq3285a":2291,"##ru3":2292,"##ruvs":2293,"##l3as8cf":2294,"##i5tm8":2295,"##iotm":2296,"##8o2w6":2297,"##gx5xb":2298,"##wv2h":2299,"##47zx9":2300,"##mp4q":2301,"##puz0":2302,"##89q6r":2303,"##wao":2304,"##fz91f":2305,"##7l5p":2306,"##55vp1":2307,"##b3er4":2308,"##iazq":2309,"##ia5km":2310,"##8eg7g":2311,"##un0ce":2312,"##xm4acce":2313,"##cwce888":2314,"##pwcwce888":2315,"##aao91c48":2316,"##mbed":2317,"##v2n6":2318,"##vmruvs":2319,"##vmun0ce":2320,"##1fg68":2321,"##tgn9s":2322,"##04m5j7":2323,"##kv6":2324,"##papuz0":2325,"##cs5ls":2326,"##z0s9":2327,"##vtj":2328,"##vto9b":2329,"##vsyod":2330,"##blfs":2331,"##wqt3y":2332,"##ouia5km":2333,"##brc1e":2334,"##zy7l5p":2335,"##6nlj":2336,"##dv9peco":2337,"##koq15":2338,"##5abat8mp":2339,"##3966d2":2340,"##ypaao91c48":2341,"##fd5u":2342,"##06a8eg7g":2343,"##7ms8o2w6":2344,"##mdru3":2345,"##87ecmdru3":2346,"##4lmp4q":2347,"##1ralb2":2348,"##1xpapuz0":2349,"##2umeys":2350,"##7r7ms8o2w6":2351,"##3ab6wqt3y":2352,"07l6oz":2353,"1r9o":2354,"9sz9m":2355,"bozouia5km":2356,"eqvsyod":2357,"izvejg":2358,"k1eerir":2359,"kc9ts74":2360,"miy1fg68":2361,"p4jfi3y":2362,"r9vmruvs":2363,"slfz91f":2364,"ssekfr":2365,"t421vto9b":2366,"uv7r7ms8o2w6":2367,"x1s4lmp4q":2368,"ypiotm":2369,"z88mv3":2370,"zh647zx9":2371,"z2mgj":2372,"##0ttn5m":2373,"##0jn7":2374,"##7mpfd5u":2375,"##8lgypaao91c48":2376,"##8pol89q6r":2377,"##1kv8pol89q6r":2378,"##4lse1kv8pol89q6r":2379,"##3tsdv9peco":2380,"##cveb0lr":2381,"##bfzkv6":2382,"##l56spur":2383,"##t6mtbfzkv6":2384,"##pjo3ab6wqt3y":2385,"##p2902j9i8":2386,"##p7mov6g":2387,"##htytgn9s":2388,"##hj3koq15":2389,"##mke87ecmdru3":2390,"##mf36nlj":2391,"##zdir3tsdv9peco":2392,"##gb0mf36nlj":2393,"##j8e1v2n6":2394,"##ji93tocfq":2395,"##agkno0jn7":2396,"##xt1pbvclkm":2397,"##xf6csxt1pbvclkm":2398,"##50ywzy7l5p":2399,"opoyb4lse1kv8pol89q6r":2400,"##43tgl3as8cf":2401,"##fixfnc6mke87ecmdru3":2402,"##lo58406wv2h":2403,"##3ftaq3285a5abat8mp":2404,"##i5tm850ywzy7l5p":2405,"##gx5xbi":2406,"##55vp1wao":2407,"##b3er4lo58406wv2h":2408,"##iazqcveb0lr":2409,"##xm4accem":2410,"##pwcwce888z0s9":2411,"##04m5j7zdir3tsdv9peco":2412,"##cs5ls7mpfd5u":2413,"##blfsbrc1e":2414,"##3966d2p2902j9i8":2415,"##06a8eg7g1xpapuz0":2416,"##1ralb2cs5ls7mpfd5u":2417,"##2umeysji93tocfq":2418,"07l6ozfixfnc6mke87ecmdru3":2419,"1r9o8lgypaao91c48":2420,"9sz9m04m5j7zdir3tsdv9peco":2421,"bozouia5km2umeysji93tocfq":2422,"eqvsyodpjo3ab6wqt3y":2423,"izvejgiazqcveb0lr":2424,"k1eerir1ralb2cs5ls7mpfd5u":2425,"kc9ts74i5tm850ywzy7l5p":2426,"miy1fg68xf6csxt1pbvclkm":2427,"p4jfi3y3966d2p2902j9i8":2428,"r9vmruvs06a8eg7g1xpapuz0":2429,"slfz91fhj3koq15":2430,"ssekfrj8e1v2n6":2431,"t421vto9bl56spur":2432,"uv7r7ms8o2w6pwcwce888z0s9":2433,"x1s4lmp4qhtytgn9s":2434,"ypiotm3ftaq3285a5abat8mp":2435,"z88mv3b3er4lo58406wv2h":2436,"zh647zx9gb0mf36nlj":2437,"z2mgjp7mov6g":2438,"##0ttn5m3s":2439,"opoyb4lse1kv8pol89q6rmbed":2440,"##blfsbrc1ez566":2441,"1r9o8lgypaao91c4855vp1wao":2442,"eqvsyodpjo3ab6wqt3ygx5xbi":2443,"izvejgiazqcveb0lr0ttn5m3s":2444,"kc9ts74i5tm850ywzy7l5piyg":2445,"miy1fg68xf6csxt1pbvclkm5w":2446,"p4jfi3y3966d2p2902j9i8r32":2447,"r9vmruvs06a8eg7g1xpapuz0t":2448,"slfz91fhj3koq15t6mtbfzkv6":2449,"ssekfrj8e1v2n643tgl3as8cf":2450,"t421vto9bl56spuragkno0jn7":2451,"x1s4lmp4qhtytgn9sxm4accem":2452,"ypiotm3ftaq3285a5abat8mp9":2453,"z88mv3b3er4lo58406wv2hvtj":2454,"zh647zx9gb0mf36nljvmun0ce":2455,"z2mgjp7mov6gblfsbrc1ez566":2456,"02t15":2457,"access":2458,"05":2459,"framework":2460,"##request":2461,"520":2462,"##5f":2463,"##zk":2464,"##cb":2465,"441":2466,"##33":2467,"##ring":2468,"1302":2469,"35":2470,"##ee":2471,"##ig":2472,"##ndle":2473,"##64":2474,"177":2475,"##ar":2476,"##1b":2477,"##handler2":2478,"##updatehandler2":2479,"directupdatehandler2":2480,"##bj":2481,"##com":2482,"warning":2483,"processing":2484,"ns5":2485,"##uth":2486,"romes":2487,"##pace":2488,"58":2489,"##63":2490,"attempt":2491,"##49f":2492,"74":2493,"auth":2494,"##metacard":2495,"bod":2496,"port":2497,"##ename":2498,"##lement":2499,"romemissiondatawsendpoint":2500,"body":2501,"romemissiondatawsendpoint_v2_0":2502,"##79":2503,"bundle":2504,"servlethandler":2505,"105":2506,"stop":2507,"\">":2508,"##riter":2509,"##get":2510,"/>":2511,"usa":2512,"comp":2513,"##2b":2514,"102":2515,"##+(+":2516,"components":2517,"##vailable":2518,"sh":2519,"##faa":2520,"##2f":2521,"off":2522,"connect":2523,"##ud":2524,"##ility":2525,"877":2526,"shut":2527,"48":2528,"failed":2529,"comple":2530,"solrzk":2531,"solrzkclient":2532,"cloud":2533,"##atcher":2534,"watcher":2535,"sessiontime":2536,"##string":2537,"connectstring":2538,"sessiontimeout":2539,"##249":2540,"main":2541,"own":2542,"owner":2543,"##d4a":2544,"complete":2545,"##ved":2546,"687":2547,"location":2548,"establishment":2549,"##entic":2550,"222":2551,"authentic":2552,"##_solr":2553,"19000_solr":2554,"will":2555,"##ail":2556,"0008":2557,"##ques":2558,"cport":2559,"sid":2560,"ter":2561,"##tprocessor":2562,"##reques":2563,"processed":2564,"processthread":2565,")::":2566,"prepreques":2567,"termination":2568,"preprequestprocessor":2569,"1035":2570,"sas":2571,"using":2572,"authenticate":2573,"sasl":2574,"##nc":2575,"io":2576,"##a9":2577,"##62":2578,"##ync":2579,"accepted":2580,"nioservercnxnfactory":2581,"sync":2582,"1056":2583,"694":2584,"em":2585,"email":2586,"##c7":2587,"ph":2588,"contrib":2589,"contro":2590,"orig":2591,"##one_txt_tokenized":2592,"##semination":2593,"publisher":2594,"##ls_txt_tokenized":2595,"dissemination":2596,"creator":2597,"address_txt_tokenized":2598,"category_txt_tokenized":2599,"email_txt_tokenized":2600,"phone_txt_tokenized":2601,"contributor":2602,"controls_txt_tokenized":2603,"origin":2604,"syncthread":2605,"##65":2606,"949":2607,"51":2608,"21":2609,"##ich":2610,"had":2611,"which":2612,"6d":2613,"attempting":2614,"##b9b":2615,"im":2616,"54":2617,"##c5":2618,"exec":2619,"rom2":2620,"0x10000046b0e03":2621,"action":2622,"27":2623,"##ies":2624,"29":2625,"rea":2626,"aries":2627,"##by":2628,"_3":2629,"##2a0":2630,"alerts_shard1_replica_n":2631,"##ids":2632,"0x10000046b0e02":2633,"117":2634,"##3d":2635,"##gh":2636,"##tle":2637,"title":2638,"##servic":2639,"##ght":2640,"44":2641,"180":2642,"100":2643,"101":2644,"++(+":2645,"##a0":2646,"errors_txt":2647,"##provider":2648,"38":2649,"##for":2650,"##c2":2651,"##9e":2652,"##be":2653,"##bject":2654,"##su":2655,"used":2656,"b9b":2657,"##9549f":2658,"bfaa":2659,"wait":2660,"##tcommit":2661,"softcommit":2662,"waitsearcher":2663,"42a0":2664,"##32b9b":2665,"##81d4a":2666,"82da":2667,"6d81d4a":2668,"b9b32b9b":2669,"6d81d4a9549f":2670,"##yfilter":2671,"##ybyfilter":2672,"querybyfilter":2673,"42":2674,"##chang":2675,"exchang":2676,"exchange":2677,"##71":2678,"##6f":2679,"##qlist":2680,"idre":2681,"idreqlist":2682,"text":2683,"##ll":2684,"null":2685,"command":2686,"##ecurity":2687,"romesecurity":2688,"romesecuritytype":2689,"169036":2690,"##d0":2691,"reason":2692,"getmissionids":2693,"##invo":2694,"##edhandler":2695,"scop":2696,"dofilter":2697,"##invoker":2698,"scopedhandler":2699,"header":2700,"landing":2701,"##element":2702,"##flag":2703,"##ord":2704,"81":2705,"000002":2706,"fli":2707,"hda":2708,"##dts":2709,"##landingdt":2710,"##ick":2711,"##nu":2712,"##nflag":2713,"##nick":2714,"##tanflag":2715,"##onstationdt":2716,"##onoff":2717,"##eater":2718,"##keoff":2719,"titanflag":2720,"onstationdt":2721,"missionlist":2722,"missiontype":2723,"missionstate":2724,"missionrequest":2725,"missionnick":2726,"theater":2727,"##allandingdt":2728,"##unit":2729,"##stationdts":2730,"02t23":2731,"02t22":2732,"plannedoff":2733,"plannedtakeoffdt":2734,"plannedlandingdt":2735,"plannedonstationdt":2736,"actuallandingdt":2737,"takeoff":2738,"actualtakeoffdt":2739,"actualonoff":2740,"modifieddate":2741,"modifiedby":2742,"assetversion":2743,"disciplinetypelist":2744,"tailnu":2745,"offstationdt":2746,"##ghtunit":2747,"landingbase":2748,"flightunit":2749,"hdam":2750,"missionrequesttype":2751,"missionnickname":2752,"theaterid":2753,"##stationdtslist":2754,"plannedoffstationdt":2755,"takeoffbase":2756,"actualonoffstationdtslist":2757,"tailnumber":2758,"346":2759,"idlist":2760,"##34":2761,"000003":2762,"##cer":2763,"os":2764,"##writer":2765,"solrindexwriter":2766,"##af":2767,"errors_txt_tokenized":2768,"+*])++)++":2769,"warnings_txt_tokenized":2770,"1690245":2771,"cod":2772,"codice":2773,"endpoint":2774,"##ator":2775,"##ure":2776,"##ducer":2777,"72":2778,"498":2779,"560":2780,"##message":2781,"##172":2782,"188":2783,"24":2784,"expu":2785,"opensearcher":2786,"##edelet":2787,"##ngedelet":2788,"expungedelet":2789,"expungedeletes":2790,"300":2791,"##age":2792,"##inter":2793,"c5":2794,"tas":2795,"task":2796,"qt":2797,"##408":2798,"322":2799,"##rget":2800,"top":2801,"target":2802,"oper":2803,"topic":2804,"uri":2805,"160":2806,"sen":2807,"deri":2808,"##iations":2809,"status_txt_tokenized":2810,"##tity":2811,"##ociations":2812,"system_txt_tokenized":2813,"entity":2814,"associations":2815,"releasability":2816,"uri_txt_tokenized":2817,"derived":2818,"releasability_txt_tokenized":2819,"##sor":2820,"sensor":2821,"##c4":2822,"##b4":2823,"##a6":2824,"##df":2825,"748":2826,"108":2827,"500":2828,"\"+)++":2829,"ping":2830,"##a3":2831,"##6bf":2832,"##59":2833,"##component":2834,"421":2835,"##51":2836,"dest":2837,"##ying":2838,"##roying":2839,"destroying":2840,"##d6":2841,"##d3":2842,"481":2843,"125":2844,"checker":2845,"##ild":2846,"build":2847,"dopro":2848,"##504":2849,"##checkcomponent":2850,"spellcheckcomponent":2851,"building":2852,"nt":2853,"##e2":2854,"onmessage":2855,"##f7":2856,"624":2857,"solrindexsearcher":2858,"##b7":2859,"##services":2860,"##103":2861,"##edir":2862,"\":-":2863,"romeid":2864,"romeidlist":2865,"##f96":2866,"0s1009s011":2867,"gener":2868,"79":2869,"##266":2870,"ops":2871,"ops4j":2872,"##nection":2873,"))":2874,"##)}":2875,"##tabl":2876,"exitabl":2877,"uninvertingdir":2878,"##edirectoryreader":2879,")))}":2880,"exitabledirectoryreader":2881,"uninvertingdirectoryreader":2882,"##servlet":2883,"##catalogprovider":2884,"##available":2885,"##response":2886,"##atedmethodaccessor":2887,"generatedmethodaccessor":2888,"c2":2889,"157":2890,"##01":2891,"solrcatalogprovider":2892,"=+(+":2893,"rows":2894,"##)+&":2895,"pan":2896,"panel":2897,"273":2898,"fre":2899,"free":2900,"0014":2901,"space":2902,"disk":2903,"ns11":2904,"##oding":2905,"262":2906,"fl":2907,"##fc":2908,"exchangeid":2909,"1149":2910,"##89a":2911,"677":2912,"785":2913,"743":2914,"runw":2915,"worker":2916,"runworker":2917,"857":2918,"execute":2919,"##2c":2920,"##f49":2921,"1194":2922,"doexec":2923,"1695":2924,"doexecute":2925,"servic":2926,"##e9":2927,"awq":2928,"proceed":2929,"##threadfactory":2930,"handleresponseinternal":2931,"internalcallback":2932,"doproceed":2933,"awqthreadfactory":2934,"32":2935,"##84f":2936,"34":2937,"ssl":2938,"##853":2939,"jvm":2940,"##430":2941,"##d5":2942,"65":2943,"##coding":2944,"encoding":2945,"28":2946,"##5z":2947,":(":2948,"##39":2949,"##*)":2950,":(*)":2951,":(*))+":2952,"##e7":2953,"##152":2954,"se":2955,"##theader":2956,"##----------------------------------------------------------------":2957,"setheader":2958,"p3a":2959,"##ipb":2960,"p3aipb":2961,"p3aipbn":2962,"##518":2963,"##08":2964,"169035":2965,"abstrac":2966,"c8":2967,"96":2968,"##e8":2969,"0x10000046b0e06":2970,"##0a":2971,"##29c":2972,"##f4":2973,"##typ":2974,"000000":2975,"##583":2976,"##fb":2977,"73":2978,"0010":2979,"comman":2980,"##13f":2981,"0s1009s012":2982,"0006":2983,"##321":2984,"0s1009s013":2985,"##thttp":2986,"...":2987,"149":2988,"##servererror":2989,"internalservererror":2990,"##b7b":2991,"05t":2992,"##dating":2993,"##_fl":2994,"##_commit":2995,"end_commit":2996,"##_flush":2997,"end_commit_flush":2998,"##ac":2999,"sche":3000,"schem":3001,"##f5":3002,"response":3003,"##tim":3004,"##ecommit":3005,"optim":3006,"prepar":3007,"optimize":3008,"preparecommit":3009,"generatedmethodaccessor172":3010,"req":3011,"pas":3012,"##sword":3013,"username":3014,"password":3015,"##vali":3016,"hit":3017,"##nv2":3018,"##_out":3019,"##msnv2":3020,"romemsnv2":3021,"req_out":3022,"hits":3023,"romemsnv2services":3024,"##ceptor":3025,"64":3026,"missionidlist":3027,"8080":3028,"/\"":3029,"ic":3030,"##yload":3031,"##chain":3032,"payload":3033,"ism":3034,"##lsoap":3035,"xmlsoap":3036,"romemissiondataws_v2_0":3037,"gov":3038,"portname":3039,"porttyp":3040,"headers":3041,"servicename":3042,"schemas":3043,"porttypename":3044,"##connection":3045,"##e1":3046,"##sec":3047,"211":3048,"eat":3049,"##hat":3050,"##xrs":3051,"##you":3052,"##kill":3053,"##what":3054,"jaxrs":3055,"abstracthttp":3056,"eatwhat":3057,"##youkill":3058,"eatwhatyoukill":3059,"##platform":3060,"##tf":3061,"##c1":3062,"invali":3063,"c10":3064,"her":3065,"##cu":3066,"hercu":3067,"##producer":3068,"##leto":3069,"releasableto":3070,"ownerproducer":3071,"utf":3072,"##p_":3073,"##rset":3074,"resp_":3075,"charset":3076,"return":3077,"##responseelement":3078,"resp_in":3079,"##ul":3080,"##bf3":3081,"##rl":3082,"##568":3083,"upda":3084,"##temission":3085,"updatemission":3086,"updatemissionmetacard":3087,"aa":3088,"##d6d":3089,"##6de":3090,"operation":3091,"cor":3092,"116":3093,"##*,":3094,"71":3095,"##dator":3096,"178":3097,"str":3098,"##c8":3099,"##61":3100,"##bcc":3101,"##9446":3102,"503":3103,"##0d":3104,"##9c24":3105,"##011":3106,"##6e":3107,"##try":3108,"##da77":3109,"validator":3110,"##77f0":3111,"##73fa":3112,"161":3113,"62":3114,"##eb13":3115,"##8c29c":3116,"##6d3b":3117,"##6bf9c24":3118,"##5838c29c":3119,"##77f05838c29c":3120,"##73fa6bf9c24":3121,"##6d3b77f05838c29c":3122,"##73fa6bf9c246d3b77f05838c29c":3123,"##73fa6bf9c246d3b77f05838c29c321":3124,"##9089a":3125,"##408bb":3126,"##b8408bb":3127,"##a9266":3128,"##13f9089a":3129,"##da77f49":3130,"##eb13a9266":3131,"##b8408bb13f9089a":3132,"##eb13a9266b8408bb13f9089a":3133,"##eb13a9266b8408bb13f9089ada77f49":3134,"checksu":3135,"checksum":3136,"##di":3137,"66":3138,"crs":3139,"des":3140,"form":3141,"seri":3142,"tdl":3143,"url":3144,"##y_txt_tokenized":3145,"station":3146,"##ms_txt_tokenized":3147,"score":3148,"version_txt_tokenized":3149,"quali":3150,"end_txt_tokenized":3151,"start_txt_tokenized":3152,"download":3153,"comments_txt_tokenized":3154,"originator":3155,"action_txt_tokenized":3156,"validators":3157,"desc":3158,"format":3159,"serial":3160,"url_txt_tokenized":3161,"station_txt_tokenized":3162,"quality":3163,"alerts_shard1_replica_n1":3164,"_4":3165,"time_txt_tokenized":3166,"##ller":3167,"##contro":3168,"##controller":3169,"608":3170,"##dd3":3171,"##37":3172,"##0287":3173,"post":3174,"##fcc":3175,"##f1":3176,"##b0103":3177,"##f9684f":3178,"##853d6d":3179,"##b7bb0103":3180,"##6de0287":3181,"##f9684fb7bb0103":3182,"##853d6d9446":3183,"##6de0287f9684fb7bb0103":3184,"##6de0287f9684fb7bb0103853d6d9446":3185,"##tered":3186,"##1012":3187,"##fy":3188,"##921":3189,"##120":3190,"##522":3191,"##67":3192,"##d9":3193,"##ked":3194,"##7cfa":3195,"##d2":3196,"67":3197,"88":3198,"161249":3199,"##518dd3":3200,"aa7cfa":3201,"##1012504":3202,"1612491012504":3203,"aa7cfa518dd3":3204,"##f9":3205,"nat":3206,"153":3207,"##0c":3208,"##ae":3209,"unable":3210,"##ip":3211,"75":3212,"ns10":3213,"##27":3214,"172":3215,"318":3216,"##6b":3217,"set":3218,"52972":3219,"52920":3220,"cached":3221,"##3c":3222,"##d4":3223,"87":3224,"##2e":3225,"52956":3226,"lientadapter":3227,"##05":3228,"##xthandler":3229,"contexthandler":3230,"##eci":3231,"85":3232,"p3aipbn011":3233,"##d7":3234,"##a5":3235,"603":3236,"##a4":3237,"alerts_shard1_replica_n2":3238,"##648":3239,"##rds":3240,"##cards":3241,"##metacards":3242,"65a":3243,"##a7":3244,".<":3245,"call":3246,"##solr":3247,"##object":3248,"getfor":3249,"getforobject":3250,"##f8":3251,"##py":3252,"##zz":3253,"##jz":3254,"##52aa":3255,"##ils":3256,"httpsolr":3257,"##1d5b":3258,"##ble":3259,"httpsolrcall":3260,")..":3261,")...":3262,"103":3263,"2921":3264,"4bcc":3265,"a249":3266,"##ile":3267,"##95bf3":3268,"461d5b":3269,"65a95bf3":3270,"##52aa17":3271,"461d5b52aa17":3272,"##022":3273,"=+(++(+":3274,"c3":3275,"##dis":3276,"romedis":3277,"##lean":3278,"romedisciplinetype":3279,"##416":3280,"90":3281,"respon":3282,"##secode":3283,"responsecode":3284,"93":3285,"sup":3286,"##serviceimpl":3287,"catalogserviceimpl":3288,"##106":3289,"fill":3290,"servletcontroller":3291,"createoperations":3292,"##interceptor":3293,"sslconnection":3294,"abstracthttpservlet":3295,"cachedchain":3296,"support":3297,"iw":3298,"##commit":3299,"##lin":3300,"##pt":3301,"573":3302,"##comm":3303,"##943":3304,"118":3305,"afr":3306,"hyb":3307,"jfcc":3308,"reco":3309,"sro":3310,"vess":3311,"vip":3312,"##t12":3313,"##rid":3314,"##tails":3315,"##icom":3316,"applica":3317,"##demo":3318,"##oct0":3319,"##vered":3320,"##verted":3321,"##nding":3322,"##missionlist":3323,"13t12":3324,"details":3325,"diverted":3326,"02152":3327,"bard":3328,"02t16":3329,"##agged":3330,"standing":3331,"capt":3332,"imint":3333,"flagged":3334,"##5zoct0":3335,"herculean":3336,"##kedmissionlist":3337,".</":3338,"##linkedmissionlist":3339,"africom":3340,"hybrid":3341,"jfccdemo":3342,"recovered":3343,"vessel":3344,"applicable":3345,"021525zoct0":3346,"capture":3347,"hybridlinkedmissionlist":3348,"021525zoct09":3349,"##72a":3350,"##andversion":3351,"commitcomm":3352,"setcommit":3353,"calling":3354,"commitcommandversion":3355,"setcommitdata":3356,"provider":3357,"##773":3358,"602":3359,"##6c":3360,"##102":3361,"##a2":3362,"83":3363,"available":3364,"000006":3365,"##3e":3366,"##gi":3367,"osgi":3368,"70":3369,"##ann":3370,"##d1":3371,"missions":3372,"##818":3373,"##am":3374,"##meti":3375,"##rometi":3376,"##rometimer":3377,"165":3378,"##480":3379,"c16":3380,"76":3381,"c12":3382,"_version":3383,"_version_":3384,"277":3385,"68":3386,"_5":3387,"61":3388,"##ece":3389,"##160":3390,"2173fa6bf9c246d3b77f05838c29c321":3391,"##148":3392,"##157":3393,"wor":3394,"##reak":3395,"##dbreak":3396,"wordbreak":3397,"c6":3398,"463":3399,"91":3400,"##sc":3401,"real":3402,"##source":3403,"4eb13a9266b8408bb13f9089ada77f49":3404,"realtime":3405,"##bas":3406,"indexbas":3407,"indexbased":3408,"solrc":3409,"92":3410,"##a8":3411,"+*])++)+&":3412,"\"+)++)++":3413,"sending":3414,"b6de0287f9684fb7bb0103853d6d9446":3415,"##loc":3416,"1642":3417,"configur":3418,"##vailab":3419,"##doc":3420,"##ument":3421,"##handle":3422,"dohandle":3423,"adddoc":3424,"##scope":3425,"adddocument":3426,"unavailable":3427,"##unavailable":3428,"registered":3429,"solrcore":3430,"##b7d":3431,"wire":3432,"##getmission":3433,"wireta":3434,"452":3435,"##f88":3436,"##regis":3437,"##425":3438,"89":3439,"##dexten":3440,"commandexten":3441,"commandextension":3442,"##a1":3443,"##d8":3444,"111":3445,"tags_txt":3446,"##560":3447,"##ly":3448,"##poll":3449,"##pollthread":3450,"_30":3451,"69":3452,"05t0":3453,"c5522":3454,"configured":3455,"99":3456,"##880":3457,"updateplatform":3458,"updateplatformmetacard":3459,"availab":3460,"##ify":3461,"verify":3462,"checking":3463,"##rectly":3464,"while":3465,"correctly":3466,"availability":3467,"##ae6":3468,"##vision":3469,"##1bc":3470,"##c13":3471,"##73f":3472,"+(":3473,"fq":3474,"revision":3475,"0x10000046b0e08":3476,"++(+(":3477,"deleted":3478,"warnings_txt":3479,"=+(++(++":3480,"##242":3481,"timer":3482,"=}":3483,"533":3484,"##0f":3485,"##496":3486,"tra":3487,"##495":3488,"##stan":3489,"600":3490,"##pper":3491,"546":3492,"c18":3493,"543":3494,"##wra":3495,"##wrapper":3496,"0x10000046b0e015":3497,"##stance":3498,"##31":3499,"_6":3500,"##perty":3501,"##437":3502,"0x10000046b0e07":3503,"4f2":3504,"invalidating":3505,"rece":3506,"##ived":3507,"received":3508,"220":3509,"##ction":3510,"540":3511,"229":3512,"feat":3513,"##gc":3514,"##ik":3515,"##nm":3516,"##uuq":3517,"ka":3518,"karaf":3519,"##action":3520,"import":3521,"track":3522,"##ategy":3523,"550":3524,"##460":3525,"486":3526,"##490":3527,"95":3528,"fir":3529,"##403":3530,"##8d773":3531,"argc":3532,"##selement":3533,"getmissionselement":3534,"##riteria":3535,"argcriteria":3536,"##method":3537,"##econ":3538,"##ults":3539,"4f28d773":3540,"\",":3541,"=*":3542,"bread":3543,"gmt":3544,"##cru":3545,"##peci":3546,"##/*,":3547,"##><":3548,"##edtime":3549,"faults":3550,"##almission":3551,"httpmethod":3552,"ns6":3553,"ns7":3554,"ns8":3555,"ns4":3556,"ns3":3557,"ns9":3558,"soapaction":3559,"##mbid":3560,"romemissionsched":3561,"romespeci":3562,"\"><":3563,"romeidlistrequest":3564,"/\"><":3565,"firedtime":3566,"=*/*,":3567,"breadcru":3568,"##almissionsched":3569,"romespecialmissionsched":3570,"breadcrumbid":3571,"##493":3572,"##808":3573,"##ueued":3574,"##tendpoint":3575,"updating":3576,"552":3577,"equest":3578,"getmissionidselement":3579,"equestrometimer":3580,"##subject":3581,"strategy":3582,"##eng":3583,"##ava":3584,"##java":3585,"securityjava":3586,"##subjectfilter":3587,"securityjavasubjectfilter":3588,"queued":3589,"##socket":3590,"websocket":3591,"sessionhandler":3592,"serviceinvoker":3593,"##threadpool":3594,"restendpoint":3595,"handlerwrapper":3596,"abstractinvoker":3597,"##interest":3598,"jaxrsinvoker":3599,"fillinterest":3600,"queuedthreadpool":3601,"serviceinvokerinterceptor":3602,"##roperty":3603,"##servicep":3604,"serviceunavailable":3605,"configservicep":3606,"##sourceloc":3607,"##ropertysourceloc":3608,"configservicepropertysourceloc":3609,"configservicepropertysourcelocator":3610,"##696":3611,"p3aipbn0111":3612,"##186":3613,"553":3614,"##p2":3615,"aip2":3616,"getmissionsresponseelement":3617,"leng":3618,"##464":3619,"length":3620,"getmissionidsresponseelement":3621,"##sr":3622,"98":3623,"##486":3624,"##7580":3625,"77":3626,"537":3627,"inform":3628,"##760":3629,"539":3630,"information":3631,"##432":3632,"##410":3633,"##7430":3634,"##flo":3635,"workflo":3636,"workflow":3637,"556":3638,"ler":3639,"lerpollthread":3640,"##466":3641,"##536":3642,"##7089":3643,"542":3644,"86":3645,"##ces":3646,"##ources":3647,"##472":3648,"commands":3649,"146":3650,"##690":3651,"##82102":3652,"##242a":3653,"##f672a":3654,"##54568":3655,"##db157":3656,"##ae682102":3657,"##7430db157":3658,"##f672a54568":3659,"##ae6821027430db157":3660,"##f672a54568e4":3661,"##ae6821027430db157f672a54568e4":3662,"536":3663,"##b140":3664,"inc":3665,"412":3666,"{,":3667,"##ied":3668,"image":3669,"000001":3670,"350":3671,"541":3672,"##448":3673,"##ith":3674,"##c31e":3675,"##9049":3676,"resources":3677,"##itat":3678,"##oitat":3679,"expl":3680,"##ization":3681,"##oitation":3682,"exploitation":3683,"pri":3684,"##ority":3685,"priority":3686,"co":3687,"##orting":3688,"##untry":3689,"reporting":3690,"country":3691,"feature":3692,"##436":3693,"599":3694,"sub":3695,"##116":3696,"545":3697,"##008":3698,"11eb":3699,"593":3700,"84":3701,"##833":3702,"473":3703,"##1d20":3704,"\")+":3705,"=*,":3706,"ali":3707,"alg":3708,"by_txt_tokenized":3709,"date":3710,"edi":3711,"gro":3712,"jc3":3713,"mode":3714,"oth":3715,"rid":3716,"rating":3717,"sit":3718,"sort":3719,"voc":3720,"##lated":3721,"##ption":3722,"##mes":3723,"##m_txt_tokenized":3724,"##uation":3725,"##ups":3726,"##ual":3727,"##uage":3728,"##wor":3729,"##word":3730,"##ernal":3731,"##orith":3732,"##tatype":3733,"##tems_txt_tokenized":3734,"##atfor":3735,"##ds_txt_tokenized":3736,"##_type":3737,"##ing_txt_tokenized":3738,"##ective":3739,"organ":3740,"indi":3741,"##ame_txt_tokenized":3742,"producer":3743,"related":3744,"unit":3745,"##_name_txt_tokenized":3746,"platfor":3747,"##ident":3748,"##pression":3749,"##as_txt_tokenized":3750,"compression":3751,"metacard_type":3752,"scann":3753,"names":3754,"##abul":3755,"external":3756,"contact_txt_tokenized":3757,"keyword":3758,"##+(+(":3759,"systems_txt_tokenized":3760,"##ription":3761,"datatype":3762,"source_txt_tokenized":3763,"metadata_txt_tokenized":3764,"subj":3765,"alar":3766,"codewor":3767,"language":3768,"size_txt_tokenized":3769,"##vidual":3770,"tail_txt_tokenized":3771,"##ary_txt_tokenized":3772,"##pace_txt_tokenized":3773,"owner_txt_tokenized":3774,"location_txt_tokenized":3775,"origin_txt_tokenized":3776,"original":3777,"title_txt_tokenized":3778,"+*])++)++)+&":3779,"derived_txt_tokenized":3780,"=+(++(+(":3781,"encoding_txt_tokenized":3782,"string_txt_tokenized":3783,"checksum_txt_tokenized":3784,"description":3785,"format_txt_tokenized":3786,"quality_txt_tokenized":3787,"nato":3788,"##stance_txt_tokenized":3789,"information_txt_tokenized":3790,"incident":3791,"##iedm":3792,"##izational":3793,"priority_txt_tokenized":3794,"substance_txt_tokenized":3795,"alias_txt_tokenized":3796,"algorith":3797,"datetime":3798,"edited":3799,"groups":3800,"jc3iedm":3801,"mode_txt_tokenized":3802,"other":3803,"rid_txt_tokenized":3804,"rating_txt_tokenized":3805,"situation":3806,"vocabul":3807,"organizational":3808,"individual":3809,"producer_txt_tokenized":3810,"related_txt_tokenized":3811,"unit_txt_tokenized":3812,"platforms_txt_tokenized":3813,"compression_txt_tokenized":3814,"metacard_type_name_txt_tokenized":3815,"scanning":3816,"namespace_txt_tokenized":3817,"external_txt_tokenized":3818,"keyword_txt_tokenized":3819,"datatype_txt_tokenized":3820,"subjective":3821,"alarm":3822,"codewords_txt_tokenized":3823,"language_txt_tokenized":3824,"description_txt_tokenized":3825,"algorithm_txt_tokenized":3826,"groups_txt_tokenized":3827,"vocabulary_txt_tokenized":3828,"individuals_txt_tokenized":3829,"jo":3830,"exit":3831,"sensors_txt_tokenized":3832,"join":3833,"##128":3834,"##136":3835,"0242a":3836,"clea":3837,"0242ac13":3838,"##b0b2":3839,"0x10000046b0e00":3840,"##770":3841,"##248":3842,"##146":3843,"393":3844,"94":3845,"391":3846,"366":3847,"##ec73f":3848,"250":3849,"##528":3850,"##400":3851,"##872":3852,"597":3853,"##b9b140":3854,"##890":3855,"##106b9b140":3856,"##f881d20":3857,"##7580f881d20":3858,"##9049106b9b140":3859,"##ec73feb":3860,"##7580f881d20ec73feb":3861,"##9049106b9b1407580f881d20ec73feb":3862,"##b1c31e":3863,"##022b0b2":3864,"##9437089":3865,"##81853":3866,"##b7d9437089":3867,"##1bc81853":3868,"##b1c31e1bc81853":3869,"##022b0b2b7d9437089":3870,"##022b0b2b7d9437089b1c31e1bc81853":3871,"549":3872,"16903641":3873,"513":3874,"wiretap":3875,"##698":3876,"596":3877,"##444":3878,"586":3879,"78":3880,"##290":3881,"##428":3882,"##eca":3883,"##246":3884,"399":3885,"606":3886,"rss":3887,"583":3888,"588":3889,"0242ac13000":3890,"##208":3891,"555":3892,"##870":3893,"544":3894,"576":3895,"526":3896,"getplatform":3897,"getplatformmetacards":3898,"403":3899,"120":3900,"396":3901,"default":3902,"httpservic":3903,"##econtext":3904,"httpservicecontext":3905,"1690369":3906,"##884":3907,"400":3908,"##112":3909,"##860":3910,"388":3911,"##7de":3912,"415":3913,"##c12":3914,"##764":3915,"0000015":3916,"##346":3917,"##768":3918,"16902454":3919,"114":3920,"329":3921,"##482":3922,"##fdc":3923,"##8c2":3924,"547":3925,"nati":3926,"524":3927,"##8ae":3928,"creating":3929,"569":3930,"actionprovider":3931,"##296":3932,"##446":3933,"##ables":3934,"##168":3935,"06":3936,"invalidate":3937,"##oot":3938,"##110":3939,"411":3940,"##verage":3941,"##498":3942,"##loa":3943,"##loada":3944,"587":3945,"530":3946,"538":3947,"operations":3948,"##clientadapter":3949,"gdes4":3950,"532":3951,"##104":3952,"fs":3953,"hea":3954,"##cpu":3955,"##eroot":3956,"processcpu":3957,"usables":3958,"systemloada":3959,"coreroot":3960,"heap":3961,"processcpuload":3962,"usablespace":3963,"systemloadaverage":3964,"javax":3965,"##gest":3966,"ingest":3967,"535":3968,"##0e":3969,"##0346":3970,"##122":3971,"##502":3972,"577":3973,"##126":3974,"##_end":3975,"##_point":3976,"commit_end":3977,"commit_end_point":3978,"##776":3979,"getmissionmetacards":3980,"-----------------------------------------------------------------":3981,"523":3982,"##347":3983,"romegetmission":3984,"##------":3985,"delivery":3986,"choice":3987,"##----------------------------------------------------------------------":3988,"operationname":3989,"---------------------------------------------------------------------------------------------------------------------------------------":3990,"pha":3991,"##lable":3992,"##ination":3993,"##erved":3994,"onfil":3995,"##estination":3996,"doscope":3997,"reserved":3998,"##entity":3999,"##forentity":4000,"postforentity":4001,"ingestmetacard":4002,"phase":4003,"onfillable":4004,"##462":4005,"##904":4006,"##man":4007,"132":4008,"##404":4009,"##988":4010,"##e52":4011,"##530":4012,"##107":4013,"##24a":4014,"590":4015,"##184":4016,"557":4017,"##4aa":4018,"##c06":4019,"1690370":4020,"##e66":4021,"native":4022,"387":4023,"feb":4024,"##704":4025,"605":4026,"fri":4027,"000007":4028,"609":4029,"109":4030,"##886":4031,"##294":4032,"##260":4033,"601":4034,"##8eb":4035,"110":4036,"##538":4037,"##e36":4038,"unregis":4039,"##206":4040,"##474":4041,"126":4042,"##130":4043,"##1a4":4044,"589":4045,"##14a":4046,"##494":4047,"##975":4048,"469":4049,"000008":4050,"##045":4051,"##484":4052,"##243":4053,"##m0":4054,"##564":4055,"##3f9":4056,"333":4057,"607":4058,"##325":4059,"##414":4060,"##825":4061,"##546":4062,"580":4063,"##526":4064,"97":4065,"##691":4066,"##cf6":4067,"##864":4068,"##c8d":4069,"573ae6821027430db157f672a54568e4":4070,"##202":4071,"##025":4072,"173":4073,"595":4074,"390":4075,"##644":4076,"150":4077,"##694":4078,"##992":4079,"##506":4080,"##140":4081,"369":4082,"353":4083,"477":4084,"##492":4085,"##247":4086,"##487":4087,"##478":4088,"499":4089,"##580":4090,"305":4091,"##960":4092,"##972":4093,"##998":4094,"585":4095,"151":4096,"##508":4097,"##970":4098,"377":4099,"104":4100,"##706":4101,"581":4102,"shel":4103,"##220":4104,"shell":4105,"##5287":4106,"##176":4107,"##182":4108,"##990":4109,"##030":4110,"##936":4111,"9a":4112,"559":4113,"558":4114,"##188":4115,"446":4116,"[{":4117,"130":4118,"##145":4119,"##b48":4120,"##0112":4121,"##a80":4122,"##76e":4123,"506":4124,"p3aipbn0113":4125,"proxy":4126,"p3aipbn0112":4127,"4022b0b2b7d9437089b1c31e1bc81853":4128,"##150":4129,"488":4130,"570":4131,"413":4132,"##766":4133,"03":4134,"##125":4135,"##438":4136,"##166":4137,"_3h":4138,"[?:?]":4139,"416":4140,"##433":4141,"##422":4142,"##728":4143,"_56":4144,"##108":4145,"##882":4146,"##ecipe":4147,"79049106b9b1407580f881d20ec73feb":4148,"389":4149,"##42a":4150,"402":4151,"}]":4152,"##724":4153,"385":4154,"383":4155,"##46a":4156,"598":4157,"##149":4158,"##194":4159,"##562":4160,"_54":4161,"563":4162,"],":4163,"mpl":4164,"##006":4165,"##778":4166,"##144":4167,"343":4168,"483":4169,"_52":4170,"_53":4171,"##114":4172,"406":4173,"##7x":4174,"##424":4175,"##413":4176,"##458":4177,"##43f":4178,"##875":4179,"373":4180,"453":4181,"_55":4182,"429":4183,"422":4184,"##49d":4185,"##49a":4186,"_3f":4187,"##5aa":4188,"##cb7":4189,"_2m":4190,"b0":4191,"512":4192,"55a":4193,"##996":4194,"##162":4195,"424":4196,"554":4197,"c5425":4198,"_2l":4199,"c35":4200,"##772":4201,"##692":4202,"443":4203,"##178":4204,"386":4205,"121":4206,"##534":4207,"c5437":4208,"##730":4209,"356":4210,"810":4211,"107":4212,"493":4213,"c35287":4214,"426":4215,"##026":4216,"##40a":4217,"476":4218,"##468":4219,"##454":4220,"##47d":4221,"c35495":4222,"496":4223,"can":4224,"##124":4225,"##not":4226,"cannot":4227,"##196":4228,"##ef11":4229,"##238":4230,"16902455":4231,"##43a":4232,"##322":4233,"594":4234,"575":4235,"##203":4236,"001a":4237,"##736":4238,"527":4239,"376":4240,"516":4241,"##8i":4242,"##2x":4243,"##1511":4244,"534":4245,"##c4a":4246,"175":4247,"423":4248,"591":4249,"##142":4250,"##non":4251,"##832":4252,"##e4a":4253,"##um":4254,"##483":4255,"##41d":4256,"##7i":4257,"##7k":4258,"##236":4259,"c48":4260,"##942":4261,"##1w":4262,"##900":4263,"##204":4264,"##695":4265,"349":4266,"##190":4267,"215":4268,"330":4269,"##0238":4270,"380":4271,"355":4272,"420":4273,"425":4274,"##8k":4275,"##ok":4276,"001c":4277,"##c8c2":4278,"0018":4279,"##117":4280,"456":4281,"##774":4282,"##754":4283,"566":4284,"001e":4285,"##947":4286,"440":4287,"572":4288,"##1n":4289,"##d575":4290,"450":4291,"all":4292,"cff":4293,"##80c5":4294,"##930":4295,"528":4296,"##6bf0":4297,"##b46":4298,"##874":4299,"490":4300,"##ching":4301,"230":4302,"466":4303,"lu":4304,"##ow":4305,"251":4306,"##former":4307,"inter":4308,"##c12b":4309,"##fdc90":4310,"interceptor":4311,"##j1":4312,"##wf2":4313,"gdes4eb13a9266b8408bb13f9089ada77f49":4314,"348":4315,"rclientadapter":4316,"stal":4317,"stale":4318,"##qx":4319,"##j5":4320,"##exs":4321,"subject":4322,"c39":4323,"##43d":4324,"44b2":4325,"0i8":4326,"582":4327,"7lu":4328,"hen":4329,"j9":4330,"kn6":4331,"lg":4332,"nvm":4333,"niy":4334,"nnm":4335,"oh":4336,"o6n":4337,"ux":4338,"uty":4339,"vq":4340,"xn":4341,"xk":4342,"yu":4343,"##0qs":4344,"##6m":4345,"##6ng":4346,"##5h":4347,"##5dt":4348,"##8qx":4349,"##1zy":4350,"##4p":4351,"##4m":4352,"##4o":4353,"##4zz":4354,"##3n":4355,"##3r":4356,"##3q":4357,"##9t":4358,"##946":4359,"##986":4360,"##9lq":4361,"##aq":4362,"##bn":4363,"##bx":4364,"##bmp":4365,"##bgz":4366,"##dx":4367,"##drs":4368,"##dnm":4369,"##fg":4370,"##l04":4371,"##llr":4372,"##lbmp":4373,"##iqu":4374,"##iio":4375,"##ixj":4376,"##i7x":4377,"##i3r":4378,"##nv1":4379,"##tq":4380,"##tpe":4381,"##t833":4382,"##pg":4383,"##p648":4384,"##p4zz":4385,"##ry":4386,"##rw":4387,"##r78":4388,"##r2b":4389,"##r2x":4390,"##hx":4391,"##hw8":4392,"##hrt":4393,"##h0c":4394,"##h9lq":4395,"##mtr":4396,"##m28":4397,"##xu1":4398,"##xoh":4399,"##xixj":4400,"##sjg":4401,"##yva":4402,"##ynd":4403,"##y14":4404,"##yef11":4405,"##vu":4406,"##vw":4407,"##vin":4408,"##v0b":4409,"##vzq":4410,"##vfy":4411,"##kj7":4412,"##k0y":4413,"##kpg":4414,"##ua0":4415,"##u6bf0":4416,"##u6ng":4417,"##u9t":4418,"##q45":4419,"##qm0":4420,"##qc8c2":4421,"##q5h":4422,"##ql04":4423,"##qvzq":4424,"##zjz":4425,"##zdnm":4426,"##gbr":4427,"##g2b":4428,"##gc7":4429,"##gtq":4430,"##jit":4431,"##joz":4432,"##jhrt":4433,"##o22":4434,"##ow6":4435,"##w1n":4436,"##wow6":4437,"##usog":4438,"##mqbgz":4439,"##fof7":4440,"##iz8":4441,"##izaq":4442,"##izvu":4443,"##plqc8c2":4444,"##ebzz":4445,"##ebk0y":4446,"##ueq45":4447,"##prc12b":4448,"##cnh9lq":4449,"##ty5g":4450,"##02u9t":4451,"##ys3q":4452,"##wgig":4453,"##lo02u9t":4454,"##pbio":4455,"##ctq5h":4456,"##vo8ae":4457,"##l38qx":4458,"##i5tg":4459,"##adprc12b":4460,"##w30qs":4461,"##z345":4462,"##72gc7":4463,"##efyef11":4464,"##km6m":4465,"##nsj3":4466,"##xmmtr":4467,"##dudrs":4468,"##x0mqbgz":4469,"##x0fof7":4470,"##17kv":4471,"##i0py":4472,"##pf7de":4473,"##xdok":4474,"##v5ebk0y":4475,"##35y14":4476,"##35v5ebk0y":4477,"##tg4o":4478,"##pazjz":4479,"##ngp4zz":4480,"##9fxu1":4481,"##lrz345":4482,"##v9e52":4483,"##zq3s":4484,"ep8i":4485,"##dv9gtq":4486,"##ko4p":4487,"##5cvin":4488,"##zkwf2":4489,"##cbm28":4490,"##f96wgig":4491,"##5zebzz":4492,"##648x0mqbgz":4493,"##pyam":4494,"##pyw30qs":4495,"##zztpe":4496,"##jzam":4497,"##ikdx":4498,"##ikzztpe":4499,"##uuqiqu":4500,"##uuqxmmtr":4501,"##e66w1n":4502,"##1a4r78":4503,"##045j5":4504,"##3f9lrz345":4505,"##644vw":4506,"55apyw30qs":4507,"##umu6bf0":4508,"##7iuuqxmmtr":4509,"##7k1511":4510,"##1wtg4o":4511,"##8kgbr":4512,"##d575jhrt":4513,"cffplqc8c2":4514,"luhx":4515,"##fdc90648x0mqbgz":4516,"##j1iz8":4517,"0i8wow6":4518,"7lu7iuuqxmmtr":4519,"hen5dt":4520,"j9jzam":4521,"kn635v5ebk0y":4522,"lg3f9lrz345":4523,"nvmjit":4524,"niyjoz":4525,"nnmrw":4526,"oh3n":4527,"o6nefyef11":4528,"ux644vw":4529,"utyngp4zz":4530,"vqi0py":4531,"xnbn":4532,"xkadprc12b":4533,"yufdc90648x0mqbgz":4534,"##1zyv9e52":4535,"##4mdudrs":4536,"##bx1zyv9e52":4537,"##fgpbio":4538,"##lbmp17kv":4539,"##iiofgpbio":4540,"##i7xuuqiqu":4541,"##i3rko4p":4542,"##nv1r2x":4543,"##t833lo02u9t":4544,"##p648d575jhrt":4545,"##ryikzztpe":4546,"##r2bw":4547,"##h0cizvu":4548,"##xohynd":4549,"##xixjt":4550,"##sjge66w1n":4551,"##yva6":4552,"##v0bpazjz":4553,"##vfycbm28":4554,"##kj7pyam":4555,"##kpgl38qx":4556,"##u6ngr2bw":4557,"##qm0i5tg":4558,"##ql04qvzq":4559,"##zdnmh0cizvu":4560,"##g2bxixjt":4561,"##usogzdnmh0cizvu":4562,"##izaqryikzztpe":4563,"##ueq45g2bxixjt":4564,"##cnh9lq7k1511":4565,"##ty5gjz":4566,"##ys3qj1iz8":4567,"##ctq5hpf7de":4568,"##vo8aekpgl38qx":4569,"##72gc7p648d575jhrt":4570,"##km6mzkwf2":4571,"##nsj3llr":4572,"##x0fof7yva6":4573,"##xdokt833lo02u9t":4574,"##35y14z":4575,"##9fxu1kj7pyam":4576,"##zq3svfycbm28":4577,"ep8iqm0i5tg":4578,"##5cvinizaqryikzztpe":4579,"##f96wgig045j5":4580,"##5zebzzueq45g2bxixjt":4581,"##ikdxsjge66w1n":4582,"##1a4r78exs":4583,"55apyw30qs8kgbr":4584,"##umu6bf0nsj3llr":4585,"##1wtg4o25":4586,"cffplqc8c2ql04qvzq":4587,"luhx5cvinizaqryikzztpe":4588,"0i8wow6iiofgpbio":4589,"7lu7iuuqxmmtrf96wgig045j5":4590,"hen5dtnv1r2x":4591,"j9jzami3rko4p":4592,"kn635v5ebk0yzq3svfycbm28":4593,"lg3f9lrz345v0bpazjz":4594,"nvmjitbx1zyv9e52":4595,"niyjozikdxsjge66w1n":4596,"nnmrw72gc7p648d575jhrt":4597,"oh3nkm6mzkwf2":4598,"o6nefyef11usogzdnmh0cizvu":4599,"ux644vwctq5hpf7de":4600,"utyngp4zz9fxu1kj7pyam":4601,"vqi0py5zebzzueq45g2bxixjt":4602,"xnbnlbmp17kv":4603,"xkadprc12bxdokt833lo02u9t":4604,"yufdc90648x0mqbgzu6ngr2bw":4605,"##4mdudrsdv9gtq":4606,"##i7xuuqiquhw8":4607,"##xohyndq":4608,"ep8iqm0i5tgumu6bf0nsj3llr":4609,"55apyw30qs8kgbrx0fof7yva6":4610,"cffplqc8c2ql04qvzqxohyndq":4611,"luhx5cvinizaqryikzztpeua0":4612,"0i8wow6iiofgpbioys3qj1iz8":4613,"hen5dtnv1r2xvo8aekpgl38qx":4614,"j9jzami3rko4pcnh9lq7k1511":4615,"kn635v5ebk0yzq3svfycbm28w":4616,"lg3f9lrz345v0bpazjzty5gjz":4617,"nvmjitbx1zyv9e521a4r78exs":4618,"niyjozikdxsjge66w1n35y14z":4619,"nnmrw72gc7p648d575jhrto22":4620,"oh3nkm6mzkwf2i7xuuqiquhw8":4621,"ux644vwctq5hpf7de1wtg4o25":4622,"utyngp4zz9fxu1kj7pyam80c5":4623,"xnbnlbmp17kv4mdudrsdv9gtq":4624,"##94d":4625,"497":4626,"##788":4627,"##806":4628,"449":4629,"612":4630,"4a":4631,"##892":4632,"##40f":4633,"##836":4634,"##264":4635,"237":4636,"##004":4637,"gdes21":4638,"gdes2173fa6bf9c246d3b77f05838c29c321":4639,"470":4640,"332":4641,"4f":4642,"##bba":4643,"##initi":4644,"##748":4645,"##948":4646,"##533":4647,"##4f6":4648,"395":4649,"1301":4650,"##473":4651,"##tryproxy":4652,"##registryproxy":4653,"actionproviderregistryproxy":4654,"clientinfo":4655,"##503":4656,"##230":4657,"##134":4658,"511":4659,"143":4660,"592":4661,"##b9a":4662,"##746":4663,"##326":4664,"requesting":4665,"##esb6de0287f9684fb7bb0103853d6d9446":4666,"140":4667,"##41f":4668,"gdesb6de0287f9684fb7bb0103853d6d9446":4669,"##840":4670,"insec":4671,"8888":4672,"csr":4673,"fet":4674,"nex":4675,"##collection":4676,"##bserver":4677,"##destination":4678,"##spring":4679,"##gra":4680,"##observer":4681,"##ontend":4682,"##ints":4683,"##ininiti":4684,"##threa":4685,"##thand":4686,"##chann":4687,"##ervleth":4688,"##older":4689,"##cceed":4690,"##ecutor":4691,"##xtscope":4692,"##ilter":4693,"##defilter":4694,"##ationobserver":4695,"catalogframework":4696,"httpservices":4697,"httpservlet":4698,"httpchann":4699,"cxfnon":4700,"##upgra":4701,"##nnel":4702,"##handlercollection":4703,"##serverhandlercollection":4704,"##866":4705,"jettyserverhandlercollection":4706,"##ffilter":4707,"##points":4708,"perform":4709,"##dexecutor":4710,"##duce":4711,"invoker":4712,"securityhandler":4713,"httpconnection":4714,"chaininiti":4715,"channel":4716,"nextscope":4717,"succeed":4718,"endpoints":4719,"abstractconnection":4720,"frontend":4721,"servletholder":4722,"responsefilter":4723,"abstracthttpdestination":4724,"fillable":4725,"##interceptorchain":4726,"websocketupgra":4727,"reservedthrea":4728,"phaseinterceptorchain":4729,"clientinfofilter":4730,"csrffilter":4731,"fetching":4732,"nexthand":4733,"##springservlet":4734,"##ervlethandler":4735,"catalogframeworkimpl":4736,"httpserviceservlethandler":4737,"httpchannel":4738,"cxfnonspringservlet":4739,"chaininitiationobserver":4740,"channelendpoint":4741,"succeeded":4742,"websocketupgradefilter":4743,"reservedthreadexecutor":4744,"nexthandle":4745,"448":4746,"tman":4747,"8753":4748,"c50":4749,"lab":4750,"low":4751,"##vir":4752,"##onment":4753,"profiles":4754,"envir":4755,"located":4756,"label":4757,"environment":4758,"##eeb":4759,"rus":4760,"##rectory":4761,"##002":4762,"##41a":4763,"directory":4764,"aip1":4765,"hercules":4766,"##118":4767,"##c4d":4768,"##968":4769,"##24b":4770,"##028":4771,"##b96":4772,"##42f":4773,"07":4774,"370":4775,"31t":4776,"515":4777,"##b4a":4778,"cro":4779,"dom":4780,"side":4781,"##fer":4782,"##set":4783,"##otm":4784,"##esponset":4785,"routerome":4786,"transfer":4787,"525":4788,"writing":4789,"getmissionsresponse":4790,"##getmissionsr":4791,"cross":4792,"domain":4793,"##otman":4794,"##esponsetotman":4795,"routeromegetmissionsr":4796,"routeromegetmissionsresponsetotman":4797,"##854":4798,"##113":4799,"375":4800,"##47a":4801,"##task":4802,"##525":4803,"##822":4804,"##740":4805,"##962":4806,"203":4807,"##463":4808,"##838":4809,"255":4810,"##966":4811,"364":4812,"447":4813,"522":4814,"502":4815,"##74a":4816,"584":4817,"e91":4818,"##bea":4819,"##138":4820,"c57":4821,"##780":4822,"08":4823,"510":4824,"228":4825,"##878":4826,"363":4827,"340":4828,"c38":4829,"##b4d":4830,"##tering":4831,"##158":4832,"336":4833,"##573":4834,"##993":4835,"##268":4836,"31t0":4837,"##164":4838,"##94a":4839,"345":4840,"##7aa":4841,"455":4842,"##298":4843,"##944":4844,"##44e":4845,"612ms":4846,"##b69":4847,"##e24":4848,"##003":4849,"##49c":4850,"##858":4851,"518":4852,"##940":4853,"##used":4854,"##7353":4855,"347":4856,"392":4857,"##918":4858,"##99a":4859,"##87a":4860,"##550":4861,"##la":4862,"##994":4863,"##44c":4864,"_k":4865,"##54a":4866,"##45e":4867,"531":4868,"##984":4869,"unregistering":4870,"##89f":4871,"##7a9c":4872,"##88d":4873,"193":4874,"##f4a":4875,"##24e":4876,"##964":4877,"341":4878,"##45d":4879,"##14c":4880,"##ery":4881,"##query":4882,"##906":4883,"##952":4884,"##712":4885,"##898":4886,"##914":4887,"##b3a":4888,"delete":4889,"##ims":4890,"0242ac130003":4891,"##laims":4892,"216":4893,"382":4894,"604":4895,"410":4896,"amq2220":4897,"##c9d":4898,"clearing":4899,"amq222061":4900,"##bb6":4901,"##034":4902,"##786":4903,"##710":4904,"##88a":4905,"112":4906,"489":4907,"472":4908,"##924":4909,"##red":4910,"amq222":4911,"0x10000046b0e028b":4912,"cleared":4913,"amq222107":4914,"0x10000046b0e028c":4915,"574":4916,"##40d":4917,"##b9d":4918,"deleteby":4919,"418":4920,"480":4921,"(-":4922,")}":4923,"445":4924,"##797":4925,"##17b":4926,"##b8a":4927,"##708":4928,"##804":4929,"deletebyquery":4930,"8493":4931,"8e36":4932,"d7353":4933,"##2d3":4934,"##23c06":4935,"600ms":4936,"e917a9c":4937,"d7353cb7":4938,"e917a9c23c06":4939,"##170":4940,"##46d":4941,"##81a":4942,"565":4943,"##156":4944,"##14d":4945,"##bab":4946,"##763":4947,"##4ff":4948,"475":4949,"##ug":4950,"##435":4951,"##4d6":4952,"##fa6":4953,"##912":4954,"##event":4955,"##80a":4956,"##16a":4957,"##868":4958,"##b6a":4959,"30t":4960,"##beb":4961,"##b5a":4962,"_46":4963,"##720":4964,"adds":4965,"##48a":4966,"##48d":4967,"##262":4968,"##b6f":4969,"##814":4970,"##903":4971,"##use":4972,"##883":4973,"##1ca":4974,"##245":4975,"##baa":4976,"##13a":4977,"beca":4978,"##154":4979,"##47f":4980,"##69a":4981,"##497":4982,"##978":4983,"##554":4984,"c13":4985,"##c40":4986,"##ook":4987,"##5af":4988,"##4df":4989,"##734":4990,"la":4991,"##tainer":4992,"##69d":4993,"##4f5":4994,"##758":4995,"##828":4996,"because":4997,"##cc6":4998,"_1d":4999,"##693":5000,"##10a":5001,"##722":5002,"##934":5003,"##laimshandler":5004,"578":5005,"##eba":5006,"##89d":5007,"##4af":5008,"##862":5009,"433":5010,"##192":5011,"287":5012,"507":5013,"by":5014,"##bfa":5015,"##415":5016,"16120":5017,"##8aa":5018,"##45f":5019,"c45":5020,"##950":5021,"223":5022,"##29f":5023,"##4a3":5024,"caused":5025,"181":5026,"185":5027,"432":5028,"##99d":5029,"##036":5030,"_57":5031,"##4a6":5032,"##750":5033,"##4d5":5034,"##b49":5035,"##e43":5036,"##323":5037,"288":5038,"##916":5039,"##bda":5040,"##77a":5041,"##584":5042,"372":5043,"##12a":5044,"##834":5045,"##455":5046,"##183":5047,"##485":5048,"##8ea":5049,"##e46":5050,"##e8a":5051,"b05c":5052,"517":5053,"a2":5054,"##c43":5055,"##b40":5056,"exis":5057,"##18a":5058,"##ba3":5059,"276":5060,"##b8d":5061,"##ca6":5062,"352":5063,"335":5064,"176":5065,"##56a":5066,"##e5d":5067,"457":5068,"##c93":5069,"##ccd":5070,"##4133":5071,"##f30":5072,"existing":5073,"##29a":5074,"##133":5075,"##354":5076,"1690357":5077,"0242ac13000a":5078,"##974":5079,"0x10000046b0e06a":5080,"##563":5081,"##794":5082,"##744":5083,"##796":5084,"##bb3":5085,"##5ad":5086,"##234":5087,"d783":5088,"##896":5089,"##eea":5090,"##43691":5091,"##8610":5092,"##9bcf6":5093,"##a809bcf6":5094,"1612043691":5095,"d783a809bcf6":5096,"1612043691698":5097,"##b0a":5098,"##b0f":5099,"##143":5100,"##iv":5101,"##ged":5102,"##priv":5103,"##4fc":5104,"436":5105,"##ileged":5106,"##privileged":5107,"495":5108,"equ":5109,"##ino":5110,"##4dc":5111,"##893":5112,"##459":5113,"equino":5114,"##700":5115,"##daa":5116,"##ba6":5117,"##b9f":5118,"##8e8":5119,"562":5120,"##174":5121,"##4dd":5122,"c9":5123,"##11a":5124,"##060":5125,"609ms":5126,").":5127,"608ms":5128,"491":5129,"##b43":5130,"[]":5131,"el":5132,"his":5133,"l2h":5134,"stack":5135,"##sendpoint":5136,"##ught":5137,"##usted":5138,"##hausted":5139,"##rorhandler":5140,"exhausted":5141,"messageid":5142,"##terrorhandler":5143,"to2":5144,"to1":5145,"##038":5146,"processorid":5147,"##b66":5148,"bean2":5149,"bean4":5150,"bean3":5151,"period":5152,"after":5153,"soaprequest":5154,"defaulterrorhandler":5155,"##apsed":5156,"caught":5157,"##trace":5158,"when":5159,"routeid":5160,"##idsendpoint":5161,"300000":5162,"setheader2":5163,"setheader1":5164,"setheader3":5165,"wiretap1":5166,"romegetmissionsendpoint":5167,"romegetmissionidsendpoint":5168,"choice1":5169,"elapsed":5170,"history":5171,"stacktrace":5172,"soaprequestrometimer":5173,"].":5174,"##588":5175,"##1aa":5176,"##87d":5177,"##consu":5178,"##8c6":5179,"timerconsu":5180,"timerconsumer":5181,"1ca":5182,"##missions":5183,"##417":5184,"##allmissions":5185,"invalidateallmissions":5186,"183":5187,"##293":5188,"_3e":5189,"407":5190,"##eda":5191,"##32a":5192,"601ms":5193,"##b47":5194,"##e10":5195,"##48f":5196,"##70a":5197,"208":5198,"##69f":5199,"##b0d":5200,"##4a0":5201,"123":5202,"##cad":5203,"##b2a":5204,"##75f":5205,"##488":5206,"##baf":5207,"##be3":5208,"b6":5209,"##743":5210,"##ec3":5211,"##42c":5212,"sto":5213,"##4da":5214,"##24d":5215,"##24f":5216,"136":5217,"##94f":5218,"##738":5219,"610":5220,"##1ad":5221,"##910":5222,"##e49":5223,"##465":5224,"##10d":5225,"##938":5226,"##7af":5227,"169024543":5228,"265":5229,"360":5230,"_4p":5231,"##1ed":5232,"460":5233,"##20a":5234,"##99c":5235,"607ms":5236,"1040":5237,"##4ac":5238,"##b93":5239,"##ff6":5240,"_3p":5241,"##450":5242,"##b88":5243,"405":5244,"2976e":5245,"_3o":5246,"##8eb64":5247,"##ugin":5248,"2976e808":5249,"##8d6":5250,"##169":5251,"##23a":5252,"603ms":5253,"##1c6":5254,"##bed":5255,"##bdd":5256,"##00a":5257,"##dad":5258,"##407":5259,"000003a":5260,"##702":5261,"##ea3":5262,"##eaf":5263,"##405":5264,"##4ad":5265,"##e3d":5266,"05t15":5267,"##ca0":5268,"##163":5269,"##b63":5270,"1ca8eb64":5271,"##b4c":5272,"equinox":5273,"156":5274,"551":5275,"05t17":5276,"598ms":5277,"0c8d":5278,"485":5279,"##50d":5280,"##c0a":5281,"##06ad":5282,"##928":5283,"##360":5284,"05t12":5285,"30t23":5286,"##413306ad":5287,"0c8d413306ad":5288,"##41c":5289,"##91a":5290,"_3v":5291,"##703":5292,"##24c":5293,"##b5d":5294,"##26a":5295,"##4d2":5296,"2a":5297,"##bu":5298,"##eaa":5299,"##ca3":5300,"##790":5301,"##b29":5302,"##50a":5303,"##b11":5304,"225":5305,"115":5306,"##233":5307,"##ba5":5308,"##19a":5309,"##52a":5310,"##87c":5311,"##8c3":5312,"##9bd":5313,"##c3a":5314,"509":5315,"##976":5316,"##b4f":5317,"179":5318,"342":5319,"611":5320,"613":5321,"_40":5322,"##bf6":5323,"122":5324,"##b90":5325,"##47e":5326,"##8cd":5327,"c23":5328,"##15a":5329,"stopped":5330,"##b99":5331,"##cca":5332,"##fad":5333,"##fdd":5334,"##7a3":5335,"sts":5336,"##749":5337,"##4ce":5338,"##c4c":5339,"##bca":5340,"##reate":5341,"##705":5342,"602ms":5343,"##8a6":5344,"##c6f":5345,"605ms":5346,"##b18":5347,"##e48":5348,"##88f":5349,"##caa":5350,"##70f":5351,"##4f0":5352,"##b8f":5353,"##mbda":5354,"465":5355,"lambda":5356,"##bbd":5357,"##e1a":5358,"##ec6":5359,"##5a6":5360,"##873":5361,"597ms":5362,"c46":5363,"##b1a":5364,"##f3d":5365,"482":5366,"c148":5367,"##da6":5368,"##4a2":5369,"##925":5370,"##17d":5371,"_4k":5372,"442":5373,"##ed3":5374,"##565":5375,"##973":5376,"##8ad":5377,"##13d":5378,"##e6a":5379,"##902":5380,"##b83":5381,"168":5382,"##98f":5383,"c40":5384,"##b1d":5385,"##da0":5386,"##123":5387,"##15c":5388,"##e4d":5389,"##cef":5390,"0016":5391,"##53d":5392,"##f33":5393,"##745":5394,"##ec0":5395,"jan":5396,"##895":5397,"##908":5398,"##90a":5399,"c23580":5400,"310":5401,"519":5402,"##982":5403,"##52d":5404,"##5a5":5405,"c3948":5406,"186":5407,"##ea6":5408,"##954":5409,"##active":5410,"_4a":5411,"##b23":5412,"##439":5413,"##53a":5414,"##bac":5415,"##e4c":5416,"##558":5417,"##92a":5418,"##17a":5419,"c16347":5420,"_45":5421,"##ea0":5422,"##29d":5423,"##4f2":5424,"##bad":5425,"9aff":5426,"##7ab":5427,"##141":5428,"##dae":5429,"##b5c":5430,"##4f8":5431,"##76f":5432,"##47c":5433,"##725":5434,"##b3d":5435,"430":5436,"41230":5437,"##1bd":5438,"##b3f":5439,"##e06":5440,"##c33":5441,"##742":5442,"##def":5443,"##14e":5444,"357":5445,"ty":5446,"##ecf":5447,"159":5448,"##dac":5449,"##fa0":5450,"##26f":5451,"##15f":5452,"httpcontext":5453,"##8ce":5454,"##1eb":5455,"##e7a":5456,"05t03":5457,"solrclient":5458,"##12d":5459,"##295":5460,"##76a":5461,"##b5f":5462,"##8a3":5463,"05t08":5464,"247":5465,"_4f":5466,"158610":5467,"113":5468,"133":5469,"##995":5470,"##8d3":5471,"_4u":5472,"05t06":5473,"##1ab":5474,"##69c":5475,"##97a":5476,"##97d":5477,"##f3a":5478,"##80d":5479,"##7ca":5480,"##175":5481,"##195":5482,"##523":5483,"##11f":5484,"##263":5485,"##4f9":5486,"##e0a":5487,"0000028c":5488,"8f":5489,"c41":5490,"##594":5491,"##eb3":5492,"##e0d":5493,"234":5494,"0000028a":5495,"0000028b":5496,"195":5497,"c7":5498,"##ccf":5499,"##02a":5500,"##f3f":5501,"2440":5502,"##718":5503,"##4b0":5504,"##b55":5505,"##8d0":5506,"##8dd":5507,"##exception":5508,"##9d0":5509,"417":5510,"##456":5511,"##onam":5512,"119":5513,"##8af":5514,"1690363":5515,"_4z":5516,"##onames":5517,"c44":5518,"c58":5519,"##84d":5520,"##945":5521,"##863":5522,"##adc":5523,"nativemethodaccessorimpl":5524,"_50":5525,"##b24":5526,"##bb9":5527,"##88e":5528,"##77d":5529,"##fd0":5530,"##publisher":5531,"##eventpublisher":5532,"equinoxeventpublisher":5533,"##752":5534,"##932":5535,"##b2f":5536,"696":5537,"745":5538,"##784":5539,"##79a":5540,"##b4e":5541,"##22a":5542,"596ms":5543,"494":5544,"568":5545,"_5v":5546,"378":5547,"##b4b":5548,"##b06":5549,"##45c":5550,"169024550":5551,"16903511":5552,"381":5553,"409":5554,"json":5555,"##caf":5556,"260":5557,"##b10":5558,"##e9d":5559,"##94c":5560,"##dcf":5561,"468":5562,"##470":5563,"##11d":5564,"##5a2":5565,"##b95":5566,"##4d3":5567,"##89c":5568,"##733":5569,"_4x":5570,"1690364199":5571,"8d":5572,"##852":5573,"##pat":5574,"##185":5575,"##765":5576,"##e09":5577,"##42e":5578,"##73d":5579,"301":5580,"41598":5581,"_51":5582,"##ebc":5583,"257":5584,"##15d":5585,"##8a0":5586,"##660":5587,"16903572":5588,"##716":5589,"##82a":5590,"##b30":5591,"6a":5592,"7f":5593,"##4bd":5594,"doprivileged":5595,"##109":5596,"##b92":5597,"##b33":5598,"##81d":5599,"accesscontroller":5600,"610ms":5601,"##bdc":5602,"##12f":5603,"##5a3":5604,"##0345":5605,"##8d2":5606,"##bf2":5607,"##443":5608,"##e45":5609,"##fa3":5610,"##aba":5611,"##26d":5612,"##7ba":5613,"##420":5614,"##b7a":5615,"##87f":5616,"##8e6":5617,"##f35":5618,"##75d":5619,"##f6d":5620,"##81f":5621,"611ms":5622,"428":5623,"683":5624,"707":5625,"##723":5626,"##1ba":5627,"##19d":5628,"##ebd":5629,"##86a":5630,"##239":5631,"##4d7":5632,"##8912":5633,"765":5634,"##74f":5635,"##147":5636,"##ecd":5637,"##93d":5638,"579":5639,"606ms":5640,"169035790":5641,"ea":5642,"##177":5643,"##440":5644,"##b53":5645,"##18f":5646,"##46f":5647,"##76d":5648,"##4a5":5649,"##70d":5650,"##e5c":5651,"##74e":5652,"604ms":5653,"492":5654,"_7":5655,"doc":5656,"3d":5657,"8a":5658,"##44f":5659,"##bc3":5660,"##ed6":5661,"##e58":5662,"transformer":5663,"##ee3":5664,"##885":5665,"##b8c":5666,"##664":5667,"##82f":5668,"##f0a":5669,"##ector":5670,"##de5":5671,"##205":5672,"##fd6":5673,"267":5674,"5d":5675,"##4e3":5676,"##b41":5677,"##bef":5678,"##bc6":5679,"##daf":5680,"##ebf":5681,"##83a":5682,"e0":5683,"##b2d":5684,"##e5f":5685,"##1e9":5686,"##8304":5687,"##da9":5688,"##b60":5689,"##958":5690,"##bcf":5691,"293":5692,"7a":5693,"##732":5694,"##14f":5695,"##19f":5696,"##4fa":5697,"##e03":5698,"##105":5699,"##b6e":5700,"##753":5701,"##84a":5702,"##b16":5703,"##ea5":5704,"##fdf":5705,"##49e":5706,"##805":5707,"##c3d":5708,"1690356":5709,"594ms":5710,"##18d":5711,"##52f":5712,"000006a":5713,"##198":5714,"##499":5715,"##bfd":5716,"##48c":5717,"2d":5718,"##756":5719,"##74d":5720,"##7ff":5721,"##1ff":5722,"##be6":5723,"##57a":5724,"##663":5725,"586ms":5726,"##4e6":5727,"##b70":5728,"##ed0":5729,"162":5730,"##82e":5731,"##dcd":5732,"0x10000046b0e07d":5733,"##bbc":5734,"245":5735,"##7c6":5736,"##9aa":5737,"##835":5738,"##11e":5739,"##b6c":5740,"##1a6":5741,"613ms":5742,"##423":5743,"##ec5":5744,"##de3":5745,"##c0d":5746,"394":5747,"404":5748,"##729":5749,"##de0":5750,"##faf":5751,"##50f":5752,"##155":5753,"308":5754,"124":5755,"454":5756,"##bff":5757,"##bcd":5758,"##02d":5759,"##8df":5760,"##1e6":5761,"16903575":5762,"444":5763,"865":5764,"##e99":5765,"##fac":5766,"##7bd":5767,"1925":5768,"2612":5769,"362":5770,"local":5771,"0x10000046b0e015d":5772,"}=":5773,"##4ca":5774,"##4f3":5775,"##be0":5776,"scope":5777,"##535":5778,"##735":5779,"##4c5":5780,"bundleid":5781,"}={":5782,"##4ea":5783,"##452":5784,"##bb5":5785,"##e23":5786,"##urede":5787,"##84c":5788,"##uredefaul":5789,"1a":5790,"dock":5791,"var":5792,"##792":5793,"##79d":5794,"##b86":5795,"containers":5796,"##edf":5797,"##97c":5798,"##abf":5799,"##8ac":5800,"##8c8":5801,"##b2c":5802,"##c9a":5803,"docker":5804,"c0":5805,"##799":5806,"##726":5807,"##b87":5808,"##b45":5809,"##da5":5810,"##775":5811,"##c0f":5812,"##bf5":5813,"##c9f":5814,"16903629":5815,"c30":5816,"##441":5817,"##447":5818,"##eb0":5819,"##50c":5820,"##9a3":5821,"365":5822,"9d":5823,"##132":5824,"##b80":5825,"##5a0":5826,"##755":5827,"##4d8":5828,"##bf0":5829,"servicer":5830,"0x10000046b0e015e":5831,"##926":5832,"##hook":5833,"1340":5834,"##85d":5835,"ho":5836,"##19b":5837,"##e7b":5838,"##00d":5839,"1564":5840,"##b65":5841,"##666":5842,"_3i":5843,"0x10000046b0e015f":5844,"api":5845,"##cc3":5846,"1595":5847,"##46c":5848,"##ce3":5849,"##43c":5850,"##115":5851,"##97f":5852,"1655":5853,"file":5854,"##container":5855,"615":5856,"f6":5857,"0020":5858,"##16d":5859,"##8a5":5860,"##9f6":5861,"##f3c":5862,"##e3a":5863,"bd":5864,"ce":5865,"d6":5866,"##79b":5867,"##824":5868,"##193":5869,"##ccc":5870,"##963":5871,"##82c":5872,"##dc5":5873,"gdes573":5874,"star":5875,"gdes573ae6821027430db157f672a54568e4":5876,"780":5877,"a3":5878,"spat":5879,"##71d":5880,"##79049106b9b1407580f881d20ec73feb":5881,"##ial":5882,"##53c":5883,"##e4e":5884,"gdes79049106b9b1407580f881d20ec73feb":5885,"599ms":5886,"spatial":5887,"tion":5888,"##9cd":5889,"##b89":5890,"##da3":5891,"##16c":5892,"##b6d":5893,"0000036":5894,"##b36":5895,"##7f2":5896,"unregistered":5897,"insecuredefaul":5898,"31t01":5899,"insecuredefaults":5900,"_5z":5901,"##71a":5902,"##4bc":5903,"##http":5904,"127":5905,"##4d0":5906,"##96a":5907,"##135":5908,"205":5909,"462":5910,"##f0d":5911,"##4fd":5912,"##bb0":5913,"##b22":5914,"invoked":5915,"505":5916,"398":5917,"384":5918,"_2":5919,"doa":5920,"##0239":5921,"##10f":5922,"##8d5":5923,"##f6a":5924,"_5l":5925,"583ms":5926,"doas":5927,"616":5928,"dec":5929,"##b00":5930,"##505":5931,"##409":5932,"host":5933,"1242":5934,"358":5935,"620":5936,"##b77":5937,"##equest":5938,"##ryp":5939,"##ypro":5940,"##voc":5941,"##invoc":5942,"##tedendpoint":5943,"##eb6":5944,"##alsource":5945,"##dateloc":5946,"##4ae":5947,"dopo":5948,"dointer":5949,"trypro":5950,"##allback":5951,"##dcallback":5952,"runjo":5953,"runtask":5954,"entry":5955,"handlerequest":5956,"validateloc":5957,"##cept":5958,"sourceunavailable":5959,"handlemessage":5960,"##4cf":5961,"readcallback":5962,"doproduce":5963,"reservedthread":5964,"performinvoc":5965,"docreate":5966,"invokedestination":5967,"decryp":5968,"dopost":5969,"dointercept":5970,"tryproduce":5971,"runjob":5972,"validatelocalsource":5973,"sourceunavailableexception":5974,"performinvocation":5975,"decryptedendpoint":5976,"##1cd":5977,"##fa8":5978,"##3ff":5979,"595ms":5980,"##793":5981,"##798":5982,"##4cd":5983,"##bc0":5984,"##e47":5985,"##469":5986,"##ce2":5987,"##bae":5988,"##418":5989,"##4b3":5990,"##2984":5991,"##fd2":5992,"##11c":5993,"##86d":5994,"##2d6":5995,"defaults":5996,"16903512":5997,"05t16":5998,"fd":5999,"##9b0":6000,"##b26":6001,"##e9b":6002,"##cc0":6003,"##88c":6004,"##53f":6005,"##b58":6006,"593ms":6007,"590ms":6008,"618":6009,"##coll":6010,"##b94":6011,"status_txt":6012,"##00f":6013,"##vel":6014,"\"+)+&":6015,"##40e":6016,"##165":6017,"##10c":6018,"##ba2":6019,"##222":6020,"source_txt":6021,"##name_txt":6022,"insecure":6023,"584ms":6024,"insecuredefaultscoll":6025,"hostname_txt":6026,"insecuredefaultscollector":6027,"##78a":6028,"##b42":6029,"##241":6030,"##da2":6031,"##83f":6032,"##8ee":6033,"##9bc":6034,"435":6035,"##bd3":6036,"3c":6037,"##7cd":6038,"##1ea":6039,"##art":6040,"solrclientadapter":6041,"0015":6042,"##8a2":6043,"##f6f":6044,"##artz":6045,"##4de":6046,"##edd":6047,"##16f":6048,"##578":6049,"##bbe":6050,"gdes4022b0b2b7d9437089b1c31e1bc81853":6051,"##edc":6052,"##90d":6053,"##066":6054,"328":6055,"6c":6056,"##787":6057,"##4c6":6058,"##e69":6059,"##e2a":6060,"474":6061,"_5p":6062,"ed":6063,"##713":6064,"##1c3":6065,"##be5":6066,"plugin":6067,"##50e":6068,"135":6069,"##ce6":6070,"##419":6071,"##bd0":6072,"##8f2":6073,"_3m":6074,"458":6075,"614":6076,"##83d":6077,"##b0c":6078,"##fd3":6079,"##c63":6080,"##85f":6081,"0x10000046b0e028a":6082,"279":6083,"3a":6084,"##747":6085,"##7ad":6086,"##846":6087,"##477":6088,"##cac":6089,"##75c":6090,"##e33":6091,"##7a0":6092,"235":6093,"6f":6094,"617":6095,"##426":6096,"##b02":6097,"##20d":6098,"##b9c":6099,"##90c":6100,"##ansformer":6101,"c3145":6102,"##1fa":6103,"##abc":6104,"##865":6105,"##17c":6106,"##9dd":6107,"c3083":6108,"7d":6109,"b3":6110,"##7c0":6111,"##1dd":6112,"##7dd":6113,"be":6114,"c1":6115,"##0347":6116,"354":6117,"fc":6118,"##99f":6119,"3175":6120,"16903635":6121,"224":6122,"##9f3":6123,"##29e":6124,"##ce0":6125,"##73a":6126,"##9ac":6127,"_3l":6128,"##bee":6129,"##cker":6130,"##eb5":6131,"##56f":6132,"##96f":6133,"##13c":6134,"##5e6":6135,"##04e":6136,"0a":6137,"5a":6138,"##795":6139,"##b1f":6140,"##log":6141,"##89e":6142,"##7b3":6143,"##91d":6144,"##f0f":6145,"d3":6146,"jm":6147,"##7ea":6148,"##7e6":6149,"##ed5":6150,"##4a8":6151,"##e05":6152,"##ef0":6153,"##efc":6154,"05t05":6155,"jmx":6156,"4d":6157,"c112":6158,"##b52":6159,"##b05":6160,"##43e":6161,"##56d":6162,"##479":6163,"##555":6164,"##4e2":6165,"285":6166,"703":6167,"ller":6168,"##769":6169,"##bfe":6170,"##b7f":6171,"##77f":6172,"##2d2":6173,"##e0f":6174,"##c6a":6175,"05t07":6176,"588ms":6177,"589ms":6178,"585ms":6179,"591ms":6180,"31t03":6181,"llerpollthread":6182,"1f":6183,"e6":6184,"##78d":6185,"##7dc":6186,"##79f":6187,"##843":6188,"##980":6189,"##bec":6190,"##ab3":6191,"##86f":6192,"##23f":6193,"##8d9":6194,"##e3c":6195,"##933":6196,"##bd6":6197,"2025":6198,"cf":6199,"##1b9":6200,"##bbf":6201,"##cd6":6202,"##7eb":6203,"##b32":6204,"webapphttp":6205,"587ms":6206,"webapphttpcontext":6207,"1d":6208,"266":6209,"67a":6210,"##ge":6211,"##cc2":6212,"##18c":6213,"##cae":6214,"##2dc":6215,"##91c":6216,"##1a0":6217,"##manag":6218,"=-":6219,"##7da":6220,"##4cc":6221,"##4c0":6222,"##98a":6223,"##ca2":6224,"##5ac":6225,"##ff0":6226,"##ff5":6227,"##1f5":6228,"##7df":6229,"368":6230,"##913":6231,"##fa2":6232,"##119":6233,"##ef2":6234,"##81c":6235,"##74c":6236,"##1df":6237,"##7d0":6238,"514":6239,"##acker":6240,"##letr":6241,"##recipe":6242,"##ndletr":6243,"##2df":6244,"##trecipe":6245,"##80f":6246,"beanrecipe":6247,"##55f":6248,"##95d":6249,"bundlehook":6250,"abstractrecipe":6251,"##bundletr":6252,"bundlehookbundletr":6253,"bundlehookbundletracker":6254,"4c":6255,"f0":6256,"##847":6257,"##445":6258,"##12c":6259,"##20c":6260,"##023":6261,"##03a":6262,"##2d0":6263,"##7bc":6264,"a3d":6265,"##bde":6266,"##bb8":6267,"##ca5":6268,"##02f":6269,"##56c":6270,"##86f0":6271,"##8c5":6272,"##c3c":6273,"##1d3":6274,"##1a3":6275,"c3904":6276,"1975":6277,"##289":6278,"##1de":6279,"##935":6280,"##552984":6281,"##c2c":6282,"##764416":6283,"##800":6284,"##9ad":6285,"##b75":6286,"##1e2":6287,"##17f":6288,"##79e":6289,"615ms":6290,"9c":6291,"##1b0":6292,"##fa5":6293,"##f36":6294,"##90f":6295,"##b3e":6296,"##9af":6297,"0d":6298,"0f":6299,"##76c":6300,"##1650":6301,"##265":6302,"##9cf":6303,"580ms":6304,"31t04":6305,"2f":6306,"3f":6307,"5c":6308,"##714":6309,"##e91":6310,"##da8":6311,"##23d":6312,"##1ac":6313,"616ms":6314,"625":6315,"cd":6316,"##1cc":6317,"##1ce":6318,"##b97":6319,"1052":6320,"##2dd":6321,"##7bf":6322,"##e55":6323,"##78f":6324,"f5":6325,"##442":6326,"##b73":6327,"##b0e":6328,"##49fd":6329,"##f62":6330,"##b3c":6331,"1690370552984":6332,"1690370552984764416":6333,"619":6334,"c117":6335,"##7ce":6336,"##4b5":6337,"##c08":6338,"##c60":6339,"##1a5":6340,"##7a2":6341,"592ms":6342,"e2":6343,"##1ec":6344,"##949":6345,"##ourcep":6346,"##aaa":6347,"##92f":6348,"##9a6":6349,"##b1c":6350,"581ms":6351,"614ms":6352,"504":6353,"a0":6354,"##969":6355,"##956":6356,"##ed2":6357,"##2d5":6358,"##c37e":6359,"169024549":6360,"##4bb":6361,"##oller":6362,"##77e":6363,"##b62":6364,"##9bf":6365,"##5df":6366,"582ms":6367,"275":6368,"4e":6369,"##1b3":6370,"##cc19":6371,"##ce8":6372,"##80c":6373,"##8a8":6374,"##c30":6375,"##1a2":6376,"##412":6377,"##b03":6378,"##4fe":6379,"##8dc":6380,"##2a6":6381,"##5dd":6382,"started":6383,"3947":6384,"##71f":6385,"##4ec":6386,"##9e6":6387,"##b85":6388,"##93a":6389,"##c66":6390,"##58f":6391,"##1d6":6392,"##c9c":6393,"##54c":6394,"##9d6":6395,"182":6396,"478":6397,"863":6398,"##b7c":6399,"##005":6400,"##f3ad":6401,"##e08":6402,"##f6c":6403,"0x10000046b0e08f":6404,"##cdd":6405,"621":6406,"7c":6407,"8c":6408,"d0":6409,"##4ed":6410,"##eef":6411,"##69e":6412,"##40c":6413,"##033":6414,"##96c":6415,"##30a":6416,"618ms":6417,"190":6418,"5f":6419,"##7fa":6420,"##789":6421,"##228":6422,"##7a6":6423,"##cd3":6424,"169036986":6425,"0000015e":6426,"a5":6427,"##715":6428,"##153":6429,"##4eb":6430,"##ed8":6431,"##999":6432,"##26e":6433,"filtered":6434,"##c0e":6435,"2075":6436,"617ms":6437,"1825":6438,"##7e5":6439,"##197":6440,"##475":6441,"##de6":6442,"##48e":6443,"##879":6444,"##86c":6445,"##f60":6446,"##9f5":6447,"1775":6448,"##4b9":6449,"##b14":6450,"##eac":6451,"##99e":6452,"##70cc":6453,"##c6d":6454,"##84e":6455,"##362":6456,"579ms":6457,"##ourcepoller":6458,"##453":6459,"##b72":6460,"##e41":6461,"##e86":6462,"##20f":6463,"##8d8":6464,"##7b2":6465,"##905":6466,"0000015f":6467,"620ms":6468,"e3":6469,"ef":6470,"##7b9":6471,"##1da":6472,"##1b6":6473,"##191":6474,"##b56":6475,"##10e":6476,"##e30":6477,"1690355":6478,"##7d6":6479,"##7e8":6480,"16903641988":6481,"4fc37e":6482,"solrclientproxy":6483,"4fc37e69":6484,"1875":6485,"2325":6486,"ui":6487,"##711":6488,"##919":6489,"##1af":6490,"##608":6491,"_69":6492,"##782":6493,"##9ce":6494,"##d23":6495,"##03c":6496,"##f65":6497,"##1d0":6498,"##7fc":6499,"a3d86f0":6500,"##75a":6501,"##7f6":6502,"##173":6503,"##476":6504,"145":6505,"##b28":6506,"##bdf":6507,"##f0c":6508,"##4ba":6509,"##4ef":6510,"##983":6511,"##9ab":6512,"##b76":6513,"##transformer":6514,"##b2e":6515,"169024540":6516,"##72f":6517,"##57d":6518,"05t14":6519,"##4e0":6520,"##235":6521,"##b35":6522,"##07a":6523,"0x10000046b0e066":6524,"##1d2":6525,"0000015d":6526,"a6":6527,"wab":6528,"##816":6529,"##1f3":6530,"##44d":6531,"##83e":6532,"##7520":6533,"00000160":6534,"##60a":6535,"##5c2":6536,"54220":6537,"9f":6538,"bf":6539,"##7e4":6540,"##953":6541,"##41e":6542,"##8e2":6543,"##4c8":6544,"##7ee":6545,"619ms":6546,"414":6547,"_1":6548,"##79c":6549,"##411":6550,"##45a":6551,"##9fa":6552,"##9c3":6553,"##essaging":6554,"##18e":6555,"##9a0":6556,"##bc5":6557,"344":6558,"623":6559,"_62":6560,"##9b3":6561,"##claimshandler":6562,"##eb8":6563,"##77c":6564,"##b8e":6565,"##09a":6566,"##04c":6567,"##7d5":6568,"52976":6569,"##5d3":6570,"194":6571,"##1b5":6572,"##9da":6573,"##b17":6574,"##cc5":6575,"##0348":6576,"##e6c":6577,"##cf5":6578,"576ms":6579,"##4e4":6580,"##911":6581,"##b44":6582,"155":6583,"##3af":6584,"##be4":6585,"226":6586,"quartz":6587,"##22f":6588,"##92c":6589,"##57c":6590,"##bd2":6591,"53912":6592,"##c6c":6593,"##85c":6594,"##4291":6595,"##e63":6596,"##6a0":6597,"48ed":6598,"##1c0":6599,"opt":6600,"##fe6":6601,"##062":6602,"generatedmethodaccessor178":6603,"1c":6604,"187":6605,"196":6606,"sched":6607,"##741":6608,"##ce5":6609,"##fd8":6610,"##abd":6611,"##c36":6612,"60428":6613,"##2a3":6614,"16903566":6615,"##52c":6616,"##32d":6617,"##819":6618,"561":6619,"##bc2":6620,"##25f":6621,"##1c5":6622,"##1c2":6623,"60312":6624,"31t02":6625,"374":6626,"##9eb":6627,"##23e":6628,"##aa0":6629,"60172":6630,"60120":6631,"##8f5":6632,"##8be":6633,"212":6634,"##cc40":6635,"##dee":6636,"##b5e":6637,"##f63":6638,"##5e2":6639,"##851":6640,"##2af":6641,"##e6f":6642,"##4ee":6643,"##19e":6644,"48db":6645,"88e8":6646,"_65":6647,"aadc":6648,"##7f3":6649,"##1bb":6650,"##4b6":6651,"##981":6652,"##b13":6653,"##bc9":6654,"##instance":6655,"##uture":6656,"##5a8":6657,"##6dd":6658,"29t":6659,"a21a":6660,"##70cccc19":6661,"48ed70cccc19":6662,"aadc4291":6663,"##uturetask":6664,"213":6665,"##7c3":6666,"##4bf":6667,"##b7e":6668,"##46e":6669,"##3f6":6670,"##8d7":6671,"##402":6672,"##9e3":6673,"##5ae":6674,"##16e":6675,"##2d8":6676,"##ef5":6677,"##b25":6678,"##9c5":6679,"ec":6680,"##4b8":6681,"##922":6682,"##ec8":6683,"##26c":6684,"##ba0":6685,"##fff":6686,"207":6687,"f3":6688,"##7b0":6689,"##78e":6690,"##850":6691,"##b12":6692,"##b50":6693,"##94e":6694,"##ab6":6695,"##b9e":6696,"##1f0":6697,"##bd5":6698,"##5be":6699,"##929":6700,"##eae":6701,"633":6702,"16903553":6703,"2c":6704,"crl":6705,"futuretask":6706,"##9b5":6707,"##9b6":6708,"##ging":6709,"##cc8":6710,"##de2":6711,"##83c":6712,"137":6713,"##32f":6714,"##87e":6715,"##965":6716,"##55d":6717,"##57e":6718,"##9d3":6719,"60222":6720,"626":6721,"bc":6722,"zip":6723,"##az":6724,"##_a":6725,"##f66":6726,"##092":6727,"##9d5":6728,"2475":6729,"2125":6730,"_6f":6731,"dc":6732,"##7ed":6733,"##b20":6734,"##ad3":6735,"##c65":6736,"##1fc":6737,"129":6738,"##53e":6739,"##b98":6740,"##96d":6741,"##93c":6742,"##66a":6743,"##94336":6744,"16903641986":6745,"##785":6746,"##ebe":6747,"##20b3":6748,"##02c":6749,"##3f5":6750,"##57f":6751,"##7d3":6752,"##5d6":6753,"##5d2":6754,"##_3":6755,"##4aa3":6756,"##03ea":6757,"##70c":6758,"##10b5":6759,"##ffe":6760,"000003d":6761,"##6df":6762,"##bfc":6763,"##668":6764,"##4c2":6765,"2175":6766,"##9e2f":6767,"60380":6768,"60378":6769,"169036388":6770,"gaz":6771,"messaging":6772,"##232":6773,"##989":6774,"##teer":6775,"##etteer":6776,"##03d":6777,"##b68":6778,"##bd8":6779,"##9df":6780,"169024548":6781,"169024545":6782,"60266":6783,"_6p":6784,"60170":6785,"gazetteer":6786,"5m0":6787,"##1e0":6788,"##inactive":6789,"##ea2":6790,"inactive":6791,"##e_inactive":6792,"##23c":6793,"##5ee":6794,"0x10000046b0e05":6795,"##0bf":6796,"##95f":6797,"closing":6798,"close_inactive":6799,"##cd5":6800,"##8fc":6801,"reached":6802,"60268":6803,"_6j":6804,"5m0s":6805,"mi":6806,"##7b5":6807,"##7f0":6808,"##1fd":6809,"##4e5":6810,"##9ed":6811,"##5a2a":6812,"##3fe":6813,"##73c":6814,"geonames":6815,"##225":6816,"##aa5":6817,"##aa3":6818,"##mbean":6819,"##c35":6820,"1690353":6821,"60220":6822,"mime":6823,"0c":6824,"2425":6825,"##7fe":6826,"##719":6827,"##9dc":6828,"##cee":6829,"60430":6830,"##c9e":6831,"##cfc":6832,"##be2":6833,"60314":6834,"1690369546":6835,"199":6836,"2487":6837,"b2":6838,"##7cc":6839,"haw":6840,"##7cf":6841,"##5f5":6842,"e5":6843,"##f38":6844,"##e5e":6845,"##54e":6846,"_6t":6847,"##7e0":6848,"##1b2":6849,"##915":6850,"##b1e":6851,"##97e":6852,"1675":6853,"##ef8":6854,"60122":6855,"##25d":6856,"72240":6857,"281650":6858,"18399":6859,"7038912":6860,"10528304":6861,"86370":6862,"24870238":6863,"28165094336":6864,"##20e":6865,"##801":6866,"##b38":6867,"1725":6868,"169037049":6869,"1690363569":6870,"622":6871,"ldap":6872,"##92d":6873,"##98d":6874,"##mode":6875,"##ea8":6876,"##eb2":6877,"##75e":6878,"##cdf":6879,"##5d5":6880,"##f2f":6881,"ldapclaimshandler":6882,"##449":6883,"##b74":6884,"##03f":6885,"##098":6886,"##9f2":6887,"8e":6888,"##4b2":6889,"##ctor":6890,"##8848":6891,"##stru":6892,"##f3e":6893,"##c05":6894,"##dc6":6895,"##cd2":6896,"##7c5":6897,"##9fc":6898,"##5fc":6899,"##structor":6900,"189":6901,"##b82":6902,"##50346":6903,"##43a9":6904,"##0313":6905,"##ffc":6906,"##c68":6907,"##e61f":6908,"_6z":6909,"484":6910,"df":6911,"##1f6":6912,"##122a":6913,"##5a89":6914,"##2a5":6915,"##2a2":6916,"##66f":6917,"##e60":6918,"##3ac":6919,"blueprintcontainer":6920,"##2be":6921,"blueprintcontainerimpl":6922,"_73":6923,"##78c":6924,"##98c":6925,"##3f0":6926,"##e0c":6927,"##ad5":6928,"##c0c":6929,"c71":6930,"##7ec":6931,"##977":6932,"##95a":6933,"##ay":6934,"##minutes":6935,"##_tdt":6936,"now":6937,"##80minutes":6938,"##runn":6939,"0x10000046b0e08c":6940,"##2ac":6941,":[*":6942,"##ee2":6943,"10080minutes":6944,"cached_tdt":6945,"##71b":6946,"##1e4":6947,"##b78":6948,"##32c":6949,"##fe8":6950,"##bf8":6951,"##662":6952,"408":6953,"##7903":6954,"202":6955,"7e":6956,"c4":6957,"claimshandler":6958,"##1b8":6959,"##9fd":6960,"##00346":6961,"##3f2":6962,"##e35":6963,"##064":6964,"##aa6":6965,"##1d5":6966,"##f0e":6967,"##9c8":6968,"##dd6":6969,"169024541":6970,"##geonames":6971,"236":6972,"_79":6973,"##096":6974,"##1bf":6975,"##ca8":6976,"254":6977,"##e38":6978,"##22e":6979,"##bd65":6980,"571":6981,"##2f5":6982,"169035633":6983,"170":6984,"218":6985,"2525":6986,"##7b6":6987,"##781":6988,"##9ea":6989,"##b79":6990,"##_data":6991,"##_geonames":6992,":\"/":6993,"##ad6":6994,"##2a16":6995,"##1ae":6996,"1690351":6997,"##605":6998,"location_txt":6999,"16903569":7000,"default_geonames":7001,"577ms":7002,"default_geonames_data":7003,"##717":7004,"##941":7005,"##985":7006,"##egis":7007,"##ec2":7008,"##5476":7009,"##7ac":7010,"##308":7011,"##9a8":7012,"##2549fd":7013,"2375":7014,"featur":7015,"##egistry":7016,"217":7017,"219":7018,"d5":7019,"##1ef":7020,"##9b9":7021,"##4800":7022,"163":7023,"##1cf":7024,"##63d":7025,"621ms":7026,"184":7027,"##987":7028,"1575":7029,"##dc1":7030,"##3a3":7031,"##7e2":7032,"##9e2":7033,"##72d":7034,"##nda":7035,"##00c":7036,"##90e":7037,"##1e8":7038,"##9b2":7039,"##68f":7040,"standa":7041,"##d0a":7042,"standard":7043,"191":7044,"232":7045,"cc":7046,"sing":7047,"tp":7048,"##_9d0":7049,"##_4aa3":7050,"##_43a9":7051,"##_bd65":7052,"##_2549fd":7053,"##4936":7054,"##ba8":7055,"##leton":7056,"##06f":7057,"##9a2":7058,"##_0972":7059,"##e1_0972":7060,"##d903ea":7061,"##4160313":7062,"0x10000046b0e015c":7063,"##1164160313":7064,"##294_2549fd":7065,"proxy10b5":7066,"proxyd903ea":7067,"##2d330":7068,"##99c_43a9":7069,"##cc4020":7070,"##_a294_2549fd":7071,"##_399c_43a9":7072,"##9e2f_399c_43a9":7073,"##e61f2d330":7074,"singleton":7075,"tp1164160313":7076,"##_9d0e61f2d330":7077,"##_4aa3_bd65":7078,"##e1_0972_4aa3_bd65":7079,"proxy10b59e2f_399c_43a9":7080,"proxyd903eae1_0972_4aa3_bd65":7081,"##_a294_2549fdcc4020":7082,"proxy10b59e2f_399c_43a9_a294_2549fdcc4020":7083,"proxyd903eae1_0972_4aa3_bd65_9d0e61f2d330":7084,"665":7085,"c52":7086,"##9cc":7087,"##lecon":7088,"##add":7089,"##91e":7090,"##2ae":7091,"##cd0":7092,"##5d0":7093,"modulecon":7094,"##a0d":7095,"624ms":7096,"1690362940":7097,"modulecontainer":7098,"##1b1":7099,"##42d":7100,"##b15":7101,"##127":7102,"##86e":7103,"##095":7104,"##30d":7105,"##6a6":7106,"##c2e":7107,"##play":7108,"##4610":7109,"2575":7110,"##ab2":7111,"##dc2":7112,"##35d":7113,"1690365":7114,"##cd7e":7115,"##363":7116,"##2f8":7117,"executor":7118,"##c210":7119,"169036797":7120,"05t13":7121,"_8":7122,"c49":7123,"##4b1":7124,"##9f0":7125,"128":7126,"##4340":7127,"1625":7128,"##aa2":7129,"9e":7130,"##93f":7131,"2275":7132,"##12e":7133,"##c38":7134,"##e65":7135,"##e6e":7136,"##33d":7137,"253":7138,"210":7139,"4000":7140,"##9ec":7141,"##dated":7142,"##52e8":7143,"##ad2":7144,"##cf8":7145,"invalidated":7146,"1e":7147,"5576":7148,"le":7149,"##9ca":7150,"##de8":7151,"166":7152,"##ff2":7153,"##ffb3":7154,"##09d":7155,"##81bf":7156,"##1f8":7157,"##7ae":7158,"##30f":7159,"level":7160,"##1e3":7161,"##9c6":7162,"##e3e":7163,"##063":7164,"##6d0":7165,"##17e":7166,"##7a8":7167,"##333":7168,"578ms":7169,"##9de":7170,"##15e":7171,"##06d":7172,"##aaf":7173,"##684":7174,"##7d2":7175,"newinstance":7176,"##7f8":7177,"servicerecipe":7178,"serviceregistry":7179,"##ourcepollerrunn":7180,"scheduler":7181,"##ourcepollerrunner":7182,"##1e5":7183,"##ad0":7184,"##72c":7185,"##6d3":7186,"##7c8":7187,"622ms":7188,"2975":7189,"91f":7190,"##791":7191,"##1c9":7192,"##0080":7193,"2225":7194,"##5e8":7195,"##9a5":7196,"##8f86":7197,"##1c8":7198,"##4be":7199,"16902475":7200,"##63c":7201,"169036199":7202,"_5e":7203,"##9fe":7204,"##1200":7205,"##4176":7206,"##e0e":7207,"##adf":7208,"##179":7209,"508":7210,"##6ac":7211,"##1be":7212,"_5j":7213,"##9c0":7214,"##955":7215,"metacardtransformer":7216,"##b08":7217,"##75160":7218,"##80e":7219,"display":7220,"##7b8ce":7221,"transform":7222,"##3a5":7223,"##4c15":7224,"##255a2a":7225,"##b1e0":7226,"##6a5":7227,"##cbe":7228,"##51cef":7229,"##72ac210":7230,"##40346":7231,"##80a75160":7232,"##e5d7b8ce":7233,"0c8d413306add23":7234,"##e0980a75160":7235,"##122a7903":7236,"displayname":7237,"##255a2a2a16":7238,"##51cef255a2a2a16":7239,"##72ac210e5d7b8ce":7240,"0c8d413306add2372ac210e5d7b8ce":7241,"##e0980a7516051cef255a2a2a16":7242,"##122a7903e0980a7516051cef255a2a2a16":7243,"0c8d413306add2372ac210e5d7b8ce122a7903e0980a7516051cef255a2a2a16":7244,"b87c":7245,"ee":7246,"##7c9":7247,"##52e":7248,"##3255":7249,"##f6e":7250,"##1a8":7251,"##a0f":7252,"169036325":7253,"##bundle":7254,"3e":7255,"629":7256,"c43":7257,"##7e3":7258,"##71c":7259,"##4c9":7260,"##c3f":7261,"##9473":7262,"##22c":7263,"##305":7264,"_5x":7265,"0022":7266,"206":7267,"635":7268,"630":7269,"##00e":7270,"##e4bd":7271,"16903623":7272,"##agement":7273,"169036923":7274,"1manag":7275,"75d":7276,"##9b8":7277,"##xlog":7278,"##edpa":7279,"##fae":7280,"##035":7281,"##ab8":7282,"##907":7283,"##078":7284,"##60d":7285,"##7f5":7286,"##f2ce":7287,"169024553":7288,"33052":7289,"ceimpl":7290,"29t18":7291,"##gingservice":7292,"1managedpa":7293,"##xloggingservice":7294,"1managedpaxloggingservice":7295,"649":7296,"d2":7297,"f8":7298,"mbean":7299,"##9ba":7300,"##9c9":7301,"##121":7302,"233c":7303,"233c52e8":7304,"_7d":7305,"##9e0":7306,"##9e4":7307,"##eed7":7308,"##13e":7309,"##d0d":7310,"4af3ad":7311,"quartzscheduler":7312,"4af3adc0":7313,"##4c3":7314,"##9ef":7315,"##_d":7316,"##4688":7317,"##efe":7318,"##fee":7319,"564":7320,"##f05":7321,"##60f":7322,"##f28":7323,"generatedmethodaccessor289":7324,"tracker":7325,"623ms":7326,"ts":7327,"##9ee":7328,"##eed9a":7329,"##81b":7330,"##065":7331,"##95c":7332,"##cd8":7333,"##3d2":7334,"0e":7335,"b5":7336,"e8":7337,"##676":7338,"##plugin":7339,"142":7340,"##761":7341,"##997":7342,"##237":7343,"##73e":7344,"##1f2":7345,"##1d8":7346,"1690370175":7347,"197":7348,"##7fd":7349,"152":7350,"##8288":7351,"##7b8":7352,"##068":7353,"##bc8":7354,"2725":7355,"636":7356,"fe":7357,"rol":7358,"##0b2":7359,"context":7360,"##5662":7361,"627ms":7362,"573ms":7363,"256":7364,"656":7365,"man":7366,"##9690":7367,"##70e":7368,"##f68":7369,"##8e32":7370,"##0642":7371,"198":7372,"##1d7":7373,"3075":7374,"##36a":7375,"##9d8":7376,"##f2c":7377,"##62eb":7378,"##6e9e":7379,"626ms":7380,"_5w":7381,"##777":7382,"##0336":7383,"##101":7384,"##4288":7385,"##55c":7386,"##09c":7387,"##665":7388,"33104":7389,"##dd0":7390,"640":7391,"ev":7392,"##697":7393,"##32e":7394,"##2d7":7395,"##72e":7396,"##9be":7397,"##582d":7398,"##9ae":7399,"33150":7400,"##9c76":7401,"##4e8":7402,"##e2e":7403,"240":7404,"295":7405,"720":7406,"811":7407,"##9e5":7408,"1083":7409,"##3a0":7410,"1690356963":7411,"296":7412,"##9ff":7413,"##level":7414,"##1824":7415,"##0349":7416,"##start":7417,"##fff3":7418,"000005":7419,"##0bc":7420,"##c6e":7421,"##aac":7422,"2625":7423,"6355":7424,"##8b4":7425,"16902488":7426,"169024552":7427,"##df5":7428,"33056":7429,"##startlevel":7430,"2875":7431,"uu":7432,"##1dc":7433,"##4576":7434,"##dc3":7435,"##07f":7436,"##66e":7437,"##9d2":7438,"##5d8":7439,"uuid":7440,"209":7441,"hook":7442,"##4_":7443,"##31e9":7444,"##accessor":7445,"##_8ea":7446,"##_4c15":7447,"##_b1e0":7448,"##_0642":7449,"##_62eb":7450,"##e_49f":7451,"##40b":7452,"##43354":7453,"##56e":7454,"##4941":7455,"##8d4":7456,"qtp9690":7457,"##901":7458,"438":7459,"631":7460,"##2fc":7461,"generatedmethodaccessor676":7462,"##568eed9a":7463,"proxy5a89":7464,"proxy31e9":7465,"42590":7466,"169035570":7467,"##20b36e9e":7468,"##structoraccessor":7469,"##ffb3_8ea":7470,"##81bf_0642":7471,"##_d568eed9a":7472,"##8e32_d568eed9a":7473,"##4_8e32_d568eed9a":7474,"##_4c15_b1e0":7475,"##_62eb20b36e9e":7476,"##e_49f4_8e32_d568eed9a":7477,"qtp969043354":7478,"proxy5a8981bf_0642":7479,"proxy31e9ffb3_8ea":7480,"##structoraccessorimpl":7481,"##_4c15_b1e0_62eb20b36e9e":7482,"##e_49f4_8e32_d568eed9a04e":7483,"proxy5a8981bf_0642_4c15_b1e0_62eb20b36e9e":7484,"proxy31e9ffb3_8eae_49f4_8e32_d568eed9a04e":7485,"a8":7486,"##2048":7487,"##4640":7488,"##96e":7489,"##13b":7490,"33100":7491,"33202":7492,"16903689":7493,"3025":7494,"]}":7495,"a08":7496,"ma":7497,"##129":7498,"##7648":7499,"##871":7500,"##b5b":7501,"##ad8":7502,"##8e7":7503,"33146":7504,"##3be":7505,"##9e8":7506,"##b402":7507,"##e3d48":7508,"221":7509,"##43ab":7510,"##037":7511,"##7d8":7512,"##365":7513,"##7c2":7514,"##25c":7515,"compname":7516,"##a0a":7517,"243":7518,"311":7519,"643":7520,"d8":7521,"##95e":7522,"##4896":7523,"##09f":7524,"geoc":7525,"##6d6":7526,"##9f8":7527,"##6a3":7528,"##4ce6b":7529,"##logger":7530,"665ms":7531,"91feed7":7532,"75d4ce6b":7533,"##bce":7534,"##7716":7535,"##6944":7536,"##02e":7537,"##537":7538,"##5360":7539,"167":7540,"##35c":7541,"##8f8":7542,"##dd5":7543,"##5c5":7544,"##e703":7545,"628":7546,"solrj":7547,"solrmetacard":7548,"139":7549,"##41b":7550,"##8752":7551,"##3fc":7552,"##1529":7553,"##4790":7554,"##ff8":7555,"##074":7556,"##fe2":7557,"##c62":7558,"##ddd":7559,"##a0c":7560,"solrmetacardclientimpl":7561,"5429":7562,"##98e":7563,"##ki":7564,"##2448":7565,"1425":7566,"131":7567,"##161":7568,"##759":7569,"##7be":7570,"##91b":7571,"##minmbean":7572,"##c64b":7573,"invoke0":7574,"##5f8":7575,"shutd":7576,"1690357278":7577,"management":7578,"b8":7579,"##7ef":7580,"##187":7581,"##iew":7582,"##1ee":7583,"##bdb":7584,"##e62":7585,"##33c":7586,"##62c":7587,"##3d6":7588,"##3d3":7589,"##a6e":7590,"16903510":7591,"214":7592,"2825":7593,"2925":7594,"666":7595,"c54":7596,"##44b":7597,"##4447":7598,"192":7599,"##af5":7600,"_5h":7601,"##923":7602,"##8720":7603,"##3a6":7604,"233":7605,"169024852":7606,"630ms":7607,"ae":7608,"##1fe":7609,"##ec4":7610,"##0000":7611,"##2446":7612,"##327":7613,"##4272":7614,"##6d8":7615,"##364":7616,"##manager":7617,">(":7618,"init":7619,"##291":7620,"##20346":7621,"##7712":7622,"##03e":7623,"##abe":7624,"##aae":7625,"##c3e":7626,"##f08":7627,"##60c":7628,"object":7629,"1525":7630,"##2080":7631,"##4016":7632,"##709":7633,"##7b4":7634,"##4448":7635,"##entad":7636,"##7c7":7637,"eventad":7638,"729":7639,"_7j":7640,"##checker":7641,"##467":7642,"##4050":7643,"##e04610":7644,"##1990":7645,"##4512":7646,"##939c76":7647,"19f2ce":7648,"##f2e":7649,"##65e3d48":7650,"16903626":7651,"##d05":7652,"##d0f":7653,"##6ee04610":7654,"##d1e4bd":7655,"##988c3f":7656,"##4d57716":7657,"##1ed988c3f":7658,"##e1a096":7659,"625ms":7660,"##7520cd7e":7661,"a084d57716":7662,"##939c761ed988c3f":7663,"19f2ce96":7664,"##65e3d48b402":7665,"##6ee0461065e3d48b402":7666,"##d1e4bd7520cd7e":7667,"##e1a096d1e4bd7520cd7e":7668,"a084d57716e1a096d1e4bd7520cd7e":7669,"##939c761ed988c3f6ee0461065e3d48b402":7670,"a084d57716e1a096d1e4bd7520cd7e939c761ed988c3f6ee0461065e3d48b402":7671,"716":7672,"##2406":7673,"##189":7674,"##2947":7675,"##2088":7676,"##87b":7677,"##e0b":7678,"##1320":7679,"defaulthttp":7680,"169035476":7681,"2675":7682,"##36e":7683,"55808":7684,"contextid":7685,"geocoding":7686,"defaulthttpcontext":7687,"3dc":7688,"##2490":7689,"1475":7690,"##4088":7691,"##536b":7692,"##b54f":7693,"##75b":7694,"##9bb":7695,"##351":7696,"1690364":7697,"##5664":7698,"270336":7699,"b672":7700,"249":7701,"sat":7702,"##143f":7703,"##1008":7704,"##861":7705,"##f39":7706,"##90b":7707,"1690359":7708,"42290":7709,"##6fc":7710,"575ms":7711,"mbeanserver":7712,"246":7713,"_5g":7714,"deb":7715,"##nail":7716,"##umb":7717,"##8800":7718,"##olrclient":7719,"141":7720,"##5040":7721,"##1152":7722,"##3f4":7723,"##917":7724,"##07d":7725,"##7440":7726,"##8449":7727,"##8b7":7728,"##d6e":7729,"60062":7730,"55546":7731,"55400":7732,"hawti":7733,"##umbnail":7734,"6e":7735,"##ccb":7736,"##699":7737,"##69b":7738,"##16b":7739,"##9040":7740,"##66c":7741,"1690366":7742,"##6af":7743,"471":7744,"##10346":7745,"55764":7746,"269":7747,"252":7748,"632":7749,"wfs":7750,"##2b9":7751,"remo":7752,"##299":7753,"##3288":7754,"##3216":7755,"##167":7756,"##4f7":7757,"##137":7758,"##dc8":7759,"##8400":7760,"##36f":7761,"##7c4":7762,"##21c":7763,"##334":7764,"##be8":7765,"574ms":7766,"3125":7767,"899":7768,"##sis":7769,"##eab":7770,"##ervice":7771,"##889":7772,"##2992":7773,"##4db":7774,"##471":7775,"##4577":7776,"persis":7777,"##4412":7778,"567":7779,"##1d4":7780,"##2928":7781,"338":7782,"##ount":7783,"59694":7784,"##a3e":7785,"_5u":7786,"05t04":7787,"59390":7788,"standardframework":7789,"629ms":7790,"##availab":7791,"##create":7792,"##own":7793,"##osi":7794,"##tent":7795,"##essourcepollerrunner":7796,"##eposi":7797,"##utils":7798,"##da7":7799,"unavailab":7800,"##fac7":7801,"##ectionutils":7802,"##treposi":7803,"##8223":7804,"##content":7805,"getcontent":7806,"##factoryimpl":7807,"##8e9":7808,"##aa8":7809,"##74b":7810,"56022":7811,"##1a9":7812,"##7a5":7813,"reflectionutils":7814,"##9a7":7815,"##7840":7816,"231":7817,"contenttyp":7818,"internalcreate":7819,"blueprintreposi":7820,"##types":7821,"513be3":7822,"##c409ce":7823,"solrclientfactoryimpl":7824,"8d93":7825,"fd8a":7826,"628ms":7827,"b672c409ce":7828,"persisten":7829,"unavailables":7830,"getcontenttypes":7831,"contenttypessourcepollerrunner":7832,"blueprintrepository":7833,"513be3a7":7834,"b672c409ce2e":7835,"248":7836,"46dd":7837,"9dc1":7838,"b851":7839,"d149":7840,"1089":7841,"154":7842,"##8880":7843,"##12b":7844,"##fab":7845,"##6960":7846,"##561":7847,"##70b":7848,"##10b":7849,"33e703":7850,"##a08":7851,"55610":7852,"55756":7853,"55876":7854,"55450":7855,"31t00":7856,"##582dfc":7857,"d149143f":7858,"33e703582dfc":7859,"##fail":7860,"##6943":7861,"##839":7862,"##4080":7863,"##40b3":7864,"##11b":7865,"##4f4a":7866,"##9624":7867,"##4283":7868,"##8a4":7869,"##7830":7870,"##0bd":7871,"##9200":7872,"1690360":7873,"639":7874,"##dfc":7875,"1690370490":7876,"55918":7877,"653":7878,"_5d":7879,"##3280":7880,"##5a7":7881,"##ba4":7882,"##4748":7883,"##857":7884,"55444":7885,"55706":7886,"05t11":7887,"55394":7888,"169036419":7889,"631ms":7890,"283":7891,"2dc":7892,"5e":7893,"793":7894,"##fa4":7895,"##207":7896,"##41bf":7897,"##5a46":7898,"##0350":7899,"##1600":7900,"##53b":7901,"##ba9":7902,"##ba4d":7903,"##b924":7904,"##47ab":7905,"000008f":7906,"##f6b":7907,"##457":7908,"##44af":7909,"##30c":7910,"##36c":7911,"55498":7912,"16903550":7913,"2775":7914,"315":7915,"idp":7916,"##297":7917,"##4160":7918,"##7040":7919,"##3f8":7920,"##4592":7921,"##737":7922,"##93e":7923,"##e54":7924,"##cd4":7925,"##3b4":7926,"16903686":7927,"55550":7928,"55712":7929,"572ms":7930,"777":7931,"c24":7932,"htm":7933,"property":7934,"##da49":7935,"##505c":7936,"##489":7937,"##837":7938,"##fd48":7939,"##4124":7940,"##4fb":7941,"##458f86":7942,"##ef9":7943,"##9024":7944,"##55e":7945,"##4424":7946,"##0be":7947,"##aliz":7948,"##1d48":7949,"##68b":7950,"##3ae":7951,"##60e":7952,"##7f9":7953,"##ee8":7954,"1690363255":7955,"##d0c":7956,"##a6c":7957,"55924":7958,"639ms":7959,"html":7960,"cs":7961,"cer":7962,"##5072":7963,"##serverwrapper":7964,"##809":7965,"##4787":7966,"000002a":7967,"##09e":7968,"55970":7969,"##5db":7970,"##dd2":7971,"_5y":7972,"55812":7973,"##minmbeanserverwrapper":7974,"eventadminmbeanserverwrapper":7975,"csv":7976,"_7a":7977,"_64":7978,"_63":7979,"nit":7980,"##view":7981,"##ebb":7982,"##4643":7983,"##5616":7984,"##111":7985,"thumbnail":7986,"##4720":7987,"##4273":7988,"##451":7989,"##444f":7990,"55872":7991,"##1c4":7992,"56018":7993,"##fc8":7994,"1690369232":7995,"30t22":7996,"1690356649":7997,"nitf":7998,"##521":7999,"##3200":8000,"##4928":8001,"##979":8002,"##1664":8003,"##1552":8004,"##909":8005,"521":8006,"##bb7":8007,"##7cb":8008,"55656":8009,"633ms":8010,"ste":8011,"##19c":8012,"##ed9":8013,"##eclaimshandler":8014,"##001":8015,"##8832":8016,"failure_mode":8017,"##77b":8018,"##4352":8019,"##fd7":8020,"##0352":8021,"##03008":8022,"##8640":8023,"##baeb":8024,"##4d4a":8025,"1611":8026,"##967":8027,"##b6eb":8028,"##731":8029,"##e4b":8030,"##e4ea":8031,"##1fb":8032,"##84b":8033,"3625":8034,"##af8":8035,"##uremode":8036,"55614":8037,"roleclaimshandler":8038,"##failuremode":8039,"step":8040,"55662":8041,"count":8042,"pki":8043,"##lus":8044,"##eab5":8045,"##0032":8046,"exp":8047,"##7792":8048,"##494f":8049,"##4170":8050,"##b5b0":8051,"##b647":8052,"##1343":8053,"##c01":8054,"##7456":8055,"##e6b":8056,"##7d7":8057,"55502":8058,"55974":8059,"634":8060,"##1b4":8061,"1690357593":8062,"shutdown":8063,"278":8064,"648":8065,"##ea49":8066,"##cc4":8067,"##ecb":8068,"147":8069,"##8352":8070,"##4040":8071,"##4310":8072,"##5688":8073,"##4a41":8074,"##4948":8075,"##9448":8076,"##867":8077,"##23b":8078,"##4dbb":8079,"##8a1":8080,"filter":8081,"##8c1":8082,"##44ea":8083,"##4441":8084,"##14b":8085,"##92e":8086,"##1808":8087,"##bf4":8088,"##35f":8089,"##3056":8090,"16902478":8091,"##65c3":8092,"##3d0":8093,"1690368288":8094,"3225":8095,"9387":8096,"_6s":8097,"##203008":8098,"persistence":8099,"797":8100,"pur":8101,"##mod":8102,"1088":8103,"##2400":8104,"##2960":8105,"##4899":8106,"##4866":8107,"##4046":8108,"##7620":8109,"##9456":8110,"##5368":8111,"##878b":8112,"##2d4":8113,"##821":8114,"##459d":8115,"##931":8116,"##8c7":8117,"##4440":8118,"##227":8119,"##1450":8120,"##bbb":8121,"263":8122,"##259":8123,"##3b7":8124,"##ee9":8125,"76c64b":8126,"42515c":8127,"_7n":8128,"purge":8129,"76c64be7":8130,"42515c18":8131,"##eref":8132,"##de9":8133,"##8840":8134,"##fa46":8135,"##201":8136,"##b041":8137,"##431":8138,"##4347":8139,"##fdfa":8140,"##fd4d":8141,"##49b":8142,"##4976":8143,"##49c6":8144,"theref":8145,"##b546":8146,"##e34":8147,"##454a":8148,"##454f":8149,"##4488":8150,"geoj":8151,"##ortname":8152,"##9c2":8153,"##251":8154,"##7f801":8155,"##7e1":8156,"##7976":8157,"shortname":8158,"##e2c":8159,"39080":8160,"ststhread":8161,"3dc7f801":8162,"debug":8163,"therefore":8164,"geojson":8165,"325":8166,"642":8167,"718":8168,"713":8169,"888":8170,"d50":8171,"##ed7":8172,"##aging":8173,"148":8174,"##4847":8175,"##4049":8176,"##4096":8177,"##991":8178,"##567":8179,"##2d1":8180,"##757":8181,"##b91":8182,"##f61":8183,"##139":8184,"##22b":8185,"##06e":8186,"##bf4b":8187,"##1a7":8188,"##eee":8189,"##a9e":8190,"imaging":8191,"##3df":8192,"241":8193,"270":8194,"646":8195,"730":8196,"]:":8197,"_7x":8198,"##ea9":8199,"##007":8200,"##0048":8201,"##509":8202,"##4645":8203,"##48ca":8204,"##48bd":8205,"##5220":8206,"##434a":8207,"##436d":8208,"##432c":8209,"##5632":8210,"##5a48":8211,"##94e3":8212,"##b5ca":8213,"##8048":8214,"##4d87":8215,"##89b":8216,"##7bb":8217,"##4545":8218,"##8c4d":8219,"##8544":8220,"##b27":8221,"##78b0":8222,"16902469":8223,"16902466":8224,"##5c7":8225,"##5cb":8226,"##a0e":8227,"40352":8228,"5701":8229,"242":8230,"_5i":8231,"_7c":8232,"##_2":8233,"##885a":8234,"##6976":8235,"##027":8236,"##7024":8237,"##727":8238,"##7224":8239,"##814e":8240,"##927":8241,"##7a9":8242,"##5d9":8243,"##5c8":8244,"5000":8245,"containerstartlevel":8246,"##ea7":8247,"##009":8248,"##88b":8249,"##461":8250,"##4646":8251,"##771":8252,"##4832":8253,"##48aa":8254,"##b04":8255,"##fd4":8256,"##1675":8257,"##2db":8258,"##4f03":8259,"##ba69":8260,"##7588":8261,"##159":8262,"##e07":8263,"##422d":8264,"##7b7":8265,"##7be8":8266,"##efb3":8267,"##559":8268,"##44ca":8269,"##5e7":8270,"171":8271,"##95fff3":8272,"##9847":8273,"##25dcd":8274,"238":8275,"##ee1ad":8276,"##1b43f":8277,"_3r":8278,"##3d5":8279,"lay":8280,"49152":8281,"##dae95fff3":8282,"##4f8dae95fff3":8283,"##03c1b43f":8284,"##94737be8":8285,"##536b4f8dae95fff3":8286,"##505c03c1b43f":8287,"##458f8625dcd":8288,"##65c3ee1ad":8289,"9387536b4f8dae95fff3":8290,"##94737be8505c03c1b43f":8291,"##458f8625dcdfac7":8292,"##65c3ee1ad94737be8505c03c1b43f":8293,"9387536b4f8dae95fff365c3ee1ad94737be8505c03c1b43f":8294,"9387536b4f8dae95fff365c3ee1ad94737be8505c03c1b43f458f8625dcdfac7":8295,"##88aa":8296,"##4841":8297,"##4ab":8298,"##496d":8299,"##9799":8300,"##534f":8301,"##707":8302,"##2656":8303,"##8a9":8304,"##458a":8305,"##1324":8306,"16903560":8307,"##7a4":8308,"638":8309,"39860":8310,"16903616":8311,"39902":8312,"67ae":8313,"1690355390":8314,"634ms":8315,"641":8316,"f2":8317,"##2451":8318,"##1232":8319,"##fac6":8320,"##7749":8321,"##48f3":8322,"1375":8323,"##7680":8324,"##4960":8325,"##4177":8326,"##414a":8327,"##531":8328,"##b57":8329,"##261":8330,"##4f6f":8331,"##ba9d":8332,"##9632":8333,"##4783":8334,"##827":8335,"##ef4":8336,"##e44a":8337,"##8cb":8338,"##44ec":8339,"##071":8340,"##06c":8341,"##7429":8342,"##14b3":8343,"##3a8":8344,"##afc":8345,"169024547":8346,"39172":8347,"38856":8348,"hawt":8349,"hawtio":8350,"291":8351,"313":8352,"_7b":8353,"1085":8354,"##ed46":8355,"##0026":8356,"input":8357,"##de4":8358,"##2483":8359,"##da4a":8360,"##1296":8361,"##4637":8362,"##4112":8363,"##0351":8364,"##9426":8365,"##701":8366,"##8688":8367,"##8656":8368,"##b953":8369,"##427":8370,"##8d1":8371,"##7232":8372,"##8c4":8373,"##4420":8374,"##1db":8375,"##9845":8376,"##bd7":8377,"##7e7":8378,"##5c4":8379,"##a05":8380,"##b443":8381,"##d6c":8382,"3475":8383,"2c6":8384,"650":8385,"645":8386,"pre":8387,"sourcepoller":8388,"##vecon":8389,"##da4":8390,"##fafa":8391,"##ca46":8392,"##507":8393,"##774a":8394,"##69bd":8395,"##b07":8396,"##438c":8397,"##767":8398,"##7600":8399,"##fdb":8400,"##4943":8401,"publishbundle":8402,"##1124":8403,"##97ad":8404,"##414f":8405,"##1648":8406,"##94b":8407,"##9455":8408,"##94c3":8409,"##ba4a":8410,"##4d53":8411,"164":8412,"##4229":8413,"##4211":8414,"##7b4a":8415,"##739":8416,"##9320":8417,"##b37":8418,"##b34":8419,"##4450":8420,"##444a":8421,"##44bd":8422,"##8e99":8423,"notify":8424,"##814d":8425,"##6d5":8426,"##8540":8427,"##14e3":8428,"##982d":8429,"##ggest":8430,"##7afd":8431,"suggest":8432,"initializ":8433,"newclient":8434,"createcontainer":8435,"##7f1":8436,"##1c7":8437,"##1c96":8438,"##value":8439,"##6ae":8440,"##d08":8441,"##d3e":8442,"tracked":8443,"40050":8444,"nativecon":8445,"40250":8446,"_7t":8447,"preview":8448,"publishbundleevent":8449,"nativeconstructoraccessorimpl":8450,"5212":8451,"792":8452,"158":8453,"##2430":8454,"##881":8455,"##fa97":8456,"##2976":8457,"##4091":8458,"##4390":8459,"##49cc":8460,"##4150":8461,"##539":8462,"##8784":8463,"##8016":8464,"##7b1":8465,"##c07":8466,"##efb":8467,"##e44f":8468,"##551":8469,"##8599":8470,"##58b":8471,"##35b":8472,"##cd7":8473,"##7db":8474,"169036168":8475,"##0ac":8476,"1690370176":8477,"38792":8478,"39060":8479,"##50345":8480,"_60":8481,"_61":8482,"c29":8483,"c11":8484,"c60":8485,"##a1529":8486,"##da43":8487,"##eb4a":8488,"##fa0d":8489,"##ca7":8490,"##ca9":8491,"##4813":8492,"##6900":8493,"##838f":8494,"##4041":8495,"##4341":8496,"##437f":8497,"##4a24":8498,"##49ab":8499,"##41ed":8500,"##41ff":8501,"##41e3":8502,"##419f":8503,"##5a1":8504,"##5af3":8505,"##5a6f":8506,"##874a":8507,"##f34a":8508,"##751":8509,"##4d93":8510,"##9650":8511,"3975":8512,"0x100000a1529":8513,"##45e5":8514,"##45dc":8515,"##131":8516,"##b848":8517,"##e57":8518,"##dc4":8519,"##1e7":8520,"##07c":8521,"##5760":8522,"##bfec":8523,"1690352":8524,"rtf":8525,"##7c2d":8526,"##b1b":8527,"6352":8528,"##4b69":8529,"##7e9":8530,"##63e":8531,"##0a2":8532,"_5k":8533,"_6y":8534,"_2y":8535,"crlchecker":8536,"2e":8537,"700":8538,"717":8539,"_8d":8540,"_78":8541,"search":8542,"##70346":8543,"applic":8544,"##887":8545,"##1840":8546,"##1230":8547,"##4323":8548,"##43b3":8549,"##7659":8550,"##5648":8551,"##4920":8552,"##9424":8553,"##8646":8554,"##26b":8555,"##4746":8556,"##891":8557,"##4569":8558,"##dc7":8559,"##8c9":8560,"##fe9":8561,"##5e9":8562,"##1f9":8563,"##21b":8564,"39692":8565,"##33e":8566,"##d0e":8567,"services":8568,"3275":8569,"##0a5":8570,"features":8571,"application":8572,"1eb":8573,"5f3":8574,"711":8575,"725":8576,"##ec4a":8577,"##de49":8578,"##18b":8579,"##209":8580,"##7790":8581,"##48b":8582,"##4870":8583,"##40e3":8584,"0012":8585,"##b0ab":8586,"##993a":8587,"##fd47":8588,"##5646":8589,"##4910":8590,"##4975":8591,"##41eb":8592,"##3f7":8593,"##4dea":8594,"##4d03":8595,"##4289":8596,"##8976":8597,"##b66a":8598,"##7834":8599,"##7b46":8600,"##939":8601,"##9312":8602,"##4400":8603,"##44b3":8604,"##9b7":8605,"##0638":8606,"##c64":8607,"##c6b":8608,"##1420":8609,"##2a8":8610,"##bb4":8611,"##4e4a":8612,"##cf7":8613,"##6a8":8614,"##1b4d":8615,"000002c0":8616,"40314":8617,"40268":8618,"1690363884":8619,"643ms":8620,"6000":8621,"723":8622,"_non":8623,"##e9c":8624,"##2480":8625,"##2496":8626,"##daad":8627,"attrib":8628,"1275":8629,"##5024":8630,"##779":8631,"##484a":8632,"##0224":8633,"##0256":8634,"##5288":8635,"##5a9":8636,"##_clus":8637,"##ab9":8638,"##quartz":8639,"##42b":8640,"##f64":8641,"##c04":8642,"##b856":8643,"##dcb":8644,"##7424":8645,"##7443":8646,"##1d9":8647,"##571":8648,"##5785":8649,"##4e7":8650,"##scheduler_":8651,"000002c1":8652,"40304":8653,"defaultquartz":8654,"635ms":8655,"_non_clus":8656,"defaultquartzscheduler_":8657,"_non_clustered":8658,"%,":8659,"1125":8660,"67af":8661,"726":8662,"821":8663,"903":8664,"cal":8665,"c89":8666,"db3":8667,"f99":8668,"##e25":8669,"##ea3f":8670,"##cc4f":8671,"##de7":8672,"##de88":8673,"##2450":8674,"##2403":8675,"##daaa":8676,"##olrcatalogprovider":8677,"##eb5a":8678,"##1849":8679,"##29e6":8680,"##48ed":8681,"##6980":8682,"##8324":8683,"##02dd":8684,"1325":8685,"##404f":8686,"##b099":8687,"##4346":8688,"##56b":8689,"##49ca":8690,"##4949":8691,"##49b5":8692,"##498a":8693,"##4917":8694,"##492c":8695,"##1159":8696,"##4166":8697,"##1616":8698,"##f31f":8699,"##1080":8700,"##4f45":8701,"##4fbc":8702,"##4f5d":8703,"##ba99":8704,"##ba96":8705,"##ba47":8706,"##baaa":8707,"##b900":8708,"##b948":8709,"##4d9":8710,"##473b":8711,"##e0af":8712,"##8940":8713,"0x1000002b9":8714,"##b688":8715,"##pping":8716,"##134a":8717,"##b82d":8718,"##b34a":8719,"##4445":8720,"##444e":8721,"##9b4f":8722,"##tesolrcatalogprovider":8723,"##1411":8724,"##c347":8725,"##171":8726,"##1712":8727,"##bd4a":8728,"##5448":8729,"##bb48":8730,"##cd1":8731,"##9cb":8732,"##7c4a":8733,"##3a2":8734,"##4c77":8735,"##9d4":8736,"##8b47":8737,"169024695":8738,"169024663":8739,"39838":8740,"##2816":8741,"44144":8742,"##1b43":8743,"##df8":8744,"##a3c":8745,"##ac8":8746,"##6b000":8747,"##a4c3":8748,"configuration":8749,"38744":8750,"tsdb":8751,"1690368917":8752,"remotesolrcatalogprovider":8753,"caller":8754,"0x1000002b96b000":8755,"66d":8756,"685":8757,"763":8758,"762":8759,"_66":8760,"c90":8761,"##ec9":8762,"##8384":8763,"##4094":8764,"##4070":8765,"##4047":8766,"##9960":8767,"##4947":8768,"##9420":8769,"##2d9":8770,"##4f6b":8771,"##bac3":8772,"##b6ea":8773,"##e3b":8774,"##e51":8775,"##4290":8776,"##66b":8777,"##7849":8778,"##cfb":8779,"##0ae":8780,"_5q":8781,"_6u":8782,"38812":8783,"40512":8784,"636ms":8785,"638ms":8786,"0x100000a1529000":8787,"316":8788,"309":8789,"804":8790,"_83":8791,"min":8792,"##5da":8793,"##ea23":8794,"##ec1":8795,"##ec8a":8796,"##2424":8797,"##da16":8798,"##50b":8799,"##5280":8800,"##b083":8801,"##4348":8802,"##43e0":8803,"##7616":8804,"##99b":8805,"##99c6":8806,"##564f":8807,"##5680":8808,"##4929":8809,"##1143":8810,"##5aaa":8811,"##8630":8812,"##f31":8813,"##f349":8814,"##2688":8815,"##4fe0":8816,"##4f5b":8817,"##4d83":8818,"##4703":8819,"##4250":8820,"##425f":8821,"##8a7":8822,"##8a12":8823,"##82b":8824,"##7832":8825,"##455a":8826,"##4580":8827,"##4593":8828,"##b84a":8829,"##b39":8830,"##4411":8831,"##44bf":8832,"##8582":8833,"##b2b":8834,"##bf49":8835,"##cdb":8836,"##7d9":8837,"##9a4a":8838,"3675":8839,"##b19":8840,"40462":8841,"##4b29":8842,"##4b43":8843,"##5bb9":8844,"##2b4":8845,"##6f8":8846,"##df4":8847,"38904":8848,"40008":8849,"minute":8850,"029":8851,"6a9":8852,"7ce":8853,"916":8854,"_5a":8855,"##ourcer":8856,"##ene":8857,"##cc8f":8858,"##2440":8859,"##2441":8860,"##8856":8861,"##eb7":8862,"##5030":8863,"1104":8864,"##4033":8865,"##b0b":8866,"##9980":8867,"##1632":8868,"##5329":8869,"##1329":8870,"##b84":8871,"##e4cd":8872,"##557":8873,"##07e":8874,"##fe7":8875,"##85b":8876,"##1424":8877,"##5803":8878,"##9a4":8879,"33944":8880,"##214f":8881,"##5f4f":8882,"48966":8883,"_6w":8884,"38906":8885,"39224":8886,"39272":8887,"1690367973":8888,"321":8889,"788":8890,"706":8891,"##590":8892,"##fed":8893,"##icy":8894,"##ec29":8895,"##88b9":8896,"##20bf":8897,"##4624":8898,"##4648":8899,"##7744":8900,"##6906":8901,"##8340":8902,"##0288":8903,"##4097":8904,"##76b":8905,"##4a97":8906,"##4919":8907,"##41e9":8908,"##8750":8909,"##4f2d":8910,"##7584":8911,"##b933":8912,"eventmanager":8913,"##1576":8914,"##9680":8915,"##4780":8916,"##42bf":8917,"##8920":8918,"##8933":8919,"##7b43":8920,"##4596":8921,"##721":8922,"##7216":8923,"##dc24":8924,"##c67":8925,"##c3b":8926,"##9840":8927,"##661d":8928,"##0424":8929,"##5400":8930,"##5450":8931,"##5440":8932,"##b1ba":8933,"40416":8934,"##4b88":8935,"39008":8936,"39126":8937,"##2843":8938,"##5fb":8939,"##339":8940,"##62e":8941,"c51":8942,"##d3c":8943,"32768":8944,"39174":8945,"1690357592":8946,"244":8947,"268":8948,"306":8949,"663":8950,"724":8951,"715":8952,"77b":8953,"736":8954,"874":8955,"_87":8956,"_3s":8957,"mig":8958,"##520":8959,"##ed2d":8960,"##0024":8961,"##0010":8962,"##eb4c":8963,"##fa5a":8964,"##508f":8965,"##2032":8966,"##4802":8967,"##4830":8968,"134":8969,"##b043":8970,"##4912":8971,"##5312":8972,"##5392":8973,"##7046":8974,"##abb3":8975,"##2640":8976,"##4740":8977,"##4730":8978,"##ffb":8979,"##458c":8980,"##4595":8981,"##13b6":8982,"##7a7":8983,"##cd9":8984,"##8f7":8985,"##1929":8986,"##cb4":8987,"##c516":8988,"_3c":8989,"_3q":8990,"000002c3":8991,"000002c2":8992,"05t02":8993,"##validator":8994,"##4483":8995,"16903695":8996,"40098":8997,"38858":8998,"169035601":8999,"169036419870":9000,"2d6":9001,"746":9002,"70d":9003,"873":9004,"9dd":9005,"_4q":9006,"b7":9007,"gu":9008,"##undle":9009,"##ea1":9010,"##ea4d":9011,"1090":9012,"##cc20":9013,"##cc48":9014,"##8890":9015,"##da54":9016,"##daa6":9017,"fac":9018,"##ansion":9019,"##eb5c":9020,"##18d0":9021,"##fa4a":9022,"##faba":9023,"##fa7f":9024,"##46b":9025,"##46ca":9026,"logout":9027,"##487f":9028,"##99ca":9029,"##994f":9030,"##4af5":9031,"##49e6":9032,"##4925":9033,"##9743":9034,"##9728":9035,"##4193":9036,"##0360":9037,"##035d":9038,"##944a":9039,"##942d":9040,"##53a6":9041,"##70b9":9042,"##f312":9043,"##f34d":9044,"##f38c":9045,"##1043":9046,"##104a":9047,"##264a":9048,"##4f46":9049,"##ba07":9050,"##ba9f":9051,"##b916":9052,"##1557":9053,"##154c":9054,"##96dd":9055,"##47b":9056,"##47bf":9057,"##472f":9058,"##42a0":9059,"##8af3":9060,"##894a":9061,"##f67":9062,"##f688":9063,"##e340":9064,"##e3bee":9065,"##45ca":9066,"##4597":9067,"##4541":9068,"##457b":9069,"##ef96":9070,"##7344":9071,"##90ab":9072,"##e4fa":9073,"##e448":9074,"##e452":9075,"##e440":9076,"##e44d":9077,"##e4c6":9078,"##44b5":9079,"##44b9":9080,"##44e0":9081,"##1e99":9082,"##fe1":9083,"##9bce":9084,"##8112":9085,"##0688":9086,"##c643":9087,"##859":9088,"##744a":9089,"##7449":9090,"##1442":9091,"##1804":9092,"##1d6d":9093,"##292a":9094,"##9824":9095,"##bf4a":9096,"##8448":9097,"##bc7":9098,"##4c7":9099,"##9db":9100,"##b19b":9101,"##8f4a":9102,"##9f4f":9103,"##4e95":9104,"##4b71":9105,"##1910":9106,"##1b97":9107,"##634":9108,"##7988":9109,"##3d8":9110,"38962":9111,"##6f4":9112,"##0593":9113,"39602":9114,"38748":9115,"169036419900":9116,"starting":9117,"632ms":9118,"expansion":9119,"guest":9120,"3920":9121,"6b0":9122,"680":9123,"644":9124,"6354":9125,"783":9126,"753":9127,"_8e":9128,"##eac9":9129,"1086":9130,"##ed8f":9131,"##deb":9132,"##rdlogger":9133,"##1803":9134,"##fa7":9135,"##5088":9136,"##20238":9137,"##4653":9138,"##77ca":9139,"##4903":9140,"##4986":9141,"##4930":9142,"##4933":9143,"##4152":9144,"dev":9145,"##9488":9146,"##8747":9147,"##1024":9148,"##2360":9149,"##267":9150,"##8093":9151,"##3fb":9152,"##4256":9153,"##8983":9154,"##4599":9155,"##c09":9156,"##b81f":9157,"##937":9158,"##5520":9159,"##8e4a":9160,"##067":9161,"##959":9162,"##1488":9163,"##1456":9164,"##5824":9165,"##1f1":9166,"##7628":9167,"##2a4":9168,"dardlogger":9169,"##e60b":9170,"##5d4":9171,"40566":9172,"40474":9173,"40960":9174,"##2f1":9175,"##659":9176,"##be7":9177,"39390":9178,"16903641992":9179,"39956":9180,"266240":9181,"standardlogger":9182,"dardloggerfactory":9183,"095":9184,"3eb":9185,"52d":9186,"9e3":9187,"9aa":9188,"_3b":9189,"_67":9190,"b9":9191,"f97":9192,"##8ff":9193,"##auth":9194,"##c4f":9195,"##monitor":9196,"##erauth":9197,"##userauth":9198,"##ea4":9199,"##ea9a":9200,"##cc5d":9201,"##24ea":9202,"##2413":9203,"##8873":9204,"##880d":9205,"serveruserauth":9206,"##da41":9207,"##1828":9208,"##1293":9209,"##204a":9210,"##6955":9211,"##028d":9212,"##404a":9213,"##404d":9214,"##40ac":9215,"##b036":9216,"##99c63":9217,"##4a67":9218,"##4950":9219,"##4987":9220,"##4966":9221,"##49cd":9222,"##493d":9223,"##4118":9224,"##41fd":9225,"##4147":9226,"##9440":9227,"##9441":9228,"##94bc":9229,"##947c":9230,"##944e":9231,"##7029":9232,"##70b6":9233,"##ab5a":9234,"##f3b":9235,"##4fb0":9236,"##4f97":9237,"##bac0":9238,"##7547":9239,"##b9bd":9240,"##4d4":9241,"##4d1f":9242,"##4d9d":9243,"##47ec":9244,"##4797":9245,"##e04":9246,"##e0ce":9247,"##42b6":9248,"##427b":9249,"##42c6":9250,"##8a85":9251,"##ff4d":9252,"##fffe":9253,"39792":9254,"##ad4":9255,"##ad9":9256,"##8d2d":9257,"##8900":9258,"##8943":9259,"##89cd":9260,"##895f":9261,"##b6e3":9262,"##b6e5":9263,"##7838":9264,"##f64a":9265,"##e343":9266,"##7b8f":9267,"##c0ca":9268,"##7340":9269,"##9046":9270,"##e4b3":9271,"##b31c":9272,"##4429":9273,"##c641":9274,"##9524":9275,"encr":9276,"##bc88":9277,"##7ced":9278,"##4c4":9279,"##4c4a":9280,"##4c92":9281,"##b15a":9282,"40166":9283,"##7f43":9284,"##4b4c":9285,"##8b40":9286,"39322":9287,"##cf76":9288,"##yption":9289,"##3840":9290,"##1948":9291,"##ee99":9292,"##79b0":9293,"##321408":9294,"_4n":9295,"69dc5":9296,"##880f":9297,"0242ac130026":9298,"##890321408":9299,"39906":9300,"10903":9301,"38958":9302,"1690364199890321408":9303,"1690363570":9304,"29t19":9305,"1690247583":9306,"serveruserauthservice":9307,"encryption":9308,"69dc599c63":9309,"69a":9310,"829":9311,"900":9312,"911":9313,"_72":9314,"_59":9315,"head":9316,"##224":9317,"##de40":9318,"##2402":9319,"##4608":9320,"##6912":9321,"##6932":9322,"##02b":9323,"##52ad":9324,"##401":9325,"##431a":9326,"##9947":9327,"##fd9":9328,"##4130":9329,"##5344":9330,"##8780":9331,"##b556":9332,"##7016":9333,"##2329":9334,"##7524":9335,"##42cf":9336,"##ff9":9337,"##8956":9338,"##4582":9339,"##9381":9340,"##936d":9341,"##c61":9342,"##2120":9343,"##1475":9344,"##4292":9345,"##5795":9346,"##5456":9347,"##8470":9348,"##7d1":9349,"40576":9350,"39538":9351,"44770":9352,"1690354447":9353,"_4o":9354,"##40345":9355,"39644":9356,"40056":9357,"39580":9358,"39280":9359,"44452":9360,"3b":9361,"3425":9362,"5920":9363,"70b":9364,"876":9365,"806":9366,"_7e":9367,"_5f":9368,"edf":9369,"gmd":9370,"ssh":9371,"##8ab":9372,"##310":9373,"##stal":9374,"##cc9":9375,"##ec24":9376,"##ec40":9377,"##ec03":9378,"##2416":9379,"##884a":9380,"##dab":9381,"##fa7b":9382,"##778d":9383,"##5264":9384,"##4393":9385,"##9984":9386,"##32b6":9387,"##fd69":9388,"##5686":9389,"##4a1a":9390,"##4932":9391,"##491b":9392,"##9744":9393,"##5300":9394,"##b51":9395,"##7012":9396,"##7010":9397,"##86b":9398,"##ba7":9399,"##ba43":9400,"##4d1":9401,"##4ddc":9402,"##4736":9403,"##e04a":9404,"##e041":9405,"##ffeb":9406,"##ff8d":9407,"39744":9408,"##89b0":9409,"##e3c4":9410,"##1344":9411,"##b85f":9412,"##9346":9413,"##e54a":9414,"##e44b":9415,"##b31":9416,"##44eb":9417,"174":9418,"##144f":9419,"##54b":9420,"16903563":9421,"##7a1":9422,"##bb4b":9423,"newsc":9424,"##8f4":9425,"40528":9426,"39438":9427,"39534":9428,"##3818":9429,"##1952":9430,"##cb88":9431,"_3g":9432,"_5n":9433,"39648":9434,"39016":9435,"38074":9436,"##56320":9437,"1690357907":9438,"16903575926":9439,"1690355705":9440,"40004":9441,"1690362626":9442,"purgetask":9443,"647":9444,"712":9445,"755":9446,"7bf":9447,"813":9448,"872":9449,"990":9450,"_68":9451,"1050":9452,"1025":9453,"##enth":9454,"##edb0":9455,"##ccf0":9456,"##0029":9457,"##0096":9458,"##tific":9459,"##ebd9":9460,"##18ed":9461,"##1872":9462,"##5032":9463,"##509a":9464,"##2906":9465,"##2904":9466,"##4630":9467,"##7793":9468,"##4833":9469,"##0003":9470,"1175":9471,"##8368":9472,"##5236":9473,"##52db":9474,"##5643":9475,"##4a4a":9476,"##497a":9477,"##9700":9478,"##4132":9479,"##9499":9480,"##b59":9481,"##1053":9482,"##4224":9483,"##4222":9484,"##8a10":9485,"##7836":9486,"##4546":9487,"##73c7":9488,"##9387":9489,"##9152":9490,"##e54b":9491,"##817":9492,"##1440":9493,"##1f4":9494,"##2a7":9495,"##1a4f":9496,"##8456":9497,"##bc69":9498,"##b19a":9499,"40162":9500,"39434":9501,"39486":9502,"01ex":9503,"##5f9":9504,"000002bf":9505,"##0570":9506,"39344":9507,"39124":9508,"39952":9509,"40362":9510,"certific":9511,"certificate":9512,"0de":9513,"0b3":9514,"085":9515,"1bf":9516,"299":9517,"286":9518,"272":9519,"302":9520,"4bf3":9521,"6e5":9522,"655":9523,"750":9524,"787":9525,"886":9526,"87f":9527,"889f":9528,"a7b":9529,"c02":9530,"e99":9531,"fed":9532,"##58a":9533,"##8ba":9534,"##e8f":9535,"##uds":9536,"##ea36":9537,"##ed4a":9538,"##ed65":9539,"##eda8":9540,"##esservice":9541,"##cc09":9542,"##ecf6":9543,"##de4d":9544,"##deb4":9545,"##da86":9546,"##daf6":9547,"##da1e":9548,"##ebb4":9549,"22260":9550,"##12da":9551,"##fa94":9552,"##fa8d":9553,"##fae6":9554,"##fa6f":9555,"##ca4d":9556,"##2041":9557,"##4629":9558,"##46fd":9559,"##46ef":9560,"##4695":9561,"##465b":9562,"##48cc":9563,"##48ad":9564,"##48f6":9565,"##4890":9566,"##83fa":9567,"##52ec":9568,"##ce4":9569,"##4032":9570,"##40ab":9571,"##409e":9572,"##b0b0":9573,"##b04a":9574,"##4320":9575,"##76ca":9576,"##9900":9577,"##99fd":9578,"##32b":9579,"##32ed":9580,"##3289":9581,"##4a3f":9582,"##494a":9583,"##4982":9584,"##498d":9585,"##491a":9586,"##97ca":9587,"##97b4":9588,"##414d":9589,"##4106":9590,"##0381":9591,"##1643":9592,"##168a":9593,"##9450":9594,"##945e":9595,"##94d5":9596,"##534a":9597,"##53ad":9598,"##5393":9599,"##874c":9600,"##b529":9601,"##b599":9602,"##b58c":9603,"##abb":9604,"##8624":9605,"##86bf":9606,"##10eb":9607,"##1056":9608,"##2646":9609,"##4f1":9610,"##4f4":9611,"##4f7b":9612,"##bafa":9613,"##7543":9614,"##754a":9615,"##b988":9616,"##b950":9617,"##b943":9618,"##b9ba":9619,"##b96d":9620,"##80af":9621,"##4db0":9622,"##4d49":9623,"##4d4d":9624,"##4d13":9625,"##4d91":9626,"##4dc3":9627,"##4d3a":9628,"##478a":9629,"##4782":9630,"##47ad":9631,"##47aa":9632,"##e020":9633,"##42b0":9634,"##4282":9635,"##421a":9636,"##ff6d":9637,"39748":9638,"##8926":9639,"##89f6":9640,"##8955":9641,"##89fc":9642,"##b64f":9643,"000002be":9644,"##1996":9645,"##f67d":9646,"##e37":9647,"##45b":9648,"##c024":9649,"##e5b8":9650,"clouds":9651,"##8c94":9652,"##5594":9653,"##b320":9654,"##b346":9655,"##44cc":9656,"##44c7":9657,"af06":9658,"##fe9d":9659,"##c610":9660,"##c623":9661,"##c673":9662,"##74b3":9663,"##14b8":9664,"##5899":9665,"##584a":9666,"##1f4f":9667,"##44a3":9668,"##1d1":9669,"##1d46":9670,"##1d90":9671,"##1d7f":9672,"##984e":9673,"##bf80":9674,"##578f":9675,"##c946":9676,"##c9ab":9677,"##1a48":9678,"##1a40":9679,"##1a89":9680,"##bd1":9681,"##bd9":9682,"##5470":9683,"##5423":9684,"##84ba":9685,"##84ef":9686,"##7a46":9687,"##bbe3":9688,"##bbc6":9689,"##cd40":9690,"##9a56":9691,"##f04f":9692,"##9c4":9693,"##7cda":9694,"##4c4f":9695,"40120":9696,"##1c46":9697,"##4e9":9698,"##4e2f":9699,"##4b7b":9700,"##f2b5":9701,"##c48c":9702,"39e91":9703,"##331":9704,"##1bfd":9705,"##1bbd":9706,"##1be6":9707,"completed":9708,"##c5bc":9709,"##9e12":9710,"##7156":9711,"000002bd":9712,"##c4bf":9713,"##c4b1":9714,"##b453":9715,"169035113":9716,"##e847":9717,"##0a8":9718,"##f84a":9719,"16903572786":9720,"##57c70":9721,"schedul":9722,"featuresservice":9723,"1690355076":9724,"attributes":9725,"2d657c70":9726,"##e3bee83":9727,"cloudsolrclient":9728,"39e91e3bee83":9729,"featuresserviceimpl":9730,"2ca":9731,"280":9732,"281":9733,"3dd":9734,"657":9735,"756":9736,"709":9737,"889":9738,"a85":9739,"a1a":9740,"cf3":9741,"d60":9742,"##00347":9743,"##eb1":9744,"##ebcb":9745,"1225":9746,"##46d3":9747,"##7700":9748,"##7748":9749,"##7776":9750,"##7728":9751,"##0237":9752,"##5229":9753,"##4048":9754,"##76ac":9755,"##9950":9756,"##5624":9757,"##4a7":9758,"##41bc":9759,"##5349":9760,"##70ca":9761,"##ab2f":9762,"##f39f":9763,"##1040":9764,"##1095":9765,"##2624":9766,"##807":9767,"##1500":9768,"##1520":9769,"##4270":9770,"39796":9771,"##b67":9772,"##4529":9773,"##4548":9774,"##c093":9775,"##ef83":9776,"##93b":9777,"##b383":9778,"##7411":9779,"43982":9780,"##c38c":9781,"1690354":9782,"239":9783,"##2144":9784,"##9f8a":9785,"##4e8d":9786,"##dd9":9787,"##f2ab":9788,"39228":9789,"##3856":9790,"##651":9791,"_3j":9792,"##be1a":9793,"##6f5":9794,"570ms":9795,"##00345":9796,"3925":9797,"011":9798,"35d":9799,"3525":9800,"58304":9801,"6de":9802,"890":9803,"94a":9804,"906":9805,"af3":9806,"##370":9807,"##e83":9808,"##e8c":9809,"##eration":9810,"##ea9b":9811,"1087":9812,"##ed9d":9813,"##ccea":9814,"##ec99":9815,"##24ca":9816,"##2493":9817,"##da23":9818,"##da7d":9819,"227":9820,"##184f":9821,"##18be":9822,"##1210":9823,"##fa87":9824,"##fa80":9825,"##ca4":9826,"##cacc":9827,"##ca8f":9828,"##504a":9829,"##29b":9830,"##2912":9831,"##29ce":9832,"##46f3":9833,"##466a":9834,"##774f":9835,"##7745":9836,"##77c3":9837,"##779a":9838,"##48b0":9839,"##4897":9840,"##4873":9841,"##481d":9842,"##6946":9843,"##69c6":9844,"##ce06":9845,"##b08a":9846,"##43da":9847,"##4383":9848,"##4389":9849,"##43a5":9850,"##7647":9851,"##99a0":9852,"##4aa5":9853,"##49b6":9854,"##49b8":9855,"##49a9":9856,"##1168":9857,"##4144":9858,"##5a12":9859,"##5a49":9860,"##5aee":9861,"##5ad3":9862,"##944d":9863,"##944c":9864,"##1004":9865,"##b5b6":9866,"##ab3f":9867,"##2d4d":9868,"##104c":9869,"##23da":9870,"##26b0":9871,"##4fcc":9872,"##4f8c":9873,"##4f09":9874,"##4fbf":9875,"##4f21":9876,"##ba60":9877,"##75bb":9878,"##b92a":9879,"##3f48":9880,"##4dbf":9881,"##4d3b":9882,"##4724":9883,"##4723":9884,"##473d":9885,"##4212":9886,"##4277":9887,"##4269":9888,"##428c":9889,"##42e6":9890,"##892a":9891,"##89dd":9892,"##b64a":9893,"##45eb":9894,"##4511":9895,"##4542":9896,"##4581":9897,"##c0ea":9898,"##c0ac":9899,"##7307":9900,"##9097":9901,"##e59":9902,"##e55d":9903,"##e57e":9904,"##e44e":9905,"##5500":9906,"##5599":9907,"##5584":9908,"##4443":9909,"##8e8a":9910,"##9bed":9911,"##5e89":9912,"##06b3":9913,"##9590":9914,"##95dc":9915,"##144a":9916,"43208":9917,"##9826":9918,"##57fd":9919,"##c9eb":9920,"##84be":9921,"##bbed":9922,"##bbcc":9923,"##bb13":9924,"##e623":9925,"##f01":9926,"##bc29":9927,"##7f26":9928,"##1c4a":9929,"##4e2d":9930,"##4b5a":9931,"##8b50":9932,"##8b43":9933,"##f288":9934,"##f277":9935,"##7e12":9936,"39490":9937,"##cfc0":9938,"##6a2":9939,"##cb48":9940,"##6346":9941,"##c27":9942,"##9e7":9943,"000002bc":9944,"##c4c6":9945,"##b4ea":9946,"##e280":9947,"##9432":9948,"40214":9949,"##20345":9950,"23753":9951,"40426":9952,"693":9953,"662":9954,"776":9955,"741":9956,"796":9957,"790":9958,"_74":9959,"cm":9960,"ur":9961,"1075":9962,"##ecord":9963,"jaas":9964,"##8816":9965,"##1876":9966,"##2070":9967,"##4650":9968,"##46aa":9969,"##527":9970,"##ce128":9971,"##766d":9972,"##1813":9973,"##5640":9974,"##49dc":9975,"##16bd":9976,"##5315":9977,"##5390":9978,"##87ff":9979,"##8046":9980,"##1556":9981,"##1580":9982,"##4710":9983,"##47e3":9984,"##e39":9985,"##9140":9986,"##8140":9987,"##8576":9988,"##7488":9989,"##74ba":9990,"##5840":9991,"##98bf":9992,"##bf7a":9993,"##2a1":9994,"3375":9995,"##7824":9996,"##78fa":9997,"registry":9998,"23878b":9999,"634e":10000,"45952":10001,"##3392":10002,"3575":10003,"##2f7":10004,"16903632":10005,"##f78a":10006,"##18656":10007,"48072":10008,"169035602":10009,"6a9ce128":10010,"23878b80":10011,"099":10012,"1e6":10013,"28a":10014,"47a":10015,"669":10016,"6107":10017,"766":10018,"7998":10019,"74936":10020,"887":10021,"8b5":10022,"807":10023,"825":10024,"ag":10025,"aac":10026,"b25":10027,"cus":10028,"c76":10029,"ffe":10030,"sourcepollerrunner":10031,"##adap":10032,"##ev":10033,"##tom":10034,"##sprivileged":10035,"##ermod":10036,"constructor":10037,"##cc4a":10038,"##ties":10039,"##de1":10040,"##2411":10041,"##88fa":10042,"##olrexception":10043,"##izermod":10044,"refr":10045,"##eb24":10046,"##eb10":10047,"##ebb6":10048,"##1856":10049,"##18aa":10050,"##128b":10051,"##faad":10052,"##fadd":10053,"##cad6":10054,"##2935":10055,"##4609":10056,"##46d9":10057,"##48ef":10058,"##4806":10059,"##4865":10060,"##483c":10061,"13d":10062,"##perties":10063,"##7632":10064,"##765d":10065,"##fd49":10066,"##5603":10067,"##5654":10068,"##4900":10069,"##4902":10070,"##4143":10071,"##4103":10072,"##41fc":10073,"##0376":10074,"##034a":10075,"##03af":10076,"##162c":10077,"##94b5":10078,"##94dd":10079,"##94206":10080,"##b541":10081,"##b595":10082,"##loud":10083,"##7544":10084,"##4d10":10085,"##1550":10086,"##1548":10087,"##1584":10088,"##4700":10089,"##e01":10090,"##e05a":10091,"##425d":10092,"##422c":10093,"##ff4":10094,"##89ea":10095,"##8928":10096,"##b600":10097,"##b65a":10098,"##e303":10099,"##1376":10100,"##13c6":10101,"##constructoraccessorimpl":10102,"##73b":10103,"getcurrent":10104,"getinstance":10105,"##4446":10106,"20030":10107,"##fe9a":10108,"##9b4":10109,"##5e1":10110,"##5efd":10111,"##5e80":10112,"##aa49":10113,"##8592":10114,"##74e6":10115,"43242":10116,"##9232":10117,"##c34":10118,"20180":10119,"204800":10120,"##1a9a":10121,"##5420":10122,"##clientfactory":10123,"##8452":10124,"##7a94":10125,"##7a07":10126,"##7d3a":10127,"##3aeb5a":10128,"##b1abc":10129,"##219":10130,"##5d1":10131,"##5665368":10132,"6300346":10133,"delegatingconstructoraccessorimpl":10134,"39696":10135,"##db4a":10136,"##1b99":10137,"##c71":10138,"##c74f":10139,"_3u":10140,"##forsource":10141,"##be99":10142,"##befd":10143,"##3424":10144,"##3440":10145,"##afb":10146,"##c4ba":10147,"##5943":10148,"##595a":10149,"##e2b9":10150,"##1526":10151,"169035696":10152,"##a2ed":10153,"c163aeb5a":10154,"solrcloud":10155,"54156":10156,"39386":10157,"41174":10158,"51256":10159,"##962536":10160,"47500":10161,"equinoxcontainer":10162,"50922":10163,"2d661d":10164,"22410":10165,"6330345":10166,"16903692318":10167,"8114592":10168,"unavailablesolrclient":10169,"unavailablesolrexception":10170,"2dcb1abc":10171,"161194206":10172,"notifyhook":10173,"initializing":10174,"##valueforsource":10175,"8045665368":10176,"10903952":10177,"##enthook":10178,"6107568":10179,"7998962536":10180,"7493656":10181,"custom":10182,"##adaptor":10183,"##eventhook":10184,"##izermodified":10185,"refrecipe":10186,"getcurrentvalueforsource":10187,"c163aeb5abdb":10188,"solrcloudclientfactory":10189,"equinoxcontaineradaptor":10190,"2d661d70":10191,"1611942060638":10192,"customizermodified":10193,"1ba":10194,"1c6":10195,"290":10196,"320":10197,"303":10198,"69d":10199,"775":10200,"800":10201,"826":10202,"855":10203,"a56":10204,"c5d":10205,"##600":10206,"##e94":10207,"##ers":10208,"##ea5d":10209,"##ec7":10210,"##2497":10211,"##247b":10212,"##8896":10213,"##8844":10214,"##eb47":10215,"##1864":10216,"##fa43":10217,"##486d":10218,"##b01":10219,"##4369":10220,"##4368":10221,"##1810":10222,"##5652":10223,"##56a7":10224,"##4913":10225,"##4907":10226,"##4192":10227,"##0311":10228,"##94eb":10229,"##5389":10230,"##f37":10231,"##1090":10232,"##ba90":10233,"##961":10234,"##4769":10235,"##4752":10236,"##8270":10237,"##ad7":10238,"##45cc":10239,"##4585":10240,"##9360":10241,"##dcdd":10242,"##1e4a":10243,"##1e9d":10244,"##1e6f":10245,"##0923":10246,"##fef3":10247,"##fef6":10248,"##8556":10249,"##5816":10250,"##579":10251,"##6624":10252,"##c943":10253,"46462":10254,"##30e":10255,"##3020":10256,"##7847":10257,"##1cb":10258,"637ms":10259,"50562":10260,"##4b7":10261,"##7e9d":10262,"47196":10263,"44168":10264,"35248":10265,"35108":10266,"_3t":10267,"##2c8":10268,"##2752":10269,"35038":10270,"##bbaa":10271,"##85440":10272,"1104bf4b":10273,"644ms":10274,"02d":10275,"0fe":10276,"06f":10277,"21d":10278,"3ea":10279,"45a":10280,"4c35":10281,"57f":10282,"6fa":10283,"676":10284,"69f":10285,"6cb":10286,"773":10287,"83a":10288,"95d":10289,"_7f":10290,"a69":10291,"d7":10292,"d9":10293,"dce":10294,"dad":10295,"d89":10296,"d90":10297,"e4f":10298,"fb0":10299,"##ceb":10300,"##db9":10301,"##f92":10302,"##f9f":10303,"##eab9":10304,"##eae0":10305,"##ea9d":10306,"##ea0a":10307,"1038":10308,"##ed48":10309,"##edba":10310,"##chevent":10311,"##cc81":10312,"##ecf3":10313,"##de69":10314,"##de83":10315,"##de35":10316,"##2412":10317,"##2410":10318,"##24b6":10319,"##24aa":10320,"##24fc":10321,"##2437":10322,"##88ec":10323,"##884c":10324,"##885c":10325,"##8833":10326,"##88d2":10327,"##dace":10328,"##da87":10329,"##da96":10330,"##da9b":10331,"##eb7b":10332,"##eb9a":10333,"##18ca":10334,"##1891":10335,"##1280":10336,"##12cf":10337,"##12d0":10338,"##fa66":10339,"##ca86":10340,"##ca6a":10341,"abd":10342,"##5080":10343,"##2969":10344,"##2997":10345,"##46ab":10346,"##468d":10347,"##77da":10348,"##7742":10349,"##772b":10350,"##4846":10351,"##486a":10352,"##694d":10353,"##69e0":10354,"##69f0":10355,"##694c":10356,"##6928":10357,"##69ac":10358,"##8386":10359,"##8330":10360,"##0210":10361,"##0280":10362,"##0213":10363,"##ce9":10364,"##ce95":10365,"##4073":10366,"##40bc":10367,"##4060":10368,"##b048":10369,"##b08c":10370,"##b0c6":10371,"##b0a9":10372,"##b0d3":10373,"##435a":10374,"##434f":10375,"##438a":10376,"##43ff":10377,"##43b6":10378,"##43e6":10379,"##433d":10380,"##76b0":10381,"##761a":10382,"##7664":10383,"##99ab":10384,"##fd80":10385,"##5647":10386,"##56b6":10387,"##4ac3":10388,"##4a7d":10389,"##4969":10390,"##49ef":10391,"##49e5":10392,"##49be":10393,"##49d3":10394,"##11aa":10395,"##116d":10396,"##119d":10397,"##11f9":10398,"##4148":10399,"##4169":10400,"##4199":10401,"##41dc":10402,"##41c3":10403,"##419d":10404,"##414e":10405,"##413b":10406,"##5add":10407,"##5a33":10408,"##5aa6":10409,"##0310":10410,"##94fd":10411,"##94f6":10412,"##94b3":10413,"##5324":10414,"##b54":10415,"##b5cc":10416,"##b549":10417,"##70ba":10418,"##70bd":10419,"##abbb":10420,"##86ba":10421,"##2dbd":10422,"##2dbe":10423,"##f346":10424,"##f395":10425,"##f36a":10426,"##4fea":10427,"##4f96":10428,"##4f73":10429,"##4f5e":10430,"##4f6d":10431,"##ba2d":10432,"##ba8a":10433,"##badb":10434,"##ba6e":10435,"##b95a":10436,"##b9b3":10437,"##808a":10438,"##80c0":10439,"##80cf":10440,"##3f1":10441,"##4dfa":10442,"##4d8b":10443,"##4dd2":10444,"##1583":10445,"##96b":10446,"##4781":10447,"##47c6":10448,"##47dd":10449,"##47c7":10450,"##8a7b":10451,"##8af0":10452,"##adfb":10453,"##8d60":10454,"##89eb":10455,"##89e3":10456,"##89a0":10457,"dispat":10458,"##b64":10459,"##b6ab":10460,"##b6ba":10461,"##b6ad":10462,"##1995":10463,"##e3ed":10464,"##e3eb":10465,"##7bab":10466,"##4578":10467,"##1312":10468,"##139a":10469,"##ef50":10470,"##ef56":10471,"##ef49":10472,"##b81":10473,"##b852":10474,"##b894":10475,"##b8ba":10476,"##e5ca":10477,"##e543":10478,"##e424":10479,"##e412":10480,"##e449":10481,"##e4b9":10482,"##e4c3":10483,"##b3ba":10484,"##b38a":10485,"##b357":10486,"##44da":10487,"##4499":10488,"##44bc":10489,"##1e4d":10490,"##1e90":10491,"##5e4a":10492,"##5e6f":10493,"##0b4a":10494,"##aae5":10495,"##858a":10496,"##b216":10497,"##14fa":10498,"##142d":10499,"##1f7":10500,"##429a":10501,"##1d43":10502,"##1d75":10503,"##98b":10504,"##98f2":10505,"##bf7":10506,"##bf9a":10507,"##574a":10508,"##1a1":10509,"##0400":10510,"##bdb5":10511,"##bdb1":10512,"169035287":10513,"##84e4":10514,"##7a2f":10515,"##bb18":10516,"##cd43":10517,"##cd96":10518,"##7d4":10519,"##9acf":10520,"##78b":10521,"##78ab":10522,"36c8":10523,"##b1ea":10524,"##8f1":10525,"##6080":10526,"##9f7":10527,"##9f88":10528,"##7fc6":10529,"##1cb0":10530,"##4e47":10531,"##4ee0":10532,"##4b18":10533,"##4be3":10534,"##cf47":10535,"59e8":10536,"##5f8a":10537,"##5f17b":10538,"##cbeb":10539,"##1b7":10540,"##1b69":10541,"##metacardtransformer":10542,"##c7eb":10543,"42734":10544,"##71ef":10545,"##3447":10546,"##c456":10547,"##b446":10548,"##b448":10549,"##b442":10550,"##5190":10551,"169035128":10552,"169035123":10553,"##f423":10554,"schema":10555,"##e146":10556,"##c869":10557,"##0d8":10558,"##6e91":10559,"##d2e":10560,"##d424":10561,"##2e46":10562,"##460e":10563,"55374":10564,"59926":10565,"##14a0":10566,"41300":10567,"4c351d7":10568,"dispatchevent":10569,"36c8f31f":10570,"59e811f9":10571,"035":10572,"282":10573,"3ee":10574,"4025":10575,"652":10576,"702":10577,"8b3":10578,"836":10579,"975":10580,"_75":10581,"_8f":10582,"a88":10583,"bc6":10584,"lis":10585,"##599":10586,"##ec9d":10587,"##0070":10588,"##24c1":10589,"##8863":10590,"##da00":10591,"##1870":10592,"##1896":10593,"##ca0a":10594,"##5020":10595,"##468a":10596,"##7785":10597,"##4893":10598,"##6904":10599,"##8348":10600,"##5600":10601,"##568c":10602,"##4a30":10603,"##4944":10604,"##4984":10605,"##1170":10606,"##41ab":10607,"##0384":10608,"##9470":10609,"##5310":10610,"##b5ce":10611,"##709a":10612,"##1088":10613,"##1064":10614,"##2614":10615,"##4f15":10616,"##baf3":10617,"##b9e5":10618,"##8096":10619,"##1546":10620,"##4223":10621,"##8220":10622,"##4590":10623,"##455d":10624,"##7387":10625,"##7360":10626,"##93fd":10627,"##e45a":10628,"##44fd":10629,"##fe4a":10630,"##5e96":10631,"##8546":10632,"##14bc":10633,"##9220":10634,"##44a48":10635,"##1d42a":10636,"##1700":10637,"##6840":10638,"55484":10639,"##6040":10640,"##ee7a":10641,"##637":10642,"##6f1":10643,"0x10000046b0e06b3":10644,"45238":10645,"00000153":10646,"57670":10647,"40354":10648,"0000015b":10649,"52306":10650,"46938":10651,"45540":10652,"##56a2c":10653,"41740":10654,"c01d42a":10655,"16903698613":10656,"_8g":10657,"16903692320":10658,"0c0":10659,"0dd":10660,"3cc":10661,"3e0":10662,"37b":10663,"4920":10664,"6b":10665,"6ed":10666,"6cc":10667,"786":10668,"803":10669,"921":10670,"_8i":10671,"_2x":10672,"bfa":10673,"b77":10674,"bce":10675,"d33":10676,"f93":10677,"##5c3":10678,"##8ca":10679,"##e11":10680,"##f9b":10681,"##ea0b":10682,"1082":10683,"##edf6":10684,"##ed73":10685,"##edb3":10686,"##ccb6":10687,"##eced":10688,"##ec48":10689,"##ec41":10690,"##00b":10691,"##0037":10692,"##de36":10693,"##24c0":10694,"##2467":10695,"##8829":10696,"##883a":10697,"##88a6":10698,"##dae6":10699,"##1277":10700,"##fa89":10701,"##fae3":10702,"##fa13":10703,"##ca82":10704,"##5043":10705,"##502a":10706,"##50fb":10707,"##2903":10708,"##290d":10709,"##203f":10710,"##2096":10711,"##20f6":10712,"##4611":10713,"##46bf":10714,"##467f":10715,"##7703":10716,"##77b5":10717,"##772e":10718,"##487b":10719,"##4864":10720,"##48df":10721,"##6990":10722,"##ce8a":10723,"##4017":10724,"##40fc":10725,"##b0eb":10726,"##4387":10727,"##43f3":10728,"##433f":10729,"##437d":10730,"##43bc":10731,"##766e":10732,"##99cc":10733,"##9993":10734,"##992a":10735,"##9937":10736,"##fd24":10737,"##56ac":10738,"##4a40":10739,"##4ae6":10740,"##4970":10741,"##490b":10742,"##49cb":10743,"##49a6":10744,"##117b":10745,"##41da":10746,"##413f":10747,"##94ed":10748,"##94ec":10749,"##9477":10750,"##9423":10751,"##9472":10752,"##53aa":10753,"##874f":10754,"##8715":10755,"##87ac":10756,"##b5fa":10757,"##b583":10758,"##b5c0":10759,"##7072":10760,"##86af":10761,"##1047":10762,"##109f":10763,"##236a":10764,"##4feb":10765,"##4fe3":10766,"##4f5f":10767,"##baca":10768,"##b9ed":10769,"##b9b0":10770,"##8045":10771,"##3feb":10772,"##4d8a":10773,"##4dbd":10774,"##15cd":10775,"##9683":10776,"##e08f":10777,"##e063":10778,"##4232":10779,"##421f":10780,"##8a2a":10781,"##8a1c":10782,"##8a2f":10783,"##82aa":10784,"##8214":10785,"##822a":10786,"##ff7":10787,"##ad90":10788,"##8db3":10789,"##8950":10790,"##1992":10791,"##f612":10792,"##7b49":10793,"##7bbf":10794,"##4543":10795,"##45ba":10796,"##45d6":10797,"##45d3":10798,"##1386":10799,"##13dd":10800,"##ef1":10801,"##7383":10802,"##7352":10803,"##930b":10804,"##93b4":10805,"##e555":10806,"##e59a":10807,"##e418":10808,"##dc46":10809,"##dc83":10810,"##5515":10811,"##55df":10812,"##b34d":10813,"##b38c":10814,"##44c6":10815,"##1e1a":10816,"##0720":10817,"##09a3":10818,"##8e41":10819,"##22ba":10820,"##8144":10821,"##5e77":10822,"##aa7":10823,"##957f":10824,"##8529":10825,"##8510":10826,"##74b0":10827,"##1412":10828,"##14b9":10829,"##1f2d":10830,"##1d4c":10831,"##1d5c":10832,"##8308":10833,"##2ae6":10834,"##c9fd":10835,"##c94a":10836,"##359":10837,"##bd87":10838,"##54fd":10839,"##84ed":10840,"##84b3":10841,"##7a99":10842,"##bb1":10843,"##cd8b":10844,"264":10845,"26c":10846,"##bc2a":10847,"##bcbf3":10848,"##7829":10849,"##36ca":10850,"##9c5d":10851,"##7c48":10852,"##8fe5":10853,"40d":10854,"##4e53":10855,"##4e80":10856,"##4e7a":10857,"##4b8d":10858,"##8bec":10859,"##7e22":10860,"##5b7":10861,"##5bbf":10862,"##cf4d":10863,"##1969":10864,"##1976":10865,"##5c80":10866,"##5f4":10867,"##cb4a":10868,"##ee8c":10869,"##7980":10870,"##2f4":10871,"##c58e":10872,"_3k":10873,"_3w":10874,"##9e2a":10875,"##714a":10876,"16903682":10877,"##d084":10878,"1690245406":10879,"##a6b":10880,"0x10000046b0e068e":10881,"##f4f3":10882,"##37fd":10883,"##d229":10884,"##d8fa":10885,"##40347":10886,"54918":10887,"0000015c":10888,"1690245400":10889,"1690245470":10890,"##14a6":10891,"41320":10892,"38048":10893,"##e24d":10894,"_8h":10895,"3af":10896,"47c":10897,"699":10898,"658":10899,"767":10900,"84f":10901,"claims":10902,"##592":10903,"1096":10904,"##2486":10905,"##8897":10906,"##1800":10907,"##1848":10908,"##2910":10909,"##2099":10910,"##20347":10911,"##4635":10912,"##4811":10913,"##4805":10914,"compa":10915,"##6992":10916,"##b09":10917,"##4304":10918,"##3211":10919,"##9747":10920,"##1680":10921,"##1645":10922,"##8745":10923,"##1006":10924,"##f317":10925,"##2680":10926,"##7599":10927,"##80c6":10928,"##421d":10929,"##8287":10930,"##7bd0":10931,"##4500":10932,"##13fd":10933,"##8c9c":10934,"##5552":10935,"##8e2d":10936,"##9b4d":10937,"##8132":10938,"##9540":10939,"##8570":10940,"##7445":10941,"##2128":10942,"##1423":10943,"##1445":10944,"##9820":10945,"##5744":10946,"##6663":10947,"52836":10948,"##8440":10949,"##bbfd":10950,"##e61":10951,"##9d7":10952,"##4064":10953,"##4b4":10954,"##8bfd":10955,"##6368":10956,"51484":10957,"2750":10958,"00000371":10959,"##c44d":10960,"##c4bd":10961,"_6l":10962,"0000015a":10963,"##4482":10964,"##116203008":10965,"36660":10966,"41656":10967,"34850":10968,"3725":10969,"45720":10970,"40926":10971,"_7h":10972,"role":10973,"##189116203008":10974,"1690364189116203008":10975,"1690361682":10976,"compact":10977,"0975":10978,"297":10979,"323":10980,"3576":10981,"62f":10982,"74a":10983,"7f3":10984,"7fb":10985,"7c8d":10986,"820":10987,"809":10988,"833":10989,"9cc":10990,"983":10991,"_88":10992,"_76":10993,"_3x":10994,"d1e":10995,"d36":10996,"d5f":10997,"edc":10998,"e0d":10999,"##512":11000,"##598":11001,"##52992":11002,"##ae5":11003,"##c32":11004,"##c26":11005,"##cff":11006,"##c89":11007,"##e5a":11008,"##e7d":11009,"##f83":11010,"##fef":11011,"##00c3":11012,"##242d":11013,"##887f":11014,"##1846":11015,"##fa24":11016,"##faf3":11017,"##fa81":11018,"##5038":11019,"##2999":11020,"##20b8":11021,"##204e":11022,"##4626":11023,"##4690":11024,"##4639":11025,"##77b9":11026,"##missionad":11027,"##4850":11028,"##6947":11029,"##69b6":11030,"##6907":11031,"##69aa":11032,"##0264":11033,"##5232":11034,"##5223":11035,"##b03f":11036,"##4350":11037,"##4366":11038,"##438f":11039,"##43f7":11040,"##7689":11041,"##76e4":11042,"##99bd":11043,"##3270":11044,"##32af":11045,"##4a3e":11046,"##9712":11047,"##5a8a":11048,"##947f":11049,"##5388":11050,"##5304":11051,"##538b":11052,"##53d0":11053,"##b5ec":11054,"##7013":11055,"##70400":11056,"##1097":11057,"##1072":11058,"##1060":11059,"##2648":11060,"##2653":11061,"##8047":11062,"##4d96":11063,"##1581":11064,"##1595":11065,"##4285":11066,"##4225":11067,"##8ada":11068,"##8a4d":11069,"##82c6":11070,"##893a":11071,"##f642":11072,"##7b4b":11073,"##4518":11074,"##1355":11075,"##ef43":11076,"##ef15":11077,"##7386":11078,"##733e":11079,"##b802":11080,"##91de":11081,"##e540":11082,"028":11083,"##e4b2":11084,"##b347":11085,"permissionad":11086,"##4456":11087,"##8ee3":11088,"##8ee5":11089,"##9b5a":11090,"0x10000046b0e0698":11091,"0x10000046b0e069c":11092,"##9582":11093,"##9517":11094,"##85c6":11095,"##1499":11096,"##14bf":11097,"##c3ba":11098,"##c313":11099,"60444":11100,"##29280":11101,"##1780":11102,"##178a":11103,"##bfba":11104,"##661":11105,"##3552":11106,"##6800":11107,"##8426":11108,"##7d4a":11109,"##9a0c":11110,"33492":11111,"##4cb":11112,"##4c1a":11113,"##b112":11114,"##b1cf":11115,"##8f8a":11116,"##2177":11117,"##7f24":11118,"57862":11119,"##4b1a":11120,"##7e9a":11121,"39830":11122,"##1913":11123,"##dbe":11124,"##db40":11125,"##64cc":11126,"##631":11127,"0x10000046b0e0374":11128,"271":11129,"##3d33":11130,"##9e9":11131,"4275":11132,"##6f7":11133,"0x10000046b0e068c":11134,"##f412":11135,"##fb4a":11136,"55636":11137,"00000112":11138,"39618":11139,"3875":11140,"38342":11141,"4ac7":11142,"47086":11143,"57456":11144,"123060":11145,"51918":11146,"37824":11147,"640ms":11148,"7c8d814e":11149,"324":11150,"307":11151,"3a6":11152,"5a3":11153,"6ae":11154,"734":11155,"7d3":11156,"999":11157,"99d":11158,"bee":11159,"##670":11160,"##5de":11161,"##587":11162,"##570":11163,"##b71":11164,"##fec":11165,"1093":11166,"1092":11167,"##ec6d":11168,"##0020":11169,"##de8c":11170,"##243c":11171,"##8899":11172,"##eb4":11173,"##1823":11174,"##12ff":11175,"##7724":11176,"##7760":11177,"##4863":11178,"##6952":11179,"##6940":11180,"##8317":11181,"##0269":11182,"##4024":11183,"##4336":11184,"##764b":11185,"##3260":11186,"##fdb0":11187,"##4a4b":11188,"##4aaf":11189,"##4911":11190,"##494c":11191,"##1130":11192,"##9704":11193,"##4100":11194,"##4136":11195,"##41c7":11196,"##5a3a":11197,"##5a4b":11198,"##039":11199,"##0353":11200,"##8736":11201,"##8650":11202,"##1050":11203,"##ba87":11204,"##b910":11205,"##4747":11206,"##42c5":11207,"##b6b":11208,"##4520":11209,"##ef24":11210,"##9330":11211,"##8c26":11212,"##5576":11213,"##8e6a":11214,"##221":11215,"##2250":11216,"##9b1":11217,"##9b99":11218,"##81ed":11219,"##8152":11220,"0x10000046b0e08d8":11221,"##aa5d":11222,"##957":11223,"##7470":11224,"##1446":11225,"##1443":11226,"43664":11227,"##5820":11228,"##5856":11229,"##9846":11230,"##c9df":11231,"52194":11232,"204":11233,"16903660":11234,"46160":11235,"##84e3":11236,"##7ac2":11237,"##cd20":11238,"##7c1":11239,"##8f26":11240,"##8f4b":11241,"##7fb":11242,"##1c5a":11243,"##4e9c":11244,"45874":11245,"##cf97":11246,"##2bc0":11247,"0x10000046b0e03b3":11248,"_3n":11249,"0000039d":11250,"##dfb":11251,"##5985":11252,"##e2ab":11253,"##0144":11254,"##8530":11255,"##853d":11256,"60252":11257,"55554":11258,"40000":11259,"56932":11260,"##99040":11261,"47660":11262,"59422":11263,"59102":11264,"45648":11265,"44794":11266,"16903572780":11267,"##494144":11268,"0ms":11269,"0da":11270,"0e0":11271,"0b6":11272,"05d":11273,"1f6":11274,"1d3":11275,"2ad":11276,"3f6":11277,"3e6":11278,"3825":11279,"4de":11280,"4ca":11281,"4c3":11282,"5da":11283,"5dd":11284,"5a0":11285,"64a":11286,"6ad":11287,"769":11288,"704":11289,"768":11290,"77d":11291,"824":11292,"852":11293,"88c":11294,"9ce":11295,"9bf":11296,"]-":11297,"_89":11298,"as":11299,"a90":11300,"a8c":11301,"a55":11302,"a8d3":11303,"b26":11304,"bef":11305,"b3a":11306,"b9f":11307,"b8b":11308,"b5f":11309,"be7":11310,"c93":11311,"db":11312,"db5":11313,"e7":11314,"efa":11315,"eba":11316,"e73":11317,"e9d":11318,"ee9":11319,"f77":11320,"##8de":11321,"##368":11322,"##afd":11323,"##cea":11324,"##cb5":11325,"##c8a":11326,"##cb3":11327,"##c1f":11328,"##c5d":11329,"##ef3":11330,"##e7e":11331,"##f4d":11332,"##f89":11333,"##f7c":11334,"##fused":11335,"##rategy":11336,"##eaad":11337,"##ea8c":11338,"##ea7a":11339,"##ea6a":11340,"##ea65":11341,"##eaa3":11342,"##edb":11343,"##ed99":11344,"##edb9":11345,"##cc0f":11346,"##ec5a":11347,"##ec8d":11348,"##ec36":11349,"##ec63":11350,"##ec3d":11351,"##0017":11352,"##00238":11353,"proble":11354,"properties":11355,"##de97":11356,"##de66":11357,"##de68":11358,"##de7d":11359,"##2452":11360,"##24b8":11361,"##24b3":11362,"##2444":11363,"##24c6":11364,"##24a1":11365,"##8850":11366,"##88ff":11367,"##885e":11368,"##8814":11369,"##888f":11370,"##8865":11371,"##88b7":11372,"##da10":11373,"##da4d":11374,"##da07":11375,"##da19":11376,"refused":11377,"failure":11378,"##eb86":11379,"##ebba":11380,"##eb8d":11381,"##ebe3":11382,"##eb04":11383,"##186d":11384,"##1854":11385,"##1836":11386,"##184e":11387,"##12ef":11388,"##12dc":11389,"##126d":11390,"##1260":11391,"##12a3":11392,"##fab3":11393,"##fa9b":11394,"##fa2b":11395,"##fab7":11396,"##ca1":11397,"##50ab":11398,"##50238":11399,"##29de":11400,")\",":11401,"##2046":11402,"##20ce":11403,"##20b2":11404,"##20c3":11405,"##20cf":11406,"##46cc":11407,"##4612":11408,"##464d":11409,"##4691":11410,"##4601":11411,"##7740":11412,"##778a":11413,"##77e6":11414,"##77178":11415,"##484f":11416,"##48e6":11417,"##489c":11418,"##6948":11419,"##693f":11420,"##6945":11421,"##6966":11422,"##695f":11423,"##6934":11424,"##8356":11425,"##83d4":11426,"##023d":11427,"##527a":11428,"##52dd":11429,"##527e":11430,"##ce46":11431,"##40da":11432,"##405a":11433,"##b0ef":11434,"##b0dc":11435,"##b014":11436,"##b0d9":11437,"##43ca":11438,"##4343":11439,"##43c3":11440,"##4398":11441,"##433a":11442,"##4325":11443,"##4363":11444,"##764a":11445,"##9924":11446,"##991a":11447,"##99cb":11448,"##fdfd":11449,"##fd96":11450,"##fdbf":11451,"##fdcf":11452,"##5611":11453,"##564c":11454,"##4a99":11455,"##4a66":11456,"##4af4":11457,"##49ea":11458,"##4918":11459,"##49ff":11460,"##4985":11461,"##497f":11462,"##49a3":11463,"##496e":11464,"##111f":11465,"##1160":11466,"##117f":11467,"##97b":11468,"##9783":11469,"##9787":11470,"##9780":11471,"##972a":11472,"##97a6":11473,"##41b5":11474,"##4175":11475,"##41aa":11476,"##41e2":11477,"##41f1":11478,"##5aea":11479,"##5a94":11480,"##5a96":11481,"##5ab3":11482,"##5acd":11483,"##5a9a":11484,"##5a3d":11485,"##strategy":11486,"##038f":11487,"##16d5":11488,"##94da":11489,"##94ba":11490,"##94b6":11491,"##9445":11492,"##942a":11493,"##94e6":11494,"##94cf":11495,"##5383":11496,"##535c":11497,"##87f3":11498,"##8793":11499,"##b5ea":11500,"##b5de":11501,"##b58d":11502,"##b5ef":11503,"##b5c3":11504,"##b598":11505,"##b58b":11506,"##loy":11507,"##704a":11508,"##709c":11509,"##7060":11510,"##70d3":11511,"##abb6":11512,"##86b6":11513,"##86b3":11514,"##867a":11515,"##86bc":11516,"##86ee":11517,"##2d24":11518,"##f3da":11519,"##f341":11520,"##f345":11521,"##f37d":11522,"##f39a":11523,"##f37f":11524,"##1016":11525,"##10e0":11526,"##106d":11527,"##2320":11528,"##23e3":11529,"##2600":11530,"##4f88":11531,"##4f93":11532,"##4fbb":11533,"##4f1c":11534,"##4ff5":11535,"##ba02":11536,"##bafd":11537,"##ba86":11538,"##ba85":11539,"##badd":11540,"##bae9":11541,"##75f3":11542,"##7557":11543,"##b94a":11544,"##b9e0":11545,"##b9bc":11546,"##b95d":11547,"##b9d6":11548,"##b96c":11549,"##80b3":11550,"##80b2":11551,"##809c":11552,"##80ae":11553,"##3ffa":11554,"##3f96":11555,"##4d40":11556,"##4d99":11557,"##4d41":11558,"##4d86":11559,"##4d15":11560,"##15f3":11561,"##1547":11562,"##15b8":11563,"##158c":11564,"##9649":11565,"##96ef":11566,"##4789":11567,"##4791":11568,"##47e5":11569,"##4735":11570,"##e0ab":11571,"##e0f6":11572,"##42ad":11573,"##42bd":11574,"##428f":11575,"##421c":11576,"##42a6":11577,"##42a5":11578,"##8a53":11579,"##8a8a":11580,"##8af6":11581,"##8ac3":11582,"##8aaf":11583,"##8aa3":11584,"##82f3":11585,"##82e3":11586,"##82b4":11587,"##ff83":11588,"##ff56":11589,"##ff9d":11590,"##ff5d":11591,"deploy":11592,"##8dba":11593,"##8ddd":11594,"##8dc5":11595,"##8d0a":11596,"##89de":11597,"##89dc":11598,"##b6fd":11599,"##b642":11600,"##b6c3":11601,"##b6a4":11602,"0000010f":11603,"##f6bd":11604,"##e394":11605,"##e3ab":11606,"##e347":11607,"##e39b":11608,"##7b48":11609,"##4583":11610,"##4510":11611,"##4573":11612,"##45cd":11613,"##457d":11614,"##45be":11615,"##1398":11616,"##72b0":11617,"##7223":11618,"##72e0":11619,"##72bd":11620,"##c069":11621,"##c016":11622,"##c0ae":11623,"##ef5a":11624,"##ef4f":11625,"##ef9d":11626,"##7346":11627,"##733b":11628,"##b8ab":11629,"##b845":11630,"nio2":11631,"##901f":11632,"##93bd":11633,"##91cc":11634,"##9146":11635,"##91ff":11636,"##e51f":11637,"##e58b":11638,"##e446":11639,"##e470":11640,"##e4c5":11641,"##dc57":11642,"##dc948":11643,"##8c82":11644,"##8c9e":11645,"##8c59":11646,"##55b3":11647,"##554c":11648,"##b3b":11649,"##b33f":11650,"##b3cd":11651,"##b37d":11652,"##b39a":11653,"##b3bc":11654,"##b3dd":11655,"##b3a6":11656,"##b3d6":11657,"##44b6":11658,"##44c1":11659,"##1e9e":11660,"##093f":11661,"##8e00":11662,"##8e48":11663,"##8e7d":11664,"##fe24":11665,"##fe97":11666,"##fe8d":11667,"##fe7b":11668,"##9bfa":11669,"##9b4a":11670,"##9b70":11671,"##81eb":11672,"##5e91":11673,"0x10000046b0e08c5":11674,"0x10000046b0e08b4":11675,"##06f6":11676,"##c6af":11677,"##95ea":11678,"##95ed":11679,"##6db":11680,"##85ba":11681,"##85dc":11682,"##85b2":11683,"##854c":11684,"##74ec":11685,"##7412":11686,"##74ef":11687,"##b2ec":11688,"##b277":11689,"##b232":11690,"##14ea":11691,"##14fd":11692,"##14bd":11693,"##14e6":11694,"##5823":11695,"##1f40":11696,"##44aa":11697,"##1d5d":11698,"##17ca":11699,"##17b0":11700,"##17d6":11701,"##bf90":11702,"##2a9":11703,"##5711":11704,"##fa9a":11705,"##c983":11706,"##c926":11707,"##c9ef":11708,"##c9aa":11709,"##c9f2":11710,"##c9af":11711,"##c9d6":11712,"ff5":11713,"##1a8f":11714,"##1a7e":11715,"##04fa":11716,"##bdea":11717,"##bd95":11718,"##bd9c":11719,"##5477":11720,"##544f":11721,"##54e2":11722,"##8424":11723,"##84da":11724,"##84bf":11725,"##84e7":11726,"##7a8e":11727,"##7a92":11728,"##bb12":11729,"##bb83":11730,"##bb56":11731,"##bb23":11732,"##cd83":11733,"##e641":11734,"##e6b6":11735,"##e6bb":11736,"##7d36":11737,"##7d3b":11738,"##9afa":11739,"##9ac3":11740,"##9a0f":11741,"##bceb":11742,"##bc18":11743,"##bc48":11744,"##bcb0":11745,"##bcf0":11746,"##7848":11747,"##78fd":11748,"##9c11":11749,"##7c80":11750,"##7c47":11751,"##4c4e":11752,"##4cf7":11753,"##9d60":11754,"##b103":11755,"##b172":11756,"##b1aa":11757,"##8f23":11758,"55920":11759,"55704":11760,"##9f4":11761,"##9f9":11762,"##9fea":11763,"##9f92":11764,"##9f2a":11765,"##9f4c":11766,"##7f4e":11767,"caching":11768,"##1cdc":11769,"##1c70f":11770,"##4eea":11771,"##4e56":11772,"##4e87":11773,"##4ee3":11774,"57134":11775,"6353":11776,"54858":11777,"##4b24":11778,"##4b20":11779,"##4b77":11780,"##4b99":11781,"##4b80":11782,"##8b46":11783,"##8b70":11784,"##8bbd":11785,"##f270":11786,"169024789":11787,"##7e99":11788,"##7e8a":11789,"##7e8d":11790,"##tatembean":11791,"##5bef":11792,"##cf24":11793,"##cf46":11794,"##cf77":11795,"##cf87":11796,"##cf1a":11797,"##19b6":11798,"52090":11799,"##5f7":11800,"##cb46":11801,"##cb8d":11802,"##334a":11803,"##ee93":11804,"##ee9f":11805,"##1b50":11806,"##1b52":11807,"##1bb0":11808,"58260":11809,"58414":11810,"##49f5":11811,"##79fd":11812,"##a9ff":11813,"##c788":11814,"##c780":11815,"##c74d":11816,"##c547":11817,"0x10000046b0e037a":11818,"0x10000046b0e0378":11819,"##9e90":11820,"##7146":11821,"##6fb":11822,"00000284":11823,"0000027f":11824,"##34ea":11825,"000003b5":11826,"000003b6":11827,"000003b1":11828,"##af40":11829,"1690245472":11830,"1690245478":11831,"1690245485":11832,"##c488":11833,"##c4c9":11834,"##d6b":11835,"##d39":11836,"##b79a":11837,"##fc4a":11838,"##e9ab":11839,"##e986":11840,"##d5942":11841,"16903597":11842,"##e8f6":11843,"0x10000046b0e06ab":11844,"0x10000046b0e06b7":11845,"##f450":11846,"##f442":11847,"##c14f":11848,"##c829":11849,"##c896":11850,"##d923":11851,"##f9aa":11852,"87fe":11853,"##a475":11854,"##48088":11855,"##a824":11856,"##a897":11857,"0x10000046b0e08bd":11858,"53950":11859,"1690245402":11860,"1690245499":11861,"1690245426":11862,"58732":11863,"41674":11864,"59824":11865,"##49d2a":11866,"16902455152":11867,"34898":11868,"##bbadc948":11869,"47228":11870,"0x10000046b0e06af":11871,"16902454366":11872,"##b1d0":11873,"##9451c70f":11874,"##53596ef":11875,"##7f2ce":11876,"##11c89fc":11877,"169035112":11878,"layer4":11879,"##42115f17b":11880,"##c34711c89fc":11881,"##federation":11882,"##ff6d42115f17b":11883,"a8d377178":11884,"problem":11885,"##9a0fc34711c89fc":11886,"cachingfederation":11887,"##bbadc9489a0fc34711c89fc":11888,"##9451c70f53596ef":11889,"##ff6d42115f17b473b":11890,"a8d3771789451c70f53596ef":11891,"cachingfederationstrategy":11892,"##bbadc9489a0fc34711c89fcff6d42115f17b473b":11893,"a8d3771789451c70f53596efbbadc9489a0fc34711c89fcff6d42115f17b473b":11894,"0b":11895,"312":11896,"46d":11897,"4d6":11898,"57c":11899,"6da":11900,"6eb":11901,"6b9":11902,"752":11903,"705":11904,"926":11905,"901":11906,"_38":11907,"etc":11908,"##80346":11909,"##cc15":11910,"##2472":11911,"##8881":11912,"##8830":11913,"##eb9":11914,"##verter":11915,"##1290":11916,"##20e6":11917,"##46c4a":11918,"##7722":11919,"##7604":11920,"##5650":11921,"##971":11922,"##5ac9":11923,"##f34f":11924,"##ba1":11925,"##ba1a":11926,"##7592":11927,"##b940":11928,"##80ec":11929,"##4d1a":11930,"##4d65":11931,"##4255":11932,"##8a32":11933,"##4513":11934,"##4555":11935,"##4544":11936,"##73e5":11937,"##b8b":11938,"##9344":11939,"##8192":11940,"##5eff":11941,"0x10000046b0e069f":11942,"0x10000046b0e08d0":11943,"##b283":11944,"##b2c3":11945,"##14e5":11946,"43240":11947,"60158":11948,"##bf09":11949,"##bd36":11950,"46558":11951,"##7a57":11952,"##bb89d":11953,"33160":11954,"33904":11955,"55d":11956,"##40672":11957,"6356":11958,"39506":11959,"##5bab":11960,"48788":11961,"37414":11962,"35462":11963,"58120":11964,"0x10000046b0e0376":11965,"0x10000046b0e0370":11966,"0x10000046b0e0375":11967,"0x10000046b0e03b6":11968,"0x10000046b0e038f":11969,"_39":11970,"42528":11971,"0000027b":11972,"000003b0":11973,"000003b8":11974,"##10345":11975,"##4308":11976,"50374":11977,"##3c42":11978,"##d44f":11979,"46340":11980,"0x10000046b0e08ca":11981,"48638":11982,"55932":11983,"50682":11984,"##14400":11985,"42446":11986,"44050":11987,"49080":11988,"52596":11989,"44782":11990,"##fa626":11991,"38448":11992,"0x10000046b0e08cb":11993,"571ms":11994,"0aa":11995,"01c":11996,"1b5":11997,"2a6":11998,"32d":11999,"32a":12000,"4b9":12001,"52a":12002,"668":12003,"65f":12004,"701":12005,"7a2":12006,"86d":12007,"8db":12008,"974":12009,"960":12010,"9c4":12011,"a33":12012,"c6d":12013,"d9e":12014,"e8c":12015,"e8f":12016,"ebe":12017,"fc3":12018,"f7a":12019,"f2b":12020,"pol":12021,"record":12022,"##524":12023,"##a43":12024,"##cba":12025,"##c47":12026,"##ea4c":12027,"##eaee":12028,"10f":12029,"1099":12030,"1097":12031,"##ed97":12032,"##ed4d":12033,"##ecde":12034,"##00d6":12035,"##2456":12036,"##2423":12037,"##2489":12038,"##2460":12039,"##2421":12040,"##243b":12041,"##246a":12042,"##8887":12043,"##8885":12044,"##887d":12045,"##889a":12046,"##88448":12047,"##240f":12048,"##da99":12049,"##da2d":12050,"##da4f":12051,"##daef":12052,"##da3a":12053,"##etransformer":12054,"##eb8c":12055,"##ebbf":12056,"##1850":12057,"##189c":12058,"##1860":12059,"##18a5":12060,"##caca":12061,"##ca48":12062,"##50ed":12063,"##5075":12064,"##2994":12065,"##2993":12066,"##2069":12067,"##205f":12068,"##4600":12069,"##4686":12070,"##463a":12071,"##4660":12072,"##77fa":12073,"##775e":12074,"##4824":12075,"##48da":12076,"##4840":12077,"##48ff":12078,"##48e3":12079,"##48d3":12080,"##486e":12081,"##690b":12082,"##694b":12083,"##693d":12084,"##83b0":12085,"##02aa":12086,"##5260":12087,"##403f":12088,"##40b6":12089,"##b0f3":12090,"##b089":12091,"##b09c":12092,"##b03a":12093,"##b05f":12094,"##43ec":12095,"##4300":12096,"##4384":12097,"000e":12098,"##76f6":12099,"##7684":12100,"##9925":12101,"pack":12102,"##3223":12103,"##32e6":12104,"##32d6":12105,"##fd27":12106,"##5670":12107,"##563f":12108,"##568f":12109,"##565d":12110,"##4a09":12111,"##4940":12112,"##4923":12113,"##49ad":12114,"##1148":12115,"##1141":12116,"##11ba":12117,"##1174":12118,"##114b":12119,"##9786":12120,"##9796":12121,"##97a7":12122,"##41a0":12123,"##416f":12124,"##41d7":12125,"##5a4a":12126,"##5a1f":12127,"##5ac3":12128,"##5abd":12129,"##5a64":12130,"##5aae":12131,"##03e6":12132,"##9412":12133,"##944f":12134,"##94e2":12135,"##53ea":12136,"##5385":12137,"##87cc":12138,"##8794":12139,"##7088":12140,"##7074":12141,"##7092":12142,"##70e9":12143,"##8635":12144,"##2d5b":12145,"##f38d":12146,"##f38e":12147,"##f31d":12148,"##105a":12149,"##10ff":12150,"##10ad":12151,"##10a6":12152,"##262d":12153,"##4f8d":12154,"##4f0b":12155,"##4fc2":12156,"##ba3a":12157,"##baaf":12158,"##757b":12159,"##7572":12160,"##b977":12161,"##b903":12162,"##b90b":12163,"##b9f9":12164,"##b93c":12165,"##80b":12166,"##4d69":12167,"##4d70":12168,"##4d26":12169,"##4d7f":12170,"##4d3d":12171,"##4d2c":12172,"##1587":12173,"##1517":12174,"##4729":12175,"##47fd":12176,"##4784":12177,"##4725":12178,"##e0fb":12179,"##425a":12180,"##42a7":12181,"##8a88":12182,"##8a11":12183,"##8a13":12184,"##8acd":12185,"##8a4c":12186,"##82ba":12187,"##ff1":12188,"##ff6f":12189,"##8d30":12190,"##8924":12191,"##1998":12192,"##e34a":12193,"##e349":12194,"##e34f":12195,"##e3ad":12196,"##451d":12197,"##4584":12198,"##45f0":12199,"##459c":12200,"##457f":12201,"##45d5":12202,"##13fa":12203,"##72ce":12204,"##c0cc":12205,"##c042":12206,"##ef06":12207,"##b812":12208,"##b816":12209,"##b823":12210,"##b842":12211,"##914f":12212,"##e58c":12213,"##e57a":12214,"##e5bc":12215,"##e44":12216,"##e42d":12217,"##e4c7":12218,"##8c46":12219,"##8c4a":12220,"##8c86":12221,"##8c35":12222,"##8c9d":12223,"##55ef":12224,"##b366":12225,"##09b9":12226,"##9b87":12227,"53026":12228,"0x10000046b0e0693":12229,"0x10000046b0e08f2":12230,"0x10000046b0e069e":12231,"0x10000046b0e08d7":12232,"0x10000046b0e090e":12233,"##c64a":12234,"##c6c6":12235,"##c64c":12236,"##9532":12237,"##8520":12238,"##74ed":12239,"##7450":12240,"##7426":12241,"##74e3":12242,"##74c0":12243,"##14de":12244,"43994":12245,"56242":12246,"##c39":12247,"##c3b5":12248,"##44ae":12249,"##171a":12250,"##9800":12251,"##984d":12252,"##bfce":12253,"##bf45":12254,"##5726":12255,"##57b9":12256,"##c9ce":12257,"##c941":12258,"##c9b9":12259,"##1a27":12260,"##bd47":12261,"##bd8d":12262,"##bd0a":12263,"##68ab":12264,"##5488":12265,"##54c3":12266,"##8476":12267,"##8441":12268,"##84bb":12269,"##7a8c":12270,"##3082":12271,"##bb26":12272,"##cd18":12273,"##cd97":12274,"##cd89":12275,"##cdbf":12276,"##e6b3":12277,"##7d45":12278,"##9a5a":12279,"##f0ae":12280,"##bc4":12281,"##bc1e":12282,"##bc5b":12283,"##7877":12284,"##7c8e":12285,"##25ea":12286,"##8f9":12287,"##8f48":12288,"##8fc3":12289,"##7f4":12290,"##7fda":12291,"##1c73":12292,"##4e40":12293,"##4b70":12294,"##8b4a":12295,"##8b49":12296,"##8b4c":12297,"45728":12298,"##7e2c":12299,"##5bea":12300,"##5b40":12301,"##5b1a":12302,"49696":12303,"##1923":12304,"##19c3":12305,"##ee68":12306,"##1bb6":12307,"58692":12308,"##639":12309,"##7983":12310,"##798d":12311,"##2b24":12312,"##2bf6":12313,"##627":12314,"##c79a":12315,"##c59c":12316,"0x10000046b0e0399":12317,"0x10000046b0e0380":12318,"0x10000046b0e0391":12319,"0x10000046b0e0379":12320,"0x10000046b0e03ac":12321,"0x10000046b0e03a1":12322,"00000288":12323,"##c470":12324,"##c4b6":12325,"##c4ef":12326,"##b4bb":12327,"##a6c3":12328,"##df46":12329,"##59eb":12330,"##39ad":12331,"##e841":12332,"0x10000046b0e068d":12333,"##f4b6":12334,"##f4e5":12335,"##fbdc":12336,"...}]":12337,"##c84a":12338,"##c803":12339,"##522e":12340,"57354":12341,"##a1bf":12342,"##49599":12343,"60054":12344,"0000014f":12345,"39992":12346,"58900":12347,"36962":12348,"##b483":12349,"40670":12350,"42980":12351,"51610":12352,"##55072":12353,"41062":12354,"0x10000046b0e06a6":12355,"0x10000046b0e06a8":12356,"##796a":12357,"43096":12358,"##22a8f":12359,"32848":12360,"0x10000046b0e08fc":12361,"0x10000046b0e08c9":12362,"featuretransformer":12363,"map":12364,"642ms":12365,"policy":12366,"0021":12367,"2fc":12368,"2ae":12369,"3325":12370,"4825":12371,"42406":12372,"673":12373,"695":12374,"6f0":12375,"67e":12376,"651":12377,"740":12378,"749":12379,"770":12380,"74f":12381,"772":12382,"795":12383,"79a":12384,"733":12385,"875":12386,"913":12387,"bd5":12388,"fin":12389,"ff6":12390,"##61c":12391,"##803":12392,"##f02":12393,"##fbb":12394,"##ium":12395,"##hed":12396,"##esourcer":12397,"##ished":12398,"##0063":12399,"##12ec":12400,"##fa96":12401,"##fa8a":12402,"##ca7b":12403,"##5056":12404,"##293f":12405,"##2930":12406,"##4616":12407,"##46a3":12408,"##7723":12409,"##773d":12410,"##4848":12411,"##4075":12412,"##43b":12413,"##4312":12414,"##3250":12415,"##5627":12416,"##1146":12417,"##1102":12418,"##5a4":12419,"##5a2d":12420,"##9400":12421,"##5376":12422,"##8740":12423,"##87c0":12424,"##b555":12425,"##abdc":12426,"##1029":12427,"##23ab":12428,"##2304":12429,"##80de":12430,"##8083":12431,"##8095":12432,"##4dce":12433,"##4278":12434,"##8a27":12435,"##8216":12436,"##b6b6":12437,"##7349":12438,"##b8b0":12439,"##9087":12440,"##44e3":12441,"##0928":12442,"0x10000046b0e08b7":12443,"##8594":12444,"##8575":12445,"##8514":12446,"##74ce":12447,"##7453":12448,"##5896":12449,"56194":12450,"56742":12451,"##2a59":12452,"##84cb":12453,"##7d47":12454,"##7d07":12455,"##9a80":12456,"##5b4":12457,"35880":12458,"authentication":12459,"0x10000046b0e03b8":12460,"0x10000046b0e0366":12461,"0x10000046b0e037f":12462,"0x10000046b0e03a5":12463,"0x10000046b0e03a4":12464,"44994":12465,"42788":12466,"00000286":12467,"00000282":12468,"##1728":12469,"##d3bd":12470,"169035444":12471,"0x10000046b0e068a":12472,"0x10000046b0e06b8":12473,"0x10000046b0e06c1":12474,"57372":12475,"##24224":12476,"54094":12477,"##40348":12478,"53638":12479,"4125":12480,"47394":12481,"47358":12482,"58684":12483,"58360":12484,"16903692":12485,"48802":12486,"48360":12487,"44092":12488,"47070":12489,"33210":12490,"51168":12491,"44786":12492,"51042":12493,"36398":12494,"48910":12495,"50742":12496,"0x10000046b0e06a2":12497,"49172":12498,"46046":12499,"46800":12500,"_2o":12501,"67a8":12502,"1690356020":12503,"1690369547":12504,"listener":12505,"finished":12506,"##esourcereader":12507,"23a":12508,"21b":12509,"3cf":12510,"32f":12511,"64d":12512,"6b3":12513,"6af":12514,"71c":12515,"868":12516,"85d":12517,"952":12518,"970":12519,"973":12520,"_7i":12521,"_7k":12522,"b50":12523,"b20":12524,"ceb":12525,"c8a":12526,"cc3":12527,"cdd":12528,"e9":12529,"e83":12530,"f29":12531,"lchecker":12532,"sources":12533,"ws":12534,"##8526":12535,"##250":12536,"##a96":12537,"##cbd":12538,"##f70":12539,"##ration":12540,"##ml":12541,"##esh":12542,"##cc7":12543,"##cc46":12544,"##cc99":12545,"##ec16":12546,"##ec7f":12547,"##00239":12548,"##24cb":12549,"##88d7":12550,"##ebff":12551,"##186a":12552,"##refr":12553,"##ca1a":12554,"##501":12555,"##5045":12556,"##50239":12557,"##2979":12558,"##20773":12559,"##7743":12560,"##7721":12561,"##48de":12562,"##6919":12563,"##69564":12564,"##022f":12565,"##52bc":12566,"##4055":12567,"##b044":12568,"##b01c":12569,"##b04b":12570,"##4374":12571,"##1816":12572,"##9992":12573,"##fd8f":12574,"##5607":12575,"##562f":12576,"##492d":12577,"##4926":12578,"##495f":12579,"##49a5":12580,"##11da":12581,"##1190":12582,"##11cb":12583,"##9730":12584,"##1611":12585,"##16c6":12586,"##945f":12587,"##5340":12588,"##87eb":12589,"##8799":12590,"##8790":12591,"##8791":12592,"##87a6":12593,"##7041":12594,"##abb2":12595,"##abdb":12596,"##8653":12597,"##86ad":12598,"##8633":12599,"##2d26":12600,"##f3a0":12601,"##1087":12602,"##231":12603,"##2312":12604,"##b983":12605,"##b9f6":12606,"##805f":12607,"##3f83":12608,"##3ff3":12609,"##47cc":12610,"##4756":12611,"##47a2":12612,"##e0b1":12613,"##4216":12614,"##8a75":12615,"##8aad":12616,"##82da":12617,"##adb":12618,"##89da":12619,"00000396":12620,"0000017d":12621,"000003b7":12622,"##e3b9":12623,"checked":12624,"##4550":12625,"##45bf":12626,"##459a":12627,"##45948":12628,"##1348":12629,"##1393":12630,"##1367":12631,"##c075":12632,"##ef7":12633,"##b8ce":12634,"##9103":12635,"##8c6b":12636,"bac":12637,"##44c3":12638,"##1e20":12639,"##07d7":12640,"##8170":12641,"##xbundle":12642,"0x10000046b0e0695":12643,"0x10000046b0e08c8":12644,"0x10000046b0e08ee":12645,"0x10000046b0e08dc":12646,"##0b40":12647,"17d":12648,"##95eb":12649,"##95b2":12650,"##8590":12651,"##85c3":12652,"##7475":12653,"##b229":12654,"##5800":12655,"##5846":12656,"##9216":12657,"56446":12658,"56668":12659,"##1f83":12660,"##1f23":12661,"##17d1":12662,"##bf18":12663,"##5449":12664,"46724":12665,"##84eb":12666,"##8447":12667,"##7ac3":12668,"##e64":12669,"##f069":12670,"##bc22":12671,"andler":12672,"##3616":12673,"##4c2a":12674,"36238":12675,"36550":12676,"##b196":12677,"##ainst":12678,"55506":12679,"##601":12680,"##6050":12681,"##5db9":12682,"57106":12683,"57186":12684,"50116":12685,"##8bcc":12686,"##8b99":12687,"1690248526":12688,"##cf1":12689,"##6aab":12690,"59100":12691,"59870":12692,"47172":12693,"47430":12694,"58202":12695,"48998":12696,"##62ab":12697,"0x10000046b0e0388":12698,"0x10000046b0e0383":12699,"0x10000046b0e0372":12700,"0x10000046b0e039b":12701,"00000283":12702,"00000287":12703,"00000285":12704,"34688":12705,"00000388":12706,"000003b3":12707,"1690245421":12708,"1690245460":12709,"1690245422":12710,"1690245415":12711,"##5146":12712,"0x10000046b0e06b0":12713,"##f9ab":12714,"##a28d":12715,"53348":12716,"##31fe":12717,"48660":12718,"53798":12719,"59308":12720,"59704":12721,"1690245420":12722,"##48256":12723,"46918":12724,"47784":12725,"3775":12726,"##b48f":12727,"##88288":12728,"40656":12729,"45346":12730,"44312":12731,"35670":12732,"42614":12733,"42096":12734,"52810":12735,"47078":12736,"52252":12737,"equinoxbundle":12738,"000003a1":12739,"##7023":12740,"51940":12741,"46818":12742,"0000036a":12743,"16903698615":12744,"crlrefr":12745,"16902454833":12746,"16902454193":12747,"_8j":12748,"certs":12749,"1690247899":12750,"migration":12751,"against":12752,"lcheckerthread":12753,"crlrefresh":12754,"39a":12755,"39f":12756,"4e0":12757,"56d":12758,"670":12759,"691":12760,"692":12761,"65d":12762,"671":12763,"721":12764,"7a7":12765,"817":12766,"977":12767,"_77":12768,"_6a":12769,"a8b":12770,"b1a":12771,"##1920":12772,"##390":12773,"##cb6":12774,"##e56":12775,"##e2d":12776,"##f40":12777,"##ule":12778,"##ea60":12779,"1049":12780,"##8821":12781,"##eb07":12782,"##1843":12783,"##1868":12784,"##fae2":12785,"##5033":12786,"##506f":12787,"##02ca":12788,"##5269":12789,"##ce7":12790,"##4330":12791,"##4a86":12792,"##11de":12793,"##9792":12794,"##4163":12795,"##1633":12796,"##9475":12797,"##94bd":12798,"##5320":12799,"##8788":12800,"##8789":12801,"25f":12802,"##708f":12803,"##86c2":12804,"##75f6":12805,"##b9cd":12806,"##80b5":12807,"##4dd3":12808,"##9600":12809,"##9616":12810,"##47b5":12811,"##4795":12812,"##47a5":12813,"##e08c":12814,"##8d9f":12815,"0000026d":12816,"0000010e":12817,"00000111":12818,"##f62b":12819,"##454e":12820,"##455c":12821,"##1300":12822,"##1370":12823,"##1396":12824,"##7272":12825,"##7310":12826,"##734d":12827,"##9096":12828,"##9175":12829,"##e4b6":12830,"##55b0":12831,"##b396":12832,"##444d":12833,"##0780":12834,"##0943":12835,"0x10000046b0e0690":12836,"0x10000046b0e0691":12837,"0x10000046b0e069a":12838,"0x10000046b0e08d2":12839,"0x10000046b0e0919":12840,"##06da":12841,"##06d6":12842,"##9552":12843,"##9544":12844,"##tribute":12845,"##8550":12846,"##8572":12847,"##74be":12848,"43362":12849,"##c31":12850,"60992":12851,"##762f":12852,"##1785":12853,"##9848":12854,"##984b":12855,"##6648":12856,"##c9f3":12857,"##3520":12858,"##bdf6":12859,"##5442":12860,"##bcbc":12861,"##7812":12862,"##7899":12863,"##4cb9":12864,"##25b9":12865,"36152":12866,"##b1b2":12867,"4075":12868,"40538":12869,"##4bed":12870,"45998":12871,"##cf4":12872,"37502":12873,"##2800":12874,"##2840":12875,"47530":12876,"##6400":12877,"48480":12878,"0x10000046b0e03b0":12879,"0x10000046b0e039a":12880,"0x10000046b0e03b1":12881,"0x10000046b0e03a7":12882,"##7102":12883,"169036765":12884,"00000289":12885,"00000281":12886,"0000027c":12887,"00000399":12888,"00000387":12889,"00000372":12890,"0000038c":12891,"0000038e":12892,"00000392":12893,"0000039a":12894,"0000039f":12895,"##1722":12896,"##0192":12897,"34120":12898,"0x10000046b0e06aa":12899,"0x10000046b0e06c3":12900,"##37984":12901,"67ab":12902,"60372":12903,"0x10000046b0e08da":12904,"0x10000046b0e08b9":12905,"0x10000046b0e08e0":12906,"0x10000046b0e08ff":12907,"0x10000046b0e08c0":12908,"53352":12909,"53714":12910,"32964":12911,"52482":12912,"56956":12913,"56934":12914,"53014":12915,"##502528":12916,"59054":12917,"58982":12918,"35300":12919,"47714":12920,"50636":12921,"48870":12922,"38550":12923,"38598":12924,"38326":12925,"42426":12926,"49644":12927,"35558":12928,"33288":12929,"33260":12930,"34592":12931,"##bb60":12932,"50782":12933,"0x10000046b0e06a7":12934,"0x10000046b0e06ae":12935,"48284":12936,"44424":12937,"0000036c":12938,"38442":12939,"47442":12940,"16903638849":12941,"50844":12942,"##module":12943,"077":12944,"01e":12945,"033":12946,"0875":12947,"1fa":12948,"1e0":12949,"1f0":12950,"2e3":12951,"2cd":12952,"35f":12953,"3df":12954,"3e1":12955,"4ad":12956,"47d":12957,"5ed":12958,"5fa":12959,"5b2":12960,"59c":12961,"65e":12962,"6c3":12963,"722":12964,"7a3":12965,"7ae":12966,"8da":12967,"897":12968,"8ef":12969,"893":12970,"8dc":12971,"839":12972,"9dc":12973,"9f2":12974,"9d0":12975,"9ac":12976,"_8a":12977,"_6e":12978,"a9":12979,"a4a":12980,"a87":12981,"a8a":12982,"a9d":12983,"br":12984,"b00":12985,"b18":12986,"b03":12987,"be0":12988,"b6d":12989,"bc3":12990,"b2a":12991,"ch":12992,"c69":12993,"c70":12994,"c7b":12995,"cee":12996,"c6c":12997,"d88":12998,"d76":12999,"d4a":13000,"d11":13001,"d03":13002,"db2":13003,"df7":13004,"df9":13005,"eed":13006,"e2d":13007,"ef6":13008,"e7b":13009,"ed2":13010,"f4":13011,"fea":13012,"f03":13013,"f90":13014,"fb3":13015,"f1d":13016,"fe6":13017,"f65":13018,"f2c":13019,"f0f":13020,"##688":13021,"##6aa":13022,"##58c":13023,"##2de":13024,"##28d":13025,"##a4a":13026,"##c88":13027,"##c50":13028,"##c7b":13029,"##c92":13030,"##c1d":13031,"##d4d":13032,"##df0":13033,"##ef6":13034,"##e19":13035,"##e79":13036,"##f94":13037,"##f87":13038,"##f8a":13039,"##fb4":13040,"##json":13041,"##ea11":13042,"##eaff":13043,"##ea1d":13044,"##ea04":13045,"##ea8f":13046,"##ea01":13047,"##ed24":13048,"##edca":13049,"##ed8c":13050,"##ed4c":13051,"##ed9f":13052,"##ed6a":13053,"##ed3d":13054,"##ccfa":13055,"##cc56":13056,"##ccab":13057,"##cce0":13058,"##cc7f":13059,"##ccd0":13060,"##ccaf":13061,"##cca3":13062,"##ccac":13063,"##ecea":13064,"##ec93":13065,"##00ad":13066,"##de46":13067,"##de5f":13068,"##24b5":13069,"##2481":13070,"##2436":13071,"##246f":13072,"##246b":13073,"##8818":13074,"##8869":13075,"##88e0":13076,"##88b6":13077,"##88f6":13078,"##88b8":13079,"##880b":13080,"##88bc":13081,"##887e":13082,"##88d4":13083,"##daeb":13084,"##da69":13085,"##daff":13086,"##dab6":13087,"##da0b":13088,"##da6d":13089,"##da1d":13090,"##da2a":13091,"type_txt":13092,"##ebcc":13093,"##ebfa":13094,"##eb41":13095,"##eb1f":13096,"##eb2a":13097,"##eb7c":13098,"##ebc7":13099,"##eb9e":13100,"##eb6f":13101,"##18fa":13102,"##182d":13103,"##18ba":13104,"##1890":13105,"##180b":13106,"##18c6":13107,"##187c":13108,"##18b1":13109,"##1288":13110,"##12b3":13111,"##121f":13112,"##12bd":13113,"##1236":13114,"##fab6":13115,"##fa44":13116,"##fa92":13117,"##fa35":13118,"##fa6a":13119,"##fa34":13120,"##fa6b":13121,"##ca29":13122,"##cab5":13123,"##ca4f":13124,"##caff":13125,"##cab6":13126,"##ca13":13127,"##cac6":13128,"##ca1f":13129,"##caf0":13130,"##eed2":13131,"##50bd":13132,"##29ea":13133,"##29fa":13134,"##2948":13135,"##29ad":13136,"##29e5":13137,"##299c":13138,"##299d":13139,"##29f2":13140,"##29d4":13141,"##2093":13142,"##20a0":13143,"##4699":13144,"##468c":13145,"##46c1":13146,"##4667":13147,"##7781":13148,"##776d":13149,"##48fd":13150,"##48ba":13151,"##4891":13152,"##485d":13153,"##489f":13154,"##483e":13155,"##6970":13156,"##69c0":13157,"##69b8":13158,"##699b":13159,"##699c":13160,"##6962":13161,"##69a6":13162,"##69ae":13163,"##83ab":13164,"##8310":13165,"##8342":13166,"##834c":13167,"##83dd":13168,"##833b":13169,"##83a9":13170,"##8371":13171,"##83f7":13172,"##8327":13173,"##023f":13174,"##02c0":13175,"##021a":13176,"##5276":13177,"##5273":13178,"##522a":13179,"##527d":13180,"##52c7":13181,"##52d4":13182,"##ce24":13183,"##ce99":13184,"##cef7":13185,"##ce39":13186,"##ce2e":13187,"##40fa":13188,"##40ca":13189,"##40ba":13190,"##4090":13191,"##40e7":13192,"##40a7":13193,"##b076":13194,"##b0b9":13195,"##b047":13196,"##b06d":13197,"##b01a":13198,"##b07f":13199,"##4332":13200,"##43fd":13201,"##4316":13202,"##4326":13203,"##43b9":13204,"##43f6":13205,"##4395":13206,"##43dd":13207,"##43df":13208,"##43a3":13209,"##43d2":13210,"##76da":13211,"##7646":13212,"##7676":13213,"##7645":13214,"##76b3":13215,"##760b":13216,"##1814":13217,"##992e":13218,"##32ab":13219,"##322a":13220,"##3235":13221,"##323d":13222,"##fd99":13223,"##fd55":13224,"##fdcd":13225,"##fdd0":13226,"##56cc":13227,"##5677":13228,"##56ab":13229,"##56bd":13230,"##56f1":13231,"##4afd":13232,"##4a8a":13233,"##4a13":13234,"##4abc":13235,"##4a9d":13236,"##4a5d":13237,"##49eb":13238,"##49ba":13239,"##49e4":13240,"##49aa":13241,"##4935":13242,"##4963":13243,"##492f":13244,"##4922a":13245,"##1106":13246,"##11bd":13247,"##11cd":13248,"##110a":13249,"##11d1":13250,"##97b8":13251,"##979a":13252,"##41ef":13253,"##41fe":13254,"##41d6":13255,"##41b7":13256,"##4137":13257,"##41a4":13258,"##41a2":13259,"##5a18":13260,"##5afa":13261,"##5a80":13262,"##5a93":13263,"##5a55":13264,"##5abb":13265,"##5a7d":13266,"##5a3c":13267,"##03b":13268,"##035a":13269,"##034f":13270,"##03e3":13271,"##03dd":13272,"##038e99":13273,"##16ed":13274,"##1683":13275,"##1603":13276,"##16b6":13277,"##167d":13278,"##16c5":13279,"##166f":13280,"##947b":13281,"##94cd":13282,"##947d":13283,"##945c":13284,"##942f":13285,"##94d6":13286,"##53da":13287,"##53ca":13288,"##5399":13289,"##53cd":13290,"##537c":13291,"##539e":13292,"##53af":13293,"##8729":13294,"##87b5":13295,"##87e3":13296,"##879b":13297,"##879d":13298,"##87cf":13299,"##87af":13300,"##87e2":13301,"##b5ed":13302,"##b55a":13303,"##b5f3":13304,"##b5f6":13305,"##b5c5":13306,"##b5d6":13307,"##704f":13308,"##70c9":13309,"##706f":13310,"##ab83":13311,"##abf6":13312,"##ab2a":13313,"##8616":13314,"##866d":13315,"##86dd":13316,"##864b":13317,"##866a":13318,"##8664":13319,"##2d6a":13320,"##f34":13321,"##f320":13322,"##f369":13323,"##f340":13324,"##f316":13325,"##f353":13326,"##f3f6":13327,"##f37b":13328,"##f3e5":13329,"##f33a":13330,"##f34e":13331,"##f33d":13332,"##f30e":13333,"##1048":13334,"##1032":13335,"##1049":13336,"##109d":13337,"##10432":13338,"##2376":13339,"##2370":13340,"##234d":13341,"##23ad":13342,"##23c3":13343,"##234e":13344,"##23dd":13345,"##265d":13346,"##4f11":13347,"##4fba":13348,"##4f06":13349,"##4fcd":13350,"##4f5c":13351,"##4ff9":13352,"##ba20":13353,"##ba77":13354,"##baab":13355,"##ba72":13356,"##badc":13357,"##ba9b":13358,"##ba8f":13359,"##bacf":13360,"##badf":13361,"##baf5":13362,"##ba61":13363,"##755a":13364,"##754d":13365,"##75b8":13366,"##758c":13367,"##75c3":13368,"##75d8":13369,"##b9de":13370,"##b9b8":13371,"##b98c":13372,"##b955":13373,"##b9e6":13374,"##b9dd":13375,"##b93b":13376,"##b9c5":13377,"##80e0":13378,"##804c":13379,"##4dde":13380,"##4dca":13381,"##4d77":13382,"##4d23":13383,"##4db8":13384,"##4dc6":13385,"##4d17":13386,"##4d2a":13387,"##4d78":13388,"##4d36":13389,"##4d5f":13390,"##15eb":13391,"##1553":13392,"##154f":13393,"##15e3":13394,"##15c0":13395,"##1554":13396,"##158f":13397,"##9602":13398,"##9653":13399,"##4788":13400,"##4718":13401,"##47f3":13402,"##4785":13403,"##47c5":13404,"##e046":13405,"##e049":13406,"##e0b9":13407,"##e0e5":13408,"##e09c":13409,"##e05d":13410,"##e08b":13411,"##e065":13412,"##e0a3":13413,"##e0d7":13414,"##42ba":13415,"##42ef":13416,"##42aa":13417,"##42c3":13418,"##422f":13419,"##42be":13420,"##42a3":13421,"##42e2":13422,"##8aea":13423,"##8a00":13424,"##8afa":13425,"##8a48":13426,"##8a03":13427,"##8a47":13428,"##8aaa":13429,"##8a1a":13430,"##828d":13431,"##8281":13432,"##827e":13433,"##82ae":13434,"##82a7":13435,"##ff00":13436,"##ff18":13437,"##ff40":13438,"##ff49":13439,"##ffef":13440,"##ff0b":13441,"##ff2b":13442,"##8d4a":13443,"##8d97":13444,"##8d70":13445,"##8d86":13446,"##8d15":13447,"##8d54":13448,"##8dcf":13449,"##89ca":13450,"##8946":13451,"##8977":13452,"##89e4":13453,"##89bc":13454,"##89b1":13455,"##89af":13456,"##89df":13457,"##890a":13458,"##8927":13459,"##b624":13460,"##b650":13461,"##b6ff":13462,"##b65d":13463,"##b6b7":13464,"##b60a":13465,"##b60f":13466,"00000100":13467,"000003ab":13468,"00000108":13469,"00000109":13470,"00000105":13471,"00000115":13472,"00000119":13473,"##f61e":13474,"##f6bb":13475,"##f608":13476,"##f6f5":13477,"##e3bd":13478,"##e39a":13479,"##7bfa":13480,"##7b8a":13481,"##7b17":13482,"##4588":13483,"##45b3":13484,"##4558":13485,"##459f":13486,"##13da":13487,"##138e":13488,"##1368":13489,"##13bc":13490,"##1371":13491,"##conn":13492,"##7253":13493,"##72bf":13494,"##722c":13495,"##c0b":13496,"##c0ec":13497,"##c087":13498,"##c0bc":13499,"##c05c":13500,"##c0a3":13501,"##ef2c":13502,"##73ed":13503,"##73da":13504,"##7312":13505,"##7377":13506,"##73ad":13507,"##730d":13508,"##b877":13509,"##b8c6":13510,"##b854":13511,"##b8f0":13512,"##b85c":13513,"##90ec":13514,"##904f":13515,"##90a0":13516,"##93eb":13517,"##9153":13518,"##91cb":13519,"##e5ed":13520,"##e595":13521,"##e517":13522,"##e55b":13523,"##e488":13524,"##e4ca":13525,"##e453":13526,"##e4e4":13527,"##e4bf":13528,"##e4c9":13529,"##e4c8":13530,"##dc03":13531,"##8cb4":13532,"ba2":13533,"##5597":13534,"##b3de":13535,"##b375":13536,"##b30b":13537,"##b336":13538,"##b37c":13539,"##b39d":13540,"##b3cf":13541,"##b3db":13542,"##b36f":13543,"##b3a3":13544,"##4426":13545,"##444c":13546,"##1e11":13547,"##1e96":13548,"##1e81":13549,"##1e1f":13550,"##09b7":13551,"##8e24":13552,"##8e8d":13553,"##8e90":13554,"##8e8f":13555,"##fe41":13556,"##fe94":13557,"##fee5":13558,"##fe1c":13559,"##9b26":13560,"##9b80":13561,"##9bc2":13562,"##81cc":13563,"##8146":13564,"##81ab":13565,"##8190":13566,"##81b2":13567,"##817a":13568,"##819a":13569,"##814c":13570,"##819d":13571,"##81f5":13572,"##81a4":13573,"##5ecc":13574,"##5e48":13575,"##5e43":13576,"##5e99":13577,"##5e9d":13578,"##5e2f":13579,"53182":13580,"0x10000046b0e0905":13581,"0x10000046b0e0911":13582,"##0b3f":13583,"##0b1a":13584,"##0b4c":13585,"##0bdd":13586,"##0bd5":13587,"##0b4441":13588,"##c6ce":13589,"##c6aa":13590,"##c617b":13591,"##aa4a":13592,"##aa4f":13593,"##9577":13594,"##959d":13595,"##954b":13596,"##95df":13597,"##6d52":13598,"##8524":13599,"##854a":13600,"##85b6":13601,"##854e":13602,"##85d0":13603,"##85b7":13604,"##74ea":13605,"##7400":13606,"##74fd":13607,"##744d":13608,"##74b1":13609,"##74e2":13610,"##b21":13611,"##b224":13612,"##b28e":13613,"##b2c6":13614,"##b2aa":13615,"##b2cd":13616,"##b2be":13617,"##b2af":13618,"##14cc":13619,"##1418":13620,"##1452":13621,"##14b5":13622,"##14c6":13623,"4386":13624,"43008":13625,"43526":13626,"##5841":13627,"##58ba":13628,"##92ec":13629,"56854":13630,"##1f48":13631,"##1fef":13632,"##1f1d":13633,"##1f8f":13634,"##c390":13635,"##c33a":13636,"##c34e":13637,"##1dcc":13638,"##1dde":13639,"##1d7e":13640,"##1d0d":13641,"##1dd2":13642,"##1746":13643,"##179f":13644,"##1732ed":13645,"##984c":13646,"##98f4":13647,"##bf2a":13648,"##2ac6":13649,"##5796":13650,"##579f":13651,"##fa9e":13652,"##667":13653,"##664f":13654,"##c9b6":13655,"##c9c3":13656,"52268":13657,"##35f7":13658,"##1a00":13659,"##1aff":13660,"##1a59":13661,"##04b0":13662,"##04fd":13663,"##bd46":13664,"##bd90":13665,"##bdbb":13666,"##bd25":13667,"##bddf":13668,"##68ce":13669,"##54ec":13670,"##5426":13671,"##54b6":13672,"##54e6":13673,"46732":13674,"##84ec":13675,"##8443":13676,"##8499":13677,"##845a":13678,"##84b9":13679,"##7a4a":13680,
[...]
